<unk>	0
<s>	0
</s>	0
▁क	-0
या	-1
▁स	-2
▁म	-3
्या	-4
▁प	-5
▁ह	-6
▁.	-7
▁आ	-8
ार	-9
्र	-10
▁अ	-11
▁व	-12
▁त	-13
▁न	-14
▁ज	-15
▁द	-16
▁ब	-17
▁,	-18
ला	-19
▁के	-20
र्	-21
▁र	-22
ने	-23
ले	-24
ता	-25
ें	-26
्य	-27
▁है	-28
ना	-29
▁।	-30
▁ग	-31
▁कर	-32
ां	-33
ात	-34
िक	-35
ही	-36
▁का	-37
▁श	-38
▁उ	-39
▁भ	-40
▁प्र	-41
▁में	-42
▁ल	-43
▁हो	-44
हे	-45
ती	-46
वा	-47
▁या	-48
क्	-49
स्	-50
ली	-51
ों	-52
▁की	-53
च्या	-54
▁को	-55
▁च	-56
ान	-57
▁इ	-58
▁ए	-59
ून	-60
▁आहे	-61
▁य	-62
▁कि	-63
▁से	-64
ते	-65
ित	-66
▁पर	-67
ल्या	-68
नी	-69
▁अस	-70
्ह	-71
चा	-72
▁त्या	-73
▁वि	-74
ाव	-75
▁औ	-76
ची	-77
चे	-78
▁ख	-79
ाज	-80
री	-81
▁और	-82
सा	-83
▁दि	-84
▁फ	-85
▁स्	-86
ंत	-87
▁एक	-88
ण्या	-89
▁घ	-90
▁सा	-91
▁जा	-92
त्	-93
▁-	-94
▁सं	-95
▁दे	-96
▁वा	-97
▁ने	-98
रा	-99
क्ष	-100
से	-101
हा	-102
▁नि	-103
▁ना	-104
का	-105
▁मा	-106
ंग	-107
▁पा	-108
ंद	-109
मा	-110
▁थ	-111
वर	-112
▁आण	-113
्ट	-114
ुर	-115
कार	-116
▁मु	-117
▁हैं	-118
के	-119
कर	-120
▁इस	-121
ड़	-122
▁आप	-123
▁ट	-124
ल्	-125
▁लि	-126
▁आणि	-127
▁सम	-128
्री	-129
ति	-130
▁झ	-131
ेत	-132
▁ड	-133
▁ला	-134
ठी	-135
हि	-136
▁भी	-137
पा	-138
ेश	-139
ध्य	-140
न्	-141
ारी	-142
की	-143
▁ही	-144
ोग	-145
▁बा	-146
वि	-147
णा	-148
▁रा	-149
▁मि	-150
गा	-151
▁अप	-152
ील	-153
िय	-154
▁कार	-155
▁तो	-156
▁झा	-157
द्	-158
दा	-159
हीं	-160
▁यां	-161
दी	-162
िस	-163
मी	-164
▁ध	-165
िया	-166
ष्ट	-167
णी	-168
▁सु	-169
▁ये	-170
साठी	-171
▁)	-172
▁1	-173
▁तर	-174
▁ते	-175
सी	-176
ंड	-177
वी	-178
▁ले	-179
रे	-180
▁हा	-181
स्त	-182
▁पु	-183
▁(	-184
▁उन	-185
▁लिए	-186
▁कु	-187
ळे	-188
ारा	-189
▁म्ह	-190
्रा	-191
▁राज	-192
▁नहीं	-193
▁त्यां	-194
श्	-195
मु	-196
▁नाही	-197
कि	-198
▁2	-199
शी	-200
णे	-201
▁हे	-202
ार्	-203
िका	-204
्यां	-205
▁मो	-206
वे	-207
स्थ	-208
ध्ये	-209
टी	-210
बा	-211
णार	-212
▁दो	-213
ाय	-214
▁ठ	-215
▁हु	-216
ोल	-217
शा	-218
▁यह	-219
ूर्	-220
▁अन	-221
ांग	-222
ोज	-223
डे	-224
म्	-225
▁'	-226
भा	-227
▁वे	-228
ण्यात	-229
िर	-230
ळी	-231
धी	-232
्हा	-233
्ष	-234
▁जि	-235
▁वर्	-236
तात	-237
्रे	-238
गी	-239
▁था	-240
▁सर	-241
ोक	-242
ूर	-243
ंब	-244
▁जो	-245
▁म्हण	-246
डी	-247
▁सि	-248
धिक	-249
▁भार	-250
▁उप	-251
▁चा	-252
▁आहेत	-253
च्	-254
ेल	-255
▁मह	-256
मध्ये	-257
▁छ	-258
गर	-259
▁होते	-260
िव	-261
▁किया	-262
▁उस	-263
▁सो	-264
तील	-265
▁दु	-266
▁सर्	-267
स्ट	-268
रो	-269
▁तु	-270
मुळे	-271
▁मे	-272
तो	-273
जी	-274
ये	-275
▁‘	-276
▁भा	-277
त्र	-278
▁पह	-279
▁हम	-280
तर	-281
लेल्या	-282
जे	-283
▁शा	-284
ळा	-285
प्	-286
▁व्य	-287
द्ध	-288
▁जात	-289
▁करने	-290
▁साथ	-291
खा	-292
देश	-293
▁होता	-294
मान	-295
▁आज	-296
▁?	-297
▁सुर	-298
चार	-299
▁गया	-300
क्र	-301
▁ती	-302
ंतर	-303
▁जी	-304
▁काम	-305
लं	-306
▁मी	-307
क्त	-308
▁उत्	-309
ेट	-310
र्थ	-311
▁मै	-312
▁निर्	-313
▁लाग	-314
भी	-315
▁सरकार	-316
पी	-317
▁सक	-318
जा	-319
▁काही	-320
▁गु	-321
वार	-322
▁१	-323
टर	-324
▁अधिक	-325
▁सर्व	-326
को	-327
▁स्थ	-328
ियों	-329
▁होती	-330
प्र	-331
गे	-332
▁"	-333
मे	-334
्यात	-335
▁यांनी	-336
▁अपने	-337
ब्	-338
▁ऐ	-339
▁स्व	-340
▁हि	-341
ूप	-342
▁असे	-343
▁रु	-344
▁वर्ष	-345
▁पण	-346
ंध	-347
टा	-348
ढ़	-349
ोर	-350
हर	-351
▁20	-352
▁कहा	-353
ष्	-354
▁कार्य	-355
िल	-356
बर	-357
कां	-358
त्य	-359
▁सी	-360
द्या	-361
हु	-362
दार	-363
ारे	-364
▁ता	-365
▁ओ	-366
ंप	-367
▁बाद	-368
क्षा	-369
▁उन्ह	-370
▁केले	-371
शन	-372
in	-373
▁गो	-374
▁दा	-375
▁लोग	-376
▁!	-377
▁खा	-378
▁रहे	-379
▁आय	-380
लि	-381
नि	-382
ेव	-383
▁ति	-384
▁ऑ	-385
▁लोक	-386
त्या	-387
सार	-388
▁देश	-389
ात्र	-390
▁केली	-391
ातील	-392
र्म	-393
▁बी	-394
▁थी	-395
▁तक	-396
पास	-397
▁चु	-398
▁अनु	-399
▁गे	-400
पर	-401
▁वह	-402
ानी	-403
्व	-404
▁२	-405
▁घे	-406
टे	-407
ण्यासाठी	-408
▁बि	-409
ओं	-410
ंत्री	-411
▁दिया	-412
ंक	-413
▁प्रति	-414
र्य	-415
▁महि	-416
▁प्रा	-417
▁आपल्या	-418
▁रहा	-419
िक्ष	-420
ावर	-421
▁मान	-422
▁पो	-423
चं	-424
ंत्र	-425
▁असल्या	-426
▁:	-427
▁पू	-428
▁अभ	-429
डा	-430
ुन	-431
▁क्ष	-432
नों	-433
▁दी	-434
▁सह	-435
ऱ्या	-436
थे	-437
में	-438
▁शक	-439
▁आम	-440
धान	-441
▁सांग	-442
▁3	-443
▁बना	-444
्ञ	-445
▁पी	-446
कडे	-447
िंग	-448
ताना	-449
▁बे	-450
▁काय	-451
▁आले	-452
▁कुछ	-453
ुक	-454
▁परि	-455
ांनी	-456
▁साम	-457
▁बात	-458
ांना	-459
▁जिस	-460
ौर	-461
▁हुए	-462
लो	-463
▁करण्यात	-464
ऊन	-465
च्छ	-466
▁देख	-467
▁पूर्	-468
ंच	-469
द्र	-470
▁थे	-471
▁मुख	-472
किन	-473
▁घेत	-474
▁s	-475
▁दिव	-476
सर	-477
▁झाले	-478
▁रह	-479
ूल	-480
▁बहु	-481
ित्र	-482
▁इन	-483
▁बै	-484
▁a	-485
▁लग	-486
▁केला	-487
ठा	-488
माण	-489
▁शि	-490
वड	-491
▁सब	-492
▁लेकिन	-493
▁नव	-494
▁रही	-495
▁आता	-496
▁पि	-497
धार	-498
▁मैं	-499
था	-500
बी	-501
▁करते	-502
▁जब	-503
▁गा	-504
▁करून	-505
▁यांच्या	-506
▁घर	-507
स्ता	-508
▁रुप	-509
▁दर	-510
ैसे	-511
िन	-512
नंतर	-513
ड़ी	-514
पूर्	-515
▁म्हणून	-516
ष्ट्र	-517
▁मिळ	-518
▁201	-519
▁तुम	-520
दे	-521
▁कम	-522
▁भारत	-523
▁बता	-524
▁माझ	-525
▁होत	-526
ड़ा	-527
ोट	-528
ण्याची	-529
मार	-530
▁महा	-531
धा	-532
▁कोई	-533
्स	-534
▁/	-535
डून	-536
▁c	-537
▁मन	-538
▁गई	-539
re	-540
▁कह	-541
▁टी	-542
▁डॉ	-543
ुरु	-544
▁अब	-545
दल	-546
▁अव	-547
▁एका	-548
्रेस	-549
▁तरी	-550
▁अपनी	-551
▁अने	-552
▁कारण	-553
▁त्यामुळे	-554
▁किसी	-555
ंचा	-556
शि	-557
▁मुख्य	-558
▁वाट	-559
ोंने	-560
▁खु	-561
▁रि	-562
▁होने	-563
तीय	-564
▁राज्य	-565
ूस	-566
▁पार	-567
▁श्री	-568
▁मात्र	-569
ांत	-570
वास	-571
▁त्यांच्या	-572
▁बन	-573
मंत्री	-574
योग	-575
▁p	-576
▁विचार	-577
▁शिक्ष	-578
दर्	-579
शे	-580
▁भर	-581
ईल	-582
बत	-583
स्था	-584
▁जन	-585
▁मार्	-586
दि	-587
▁पहले	-588
यी	-589
्ल	-590
ांच्या	-591
जन	-592
िती	-593
पे	-594
▁बु	-595
▁हर	-596
▁फिर	-597
र्ट	-598
▁यु	-599
पासून	-600
▁असा	-601
▁त्यांनी	-602
▁क्र	-603
▁5	-604
▁बार	-605
▁m	-606
▁कॉ	-607
▁रूप	-608
▁बस	-609
▁फि	-610
बंध	-611
▁ज्या	-612
▁जाता	-613
▁अनेक	-614
▁शे	-615
▁उन्होंने	-616
्रीय	-617
ज्ञ	-618
▁किं	-619
▁वाढ	-620
ड़े	-621
▁घट	-622
▁वाले	-623
▁जाए	-624
▁झाली	-625
▁हज	-626
▁म्हणजे	-627
▁असून	-628
▁जान	-629
क्स	-630
▁भाज	-631
ंद्र	-632
er	-633
मध	-634
▁4	-635
ल्ली	-636
▁क्षेत	-637
वळ	-638
द्य	-639
▁अशी	-640
वन	-641
कृ	-642
गत	-643
▁t	-644
लां	-645
▁जिल	-646
्यू	-647
▁जु	-648
▁टा	-649
on	-650
▁लगा	-651
म्ही	-652
▁स्ट	-653
▁भाग	-654
ध्यक्ष	-655
न्न	-656
▁पोल	-657
र्यंत	-658
▁मला	-659
▁व्या	-660
▁कंप	-661
्त	-662
▁करा	-663
▁मौ	-664
▁लोगों	-665
ंह	-666
▁तरह	-667
▁बहुत	-668
ावे	-669
्टी	-670
▁स्प	-671
▁माहि	-672
▁रो	-673
▁जर	-674
an	-675
▁व्यव	-676
▁समय	-677
ल्प	-678
▁नाम	-679
▁रे	-680
र्ज	-681
▁करता	-682
लय	-683
▁दोन	-684
वाद	-685
▁विक	-686
▁निय	-687
ूम	-688
▁माहिती	-689
▁इसके	-690
▁अग	-691
ोध	-692
▁झाला	-693
▁सुरू	-694
र्स	-695
▁दिन	-696
वारी	-697
पुर	-698
▁आली	-699
▁ग्रा	-700
ंगा	-701
▁प्रकार	-702
ंट	-703
दर	-704
▁गए	-705
▁आर	-706
▁सू	-707
▁भारतीय	-708
▁पड	-709
ण्याचा	-710
क्ति	-711
त्व	-712
▁h	-713
लया	-714
▁बाज	-715
▁एव	-716
▁तसे	-717
▁मिल	-718
ar	-719
पूर	-720
ज़	-721
ेक	-722
▁पोलिस	-723
▁विश्	-724
at	-725
▁तीन	-726
00	-727
▁रख	-728
▁आव	-729
▁आई	-730
ूक	-731
▁क्षेत्र	-732
भाग	-733
▁चौ	-734
▁दिवस	-735
ावी	-736
च्च	-737
प्त	-738
घा	-739
क्रम	-740
▁समाज	-741
▁येत	-742
▁चाल	-743
▁पै	-744
▁नस	-745
ल्म	-746
▁जग	-747
▁दिस	-748
▁लक्ष	-749
▁किंवा	-750
जर	-751
▁हुआ	-752
सं	-753
▁विद्या	-754
▁b	-755
▁त्यांना	-756
नात	-757
क्ट	-758
कर्	-759
ांची	-760
▁बो	-761
▁हजार	-762
सि	-763
▁आपण	-764
वर्	-765
▁साल	-766
ंबई	-767
▁सकते	-768
तः	-769
▁अशा	-770
ध्या	-771
▁शु	-772
▁पास	-773
लिस	-774
▁आला	-775
दान	-776
दन	-777
▁राह	-778
▁गां	-779
▁कई	-780
▁दिल्ली	-781
▁घा	-782
▁प्रे	-783
▁प्रत्य	-784
▁मुंबई	-785
▁बढ़	-786
▁करें	-787
▁वै	-788
टक	-789
ग्	-790
▁क्या	-791
एस	-792
▁उनके	-793
▁न्या	-794
▁बंद	-795
▁महिला	-796
▁पुर	-797
▁दाख	-798
▁योग	-799
▁जाने	-800
▁डा	-801
ख्या	-802
हन	-803
ंज	-804
्यों	-805
▁कमी	-806
▁करना	-807
ोन	-808
▁पे	-809
▁जे	-810
▁पद	-811
▁कृ	-812
▁लाख	-813
▁द्व	-814
▁ई	-815
णाऱ्या	-816
खी	-817
▁माग	-818
▁जाते	-819
हार	-820
▁डि	-821
यार	-822
▁सभी	-823
▁वर	-824
▁n	-825
▁सकता	-826
▁अर्थ	-827
▁पुढ	-828
पर्यंत	-829
फी	-830
श्य	-831
▁द्वारा	-832
▁पुलिस	-833
श्च	-834
▁नी	-835
▁बोल	-836
व्हा	-837
▁ची	-838
▁शहर	-839
्यांना	-840
पाल	-841
खे	-842
▁खे	-843
क्ती	-844
▁आरो	-845
▁कै	-846
मि	-847
▁फिल्म	-848
▁मत	-849
तिक	-850
▁तसेच	-851
ंना	-852
▁ठेव	-853
▁काढ	-854
ाती	-855
▁आपको	-856
वून	-857
▁वो	-858
वान	-859
▁शेत	-860
▁वी	-861
भाव	-862
▁चार	-863
▁सिंह	-864
▁कोण	-865
▁रोज	-866
्यान	-867
ोष	-868
यला	-869
▁हुई	-870
कों	-871
▁निवड	-872
हित	-873
▁झाल्या	-874
▁चि	-875
▁करत	-876
लों	-877
▁योज	-878
▁विका	-879
▁ठर	-880
▁इत	-881
ुल	-882
▁d	-883
ुरू	-884
▁चित्र	-885
कारी	-886
ळ्या	-887
▁लेकर	-888
्म	-889
▁मरा	-890
लेले	-891
नाव	-892
▁पत्र	-893
▁उन्हें	-894
▁२०	-895
▁खि	-896
ष्ठ	-897
▁छो	-898
▁दिली	-899
करण	-900
ातून	-901
चना	-902
कडून	-903
त्ता	-904
यर	-905
▁मध्ये	-906
▁संघ	-907
▁होगा	-908
▁३	-909
सान	-910
▁प्रश्	-911
▁चल	-912
▁6	-913
es	-914
en	-915
पट	-916
▁त्यात	-917
ंची	-918
िम	-919
ूत	-920
वाई	-921
▁शिव	-922
▁म्हणा	-923
▁;	-924
हत	-925
्यांनी	-926
▁तथा	-927
▁मोदी	-928
▁प्रदेश	-929
▁“	-930
सन	-931
रिक	-932
▁केल्या	-933
al	-934
▁पहु	-935
शेष	-936
▁सांगित	-937
▁अन्य	-938
ैन	-939
▁स्वा	-940
ष्टी	-941
भर	-942
▁मद	-943
वेळी	-944
▁मार	-945
▁सबसे	-946
ष्ट्रीय	-947
▁उसके	-948
▁इं	-949
▁यात	-950
▁माम	-951
ाजी	-952
▁येथे	-953
यक	-954
त्म	-955
▁रंग	-956
इन	-957
▁भाष	-958
रण	-959
▁वापर	-960
ांड	-961
▁मिळा	-962
ांचा	-963
▁अध्यक्ष	-964
▁चाहि	-965
▁राष्ट्र	-966
▁विष	-967
झे	-968
मुख	-969
▁उसे	-970
ार्थ	-971
लग	-972
ेशन	-973
or	-974
पूर्ण	-975
▁दर्	-976
पु	-977
▁असते	-978
ूं	-979
ेंद्र	-980
ंगे	-981
ीत	-982
▁महारा	-983
▁सग	-984
वाल	-985
ठे	-986
▁विशेष	-987
मत	-988
र्चा	-989
▁पुन	-990
भव	-991
▁त्याला	-992
▁–	-993
▁19	-994
▁क्यों	-995
▁अगर	-996
▁विरो	-997
▁असेल	-998
▁संबंध	-999
▁अच्छ	-1000
▁निर्माण	-1001
▁येथ	-1002
▁पूर्ण	-1003
ण्याचे	-1004
▁माझ्या	-1005
लेली	-1006
▁चे	-1007
▁कंपनी	-1008
एम	-1009
▁विकास	-1010
▁एवं	-1011
▁उत्तर	-1012
▁भाव	-1013
पो	-1014
ब्द	-1015
▁f	-1016
▁एस	-1017
▁ऊ	-1018
▁बताया	-1019
▁रुपये	-1020
णारे	-1021
िट	-1022
तं	-1023
विध	-1024
ध्यम	-1025
▁ट्र	-1026
..	-1027
▁दूस	-1028
्यातील	-1029
▁आठ	-1030
ाप	-1031
▁अंत	-1032
लक	-1033
▁चाहिए	-1034
▁सुरु	-1035
ाते	-1036
▁जाती	-1037
▁अज	-1038
क्षण	-1039
लेला	-1040
काश	-1041
▁घटना	-1042
ांचे	-1043
नु	-1044
▁राम	-1045
मित	-1046
ंदी	-1047
▁त्याच्या	-1048
एं	-1049
▁7	-1050
▁10	-1051
र्ड	-1052
▁पहि	-1053
▁बां	-1054
▁बदल	-1055
ोड	-1056
▁स्थान	-1057
करी	-1058
▁निर्ण	-1059
▁लिया	-1060
▁असलेल्या	-1061
▁व्ह	-1062
▁काळ	-1063
वाय	-1064
▁प्रय	-1065
▁संप	-1066
▁गर	-1067
▁मग	-1068
▁पाठ	-1069
▁फे	-1070
्ड	-1071
बाबत	-1072
▁लेख	-1073
▁असं	-1074
ांच	-1075
सह	-1076
क्टर	-1077
▁दौर	-1078
कीय	-1079
िवार	-1080
▁in	-1081
स्प	-1082
▁चांग	-1083
सम	-1084
▁पक्ष	-1085
रील	-1086
र्फ	-1087
▁ब्र	-1088
त्वा	-1089
▁केंद्र	-1090
▁ग्र	-1091
ग्र	-1092
्यावर	-1093
ic	-1094
श्यक	-1095
▁उनकी	-1096
त्न	-1097
▁ऑफ	-1098
वादी	-1099
▁जीवन	-1100
▁मंद	-1101
ुक्त	-1102
it	-1103
▁दिला	-1104
▁सद	-1105
ब्ध	-1106
▁अपना	-1107
▁येथील	-1108
▁बैठ	-1109
▁सां	-1110
▁’	-1111
▁वाली	-1112
▁दोनों	-1113
ंबर	-1114
▁ऐसे	-1115
▁उपल	-1116
गार	-1117
▁आम्ही	-1118
▁स्वतः	-1119
▁पाणी	-1120
▁न्याया	-1121
ंच्या	-1122
▁अमे	-1123
▁वेग	-1124
▁पाहि	-1125
▁8	-1126
गाव	-1127
▁कराय	-1128
▁रात	-1129
स्थित	-1130
▁कर्म	-1131
स्ते	-1132
णु	-1133
▁नवी	-1134
▁बीच	-1135
▁गण	-1136
▁उपलब्ध	-1137
▁प्रश्न	-1138
▁नगर	-1139
हो	-1140
▁उत्पा	-1141
ल्याने	-1142
▁योजना	-1143
▁गाव	-1144
▁ढ	-1145
▁शुरू	-1146
▁चाह	-1147
▁प्रमाण	-1148
ोप	-1149
ंस	-1150
▁खिला	-1151
▁ठा	-1152
व्य	-1153
▁पाट	-1154
न्स	-1155
▁पाह	-1156
▁खास	-1157
▁मुझे	-1158
वत	-1159
▁शाम	-1160
ूट	-1161
▁अध	-1162
ंदर	-1163
▁आवश्यक	-1164
र्च	-1165
▁सात	-1166
जय	-1167
▁इंड	-1168
▁शब्द	-1169
▁देव	-1170
▁घेऊन	-1171
▁विभाग	-1172
▁परी	-1173
▁ऐसा	-1174
▁पूर्व	-1175
▁आयोज	-1176
त्री	-1177
ंनी	-1178
▁जैसे	-1179
▁मृ	-1180
▁दूर	-1181
▁कार्यक्रम	-1182
▁w	-1183
बाद	-1184
्ला	-1185
▁महाराष्ट्र	-1186
▁ली	-1187
...	-1188
▁इतर	-1189
▁गेल्या	-1190
▁मुख्यमंत्री	-1191
▁l	-1192
▁आरोप	-1193
▁बारे	-1194
▁ज्यादा	-1195
▁बॉ	-1196
▁नव्ह	-1197
फा	-1198
▁माल	-1199
▁स्क	-1200
is	-1201
▁अधिकारी	-1202
▁पार्टी	-1203
▁विद्यार्थ	-1204
▁जिन	-1205
▁माध्यम	-1206
▁५	-1207
▁प्रयत्न	-1208
▁तेव्हा	-1209
व्ह	-1210
त्त	-1211
स्तान	-1212
▁जिल्हा	-1213
▁सांगितले	-1214
▁टे	-1215
ंतु	-1216
▁मार्ग	-1217
▁टीम	-1218
पणे	-1219
▁अति	-1220
▁असल्याचे	-1221
्यांच्या	-1222
di	-1223
▁यांना	-1224
▁फै	-1225
▁भूम	-1226
▁होणार	-1227
षी	-1228
▁कर्	-1229
मो	-1230
ूद	-1231
▁प्रत्येक	-1232
सभा	-1233
द्दल	-1234
ंदा	-1235
▁तयार	-1236
▁दुस	-1237
▁मध	-1238
▁विश्व	-1239
मधील	-1240
इट	-1241
▁9	-1242
यों	-1243
▁विविध	-1244
सु	-1245
▁करण्यासाठी	-1246
▁दौरान	-1247
▁४	-1248
्यता	-1249
▁आधार	-1250
▁g	-1251
▁तै	-1252
▁कांग	-1253
निया	-1254
यत	-1255
▁डी	-1256
भार	-1257
रोबर	-1258
▁प्रव	-1259
▁अधिकार	-1260
▁निर्णय	-1261
▁वृ	-1262
िता	-1263
▁व्यक्ति	-1264
▁ओर	-1265
ण्यास	-1266
ंचे	-1267
ल्ला	-1268
om	-1269
▁ह्या	-1270
हेर	-1271
साय	-1272
बल	-1273
▁समझ	-1274
▁मंत्री	-1275
▁अभि	-1276
▁बाजार	-1277
▁कधी	-1278
णारा	-1279
▁मोठ	-1280
नं	-1281
▁बद	-1282
▁स्थित	-1283
▁यहां	-1284
डिया	-1285
▁सहा	-1286
▁समा	-1287
सना	-1288
सो	-1289
▁भाजप	-1290
▁याद	-1291
▁बांध	-1292
िके	-1293
ियो	-1294
▁फा	-1295
▁असताना	-1296
▁दिले	-1297
वल	-1298
कु	-1299
▁नाहीत	-1300
▁सेवा	-1301
द्धा	-1302
▁घड	-1303
्हाला	-1304
▁निक	-1305
▁खूप	-1306
▁पाल	-1307
▁होतो	-1308
स्य	-1309
न्या	-1310
तीने	-1311
ष्य	-1312
▁चुनाव	-1313
▁पढ़	-1314
▁ठिका	-1315
▁वेळ	-1316
▁देने	-1317
▁कभी	-1318
▁मज	-1319
▁चर्चा	-1320
अर	-1321
▁घ्या	-1322
▁कांग्रेस	-1323
▁विरोध	-1324
क्क	-1325
▁आपके	-1326
▁जिल्ह	-1327
णं	-1328
▁आन	-1329
▁वाच	-1330
▁लाभ	-1331
▁मराठी	-1332
▁मंड	-1333
le	-1334
▁अलग	-1335
▁प्राप्त	-1336
▁जन्	-1337
दर्श	-1338
णारी	-1339
▁कौ	-1340
मिक	-1341
तु	-1342
▁k	-1343
रु	-1344
र्क	-1345
▁अम	-1346
चित	-1347
ँग	-1348
▁पट	-1349
स्या	-1350
▁आदि	-1351
नाथ	-1352
▁साध	-1353
▁पत्	-1354
▁सच	-1355
▁अह	-1356
ण्याच्या	-1357
▁शरी	-1358
▁पं	-1359
▁लड़	-1360
▁पाकि	-1361
सिक	-1362
▁%	-1363
▁येणार	-1364
माणे	-1365
▁भे	-1366
यं	-1367
स्ती	-1368
हरा	-1369
ियां	-1370
▁समज	-1371
▁इसे	-1372
न्द	-1373
▁माण	-1374
▁करू	-1375
▁जास्त	-1376
▁टाक	-1377
▁नागर	-1378
▁पाव	-1379
▁थो	-1380
माल	-1381
▁फु	-1382
▁12	-1383
लत	-1384
▁असतात	-1385
▁सम्	-1386
▁दृ	-1387
काळी	-1388
▁राष्ट्रीय	-1389
▁ताल	-1390
▁कुमार	-1391
▁तब	-1392
मन	-1393
▁कार्या	-1394
▁मेरे	-1395
ताओं	-1396
र्ग	-1397
मेंट	-1398
ad	-1399
▁आवा	-1400
▁पाटील	-1401
▁कला	-1402
ल्ड	-1403
िए	-1404
▁प्रधान	-1405
▁आयु	-1406
▁परंतु	-1407
▁बघ	-1408
ाने	-1409
▁व्यक्ती	-1410
▁तुम्ही	-1411
▁धर्म	-1412
▁करणे	-1413
▁मंदिर	-1414
▁काफी	-1415
ियन	-1416
ंदोल	-1417
▁इससे	-1418
▁प्रमुख	-1419
▁लाव	-1420
as	-1421
▁करो	-1422
▁नाव	-1423
बद्दल	-1424
▁व्यक्त	-1425
भे	-1426
लिए	-1427
दारी	-1428
▁प्रशा	-1429
▁हमारे	-1430
स्कार	-1431
▁एम	-1432
म्यान	-1433
षण	-1434
▁ज़	-1435
▁भाजपा	-1436
▁15	-1437
तन	-1438
नुसार	-1439
बे	-1440
▁विधान	-1441
पूर्वी	-1442
वात	-1443
▁पुढे	-1444
▁आंदोल	-1445
▁१९	-1446
▁डे	-1447
▁झालेल्या	-1448
▁गर्	-1449
▁जानकारी	-1450
तम	-1451
▁सौ	-1452
▁मामले	-1453
▁व्याप	-1454
▁उपयोग	-1455
▁दू	-1456
▁पुन्हा	-1457
ज्ञान	-1458
▁गांधी	-1459
▁कप	-1460
▁फाय	-1461
तिहा	-1462
▁क्योंकि	-1463
शल	-1464
स्त्र	-1465
▁”	-1466
▁असल्याने	-1467
▁द्या	-1468
▁सामने	-1469
फ़	-1470
▁घोष	-1471
▁शिक	-1472
वक	-1473
दम	-1474
स्कृ	-1475
▁व्यवस्था	-1476
▁2018	-1477
▁खो	-1478
▁भारता	-1479
▁गिर	-1480
▁असतो	-1481
▁नागरिक	-1482
▁आल्या	-1483
▁पाच	-1484
▁गुरु	-1485
▁उपस्थित	-1486
▁निका	-1487
द्योग	-1488
▁नर	-1489
ेंगे	-1490
आई	-1491
▁पुस्त	-1492
▁मना	-1493
▁आर्थ	-1494
स्थान	-1495
▁पड़	-1496
त्ती	-1497
▁r	-1498
▁सध्या	-1499
▁म्हणाले	-1500
▁re	-1501
▁करे	-1502
्यु	-1503
श्र	-1504
▁प्रकाश	-1505
▁इसी	-1506
ेंट	-1507
ion	-1508
हाँ	-1509
▁श्र	-1510
हान	-1511
ूँ	-1512
▁उपा	-1513
▁मंग	-1514
▁पिछ	-1515
कांना	-1516
▁आर्थिक	-1517
▁कोटी	-1518
▁२०१	-1519
▁संग	-1520
राम	-1521
▁फार	-1522
▁नई	-1523
▁अंग	-1524
▁o	-1525
ॉल	-1526
▁फ़	-1527
▁जै	-1528
▁उसकी	-1529
▁अड	-1530
▁मध्य	-1531
▁देण्यात	-1532
क्के	-1533
ल्ले	-1534
ांमध्ये	-1535
▁पानी	-1536
▁सकती	-1537
पन	-1538
▁शोध	-1539
्यास	-1540
▁मागणी	-1541
प्रमाणे	-1542
▁होतं	-1543
लाव	-1544
▁लो	-1545
इल	-1546
▁उच्च	-1547
▁समस्या	-1548
▁उद्	-1549
िरी	-1550
▁परिष	-1551
कल्प	-1552
▁वाज	-1553
▁यावेळी	-1554
▁ब्ल	-1555
▁लगे	-1556
▁धन	-1557
▁शामिल	-1558
▁ज्ञ	-1559
▁इसलिए	-1560
▁स्पर्	-1561
▁होईल	-1562
▁0	-1563
▁दाखल	-1564
वाह	-1565
र्मा	-1566
िसर	-1567
००	-1568
▁यू	-1569
▁मीडिया	-1570
▁होगी	-1571
▁फक्त	-1572
▁जारी	-1573
▁पूरी	-1574
▁च्या	-1575
ing	-1576
▁एन	-1577
▁महत्	-1578
र्ष	-1579
्याने	-1580
▁जह	-1581
▁त्याचा	-1582
तून	-1583
▁लाल	-1584
▁गेले	-1585
▁>	-1586
दर्शन	-1587
▁नो	-1588
▁गोष्टी	-1589
्याच्या	-1590
खर	-1591
्यांची	-1592
▁पुणे	-1593
कड	-1594
▁जाएगा	-1595
▁हाथ	-1596
वासी	-1597
▁आगे	-1598
▁डो	-1599
▁फोन	-1600
▁अभी	-1601
▁ग्राम	-1602
णूक	-1603
▁जन्म	-1604
▁आने	-1605
पेक्षा	-1606
ताब	-1607
▁अं	-1608
▁अश	-1609
स्थिती	-1610
▁बच्च	-1611
▁आदेश	-1612
▁नवीन	-1613
▁त्यानंतर	-1614
▁खरे	-1615
▁आया	-1616
स्वी	-1617
▁समिती	-1618
▁नुक	-1619
▁त्याने	-1620
ढा	-1621
▁संख्या	-1622
▁किए	-1623
नला	-1624
▁मुला	-1625
ृह	-1626
▁परिवार	-1627
▁राहि	-1628
▁ne	-1629
डि	-1630
ou	-1631
पोर्ट	-1632
▁परिणा	-1633
▁मोठ्या	-1634
▁मैंने	-1635
▁जल	-1636
▁खिलाफ	-1637
▁स्थाप	-1638
वले	-1639
▁घाल	-1640
ैर	-1641
▁काँग	-1642
▁बड़ी	-1643
▁]	-1644
धे	-1645
▁दुर्	-1646
▁याच	-1647
ांब	-1648
▁प्रेम	-1649
▁पाकिस्तान	-1650
▁स्पष्ट	-1651
▁अनुसार	-1652
▁गाय	-1653
▁चला	-1654
▁यदि	-1655
पती	-1656
▁एखा	-1657
यन	-1658
▁हिंद	-1659
▁ठिकाणी	-1660
▁इंग	-1661
▁e	-1662
▁ट्रे	-1663
▁काँग्रेस	-1664
▁यश	-1665
क्षित	-1666
▁कॅ	-1667
▁आपल्याला	-1668
▁करी	-1669
आर	-1670
न्द्र	-1671
▁स्वर	-1672
टन	-1673
▁उनका	-1674
▁घेतला	-1675
▁प्रो	-1676
▁केवळ	-1677
▁भेट	-1678
▁साहित	-1679
▁सामान	-1680
▁प्रश	-1681
▁किती	-1682
म्प	-1683
न्ही	-1684
क्षक	-1685
ाराज	-1686
▁शरीर	-1687
ायला	-1688
▁धर	-1689
▁कल	-1690
▁विभा	-1691
▁[	-1692
चान	-1693
▁आत्म	-1694
▁वाला	-1695
▁आस	-1696
▁मू	-1697
▁बर	-1698
▁पेट	-1699
▁जवळ	-1700
िश	-1701
▁बाहेर	-1702
▁गं	-1703
▁कार्यकर्	-1704
▁वहीं	-1705
▁संत	-1706
▁पैसे	-1707
वरून	-1708
▁सफ	-1709
▁11	-1710
▁200	-1711
▁करोड़	-1712
ाजिक	-1713
▁मिले	-1714
▁गुण	-1715
ल्स	-1716
▁कळ	-1717
▁पता	-1718
तरी	-1719
▁खान	-1720
▁भग	-1721
ंगी	-1722
▁मुद्	-1723
लब	-1724
चर	-1725
▁इसका	-1726
▁दुनिया	-1727
▁बनाने	-1728
▁जीव	-1729
लावा	-1730
भू	-1731
▁मिला	-1732
▁वन	-1733
▁नेत	-1734
▁प्रवेश	-1735
▁हॉ	-1736
▁मेरी	-1737
▁वज	-1738
▁पत्रकार	-1739
▁बाब	-1740
▁आमच्या	-1741
णार्या	-1742
▁शिक्षण	-1743
▁रुपया	-1744
▁मां	-1745
▁कवि	-1746
▁आए	-1747
भि	-1748
▁जेव	-1749
सल	-1750
म्मी	-1751
▁इसमें	-1752
युक्त	-1753
▁नौ	-1754
▁सुम	-1755
ूण	-1756
▁ठे	-1757
▁शिक्षा	-1758
▁फोट	-1759
▁u	-1760
▁दूसरे	-1761
▁दिखा	-1762
▁पार्	-1763
▁प्रक्र	-1764
▁६	-1765
▁अर्	-1766
▁देते	-1767
▁तिच्या	-1768
▁रोजी	-1769
▁आद	-1770
▁बड़े	-1771
▁सामाजिक	-1772
▁शेतक	-1773
▁आनंद	-1774
▁टक्के	-1775
▁जय	-1776
ेंबर	-1777
▁प्रधानमंत्री	-1778
▁परिसर	-1779
▁त्यांची	-1780
▁गांव	-1781
▁फी	-1782
पण	-1783
▁भूमिका	-1784
▁मांग	-1785
▁सोड	-1786
▁अंतर	-1787
कट	-1788
डियो	-1789
▁बच्	-1790
▁बँ	-1791
▁यांची	-1792
▁संश	-1793
▁अनुभव	-1794
व्या	-1795
लयात	-1796
ांवर	-1797
▁केलेल्या	-1798
▁भाषा	-1799
चल	-1800
▁v	-1801
▁इला	-1802
▁त्याची	-1803
्वि	-1804
▁सरकारी	-1805
प्ता	-1806
▁जनता	-1807
▁येईल	-1808
▁केंद	-1809
▁अगदी	-1810
▁दरम्यान	-1811
ज्	-1812
st	-1813
▁मोबा	-1814
▁पोस्ट	-1815
▁त्यांचे	-1816
ोंद	-1817
▁अॅ	-1818
▁18	-1819
ियर	-1820
▁अमेरिक	-1821
▁जगह	-1822
▁चित्रपट	-1823
▁करती	-1824
▁रवि	-1825
▁परीक्षा	-1826
टु	-1827
am	-1828
▁नजर	-1829
ुरुष	-1830
शत	-1831
काळ	-1832
▁मूल	-1833
टने	-1834
ढे	-1835
▁कान	-1836
▁बाल	-1837
▁कुल	-1838
▁#	-1839
▁चौक	-1840
▁वित	-1841
▁करके	-1842
▁अर	-1843
▁पत्नी	-1844
वरील	-1845
▁बाहर	-1846
ed	-1847
ष्ण	-1848
र्गत	-1849
▁राहु	-1850
तीत	-1851
▁उम	-1852
▁उसने	-1853
▁सुन	-1854
बरोबर	-1855
▁परिणाम	-1856
▁हवा	-1857
▁वेळी	-1858
पक	-1859
▁योग्य	-1860
दवार	-1861
▁प्रभाव	-1862
ेंड	-1863
क्षि	-1864
▁उत्पाद	-1865
▁खर्च	-1866
▁खेळ	-1867
▁इच्छ	-1868
लीस	-1869
सद	-1870
▁करीत	-1871
▁म्हट	-1872
शु	-1873
जूद	-1874
▁घेतली	-1875
साद	-1876
▁निवडणु	-1877
▁मित्र	-1878
ियम	-1879
▁हूं	-1880
▁दें	-1881
घड	-1882
ुण	-1883
भीर	-1884
खंड	-1885
▁विषय	-1886
▁खेल	-1887
▁अभ्यास	-1888
▁स्वी	-1889
▁सुरक्षा	-1890
▁संस्था	-1891
▁जरूर	-1892
▁खात	-1893
▁तालुक	-1894
▁भु	-1895
प्प	-1896
कांनी	-1897
कल	-1898
▁मृत्य	-1899
▁आग	-1900
स्तु	-1901
▁परत	-1902
▁जिसमें	-1903
विष	-1904
▁ऑनला	-1905
▁रस्त	-1906
▁विश्वास	-1907
▁आधी	-1908
▁आत	-1909
▁शिवसे	-1910
▁करण्याची	-1911
▁समु	-1912
▁प्रयोग	-1913
▁नंतर	-1914
▁नये	-1915
मार्	-1916
▁यासाठी	-1917
पत्र	-1918
्ये	-1919
ांक	-1920
▁पिछले	-1921
पै	-1922
▁पद्ध	-1923
▁विध	-1924
▁ओळ	-1925
ळून	-1926
ावि	-1927
▁मुलां	-1928
▁साहित्य	-1929
▁सोम	-1930
▁काल	-1931
▁नेता	-1932
▁i	-1933
गड	-1934
▁त्याच	-1935
▁लिये	-1936
ंबा	-1937
▁तू	-1938
ोरी	-1939
▁सार	-1940
पणा	-1941
▁पहिल्या	-1942
▁th	-1943
▁जहां	-1944
▁इतिहा	-1945
▁*	-1946
▁सिर्फ	-1947
▁होऊ	-1948
वेदन	-1949
▁करतात	-1950
▁कोल	-1951
▁याची	-1952
लने	-1953
▁हूँ	-1954
▁वर्षी	-1955
िकेट	-1956
▁खुद	-1957
▁स्कूल	-1958
▁७	-1959
▁बेह	-1960
कत	-1961
सव	-1962
हेब	-1963
▁दोघ	-1964
▁उठ	-1965
▁विभागा	-1966
▁दिनों	-1967
▁मदत	-1968
ॉप	-1969
▁दोन्ही	-1970
क्ता	-1971
▁सूचना	-1972
म्म	-1973
िये	-1974
कान	-1975
▁याचा	-1976
▁पाहिजे	-1977
▁अलावा	-1978
▁कोणत्या	-1979
▁न्यू	-1980
▁समर्थ	-1981
श्चित	-1982
मीन	-1983
▁जण	-1984
संद	-1985
▁स्तर	-1986
शिया	-1987
▁मर	-1988
▁महत्व	-1989
▁इंडिया	-1990
▁वजह	-1991
▁चीन	-1992
्वी	-1993
िज	-1994
▁भू	-1995
▁तुमच्या	-1996
विधा	-1997
▁ऐसी	-1998
▁हमें	-1999
▁खरी	-2000
ात्म	-2001
▁पुरुष	-2002
शील	-2003
दू	-2004
▁जोर	-2005
▁जवा	-2006
▁इंटर	-2007
▁तिला	-2008
▁नाग	-2009
▁ध्यान	-2010
थम	-2011
▁येते	-2012
वली	-2013
मता	-2014
▁बड़ा	-2015
▁नावा	-2016
▁संस्थ	-2017
▁वाह	-2018
▁पूरा	-2019
▁देखील	-2020
▁फर	-2021
लर	-2022
▁साव	-2023
▁गयी	-2024
ात्	-2025
नो	-2026
▁बैंक	-2027
▁मुली	-2028
एल	-2029
▁तुम्हाला	-2030
▁करताना	-2031
▁सिने	-2032
▁बॅ	-2033
▁प्रसि	-2034
▁त्याचे	-2035
▁तत्	-2036
▁कुठ	-2037
▁राहुल	-2038
▁सदस्य	-2039
▁अर्ज	-2040
▁उम्मी	-2041
ूब	-2042
ढी	-2043
▁दिए	-2044
▁आयोजित	-2045
ws	-2046
काम	-2047
▁यांचे	-2048
▁गरज	-2049
▁दल	-2050
▁तैयार	-2051
▁इस्ते	-2052
ंता	-2053
बाब	-2054
▁शेव	-2055
▁नोंद	-2056
▁जाण	-2057
मधून	-2058
▁जिला	-2059
खाली	-2060
▁इस्तेमाल	-2061
धन	-2062
▁अच्छा	-2063
श्व	-2064
▁देता	-2065
ट्ट	-2066
▁वेब	-2067
▁राजनी	-2068
▁विजय	-2069
▁बच्चों	-2070
▁कोर्ट	-2071
ृत	-2072
▁कैसे	-2073
▁शेतकऱ	-2074
▁अन्	-2075
▁केवल	-2076
▁25	-2077
ent	-2078
▁उसका	-2079
▁शुक्र	-2080
देशी	-2081
वरण	-2082
▁बैठक	-2083
लेज	-2084
▁यादव	-2085
तंत्र	-2086
▁करुन	-2087
राव	-2088
▁जम	-2089
▁गंभीर	-2090
▁शै	-2091
▁संबंधित	-2092
▁क्रम	-2093
्यो	-2094
▁काळात	-2095
▁सिद्ध	-2096
▁मही	-2097
धिकारी	-2098
▁खर	-2099
▁जातो	-2100
ch	-2101
ॉन	-2102
il	-2103
बार	-2104
▁वार	-2105
▁सुब	-2106
ंदाज	-2107
सोबत	-2108
▁उठा	-2109
▁वर्ग	-2110
▁८	-2111
डक	-2112
▁उदा	-2113
▁..	-2114
▁प्रक्रिया	-2115
वाला	-2116
र्व	-2117
▁फोटो	-2118
▁गुजर	-2119
▁कुटु	-2120
्वर	-2121
▁निर	-2122
आय	-2123
▁खबर	-2124
पति	-2125
▁संस्कृ	-2126
▁हाल	-2127
▁धा	-2128
▁यांचा	-2129
▁जबकि	-2130
़ा	-2131
षा	-2132
▁मदद	-2133
▁बुध	-2134
▁नदी	-2135
▁फ्र	-2136
▁पेश	-2137
▁हत्या	-2138
▁दक्षि	-2139
▁आपले	-2140
▁पोलीस	-2141
▁उद्योग	-2142
▁अजून	-2143
लिक	-2144
कीत	-2145
हीर	-2146
▁पंत	-2147
▁त्यांचा	-2148
ol	-2149
▁निव	-2150
▁चुकी	-2151
▁इतिहास	-2152
▁लिहि	-2153
▁जमा	-2154
▁शो	-2155
▁घोषणा	-2156
ोजन	-2157
▁निर्देश	-2158
▁जांच	-2159
▁पश्च	-2160
गल	-2161
▁रुग्	-2162
▁वहां	-2163
▁करीब	-2164
▁पहुंच	-2165
▁सत्ता	-2166
▁अफ	-2167
▁नरेंद्र	-2168
▁क्रिकेट	-2169
▁वाप	-2170
▁लागले	-2171
ण्ड	-2172
indi	-2173
▁धो	-2174
समोर	-2175
et	-2176
▁रात्री	-2177
▁राजकीय	-2178
▁नही	-2179
राज	-2180
▁तेल	-2181
▁ओळख	-2182
▁महाराज	-2183
ंत्रा	-2184
▁जाना	-2185
▁देत	-2186
▁30	-2187
▁लहान	-2188
▁कारवाई	-2189
▁14	-2190
▁com	-2191
▁वग	-2192
मीण	-2193
यास	-2194
▁यही	-2195
▁महापाल	-2196
▁आवड	-2197
ूह	-2198
▁त्र	-2199
▁मात	-2200
▁राजा	-2201
ईट	-2202
▁मुल	-2203
▁आमदार	-2204
▁यामुळे	-2205
▁ग्रामीण	-2206
▁करतो	-2207
पैकी	-2208
▁प्रस्ता	-2209
▁करण्याचा	-2210
▁किसान	-2211
▁...	-2212
▁प्या	-2213
ूरी	-2214
▁नोट	-2215
▁समोर	-2216
▁मांड	-2217
▁सुधार	-2218
र्न	-2219
▁होना	-2220
▁खाली	-2221
el	-2222
किंग	-2223
▁लव	-2224
▁पिता	-2225
▁तपास	-2226
▁पोलिसांनी	-2227
▁सवाल	-2228
▁वास्त	-2229
▁जिससे	-2230
▁रहने	-2231
▁किलो	-2232
▁सरकारने	-2233
्ही	-2234
▁अत्य	-2235
▁प्रभ	-2236
▁सही	-2237
▁लक्षात	-2238
▁१०	-2239
ंडी	-2240
ल्यावर	-2241
टना	-2242
ंभ	-2243
िटी	-2244
▁कर्ज	-2245
▁गेली	-2246
फ्त	-2247
▁सुविधा	-2248
▁पुरस्कार	-2249
क्की	-2250
▁गेला	-2251
▁नियम	-2252
▁जिसके	-2253
▁माना	-2254
वती	-2255
ध्	-2256
▁जाय	-2257
▁अख	-2258
▁सभा	-2259
▁उमे	-2260
▁देखा	-2261
▁बज	-2262
वारे	-2263
▁मंज	-2264
ताल	-2265
▁आरोपी	-2266
▁16	-2267
▁पूछ	-2268
चाल	-2269
▁जून	-2270
ाना	-2271
▁दर्ज	-2272
▁पहा	-2273
▁करणार	-2274
लेट	-2275
▁सकाळी	-2276
▁विधानसभा	-2277
▁पहली	-2278
्हे	-2279
मीर	-2280
▁सगळ	-2281
▁छोड़	-2282
▁डॉक्टर	-2283
▁हिस्	-2284
▁माजी	-2285
डू	-2286
▁महत्त्वा	-2287
▁पांच	-2288
्यांचे	-2289
क्शन	-2290
▁चाहते	-2291
ात्मक	-2292
लांकि	-2293
चारी	-2294
यारी	-2295
काने	-2296
▁जल्	-2297
ल्याचे	-2298
▁ग्राह	-2299
▁बचा	-2300
▁हिंदी	-2301
सला	-2302
▁पृ	-2303
▁आपकी	-2304
▁हालांकि	-2305
▁दिवशी	-2306
नगर	-2307
ांसाठी	-2308
वला	-2309
सू	-2310
▁जागा	-2311
लाई	-2312
▁आयोग	-2313
▁जाणार	-2314
▁एकदा	-2315
▁बल्	-2316
▁रोक	-2317
▁करेंगे	-2318
्यांचा	-2319
▁प्रथम	-2320
▁बाजू	-2321
▁संगी	-2322
▁ठी	-2323
▁गणेश	-2324
▁पाया	-2325
▁j	-2326
▁शासना	-2327
▁पंतप्र	-2328
दय	-2329
ोस	-2330
▁मॉ	-2331
्राम	-2332
▁संपूर्ण	-2333
▁सामान्य	-2334
▁भ्र	-2335
ल्क	-2336
झा	-2337
▁देशा	-2338
▁सै	-2339
▁सप	-2340
राब	-2341
▁हात	-2342
▁लॉ	-2343
▁आपली	-2344
ot	-2345
▁आंदोलन	-2346
▁लिख	-2347
▁होत्या	-2348
▁बाबा	-2349
नेट	-2350
▁दौ	-2351
राने	-2352
क्षे	-2353
▁बिना	-2354
▁भि	-2355
णाला	-2356
▁उत्पादन	-2357
गु	-2358
▁छात्र	-2359
क्का	-2360
शिक	-2361
▁रू	-2362
▁इसकी	-2363
▁पक्षा	-2364
▁शं	-2365
▁राष्ट्रवादी	-2366
▁इथे	-2367
▁उतर	-2368
मती	-2369
पद	-2370
▁रुपए	-2371
▁नम	-2372
ur	-2373
▁खरेदी	-2374
▁ठीक	-2375
▁तरफ	-2376
▁मोठा	-2377
देव	-2378
▁चंद्र	-2379
▁13	-2380
▁उत	-2381
▁युवा	-2382
▁चिक	-2383
▁लेने	-2384
्रोल	-2385
▁an	-2386
▁अपे	-2387
▁शेतकरी	-2388
फे	-2389
▁सोशल	-2390
▁राय	-2391
दु	-2392
▁रोग	-2393
▁news	-2394
▁जीत	-2395
▁कहना	-2396
ay	-2397
साहेब	-2398
▁त्यासाठी	-2399
▁शी	-2400
▁होऊन	-2401
ग्री	-2402
▁स्त्री	-2403
▁रिपोर्ट	-2404
▁पाय	-2405
▁आख	-2406
▁स्वयं	-2407
▁अथ	-2408
▁मुस्	-2409
भग	-2410
ल्यानंतर	-2411
▁पुस्तक	-2412
▁९	-2413
ोत्	-2414
▁परिषद	-2415
▁क्ल	-2416
▁सत	-2417
▁स्मार	-2418
▁कामा	-2419
▁न्याय	-2420
▁कोणी	-2421
▁मिली	-2422
▁वीडियो	-2423
▁भाई	-2424
ैंड	-2425
▁लगता	-2426
▁मार्च	-2427
▁आलेल्या	-2428
▁लग्	-2429
▁कित	-2430
▁शक्यता	-2431
▁उल	-2432
▁शादी	-2433
फ्ट	-2434
▁अभिने	-2435
▁कोशि	-2436
▁तिथे	-2437
▁प्रस्ताव	-2438
▁अंक	-2439
ड्या	-2440
▁आरोग	-2441
लीन	-2442
▁घरी	-2443
ग्रह	-2444
▁एकत्र	-2445
▁कां	-2446
▁शन	-2447
▁शकतो	-2448
▁शर्मा	-2449
लता	-2450
केट	-2451
▁यात्रा	-2452
▁जाहीर	-2453
▁परिस्थिती	-2454
▁50	-2455
▁मंत्र	-2456
धारण	-2457
▁वक्त	-2458
रीत	-2459
▁दोस्त	-2460
्रो	-2461
20	-2462
ुड	-2463
▁केलं	-2464
दर्भ	-2465
▁कायम	-2466
▁कहते	-2467
रल	-2468
हरी	-2469
▁परिव	-2470
हून	-2471
न्हा	-2472
्हें	-2473
▁वाहत	-2474
श्वर	-2475
▁महिन	-2476
▁टि	-2477
▁सोच	-2478
ct	-2479
▁मैच	-2480
लना	-2481
▁पर्या	-2482
▁वाता	-2483
ंवर	-2484
ंबे	-2485
▁भगवान	-2486
▁कोशिश	-2487
▁त्यावर	-2488
ेशा	-2489
▁किस	-2490
▁केंद्रीय	-2491
▁लगी	-2492
▁मुताब	-2493
▁ज्ञान	-2494
यात	-2495
▁जातात	-2496
▁बच	-2497
ंडा	-2498
▁मुताबिक	-2499
ड्	-2500
र्ण	-2501
▁रिक	-2502
▁सार्	-2503
▁प्रमाणात	-2504
▁नए	-2505
▁घु	-2506
धि	-2507
▁सुंदर	-2508
▁नुकसान	-2509
▁पूरे	-2510
▁महान	-2511
▁सुबह	-2512
▁ऐक	-2513
▁आदी	-2514
▁ऑनलाइन	-2515
हमी	-2516
▁hindi	-2517
▁प्रतिनि	-2518
▁स्थिति	-2519
▁रेल्	-2520
▁सर्वात	-2521
▁वर्षा	-2522
▁बेट	-2523
▁मेरा	-2524
ri	-2525
मेश	-2526
▁प्रसिद्ध	-2527
▁पर्य	-2528
▁पावसा	-2529
▁स्वीकार	-2530
▁कल्प	-2531
ावेश	-2532
▁घात	-2533
शय	-2534
▁न्यायालया	-2535
▁रेल	-2536
धर	-2537
▁17	-2538
▁लिखा	-2539
▁करावी	-2540
▁जिले	-2541
वाडी	-2542
ुप	-2543
▁वर्षां	-2544
▁नियंत्र	-2545
▁मौत	-2546
▁अच्छी	-2547
▁बल्कि	-2548
▁प्रदान	-2549
▁लागू	-2550
▁सुरुवात	-2551
hi	-2552
▁दक्षिण	-2553
▁लागली	-2554
संग	-2555
▁तहत	-2556
▁लगभग	-2557
▁पूजा	-2558
केत	-2559
▁दिल	-2560
▁मजब	-2561
▁प्	-2562
▁mo	-2563
▁बजे	-2564
द्द	-2565
▁_	-2566
▁तक्र	-2567
▁याबाबत	-2568
000	-2569
▁ब्लॉ	-2570
▁कदम	-2571
▁पवार	-2572
यान	-2573
कांच्या	-2574
▁घेतले	-2575
▁सके	-2576
उन	-2577
नीय	-2578
▁रेल्वे	-2579
मर	-2580
▁दूध	-2581
▁व्यापार	-2582
▁आपला	-2583
▁प्रतिक	-2584
▁अभिया	-2585
▁बच्चे	-2586
▁स्वच्छ	-2587
▁अंतिम	-2588
▁अहम	-2589
▁भावना	-2590
▁इन्	-2591
▁पीछ	-2592
▁सार्व	-2593
जि	-2594
▁बने	-2595
िकी	-2596
▁बिहार	-2597
▁प्रशिक्ष	-2598
▁जाये	-2599
्याचे	-2600
▁धाव	-2601
र्ती	-2602
▁निर्म	-2603
डर	-2604
▁आवाज	-2605
▁संर	-2606
▁आयोजन	-2607
▁चालू	-2608
▁वाद	-2609
ईन	-2610
▁सुमारे	-2611
▁‘‘	-2612
▁समावेश	-2613
▁संब	-2614
ag	-2615
िरा	-2616
▁नै	-2617
▁आणखी	-2618
▁असता	-2619
▁कॉलेज	-2620
▁ख़	-2621
क्षी	-2622
▁श्रे	-2623
ंदे	-2624
▁एकूण	-2625
▁शुरु	-2626
▁नंबर	-2627
▁तौर	-2628
▁लागला	-2629
लिया	-2630
▁नेहमी	-2631
▁फॉ	-2632
▁छा	-2633
रिका	-2634
▁अक्ष	-2635
गिरी	-2636
िकल	-2637
एन	-2638
लू	-2639
वाने	-2640
▁गये	-2641
▁प्रकल्प	-2642
▁अर्थात	-2643
स्क	-2644
ॅट	-2645
▁धी	-2646
▁सामना	-2647
पड	-2648
रिया	-2649
ित्व	-2650
भिन्न	-2651
▁परा	-2652
▁प्रदर्शन	-2653
पत	-2654
लात	-2655
▁तंत्र	-2656
▁मोठी	-2657
▁देखने	-2658
करणी	-2659
होत	-2660
▁तास	-2661
▁जिसे	-2662
ro	-2663
▁नेतृ	-2664
काल	-2665
वरी	-2666
नाच्या	-2667
▁डाय	-2668
id	-2669
▁धु	-2670
▁अंदाज	-2671
ार्ड	-2672
▁यहाँ	-2673
्याची	-2674
टका	-2675
▁उत्प	-2676
शिवाय	-2677
▁संजय	-2678
▁सेना	-2679
रों	-2680
▁महीने	-2681
्याला	-2682
नावर	-2683
▁दिवा	-2684
सब	-2685
▁वर्षे	-2686
▁अमेरिका	-2687
ूड	-2688
▁होंगे	-2689
▁पॉ	-2690
श्वास	-2691
▁कविता	-2692
▁टो	-2693
ra	-2694
▁विभिन्न	-2695
▁करावा	-2696
ब्र	-2697
▁देऊन	-2698
▁हमारी	-2699
▁स्वतंत्र	-2700
यचे	-2701
▁पंचा	-2702
▁अत्यंत	-2703
▁जमीन	-2704
म्स	-2705
▁रण	-2706
राष्ट्रीय	-2707
▁ऋ	-2708
▁वर्त	-2709
टल	-2710
▁शाळ	-2711
धव	-2712
▁ब्रा	-2713
▁रखा	-2714
हरण	-2715
▁जाग	-2716
▁शकते	-2717
▁निश्चित	-2718
ve	-2719
इड	-2720
बाज	-2721
▁2017	-2722
▁छोटे	-2723
ेंद	-2724
▁उघड	-2725
ंधी	-2726
▁पाऊ	-2727
▁मनात	-2728
▁१५	-2729
▁मनु	-2730
▁st	-2731
▁सैन	-2732
▁गट	-2733
ंथ	-2734
▁एक्स	-2735
▁भागात	-2736
द्धि	-2737
▁आकार	-2738
▁पदा	-2739
▁विस्त	-2740
▁नेम	-2741
▁घो	-2742
▁आठव	-2743
▁संशोध	-2744
▁कीमत	-2745
▁शिवा	-2746
णात	-2747
विक	-2748
▁उपाय	-2749
▁गोष्ट	-2750
▁कहीं	-2751
▁सुख	-2752
▁लोकांना	-2753
▁योजने	-2754
▁लवकर	-2755
▁शांत	-2756
मारी	-2757
▁फायदा	-2758
▁जबाब	-2759
▁साज	-2760
▁क्	-2761
त्ते	-2762
गढ़	-2763
▁प्रशासन	-2764
ळू	-2765
ांस	-2766
▁of	-2767
▁पंतप्रधान	-2768
▁थीं	-2769
▁तेज	-2770
▁कुटुंब	-2771
िष्ठ	-2772
▁समाजा	-2773
▁आहोत	-2774
नर	-2775
▁सारे	-2776
▁नक्की	-2777
ल्लेख	-2778
वेग	-2779
स्टर	-2780
त्ति	-2781
मंत्र	-2782
रिक्त	-2783
▁टॉ	-2784
▁ऊपर	-2785
▁अस्प	-2786
बो	-2787
शिष्ट	-2788
▁स्वास्थ	-2789
▁वेबसा	-2790
▁पीछे	-2791
▁24	-2792
क्या	-2793
व्यव	-2794
द्वारे	-2795
▁शेती	-2796
▁जाऊन	-2797
▁दूसरी	-2798
▁माध्यमातून	-2799
▁पदार्थ	-2800
▁महिलाओं	-2801
▁वातावरण	-2802
▁गौर	-2803
▁अथवा	-2804
▁चुके	-2805
▁परेश	-2806
▁राव	-2807
▁गैर	-2808
▁कर्मचारी	-2809
▁करायला	-2810
▁कंपन	-2811
भागी	-2812
▁कानून	-2813
टेड	-2814
र्जी	-2815
▁सादर	-2816
▁दिसत	-2817
यां	-2818
▁इच्छा	-2819
▁रहते	-2820
ड़क	-2821
▁गुजरात	-2822
▁प्रकरण	-2823
▁थांब	-2824
▁मौजूद	-2825
कात	-2826
▁मागे	-2827
▁माझा	-2828
▁करण्या	-2829
▁लोकप्र	-2830
्रास	-2831
▁कार्ड	-2832
▁मूर्	-2833
▁म्हटले	-2834
▁जित	-2835
▁जाएगी	-2836
▁दिख	-2837
िक्स	-2838
▁to	-2839
▁सूत्र	-2840
्रीम	-2841
▁मंत्रा	-2842
▁एज	-2843
ताच	-2844
▁कोणत्याही	-2845
दीप	-2846
▁प्रच	-2847
▁एल	-2848
ातार	-2849
कर्ष	-2850
▁एखाद्या	-2851
▁येतो	-2852
चानक	-2853
▁बाय	-2854
▁पोहो	-2855
▁वरिष्ठ	-2856
▁करण्याचे	-2857
▁झालं	-2858
▁बंध	-2859
श्मीर	-2860
▁उसी	-2861
▁अचानक	-2862
▁करावे	-2863
▁रखने	-2864
हस	-2865
न्हे	-2866
लंब	-2867
▁प्रयास	-2868
▁प्रत्यक्ष	-2869
णाच्या	-2870
ul	-2871
▁बीजे	-2872
▁संधी	-2873
▁शक्य	-2874
मंड	-2875
रुद्ध	-2876
ॉर्ड	-2877
ल्यास	-2878
ोंड	-2879
▁संगीत	-2880
ैरे	-2881
▁संपर्क	-2882
ab	-2883
रीब	-2884
▁गाडी	-2885
▁चम	-2886
▁बढ़ा	-2887
▁पात	-2888
▁21	-2889
विण्यात	-2890
▁अटक	-2891
▁शिक्षक	-2892
▁बाकी	-2893
सत	-2894
हिर	-2895
▁दावा	-2896
▁विमान	-2897
क्रमा	-2898
▁बनाया	-2899
▁आध	-2900
▁भारतात	-2901
▁जोड	-2902
जनिक	-2903
▁शिका	-2904
लै	-2905
लिम	-2906
ुरी	-2907
▁देवी	-2908
▁सें	-2909
▁आम्हाला	-2910
विषयी	-2911
ंटे	-2912
▁तरुण	-2913
▁स्वास्थ्य	-2914
▁शक्ति	-2915
oo	-2916
▁राजकार	-2917
▁पक	-2918
नाचा	-2919
▁बीजेपी	-2920
▁केस	-2921
▁टिक	-2922
▁दहा	-2923
देख	-2924
ष्टा	-2925
▁नोक	-2926
▁सचिव	-2927
▁हल	-2928
▁पथ	-2929
▁स्मार्ट	-2930
▁सार्वजनिक	-2931
▁हेत	-2932
▁सीट	-2933
▁१२	-2934
un	-2935
▁मोबाइल	-2936
▁उल्लेख	-2937
▁महत्वपूर्ण	-2938
रत	-2939
▁पुढील	-2940
▁जेव्हा	-2941
▁कथा	-2942
▁२००	-2943
जल	-2944
▁तिथ	-2945
चन	-2946
रीज	-2947
▁गोल	-2948
▁सिनेमा	-2949
▁दिशा	-2950
▁चुका	-2951
▁आरोग्य	-2952
▁उत्तम	-2953
ताप	-2954
▁प्ला	-2955
▁ch	-2956
▁वय	-2957
▁the	-2958
▁हमेशा	-2959
▁इतना	-2960
लाय	-2961
शनल	-2962
ॉट	-2963
▁कसे	-2964
▁दह	-2965
▁पंजा	-2966
▁पेट्रोल	-2967
ह्म	-2968
▁घरा	-2969
▁फल	-2970
ow	-2971
▁मृत्यू	-2972
▁नीचे	-2973
▁सर्वो	-2974
▁घरात	-2975
▁जंग	-2976
▁आपका	-2977
▁जाईल	-2978
▁मंगल	-2979
▁सहाय	-2980
एफ	-2981
▁प्रवास	-2982
▁प्रतिशत	-2983
खन	-2984
▁माझी	-2985
्रम	-2986
र्जा	-2987
न्ना	-2988
▁राशि	-2989
▁अप्र	-2990
▁दर्श	-2991
▁महावि	-2992
▁संयुक्त	-2993
▁वाटत	-2994
ठन	-2995
▁लाइ	-2996
▁साफ	-2997
▁शाय	-2998
▁सीमा	-2999
▁बोर्ड	-3000
▁असल्याची	-3001
▁लौ	-3002
प्पा	-3003
▁दुसऱ्या	-3004
सित	-3005
▁संवाद	-3006
ुसार	-3007
▁लगातार	-3008
▁कल्पना	-3009
▁मिळत	-3010
यु	-3011
तरा	-3012
▁लागेल	-3013
▁होकर	-3014
ंसा	-3015
▁रहता	-3016
▁कुठे	-3017
सदी	-3018
▁मोह	-3019
कांत	-3020
▁100	-3021
िक्	-3022
▁वेगवेग	-3023
▁कट	-3024
▁मराठा	-3025
▁मॅ	-3026
▁विद्यार्थी	-3027
▁सम्मान	-3028
▁जरूरत	-3029
▁विद्यापी	-3030
▁सत्य	-3031
▁अधिका	-3032
▁व्यवहार	-3033
▁पैसा	-3034
▁लागत	-3035
लीव	-3036
▁शाह	-3037
▁लंड	-3038
▁पसंद	-3039
▁फुट	-3040
नल	-3041
ap	-3042
मिनी	-3043
▁निरी	-3044
▁आढ	-3045
फ्	-3046
देखील	-3047
▁संघा	-3048
दाय	-3049
▁पोहोच	-3050
▁नेते	-3051
▁जवाब	-3052
ड़ों	-3053
▁महाविद्या	-3054
▁हल्	-3055
स्व	-3056
▁पंच	-3057
▁रोड	-3058
धिकार	-3059
▁तला	-3060
हीत	-3061
▁वगैरे	-3062
▁कमा	-3063
▁चांगले	-3064
▁देना	-3065
ँड	-3066
▁शिवसेने	-3067
बु	-3068
▁गुंत	-3069
▁कहानी	-3070
▁धार	-3071
▁तुझ	-3072
▁मान्य	-3073
किल	-3074
्याचा	-3075
▁y	-3076
सेल	-3077
▁उपचार	-3078
▁शिवाजी	-3079
भूत	-3080
▁लें	-3081
जली	-3082
▁घेण्यात	-3083
▁प्राथ	-3084
▁लढ	-3085
ation	-3086
▁माह	-3087
▁यंत्र	-3088
▁यावर	-3089
नाची	-3090
▁मोठे	-3091
▁मानव	-3092
▁वही	-3093
चणी	-3094
▁असो	-3095
▁मिलने	-3096
▁चौकशी	-3097
▁आवश्यकता	-3098
▁गड	-3099
▁मतदार	-3100
▁निकाल	-3101
▁उमेदवार	-3102
▁एकमे	-3103
▁व्यवसाय	-3104
▁मुद	-3105
ुट	-3106
▁विरोधी	-3107
▁सदस	-3108
▁मिळाली	-3109
▁असतील	-3110
▁गिरफ्त	-3111
▁चलते	-3112
त्कार	-3113
▁सेक्स	-3114
▁विज	-3115
▁आंतर	-3116
▁दार	-3117
वर्षी	-3118
▁प्राथमिक	-3119
▁गृह	-3120
ुनिक	-3121
▁अंध	-3122
▁समी	-3123
गो	-3124
▁वाटते	-3125
मीटर	-3126
▁मानसिक	-3127
▁पति	-3128
▁मौके	-3129
वं	-3130
ष्ट्रा	-3131
िटल	-3132
▁अली	-3133
णाचा	-3134
▁स्थानिक	-3135
▁राज्यात	-3136
▁मुस्लिम	-3137
आत	-3138
▁जिल्ह्यातील	-3139
▁दश	-3140
▁आवेदन	-3141
▁सर्वा	-3142
्यांवर	-3143
हरे	-3144
▁चै	-3145
▁संदर्भ	-3146
विरो	-3147
बळ	-3148
▁कोल्हा	-3149
▁उद्देश	-3150
▁सुप	-3151
▁दिग्	-3152
▁लागते	-3153
यण	-3154
▁सन्	-3155
गम	-3156
▁तस्वी	-3157
पि	-3158
ंडे	-3159
▁आं	-3160
▁वस्त	-3161
▁अतिशय	-3162
▁महस	-3163
णाची	-3164
▁विषया	-3165
ut	-3166
ांति	-3167
▁मामला	-3168
▁अल	-3169
▁सित	-3170
▁देर	-3171
ध्द	-3172
▁असलेले	-3173
▁शासन	-3174
▁+	-3175
▁करणाऱ्या	-3176
बाई	-3177
यू	-3178
▁वेळा	-3179
▁म्हणतात	-3180
▁सूर्	-3181
धानी	-3182
▁सन	-3183
लाल	-3184
बि	-3185
बंदी	-3186
▁तिने	-3187
▁स्म	-3188
▁on	-3189
ियल	-3190
▁१८	-3191
▁तीस	-3192
▁लोकसभा	-3193
▁हिंदू	-3194
▁पर्यंत	-3195
चारा	-3196
ल्याण	-3197
▁’’	-3198
▁कर्ना	-3199
▁राजस्थान	-3200
सारख्या	-3201
▁निधी	-3202
▁किये	-3203
▁डाल	-3204
सले	-3205
▁विधाय	-3206
क्कम	-3207
▁सहित	-3208
▁साह	-3209
ak	-3210
▁युद्ध	-3211
▁क्षमता	-3212
▁कृषी	-3213
ष्टि	-3214
▁वर्ण	-3215
▁माय	-3216
▁पूर्वी	-3217
▁मृत	-3218
▁सला	-3219
▁सुट	-3220
▁अदा	-3221
▁पंचायत	-3222
▁सहज	-3223
▁दरवा	-3224
▁औष	-3225
▁टै	-3226
जवळ	-3227
▁22	-3228
▁येतात	-3229
▁बिल	-3230
▁सहयोग	-3231
▁गुन्हा	-3232
ळात	-3233
▁राब	-3234
▁काढून	-3235
▁माझे	-3236
▁शकत	-3237
▁समान	-3238
▁बरे	-3239
लोड	-3240
▁त्यावेळी	-3241
▁रन	-3242
हाल	-3243
मेल	-3244
▁तुम्ह	-3245
▁अस्पताल	-3246
षि	-3247
ai	-3248
▁अवसर	-3249
▁सगळे	-3250
भूमी	-3251
▁माता	-3252
▁रै	-3253
▁महिलां	-3254
बाजी	-3255
लाच	-3256
▁प्रेर	-3257
▁ग्रह	-3258
▁दिलेल्या	-3259
▁उभार	-3260
र्त	-3261
▁संकेत	-3262
▁कौन	-3263
▁पश्चिम	-3264
▁अंदर	-3265
▁स्टेशन	-3266
▁लगाया	-3267
▁होतात	-3268
सिल	-3269
फत	-3270
वेद	-3271
सकीय	-3272
▁संघर्ष	-3273
▁लोकप्रिय	-3274
ताने	-3275
▁तालुक्यातील	-3276
▁फेसब	-3277
तान	-3278
▁गेल	-3279
▁गि	-3280
▁नाशिक	-3281
▁शुभ	-3282
▁देशात	-3283
बू	-3284
▁प्रशासना	-3285
ce	-3286
▁समित	-3287
▁=	-3288
▁शेयर	-3289
▁मिन	-3290
▁उदाहरण	-3291
निंग	-3292
▁जाऊ	-3293
▁रचना	-3294
ोजना	-3295
▁पहचान	-3296
▁पृथ	-3297
विले	-3298
▁दब	-3299
▁दुप	-3300
▁दर्शन	-3301
▁वार्	-3302
ळेल	-3303
▁जख	-3304
▁पात्र	-3305
▁खंड	-3306
▁विज्ञान	-3307
▁जिल्ह्यात	-3308
नाम	-3309
▁नगरसे	-3310
▁तेथे	-3311
▁वाहन	-3312
▁कठ	-3313
▁सल	-3314
▁विक्री	-3315
▁संस्थे	-3316
▁सूर्य	-3317
▁उससे	-3318
सारखे	-3319
▁नव्हते	-3320
▁se	-3321
▁पौ	-3322
▁बल	-3323
पाद	-3324
साला	-3325
▁वेबसाइट	-3326
▁खेळा	-3327
▁कसा	-3328
▁मिनि	-3329
▁निवडणूक	-3330
▁खूब	-3331
▁गति	-3332
▁हिस्सा	-3333
▁अच्छे	-3334
▁वस	-3335
▁नया	-3336
डल	-3337
▁बेहतर	-3338
▁विप	-3339
▁पां	-3340
▁ताप	-3341
▁तरीही	-3342
▁काग	-3343
▁समर्थन	-3344
▁असले	-3345
कालीन	-3346
▁गौ	-3347
▁बाव	-3348
▁ताकि	-3349
▁सुद्धा	-3350
▁पासून	-3351
▁प्रार	-3352
सर्ग	-3353
फर	-3354
▁प्यार	-3355
▁लड़की	-3356
▁क्षेत्रात	-3357
▁दृष्टी	-3358
ेंस	-3359
▁शर	-3360
▁and	-3361
कांची	-3362
ावं	-3363
ज्ज	-3364
▁रुग्णा	-3365
▁सिर	-3366
▁निष्	-3367
ित्	-3368
▁चो	-3369
लीवुड	-3370
▁देखते	-3371
▁उम्र	-3372
▁कलाकार	-3373
▁गीत	-3374
▁आते	-3375
▁जनते	-3376
विष्य	-3377
▁वाहतूक	-3378
▁भो	-3379
क़	-3380
▁कॉंग	-3381
निक	-3382
▁ताज	-3383
▁वालों	-3384
द्दी	-3385
वाही	-3386
▁प्रग	-3387
▁हमने	-3388
▁स्वागत	-3389
▁सोमवार	-3390
र्तन	-3391
▁सुरक्षित	-3392
र्फे	-3393
▁अभियान	-3394
▁निघ	-3395
डकर	-3396
फोन	-3397
▁शिर	-3398
▁फेसबुक	-3399
▁येऊन	-3400
▁खरीद	-3401
▁आलं	-3402
▁आदमी	-3403
▁कर्नाटक	-3404
▁सहभागी	-3405
▁रक्त	-3406
वण्यात	-3407
▁कर्मचार	-3408
▁राज्यातील	-3409
िवारी	-3410
▁पर्यावर	-3411
▁दिसून	-3412
▁इंग्र	-3413
कारात्मक	-3414
वाती	-3415
▁कॉंग्रेस	-3416
▁महत्वा	-3417
▁2016	-3418
est	-3419
▁भविष्य	-3420
▁आयुष	-3421
वीस	-3422
▁पड़े	-3423
▁अधिकारियों	-3424
▁अतिरिक्त	-3425
▁रॉ	-3426
▁चीज	-3427
▁परिसरात	-3428
▁शहरात	-3429
▁40	-3430
खेर	-3431
ण्	-3432
▁जमिनी	-3433
नाचे	-3434
▁अंतर्गत	-3435
ल्ल	-3436
▁प्रशिक्षण	-3437
्मी	-3438
▁सुना	-3439
▁देशों	-3440
करे	-3441
▁ठेवा	-3442
▁तार	-3443
▁पॅ	-3444
वंत	-3445
थी	-3446
▁राष्ट्रपति	-3447
▁मनो	-3448
▁हिंदु	-3449
▁पंजाब	-3450
▁चले	-3451
▁शेतकर	-3452
▁जाहिर	-3453
▁साली	-3454
▁अपरा	-3455
▁23	-3456
▁भारी	-3457
र्चे	-3458
▁सूर	-3459
▁थेट	-3460
▁नको	-3461
▁री	-3462
ुत	-3463
▁घटने	-3464
▁शिंदे	-3465
टेल	-3466
▁टेस्ट	-3467
▁इमार	-3468
▁अभिन	-3469
▁टाइ	-3470
▁लै	-3471
तियों	-3472
▁संकल्प	-3473
▁व्हि	-3474
▁नव्या	-3475
▁प्रती	-3476
▁मंगळ	-3477
न्दी	-3478
▁जानते	-3479
द्धी	-3480
वाना	-3481
ळ्यात	-3482
▁खुश	-3483
▁नार	-3484
▁प्रचंड	-3485
▁सुनी	-3486
▁छोटी	-3487
चालक	-3488
▁वॉ	-3489
▁आघा	-3490
▁प्ल	-3491
वेत	-3492
.5	-3493
▁मुक्त	-3494
िप	-3495
▁उत्पन्न	-3496
▁हार	-3497
▁कार्यालय	-3498
माग	-3499
माने	-3500
लिंग	-3501
खान	-3502
ोह	-3503
वाड	-3504
घात	-3505
▁उम्मीदवार	-3506
▁विवाह	-3507
▁नियंत्रण	-3508
▁झोप	-3509
▁शकतात	-3510
दास	-3511
▁त्यातून	-3512
▁रस	-3513
▁पड़ा	-3514
os	-3515
▁स्वप्	-3516
▁महापालिके	-3517
▁प्रचार	-3518
▁धोर	-3519
स्ट्रे	-3520
▁भर्ती	-3521
▁तस्वीर	-3522
▁जाधव	-3523
▁उत्सा	-3524
ment	-3525
▁फड	-3526
▁थोड	-3527
▁दुकान	-3528
▁पाए	-3529
▁यामध्ये	-3530
▁इंग्ल	-3531
▁पुत्र	-3532
▁पृथ्वी	-3533
▁तयारी	-3534
▁३०	-3535
▁रिश्	-3536
▁व्याव	-3537
▁यानी	-3538
▁वापस	-3539
▁नेतृत्व	-3540
▁कपूर	-3541
सुद्धा	-3542
▁शायद	-3543
▁नव्हे	-3544
म्ब	-3545
जार	-3546
▁वर्तमान	-3547
ंबी	-3548
▁एच	-3549
▁निघा	-3550
पान	-3551
▁नेट	-3552
पटा	-3553
▁शिकायत	-3554
▁ब्लॉग	-3555
▁सहकार	-3556
दायक	-3557
▁बोला	-3558
▁हिर	-3559
यची	-3560
व्ही	-3561
▁वैसे	-3562
▁ज्यो	-3563
▁राजनीति	-3564
ल्यामुळे	-3565
▁सगळ्या	-3566
वू	-3567
us	-3568
▁११	-3569
▁जेल	-3570
▁समाधान	-3571
म्मे	-3572
▁निरा	-3573
▁बयान	-3574
▁भेज	-3575
▁आधारित	-3576
▁स्त्र	-3577
▁असलेली	-3578
▁शुक्रवार	-3579
▁हों	-3580
▁हवे	-3581
▁माने	-3582
▁मान्यता	-3583
▁रहती	-3584
▁त्रास	-3585
▁एफ	-3586
▁शनिवार	-3587
▁तक्रार	-3588
▁साधारण	-3589
▁मुद्दा	-3590
दात	-3591
▁इस्	-3592
ईक	-3593
▁छान	-3594
वणे	-3595
▁कच	-3596
▁डोक	-3597
▁परंप	-3598
लेश	-3599
▁आतंक	-3600
▁बनाए	-3601
▁स्वामी	-3602
काला	-3603
वठा	-3604
बंधन	-3605
ार्मिक	-3606
ांती	-3607
्रिया	-3608
▁28	-3609
▁इश	-3610
▁धीरे	-3611
▁२५	-3612
▁सरा	-3613
▁रक्कम	-3614
▁स्वरूप	-3615
पित	-3616
ंका	-3617
▁करण्यास	-3618
ig	-3619
▁मिनट	-3620
▁नोकरी	-3621
▁चांगली	-3622
▁read	-3623
म्बर	-3624
▁राजी	-3625
नाला	-3626
▁थाना	-3627
▁उम्मीद	-3628
▁अका	-3629
▁गरीब	-3630
▁मगर	-3631
▁घालून	-3632
▁साब	-3633
▁घंटे	-3634
▁स्टार	-3635
▁मनुष्य	-3636
यल	-3637
▁मोबाईल	-3638
▁प्रस	-3639
▁ड्रा	-3640
▁रविवार	-3641
ंदन	-3642
▁बनी	-3643
▁शकता	-3644
▁समार	-3645
सेस	-3646
▁पीएम	-3647
▁वाजता	-3648
वण्यासाठी	-3649
▁फैसला	-3650
▁कल्याण	-3651
▁26	-3652
्रीन	-3653
▁स्थापना	-3654
▁मिर	-3655
▁धार्मिक	-3656
▁दोस्तों	-3657
▁आत्मह	-3658
▁अशोक	-3659
▁नसल्याने	-3660
▁अपेक्षा	-3661
▁गै	-3662
▁जल्द	-3663
▁इंद	-3664
▁अग्र	-3665
▁शिवाय	-3666
▁बुधवार	-3667
▁तुला	-3668
▁नका	-3669
▁पाहून	-3670
▁कश्मीर	-3671
▁जैसी	-3672
▁आह	-3673
▁हासिल	-3674
ँच	-3675
▁असेही	-3676
▁बेहद	-3677
▁सापड	-3678
▁तय	-3679
जरी	-3680
▁आघाडी	-3681
▁प्रसाद	-3682
▁चिंता	-3683
▁संभाव	-3684
▁शाळा	-3685
▁निकल	-3686
▁नवा	-3687
▁पत	-3688
▁चुन	-3689
▁शहरातील	-3690
▁असली	-3691
लास	-3692
▁संदेश	-3693
▁माँ	-3694
▁महिन्या	-3695
▁मिळाले	-3696
▁ताब	-3697
▁विरा	-3698
▁पाने	-3699
▁खाने	-3700
▁ऍ	-3701
टो	-3702
▁बह	-3703
th	-3704
▁अवि	-3705
▁लग्न	-3706
▁प्रवा	-3707
क्य	-3708
▁आशा	-3709
▁डेट	-3710
न्तु	-3711
▁कुणी	-3712
▁नव्हती	-3713
ेतन	-3714
▁कथ	-3715
▁डिस	-3716
▁सीबी	-3717
▁गुंतव	-3718
▁दम	-3719
▁अा	-3720
चार्य	-3721
ित्य	-3722
ळत	-3723
▁मजबूत	-3724
▁शत	-3725
▁शिवसेना	-3726
▁किसानों	-3727
▁शहरा	-3728
▁सचिन	-3729
▁प्रतिनिधी	-3730
▁रोजगार	-3731
▁परिषदे	-3732
▁लेते	-3733
▁इत्या	-3734
▁राही	-3735
रोज	-3736
▁मिळाला	-3737
▁कोल्हापूर	-3738
▁मीटर	-3739
▁बरोबर	-3740
▁वीज	-3741
▁झालेली	-3742
▁यंदा	-3743
ir	-3744
▁यून	-3745
▁बरा	-3746
▁भ्रष्टा	-3747
▁पाड	-3748
▁कार्र	-3749
▁सॉ	-3750
▁दिखाई	-3751
▁नव्हता	-3752
चक	-3753
▁राहत	-3754
▁शौ	-3755
ख्य	-3756
स्तर	-3757
र्भ	-3758
जू	-3759
▁कामे	-3760
लाम	-3761
जीत	-3762
फ्र	-3763
घर	-3764
कारा	-3765
▁बेटी	-3766
▁तरीके	-3767
▁क्रमांक	-3768
▁उद्या	-3769
im	-3770
▁एकदम	-3771
▁इंटरनेट	-3772
▁खोल	-3773
▁यशस्वी	-3774
▁विकसित	-3775
काच्या	-3776
▁आगा	-3777
▁हिन्दी	-3778
▁आपने	-3779
▁प्रत्ये	-3780
▁राजनीतिक	-3781
▁शुरुआत	-3782
▁याचे	-3783
▁more	-3784
ारायण	-3785
▁स्पर्ध	-3786
▁हाता	-3787
▁मिळेल	-3788
▁पाऊस	-3789
ंदगी	-3790
स्टिक	-3791
▁स्थिती	-3792
▁हिन्द	-3793
▁करणारे	-3794
▁शेवट	-3795
▁पहुंचा	-3796
▁दुष्	-3797
माना	-3798
▁चव्हा	-3799
्यांमध्ये	-3800
▁तुलना	-3801
▁पातळी	-3802
▁सतत	-3803
▁न्यायालय	-3804
व्र	-3805
▁चर	-3806
्टर	-3807
▁de	-3808
ाई	-3809
▁कार्रवाई	-3810
▁जबाबदारी	-3811
▁खासदार	-3812
▁अस्त	-3813
लें	-3814
वें	-3815
▁संरक्षण	-3816
भाष	-3817
▁फीसदी	-3818
▁स्थानी	-3819
▁चोर	-3820
▁गावात	-3821
▁त्व	-3822
▁आयुक्त	-3823
▁हेच	-3824
▁सड़क	-3825
माम	-3826
▁युवक	-3827
▁27	-3828
▁ar	-3829
▁जरा	-3830
▁विवाद	-3831
▁प्रकाशित	-3832
ter	-3833
▁वळ	-3834
▁sh	-3835
▁आरक्षण	-3836
▁वड	-3837
▁जरूरी	-3838
▁गुन्हे	-3839
ंडर	-3840
वीं	-3841
▁पहुंचे	-3842
▁लखन	-3843
▁०	-3844
▁याला	-3845
प्ताह	-3846
▁कोक	-3847
▁मार्केट	-3848
ंश	-3849
▁31	-3850
गाने	-3851
विद्या	-3852
▁अधी	-3853
▁शान	-3854
▁अमित	-3855
▁विद्य	-3856
▁किलोमीटर	-3857
▁गिरफ्तार	-3858
▁सर्वाधिक	-3859
▁निर्मिती	-3860
▁मूळ	-3861
ाव्या	-3862
▁मतदान	-3863
▁नियमित	-3864
ah	-3865
▁अध्य	-3866
▁किन	-3867
▁राजधानी	-3868
खल	-3869
▁सुप्रीम	-3870
▁प्रसार	-3871
▁दुसर	-3872
▁पर्	-3873
▁येऊ	-3874
▁विस्तार	-3875
▁केलेली	-3876
▁आइ	-3877
▁दिवसां	-3878
▁हळ	-3879
खों	-3880
▁स्वात	-3881
▁बॉलीवुड	-3882
▁आती	-3883
▁बोलत	-3884
▁जैसा	-3885
िकेत	-3886
▁चढ	-3887
um	-3888
▁यादी	-3889
▁प्रणा	-3890
▁सुपर	-3891
मल	-3892
ळाच्या	-3893
▁रस्त्यावर	-3894
▁बाळ	-3895
▁विदेश	-3896
▁संघटने	-3897
वै	-3898
▁नौकरी	-3899
▁पद्धतीने	-3900
▁फो	-3901
ंती	-3902
▁एड	-3903
▁गरजे	-3904
▁रेलवे	-3905
▁हाई	-3906
▁आकर्ष	-3907
ंटी	-3908
▁महत्त्व	-3909
▁काप	-3910
चि	-3911
विंद	-3912
▁डों	-3913
▁असलेला	-3914
▁विधायक	-3915
▁कामगार	-3916
साई	-3917
▁पर्याय	-3918
▁कृष्ण	-3919
.1	-3920
▁मशी	-3921
न्व	-3922
▁परमेश	-3923
लेक्ट	-3924
▁उनसे	-3925
▁फ्ल	-3926
ड़ने	-3927
सूर	-3928
▁आलो	-3929
▁लक्ष्य	-3930
▁टीका	-3931
▁हृ	-3932
▁ब्रे	-3933
▁इथ	-3934
▁निवडणुकी	-3935
▁पहला	-3936
▁चाहता	-3937
▁लगाने	-3938
▁अखेर	-3939
▁चव्हाण	-3940
▁दीप	-3941
▁अगले	-3942
प्स	-3943
▁तां	-3944
▁कोड	-3945
▁बांधकाम	-3946
lo	-3947
कुमार	-3948
▁पैदा	-3949
▁अल्प	-3950
▁मुका	-3951
▁दर्द	-3952
्यादा	-3953
सिंह	-3954
मै	-3955
▁पसर	-3956
▁सलमान	-3957
रेट	-3958
सळ	-3959
▁दलित	-3960
▁लेखक	-3961
▁व्हा	-3962
िब	-3963
क्षेत	-3964
▁कॉल	-3965
▁ऑफिस	-3966
▁अध्या	-3967
▁ऊर्जा	-3968
▁संचाल	-3969
▁जुड़े	-3970
धात	-3971
ल्पा	-3972
चित्र	-3973
▁सदर	-3974
▁डॉलर	-3975
श्री	-3976
▁कशी	-3977
▁करवा	-3978
▁मुश्	-3979
▁विशा	-3980
चीत	-3981
केश	-3982
जाव	-3983
▁दस	-3984
वीर	-3985
▁वस्तू	-3986
▁जिंक	-3987
▁वस्तु	-3988
▁केलेले	-3989
भरात	-3990
ळीत	-3991
▁दिल्या	-3992
गस्ट	-3993
▁दुसरी	-3994
▁बंगा	-3995
▁असतं	-3996
▁हेतु	-3997
▁खाते	-3998
ैल	-3999
▁indi	-4000
▁प्रिय	-4001
201	-4002
▁सोबत	-4003
टाने	-4004
▁तोंड	-4005
ळगाव	-4006
▁प्रतिक्रिया	-4007
▁नु	-4008
▁अंग्रे	-4009
▁किश	-4010
केल	-4011
▁समिति	-4012
▁कार्यालया	-4013
▁मोर्चा	-4014
▁खुला	-4015
▁एकाच	-4016
माला	-4017
प्रकरणी	-4018
▁सोडून	-4019
▁सारी	-4020
▁अन्न	-4021
तीश	-4022
▁झाल्याने	-4023
▁पव	-4024
▁अनिल	-4025
▁नाटक	-4026
▁असल्यामुळे	-4027
क्सी	-4028
▁दुः	-4029
▁हाय	-4030
ावरून	-4031
▁गेंद	-4032
कृत	-4033
▁संस्थान	-4034
ारास	-4035
▁काळजी	-4036
▁तारी	-4037
जीव	-4038
त्मक	-4039
षे	-4040
▁मात्रा	-4041
▁पार्ट	-4042
▁बू	-4043
▁समूह	-4044
▁खराब	-4045
▁199	-4046
▁समुद्र	-4047
▁अगस्त	-4048
▁चां	-4049
▁कार्यक्रमा	-4050
ब्बल	-4051
▁सोन	-4052
▁जागत	-4053
क्सर	-4054
▁गोवा	-4055
शाही	-4056
▁मुलांना	-4057
.3	-4058
▁ट्रेन	-4059
▁उपक्रम	-4060
▁न्यायालयाने	-4061
▁एक्ट	-4062
ावली	-4063
जात	-4064
▁एंड	-4065
▁खत्म	-4066
▁द्वि	-4067
ांकडून	-4068
णासाठी	-4069
र्द	-4070
▁उभे	-4071
▁प्रभावित	-4072
▁महिन्यात	-4073
▁अमेरिके	-4074
क्षम	-4075
मार्ग	-4076
िव्ह	-4077
▁गलत	-4078
▁मल	-4079
▁निवासी	-4080
पू	-4081
▁क्ला	-4082
▁रद्द	-4083
▁कोणती	-4084
▁अत्या	-4085
▁स्वातंत्र	-4086
▁करार	-4087
▁कोर	-4088
▁आधुनिक	-4089
▁मूल्य	-4090
▁पुरा	-4091
ृती	-4092
▁अरु	-4093
▁बँके	-4094
▁तेव	-4095
▁मिलता	-4096
▁असल्याचा	-4097
▁चोरी	-4098
▁वैद्य	-4099
▁महाराष्ट्रा	-4100
▁लु	-4101
▁बनने	-4102
लीज	-4103
▁करेगा	-4104
▁कार्यकर्त	-4105
▁संगठन	-4106
▁देती	-4107
ृत्ती	-4108
▁दर्जा	-4109
▁संघटना	-4110
▁सर्वसा	-4111
▁कस	-4112
ोब	-4113
▁चांगला	-4114
▁फिल	-4115
▁ट्वि	-4116
▁कब	-4117
▁जिसका	-4118
▁देण्यासाठी	-4119
कू	-4120
▁देणे	-4121
▁विनो	-4122
▁किर	-4123
▁किंमत	-4124
▁वजन	-4125
▁मुह	-4126
एच	-4127
ेश्वर	-4128
▁परवान	-4129
ंमध्ये	-4130
ज्ञानिक	-4131
▁सर्वोच्च	-4132
▁झालेला	-4133
▁आवाहन	-4134
▁ग्रुप	-4135
▁भांड	-4136
▁झाल्यानंतर	-4137
▁पर्यावरण	-4138
▁देशातील	-4139
▁साखर	-4140
▁कदा	-4141
▁खाना	-4142
▁तसा	-4143
▁धक्का	-4144
▁आकाश	-4145
▁पटेल	-4146
▁१६	-4147
▁संशोधन	-4148
ेद	-4149
▁दुपारी	-4150
▁मंत्रालय	-4151
करा	-4152
▁पड़ता	-4153
▁नाते	-4154
▁मिश्र	-4155
णाचे	-4156
▁आंबे	-4157
▁तभी	-4158
शाला	-4159
▁परेशान	-4160
स्कर	-4161
▁व्यावसाय	-4162
▁आठवड	-4163
▁डाउन	-4164
डिओ	-4165
नासाठी	-4166
▁शेवटी	-4167
▁मुकाब	-4168
▁कालाव	-4169
एँ	-4170
▁झालेले	-4171
▁यूपी	-4172
▁पालक	-4173
स्थे	-4174
पुढे	-4175
लीत	-4176
ाराम	-4177
▁पल	-4178
▁म्हणजेच	-4179
▁हातात	-4180
▁स्थानीय	-4181
▁जखमी	-4182
गरी	-4183
▁जाकर	-4184
▁रहेगा	-4185
▁मागील	-4186
▁घाय	-4187
▁विवे	-4188
▁जिम्मे	-4189
▁नेताओं	-4190
▁वतीने	-4191
▁हरिया	-4192
ियाँ	-4193
▁बिजली	-4194
▁बाजूला	-4195
▁धम	-4196
ूबर	-4197
स्ट्रेलिया	-4198
▁जोरदार	-4199
▁कराने	-4200
▁जानेवारी	-4201
मधे	-4202
▁कालावधी	-4203
डेल	-4204
▁सफलता	-4205
▁35	-4206
सों	-4207
▁विकेट	-4208
विण्यासाठी	-4209
मिता	-4210
▁दवा	-4211
▁घोषित	-4212
▁पाहा	-4213
▁वाढत	-4214
▁बावजूद	-4215
जु	-4216
▁असणार	-4217
▁ज्ये	-4218
▁घाट	-4219
▁स्पर्धा	-4220
साच्या	-4221
▁आश्वास	-4222
▁खून	-4223
and	-4224
ळं	-4225
यचा	-4226
▁हमारा	-4227
▁लखनऊ	-4228
▁गुणव	-4229
▁उलट	-4230
▁सप्ट	-4231
▁तशी	-4232
▁आत्महत्या	-4233
▁सोला	-4234
▁मुख्यमंत्र	-4235
तिहासिक	-4236
▁घेता	-4237
▁वेगवेगळ्या	-4238
▁गी	-4239
▁सफल	-4240
▁मंगलवार	-4241
▁देऊ	-4242
▁जाएंगे	-4243
▁कृषि	-4244
▁रोख	-4245
▁प्रस्तु	-4246
▁जागतिक	-4247
गण	-4248
पुरा	-4249
▁याचिका	-4250
▁ऑगस्ट	-4251
▁दहशत	-4252
तीच्या	-4253
▁विदेशी	-4254
त्ना	-4255
पंचा	-4256
▁पिंप	-4257
▁व्हाय	-4258
▁प्रदर्श	-4259
ck	-4260
▁गर्दी	-4261
▁माणूस	-4262
▁बातें	-4263
विद्यालय	-4264
▁आगामी	-4265
▁प्रतिसाद	-4266
▁अडचणी	-4267
▁चाहे	-4268
qu	-4269
▁लागणार	-4270
पंच	-4271
▁गंगा	-4272
▁is	-4273
▁तब्बल	-4274
▁जोशी	-4275
▁निवेश	-4276
वता	-4277
▁आंतरराष्ट्रीय	-4278
▁मुलगा	-4279
▁संचालक	-4280
स्म	-4281
▁काहीच	-4282
▁कराया	-4283
▁अद्या	-4284
ार्ज	-4285
▁द्	-4286
▁भरपूर	-4287
▁पिक	-4288
दृ	-4289
य़ा	-4290
▁चित्रपटा	-4291
णाऱ	-4292
वजी	-4293
▁स्थापित	-4294
▁ज्योति	-4295
▁पार्श्व	-4296
▁वेळे	-4297
▁मुद्दे	-4298
णवीस	-4299
▁रक्षा	-4300
ैक	-4301
▁व्यावसायिक	-4302
▁संभ	-4303
▁उत्स	-4304
▁अपराध	-4305
प्ति	-4306
रि	-4307
फाई	-4308
▁होण्याची	-4309
ate	-4310
▁रस्ता	-4311
पात	-4312
▁ज्येष्ठ	-4313
▁आदिवासी	-4314
▁वृत्त	-4315
ंगाबाद	-4316
ल्याची	-4317
▁सत्र	-4318
▁कों	-4319
▁जुन	-4320
▁सूची	-4321
णि	-4322
▁तेजी	-4323
▁सेट	-4324
ांतर	-4325
▁जागर	-4326
▁मेड	-4327
▁जुलाई	-4328
ps	-4329
फार	-4330
▁डिग्री	-4331
▁सोने	-4332
▁आसपास	-4333
▁अदालत	-4334
▁नोव्ह	-4335
▁सप्टेंबर	-4336
मति	-4337
▁नाट	-4338
▁साठी	-4339
▁शाळेत	-4340
▁तोड	-4341
ers	-4342
▁लागतो	-4343
▁परंपरा	-4344
▁फडणवीस	-4345
करिता	-4346
▁तित	-4347
वेल	-4348
▁तीव्र	-4349
▁विकल्प	-4350
ांशी	-4351
▁ठाकरे	-4352
▁एयर	-4353
▁29	-4354
▁ज़र	-4355
▁जुलै	-4356
▁कं	-4357
▁बला	-4358
कम	-4359
ावून	-4360
▁एप्र	-4361
▁कुठल्या	-4362
▁हाती	-4363
▁विश्वविद्यालय	-4364
▁सेवन	-4365
▁हंगा	-4366
▁शीर्ष	-4367
▁सांसद	-4368
ॅक	-4369
▁साइ	-4370
शास्त्र	-4371
डीत	-4372
न्ट	-4373
▁बर्	-4374
▁नोव्हेंबर	-4375
▁सुमारास	-4376
▁वित्त	-4377
▁आये	-4378
▁करु	-4379
▁मुख्या	-4380
स्ट्र	-4381
िनी	-4382
▁गू	-4383
▁विशाल	-4384
कद	-4385
▁५०	-4386
▁इतनी	-4387
▁काहीही	-4388
ंजन	-4389
▁सर्वे	-4390
▁बाळा	-4391
पुरी	-4392
▁शासकीय	-4393
▁सहायक	-4394
क्षणिक	-4395
▁जवळपास	-4396
▁भ्रष्टाचार	-4397
उंड	-4398
▁मिलेगा	-4399
ात्मा	-4400
दिन	-4401
▁तुर	-4402
▁तेथ	-4403
▁ऐतिहासिक	-4404
▁गुरुवार	-4405
▁निर्णया	-4406
▁2014	-4407
▁मिळणार	-4408
▁१४	-4409
अल	-4410
▁कोह	-4411
▁अट	-4412
▁झाड	-4413
▁छोट	-4414
▁चढ़	-4415
▁जर्म	-4416
▁हार्	-4417
▁उसमें	-4418
दिव	-4419
▁दिवाळी	-4420
▁कायद्या	-4421
म्मू	-4422
▁चित	-4423
▁ठेवून	-4424
चीन	-4425
▁तप	-4426
▁भाऊ	-4427
▁दूसरा	-4428
▁सव	-4429
▁देखकर	-4430
ळव	-4431
मय	-4432
▁शरद	-4433
▁for	-4434
कांचे	-4435
कुल	-4436
▁महाप	-4437
▁हवी	-4438
तार	-4439
▁पडला	-4440
▁मेहन	-4441
▁निवडणुकीत	-4442
ायी	-4443
▁ताब्यात	-4444
▁con	-4445
▁अभिनेत्री	-4446
▁नाय	-4447
▁व्यवसा	-4448
▁योगी	-4449
▁सातारा	-4450
ive	-4451
▁त्रि	-4452
▁सप्ताह	-4453
दर्शक	-4454
भो	-4455
▁शाळे	-4456
▁लक्ष्मी	-4457
▁तिस	-4458
्याद	-4459
▁तकनी	-4460
तों	-4461
▁बिग	-4462
▁बेटे	-4463
धरी	-4464
प्रदेश	-4465
▁एप्रिल	-4466
▁अद्याप	-4467
ub	-4468
▁ग्	-4469
▁अधिकाऱ	-4470
▁अश्	-4471
▁उद्य	-4472
,000	-4473
घु	-4474
न्ध	-4475
वलं	-4476
▁प्रणाली	-4477
▁संभव	-4478
▁गाज	-4479
▁विराट	-4480
▁पान	-4481
▁जम्मू	-4482
ळक	-4483
▁मिळते	-4484
अप	-4485
आधी	-4486
▁देकर	-4487
ज़र	-4488
▁मतलब	-4489
▁इशारा	-4490
▁बंग	-4491
▁बदलाव	-4492
▁औरंगाबाद	-4493
▁महसूस	-4494
▁शास्त्र	-4495
फिक	-4496
▁चैन	-4497
▁वास्तव	-4498
क्कर	-4499
▁जगा	-4500
▁येत्या	-4501
▁दान	-4502
▁किमान	-4503
▁साडे	-4504
▁मधे	-4505
▁मई	-4506
▁लावून	-4507
▁असर	-4508
▁डाउनलोड	-4509
▁उचल	-4510
▁वर्षीय	-4511
असल	-4512
शाली	-4513
▁प्रक	-4514
▁छात्रों	-4515
▁भोजन	-4516
▁सांगा	-4517
▁उत्तरा	-4518
जाम	-4519
▁सिंग	-4520
मला	-4521
▁इलाज	-4522
▁म्हणाला	-4523
ठ्	-4524
शान	-4525
▁हिमा	-4526
▁सम्म	-4527
▁वर्षात	-4528
▁इंग्रजी	-4529
कृति	-4530
इक	-4531
▁साबित	-4532
▁सरकारच्या	-4533
▁घोटा	-4534
ट्स	-4535
▁वेतन	-4536
▁वैज्ञानिक	-4537
पथ	-4538
▁काळा	-4539
▁प्रदू	-4540
▁याच्या	-4541
▁सर्वच	-4542
▁दरअसल	-4543
▁काहीतरी	-4544
▁शेअर	-4545
▁ब्रिट	-4546
टरी	-4547
▁त्यानुसार	-4548
श्रम	-4549
▁लड़क	-4550
▁द्र	-4551
▁आदर्श	-4552
लक्ष	-4553
▁१७	-4554
गीय	-4555
▁वीर	-4556
▁परवानगी	-4557
▁विशिष्ट	-4558
प्रा	-4559
▁एकच	-4560
हारी	-4561
▁खासगी	-4562
थि	-4563
▁डिसेंबर	-4564
▁60	-4565
▁वेद	-4566
▁टीवी	-4567
ss	-4568
काय	-4569
ॉक	-4570
▁केलेला	-4571
▁घरे	-4572
▁वोट	-4573
▁शैक्षणिक	-4574
क्रिय	-4575
मान्य	-4576
▁सैनिक	-4577
ुका	-4578
▁कायदा	-4579
▁तुझ्या	-4580
▁राहील	-4581
स्कृतिक	-4582
▁स्वतःच्या	-4583
▁उड	-4584
▁न्यूज	-4585
▁आढळ	-4586
▁हमला	-4587
▁सोह	-4588
वाली	-4589
▁लेना	-4590
▁सोमवारी	-4591
थर	-4592
ॅम	-4593
▁टू	-4594
▁मुले	-4595
▁कोणता	-4596
▁मंडळी	-4597
बाहेर	-4598
वाच्या	-4599
ोरे	-4600
▁जिसकी	-4601
▁क़	-4602
▁नारायण	-4603
▁संय	-4604
▁पहिला	-4605
▁नागपूर	-4606
लाही	-4607
्यातून	-4608
ज़ा	-4609
pt	-4610
ine	-4611
बीर	-4612
फल	-4613
▁संध्या	-4614
▁इनके	-4615
▁मृत्यु	-4616
▁सुनील	-4617
▁नसेल	-4618
▁हरा	-4619
▁आश्च	-4620
▁होणे	-4621
▁विजे	-4622
घाटन	-4623
▁मधु	-4624
▁संकट	-4625
त्तीस	-4626
▁सांगत	-4627
गरा	-4628
सिंग	-4629
▁कदाचित	-4630
▁न्यायालयात	-4631
▁चर्चे	-4632
▁दीपक	-4633
स्ट्री	-4634
tt	-4635
फो	-4636
▁जाति	-4637
य़	-4638
▁राख	-4639
▁जॉ	-4640
त्सा	-4641
नामा	-4642
▁मंच	-4643
▁मजा	-4644
▁शुल्क	-4645
ik	-4646
▁निमित	-4647
▁किताब	-4648
▁सकारात्मक	-4649
▁चेहरे	-4650
▁जबर	-4651
▁बरेच	-4652
▁बौ	-4653
▁अना	-4654
▁रिकॉर्ड	-4655
▁सांस्कृतिक	-4656
▁उनको	-4657
इस	-4658
▁संपाद	-4659
▁किशोर	-4660
▁दबाव	-4661
र्भात	-4662
▁छि	-4663
ain	-4664
▁करायचा	-4665
▁उर्	-4666
▁बंगाल	-4667
▁कर्मचा	-4668
▁त्वचा	-4669
▁तरु	-4670
▁वायर	-4671
साची	-4672
क्टो	-4673
▁क्लिक	-4674
▁योगदान	-4675
▁दुख	-4676
▁ग्रे	-4677
▁अमर	-4678
▁लगेच	-4679
▁2015	-4680
em	-4681
▁मेल	-4682
▁गाँ	-4683
▁मस्त	-4684
▁सजा	-4685
▁बिक	-4686
▁ग्रंथ	-4687
▁बाग	-4688
▁कोहली	-4689
▁चौधरी	-4690
विरोधात	-4691
▁सोलापूर	-4692
एसटी	-4693
▁पशु	-4694
▁एक्	-4695
▁निरीक्षक	-4696
उट	-4697
▁संशय	-4698
नें	-4699
यचं	-4700
▁असू	-4701
▁पीड़	-4702
▁पालन	-4703
▁चांगल्या	-4704
▁पोट	-4705
▁इतके	-4706
▁हल्ला	-4707
उंट	-4708
ंकर	-4709
▁डर	-4710
ौल	-4711
▁गुरू	-4712
▁परिवर्तन	-4713
▁दोष	-4714
धारी	-4715
▁रखते	-4716
▁अक्ट	-4717
▁छह	-4718
▁राज्यों	-4719
▁सभाग	-4720
▁इलेक्ट	-4721
.0	-4722
▁समाचार	-4723
▁मिट	-4724
▁राहणार	-4725
▁गायक	-4726
▁रुग्ण	-4727
ताई	-4728
▁शारी	-4729
▁तपासणी	-4730
▁तमाम	-4731
▁याने	-4732
▁अस्तित्व	-4733
▁जहाँ	-4734
▁लांब	-4735
▁मौसम	-4736
▁उद्ध	-4737
याच्या	-4738
▁जल्दी	-4739
▁आलेले	-4740
▁तिचा	-4741
▁निजी	-4742
▁मुश्किल	-4743
▁धोरण	-4744
▁आसान	-4745
▁१००	-4746
▁अजूनही	-4747
▁दुसरा	-4748
▁मशीन	-4749
▁क्षेत्रों	-4750
▁उर	-4751
गृह	-4752
▁चरण	-4753
▁खोज	-4754
जों	-4755
जण	-4756
▁फूल	-4757
भेत	-4758
▁अरब	-4759
▁सहकारी	-4760
ौती	-4761
ांव	-4762
▁सुनाव	-4763
▁नीति	-4764
▁mar	-4765
▁विद्यापीठ	-4766
▁१३	-4767
ावत	-4768
▁दिना	-4769
▁डिज	-4770
▁व्ही	-4771
▁स्टा	-4772
▁समेत	-4773
▁वाचा	-4774
▁मार्गदर्शन	-4775
▁गुला	-4776
सर्	-4777
▁अक्टूबर	-4778
कृष्ट	-4779
▁उद	-4780
▁नज	-4781
▁गुणवत्ता	-4782
पूर्वक	-4783
▁उज	-4784
चने	-4785
ोली	-4786
▁हरियाणा	-4787
▁नसते	-4788
ानंतर	-4789
दरम्यान	-4790
▁शासनाने	-4791
विरुद्ध	-4792
▁साइट	-4793
▁बंदी	-4794
▁लिंक	-4795
▁केल्यानंतर	-4796
▁महे	-4797
▁मंजूर	-4798
▁मैदान	-4799
▁संभावना	-4800
▁प्रकारे	-4801
▁महाराष्ट्रात	-4802
▁छत्तीस	-4803
▁आजही	-4804
▁बातचीत	-4805
▁उभ	-4806
तीन	-4807
कं	-4808
▁जैन	-4809
▁थोडा	-4810
क्टोबर	-4811
tic	-4812
ंसाठी	-4813
▁मध्यम	-4814
▁निर्धार	-4815
▁घेणे	-4816
वायला	-4817
▁दृष्टीने	-4818
▁केन्द्र	-4819
▁you	-4820
▁धन्य	-4821
▁दिसते	-4822
▁विद्यार्थ्यांना	-4823
▁आखिर	-4824
▁कार्	-4825
▁सहायता	-4826
▁बहा	-4827
▁मुलगी	-4828
ाजन	-4829
▁बाजारात	-4830
▁करण्याच्या	-4831
धीश	-4832
▁नियु	-4833
भूमीवर	-4834
▁लवकरच	-4835
दों	-4836
▁ड्र	-4837
▁आसानी	-4838
▁ap	-4839
▁पर्व	-4840
▁विना	-4841
▁ऑस्ट्रेलिया	-4842
▁अर्थव्यव	-4843
▁पंड	-4844
▁विद्यालय	-4845
▁गुंतवणूक	-4846
ज्ञा	-4847
▁कारखान	-4848
.2	-4849
▁अग्	-4850
▁प्रेरणा	-4851
▁खेळाडू	-4852
▁मुंबईत	-4853
▁शांति	-4854
▁वाईट	-4855
कांचा	-4856
▁श्रद्धा	-4857
ायर	-4858
▁अमेरिकी	-4859
▁कागद	-4860
▁अक्सर	-4861
▁इंत	-4862
▁असला	-4863
▁तत्व	-4864
ख्ये	-4865
▁सायं	-4866
▁फुल	-4867
▁हित	-4868
रू	-4869
संब	-4870
▁राहिले	-4871
▁असल्यास	-4872
▁दुरु	-4873
▁भूमि	-4874
▁जागे	-4875
▁सितंबर	-4876
ायचे	-4877
▁बताते	-4878
▁करायचे	-4879
▁नावे	-4880
▁प्रश्ना	-4881
▁नियोजन	-4882
दरा	-4883
▁कही	-4884
▁आँ	-4885
डीने	-4886
▁मौका	-4887
▁शव	-4888
▁रविवारी	-4889
▁हस्त	-4890
▁वाघ	-4891
▁घायल	-4892
▁सुरेश	-4893
लिश	-4894
▁पकड	-4895
▁कार्यरत	-4896
सारखी	-4897
बद्ध	-4898
▁समृ	-4899
se	-4900
▁स्टे	-4901
▁प्री	-4902
▁नवंबर	-4903
▁संस्कृति	-4904
▁बारिश	-4905
▁विरोधात	-4906
▁मुसल	-4907
▁धारा	-4908
▁प्राचीन	-4909
ोषण	-4910
▁युव	-4911
▁अंम	-4912
▁त्यातील	-4913
▁तहस	-4914
▁दै	-4915
्वा	-4916
▁आरा	-4917
▁म्हणूनच	-4918
ज्ञाना	-4919
मंत	-4920
▁संवि	-4921
▁विन	-4922
▁जनवरी	-4923
च्चा	-4924
▁शारीरिक	-4925
▁बँक	-4926
▁सल्ला	-4927
▁चयन	-4928
ावरील	-4929
नेस	-4930
▁सिंध	-4931
▁दिशे	-4932
▁मराठ	-4933
▁पाहिले	-4934
ंटर	-4935
▁आयुष्य	-4936
▁पोच	-4937
्होंने	-4938
▁भागातील	-4939
▁संस्कृती	-4940
▁मनोर	-4941
▁भारती	-4942
लाने	-4943
▁लेखन	-4944
▁मश	-4945
रान	-4946
▁टॉम	-4947
संघ	-4948
▁लोकांनी	-4949
▁देशमुख	-4950
▁आराम	-4951
▁टेक्	-4952
▁प्ले	-4953
ग्रस्त	-4954
िणी	-4955
सरी	-4956
▁स्पर्धे	-4957
विला	-4958
▁व्यापारी	-4959
कृती	-4960
▁अध्ययन	-4961
सात	-4962
▁करनी	-4963
▁झाल्यावर	-4964
ड़ियों	-4965
▁तैयारी	-4966
▁बांग	-4967
▁वाग	-4968
सेज	-4969
▁पुत	-4970
▁देवेंद्र	-4971
▁सुरुवाती	-4972
ियत	-4973
▁बुधवारी	-4974
▁गों	-4975
▁रवी	-4976
ण्य	-4977
ोने	-4978
ावेत	-4979
▁देण्याची	-4980
कृष्ण	-4981
कील	-4982
▁बारा	-4983
▁भीतर	-4984
▁वाटतं	-4985
▁साथी	-4986
▁मते	-4987
▁सक्षम	-4988
च्छा	-4989
तोय	-4990
▁पहिली	-4991
▁बाबतीत	-4992
त्मा	-4993
▁फिल्मों	-4994
▁उत्साह	-4995
स्टम	-4996
▁क्षण	-4997
▁ठाण्यात	-4998
▁बोलताना	-4999
▁x	-5000
▁मोहि	-5001
▁कचरा	-5002
ॅन	-5003
ंतर्गत	-5004
▁इत्यादी	-5005
▁शुक्रवारी	-5006
लोक	-5007
▁जरिए	-5008
▁सामग्री	-5009
▁पडले	-5010
▁रिलीज	-5011
▁प्रोत्सा	-5012
▁घेऊ	-5013
▁अप्रैल	-5014
▁शहा	-5015
▁माती	-5016
▁मुझ	-5017
▁पूछा	-5018
▁मेट	-5019
▁बाई	-5020
▁संसद	-5021
▁सलाह	-5022
▁सिटी	-5023
▁तस	-5024
▁मधील	-5025
▁डेटा	-5026
कला	-5027
लु	-5028
फोट	-5029
▁नात	-5030
▁सख	-5031
▁एशिया	-5032
▁ब्राह्म	-5033
▁साक्ष	-5034
▁अभिय	-5035
▁दैन	-5036
वाले	-5037
▁पेपर	-5038
▁श्रेणी	-5039
▁सरकारला	-5040
ल्याचा	-5041
▁नसल्याचे	-5042
तरे	-5043
▁येतील	-5044
▁गणपती	-5045
▁मेहनत	-5046
▁करायची	-5047
▁स्मार्टफोन	-5048
▁सत्ते	-5049
ानं	-5050
▁जप	-5051
▁सब्	-5052
▁विरुद्ध	-5053
▁जरी	-5054
▁संबोध	-5055
▁बल्ले	-5056
ंचाई	-5057
50	-5058
षिक	-5059
▁वृद्धि	-5060
कता	-5061
▁मंगळवारी	-5062
▁गल	-5063
▁आश्चर्य	-5064
▁बलात्कार	-5065
▁बहि	-5066
▁हॉटेल	-5067
▁इलाके	-5068
ेशी	-5069
▁ex	-5070
▁अरे	-5071
▁निशा	-5072
▁नक्कीच	-5073
▁तात	-5074
▁pro	-5075
▁स्पर्धेत	-5076
▁दीड	-5077
ोत्सव	-5078
▁छोटा	-5079
▁प्रतिबंध	-5080
▁घेण्यासाठी	-5081
▁जावे	-5082
▁स्तन	-5083
▁संतोष	-5084
▁ठेवले	-5085
वर्ण	-5086
▁हिंसा	-5087
णीव	-5088
▁ध्व	-5089
▁भले	-5090
त्तर	-5091
▁मॉडल	-5092
मात	-5093
▁बैठे	-5094
क्षेप	-5095
्याच	-5096
ंजी	-5097
ान्स	-5098
vi	-5099
स्टी	-5100
▁ऑक्टोबर	-5101
▁म्हणत	-5102
▁लोगो	-5103
▁जिंदगी	-5104
▁टॅ	-5105
▁अभिनेता	-5106
▁कुर	-5107
मागे	-5108
▁थोड़ा	-5109
पादन	-5110
याम	-5111
op	-5112
▁आंबेडकर	-5113
are	-5114
दिक	-5115
▁नष्ट	-5116
▁उद्घाटन	-5117
म्मद	-5118
▁इलेक्ट्र	-5119
▁सारा	-5120
▁शब्दों	-5121
्यांसाठी	-5122
▁नेटवर्	-5123
ळकर	-5124
निर्	-5125
▁देणार	-5126
▁ट्रक	-5127
जित	-5128
▁सहभाग	-5129
▁जायेगा	-5130
▁प्राण	-5131
▁फ़ि	-5132
▁माहीत	-5133
▁औषध	-5134
▁कप्ता	-5135
▁टप्प	-5136
▁टाळ	-5137
▁होणाऱ्या	-5138
तौर	-5139
▁जनरल	-5140
देह	-5141
▁भौ	-5142
ाज्य	-5143
▁अवै	-5144
▁नां	-5145
काज	-5146
▁रखें	-5147
सारखा	-5148
▁अय	-5149
ाच्या	-5150
▁सामन	-5151
▁वर्षों	-5152
ळावर	-5153
काची	-5154
▁आदित्य	-5155
▁सीएम	-5156
▁इरा	-5157
▁वहाँ	-5158
▁समारोह	-5159
▁साय	-5160
▁छाया	-5161
▁साजरा	-5162
▁मोक	-5163
.4	-5164
▁ठाणे	-5165
▁प्रस्तुत	-5166
▁नाईक	-5167
▁बैठकीत	-5168
▁गठ	-5169
िको	-5170
▁गाठ	-5171
▁कॉम	-5172
▁शनिवारी	-5173
नियर	-5174
▁पर्यटन	-5175
जारी	-5176
▁विसर	-5177
▁रोम	-5178
▁तिचे	-5179
विका	-5180
▁खड	-5181
▁इनमें	-5182
ंगिक	-5183
▁प्रि	-5184
▁हट	-5185
▁मेह	-5186
▁भरा	-5187
▁पहिले	-5188
कारक	-5189
▁उपाध्यक्ष	-5190
▁नगरसेवक	-5191
मानी	-5192
▁राग	-5193
▁खड़े	-5194
ेंसी	-5195
▁पढ़ें	-5196
▁भवन	-5197
▁तिची	-5198
▁चेहरा	-5199
▁कामगिरी	-5200
विली	-5201
▁लागतात	-5202
▁गुर	-5203
▁घुस	-5204
▁दृष्ट	-5205
▁शानदार	-5206
▁खिलाड़ी	-5207
ist	-5208
▁हरि	-5209
▁उतार	-5210
▁दुःख	-5211
▁ग्रामपंचा	-5212
▁शक्ती	-5213
ौन	-5214
वानी	-5215
▁गरजेचे	-5216
▁मनी	-5217
ब्रु	-5218
▁सक्रिय	-5219
▁दाखव	-5220
▁स्क्रीन	-5221
▁मिलती	-5222
▁दंड	-5223
▁वेगळे	-5224
▁महापालिका	-5225
▁शेतकऱ्यांना	-5226
▁जाणून	-5227
▁हस्ते	-5228
वाणी	-5229
▁रहें	-5230
पदा	-5231
▁धोका	-5232
▁पुष्	-5233
▁आड	-5234
▁चाहती	-5235
▁बोली	-5236
▁आतापर्यंत	-5237
▁प्रतिमा	-5238
▁क्री	-5239
▁ओढ	-5240
▁बदला	-5241
ome	-5242
माता	-5243
▁शुद्ध	-5244
जोर	-5245
्हान	-5246
▁करणारा	-5247
▁राजेश	-5248
▁पवित्र	-5249
▁इन्हें	-5250
ैया	-5251
सिन	-5252
्ताने	-5253
▁अहवाल	-5254
▁बॅं	-5255
▁गॅ	-5256
▁डिजिटल	-5257
ci	-5258
▁येणाऱ्या	-5259
▁सगळं	-5260
▁ठाक	-5261
▁खाद्य	-5262
▁al	-5263
▁छत्र	-5264
शिप	-5265
▁अवलंब	-5266
▁रखना	-5267
्यूटर	-5268
सीसी	-5269
▁प्रभावी	-5270
▁शिकार	-5271
▁इतकी	-5272
▁२०१८	-5273
▁आश्वासन	-5274
▁दुसर्या	-5275
▁काट	-5276
▁सम्ब	-5277
▁शूट	-5278
ात्रा	-5279
▁भाषण	-5280
▁मिनिट	-5281
▁चुना	-5282
▁गेलो	-5283
▁लिह	-5284
▁शास्त	-5285
ग्न	-5286
▁वैद्यकीय	-5287
▁आहार	-5288
मरा	-5289
▁प्रारंभ	-5290
▁साठ	-5291
▁खी	-5292
▁छु	-5293
िमंड	-5294
▁प्रकल्पा	-5295
णक	-5296
▁मैने	-5297
ानुसार	-5298
▁समाप्त	-5299
▁अनुमान	-5300
▁परिय	-5301
▁कोणते	-5302
▁जीएसटी	-5303
संख्या	-5304
▁गरम	-5305
▁दगड	-5306
▁इतने	-5307
बन	-5308
▁तेच	-5309
▁पकड़	-5310
▁आलेली	-5311
▁सेक	-5312
▁संस्कार	-5313
▁श्	-5314
▁बढ़ाने	-5315
▁india	-5316
▁जुन्या	-5317
▁करणार्या	-5318
▁वडि	-5319
▁कार्यकारी	-5320
▁खरं	-5321
▁पद्धती	-5322
▁फेब्रु	-5323
गन	-5324
मिन	-5325
▁संविधान	-5326
▁32	-5327
नाने	-5328
▁भोस	-5329
▁संबंधी	-5330
ht	-5331
नातून	-5332
▁सांगितलं	-5333
▁गोर	-5334
▁परियोजना	-5335
▁आर्	-5336
▁त्यांच्यावर	-5337
उस	-5338
▁दोघे	-5339
▁जगात	-5340
ायची	-5341
▁कौशल	-5342
▁मुद्रा	-5343
▁तिक	-5344
▁शेख	-5345
दूर	-5346
▁तहसील	-5347
▁फरक	-5348
▁अवस्था	-5349
वराज	-5350
▁मुसलमान	-5351
▁वास्तविक	-5352
▁मैदा	-5353
▁व्र	-5354
▁सफाई	-5355
▁मानवी	-5356
▁समजून	-5357
▁स्वच्छता	-5358
सभे	-5359
वण	-5360
▁प्रार्थ	-5361
ess	-5362
▁बारी	-5363
▁विनोद	-5364
▁सुभाष	-5365
▁स्वप्न	-5366
िस्ट	-5367
▁स्थापन	-5368
▁परमेश्वर	-5369
▁सपा	-5370
▁कर्मचारियों	-5371
▁मोज	-5372
▁आक्रम	-5373
▁आजच्या	-5374
छा	-5375
▁परम	-5376
▁स्टेट	-5377
▁वृक्ष	-5378
▁अक	-5379
▁अधिव	-5380
▁जाणीव	-5381
▁सांगली	-5382
▁पुण्या	-5383
रीन	-5384
▁फेब्रुवारी	-5385
ॉर्म	-5386
▁कर्त	-5387
▁कंपनियों	-5388
▁इंडियन	-5389
▁लड़ा	-5390
▁शंकर	-5391
स्तानी	-5392
हाय	-5393
▁सेंटर	-5394
ष्ठा	-5395
▁केल्याने	-5396
▁ph	-5397
▁निभा	-5398
▁पटना	-5399
▁प्रसंग	-5400
▁रुग्णालयात	-5401
▁नोटा	-5402
▁इंसान	-5403
▁ad	-5404
▁पोह	-5405
▁स्वातंत्र्य	-5406
▁पाई	-5407
▁धर्मा	-5408
वट	-5409
▁नाराज	-5410
▁सहन	-5411
▁70	-5412
▁चली	-5413
▁शराब	-5414
▁चंद	-5415
कोर	-5416
▁सोप	-5417
▁पटक	-5418
▁झाल्याचे	-5419
▁भाजी	-5420
▁चूत	-5421
▁कक्षा	-5422
▁वर्षांपासून	-5423
one	-5424
▁ऑनलाईन	-5425
▁केजरी	-5426
ly	-5427
▁रूपये	-5428
ेड	-5429
पाई	-5430
त्तम	-5431
▁धरण	-5432
▁up	-5433
▁भूल	-5434
संदर्भात	-5435
▁फायदे	-5436
▁यांच्यासह	-5437
▁गुप्ता	-5438
▁क्रिया	-5439
ऐवजी	-5440
बारा	-5441
▁कार्यवाही	-5442
▁सुनि	-5443
पया	-5444
▁प्रकारच्या	-5445
द्रा	-5446
▁किरण	-5447
▁80	-5448
▁आव्हान	-5449
▁भीती	-5450
▁ग्राहक	-5451
▁देंगे	-5452
▁लाइन	-5453
▁कामकाज	-5454
▁सागर	-5455
▁यापूर्वी	-5456
घे	-5457
▁अनुदान	-5458
▁फैसले	-5459
▁तुलने	-5460
▁पुराने	-5461
▁अधीक्षक	-5462
▁कितना	-5463
▁ट्वी	-5464
▁ष	-5465
▁अंश	-5466
▁धन्यवाद	-5467
▁पाक	-5468
▁असत	-5469
▁तालुका	-5470
णीय	-5471
वर्धन	-5472
निमित	-5473
art	-5474
▁बहन	-5475
▁पार्क	-5476
▁मोहन	-5477
▁लॉन्	-5478
▁बनाई	-5479
▁मंदिरा	-5480
▁अजय	-5481
▁आंक	-5482
▁चिकित्	-5483
▁उभा	-5484
▁पारंप	-5485
▁फिल्	-5486
▁कडे	-5487
▁कमाई	-5488
▁बनाकर	-5489
िला	-5490
▁मूर्ती	-5491
ोजे	-5492
▁उमेद	-5493
▁साई	-5494
▁केल्यास	-5495
▁महापौर	-5496
ापन	-5497
▁इतका	-5498
▁जिन्हें	-5499
▁2019	-5500
▁वर्षांपूर्वी	-5501
देशीर	-5502
दारा	-5503
▁राजन	-5504
▁मामलों	-5505
▁खड़ा	-5506
▁मिलकर	-5507
▁घडली	-5508
ant	-5509
▁औद्योग	-5510
▁बऱ्या	-5511
▁पिंपरी	-5512
▁एवढ	-5513
ल्यात	-5514
▁टक्क	-5515
▁वाक	-5516
▁बीमार	-5517
यीन	-5518
▁देवा	-5519
▁रिस	-5520
▁प्रतिष्ठ	-5521
▁मस्	-5522
▁भक्त	-5523
▁बाप	-5524
▁कर्मचाऱ	-5525
▁होतील	-5526
▁मेडिकल	-5527
एशन	-5528
▁अवैध	-5529
▁हाद	-5530
▁पाठी	-5531
जावणी	-5532
षक	-5533
▁निधन	-5534
▁चहा	-5535
▁मास	-5536
▁परन्तु	-5537
ेंज	-5538
▁जिल्हाधिकारी	-5539
▁अरुण	-5540
ानि	-5541
▁काला	-5542
▁मंडळ	-5543
▁पडली	-5544
▁छात्रा	-5545
▁परिसरातील	-5546
लबजावणी	-5547
▁pr	-5548
▁क्लब	-5549
▁आजा	-5550
▁इंज	-5551
न्त	-5552
▁बनव	-5553
▁जुड़ी	-5554
▁युर	-5555
▁एसटी	-5556
▁वितरण	-5557
▁सांगण्यात	-5558
▁अके	-5559
▁तापमान	-5560
यती	-5561
▁हनु	-5562
▁कोट	-5563
▁अपघा	-5564
न्ह	-5565
▁गुरुवारी	-5566
त्याने	-5567
▁पाठि	-5568
ांतील	-5569
काचे	-5570
▁फ्री	-5571
▁तक्रारी	-5572
▁यूर	-5573
▁198	-5574
▁केजरीवाल	-5575
▁महात्मा	-5576
▁तोड़	-5577
▁पदों	-5578
▁artic	-5579
▁तात्	-5580
▁कोणतीही	-5581
▁२१	-5582
▁पार्श्वभूमीवर	-5583
▁पाहता	-5584
▁गावा	-5585
▁बसला	-5586
▁बुला	-5587
▁प्रेक्ष	-5588
▁करेगी	-5589
if	-5590
▁पुरे	-5591
▁कले	-5592
▁उसको	-5593
वादा	-5594
▁निदेश	-5595
सर्गिक	-5596
▁ब्राह्मण	-5597
▁दखल	-5598
▁एक्सप	-5599
▁po	-5600
▁हृदय	-5601
मंद	-5602
▁सगळी	-5603
▁लढा	-5604
▁ईश्वर	-5605
▁ट्विटर	-5606
▁सीख	-5607
▁पद्	-5608
र्घ	-5609
▁स्थिर	-5610
▁खट	-5611
▁प्रत्या	-5612
▁उपयुक्त	-5613
▁वर्षांत	-5614
▁क्षेत्रातील	-5615
▁सॉफ्ट	-5616
▁शकेल	-5617
▁दत्त	-5618
▁पें	-5619
▁उत्सव	-5620
▁हां	-5621
ड्डी	-5622
▁कार्यकर्ते	-5623
ांश	-5624
▁रखी	-5625
▁तृ	-5626
▁साकार	-5627
▁bh	-5628
▁कशा	-5629
णू	-5630
▁व्याख्या	-5631
▁छोट्या	-5632
▁नृ	-5633
स्टा	-5634
▁सर्वांना	-5635
चाकी	-5636
▁निषे	-5637
▁स्पे	-5638
▁उपकरण	-5639
▁गर्म	-5640
▁चिंच	-5641
▁कधीच	-5642
▁no	-5643
यकल	-5644
▁टिकट	-5645
▁यातून	-5646
▁तालुक्यात	-5647
न्ड	-5648
▁बहुते	-5649
▁प्रदूषण	-5650
▁पदाधिकारी	-5651
ांकडे	-5652
▁माया	-5653
▁we	-5654
लम	-5655
▁रंगा	-5656
▁अक्षर	-5657
▁वर्णन	-5658
▁शत्र	-5659
ort	-5660
▁निगम	-5661
्रॉ	-5662
▁कहने	-5663
▁कृती	-5664
▁सांगतात	-5665
त्रिक	-5666
▁वैशिष्ट	-5667
▁फॉर्म	-5668
वृ	-5669
▁हालत	-5670
▁मारा	-5671
▁देण्याचा	-5672
▁बीमारी	-5673
ायचा	-5674
▁कब्	-5675
▁नसून	-5676
दै	-5677
सीय	-5678
▁प्लास्टिक	-5679
▁सकाळ	-5680
▁आभार	-5681
▁पृष्ठ	-5682
▁हमले	-5683
▁आजार	-5684
देवी	-5685
▁राजकारण	-5686
▁रोहित	-5687
▁किमी	-5688
प्रमुख	-5689
▁चुक	-5690
▁तारीख	-5691
▁स्वतःला	-5692
▁खात्री	-5693
▁पोलिसांना	-5694
लाच्या	-5695
मार्फत	-5696
मिटेड	-5697
▁२४	-5698
▁उन्	-5699
▁फळ	-5700
▁कृपया	-5701
▁कोठ	-5702
▁कपडे	-5703
▁चाय	-5704
▁महेश	-5705
▁ब्रह्म	-5706
▁टन	-5707
▁सायंकाळी	-5708
▁थक	-5709
▁हाच	-5710
▁सालों	-5711
▁गौरव	-5712
▁व्यापक	-5713
▁ब्रिटिश	-5714
▁कोणताही	-5715
▁जेट	-5716
ार्थी	-5717
▁युग	-5718
▁वित्	-5719
वां	-5720
▁सावंत	-5721
▁अंमलबजावणी	-5722
ार्म	-5723
विन	-5724
▁भविष	-5725
▁अपेक्षित	-5726
बरोबरच	-5727
▁महत्त्वाचे	-5728
▁पाप	-5729
▁सरपंच	-5730
▁हाथों	-5731
▁मोड	-5732
▁आकर	-5733
▁म्हटलं	-5734
लेलं	-5735
▁चिकित्सा	-5736
लान	-5737
▁सांभा	-5738
▁तुरंत	-5739
▁खां	-5740
▁विभागाने	-5741
▁संसार	-5742
ang	-5743
▁शह	-5744
क्रो	-5745
▁थोडे	-5746
▁दोषी	-5747
▁त्यामध्ये	-5748
▁देखें	-5749
▁असणाऱ्या	-5750
▁लष्	-5751
▁तिर	-5752
ोबार	-5753
▁छत्तीसगढ़	-5754
▁बजट	-5755
▁प्रसन्न	-5756
▁निर्धारित	-5757
ind	-5758
पेयी	-5759
▁लिंग	-5760
▁तत्कालीन	-5761
▁सुच	-5762
▁पडत	-5763
▁वर्ल्ड	-5764
▁झु	-5765
▁झार	-5766
▁पीक	-5767
▁चलने	-5768
कर्म	-5769
iv	-5770
▁मुर	-5771
▁लगाए	-5772
▁जागी	-5773
▁भारतातील	-5774
▁निवास	-5775
▁सौर	-5776
▁मंडळा	-5777
▁रखे	-5778
▁कोणाला	-5779
सरों	-5780
▁गोड	-5781
जो	-5782
▁प्रगती	-5783
ह्	-5784
▁कप्तान	-5785
▁लाने	-5786
▁गोली	-5787
प्रकार	-5788
▁चालक	-5789
▁थोड़ी	-5790
▁दुर्घ	-5791
▁सृ	-5792
▁चतु	-5793
▁खूबसूर	-5794
दाबाद	-5795
▁मालिक	-5796
▁माहित	-5797
▁नोंदणी	-5798
▁वडील	-5799
क्षेत्र	-5800
▁सांगून	-5801
▁सीधे	-5802
▁स्त्रिया	-5803
▁संभा	-5804
▁प्रार्थना	-5805
राच्या	-5806
▁तसं	-5807
▁फिलहाल	-5808
▁बें	-5809
▁नेहर	-5810
▁article	-5811
▁प्रभारी	-5812
ide	-5813
▁पातळीवर	-5814
▁मुलाकात	-5815
▁उन्हा	-5816
▁व्हिडिओ	-5817
टीत	-5818
▁प्रकर	-5819
इज	-5820
प्रे	-5821
▁औद्योगिक	-5822
▁wh	-5823
▁2013	-5824
▁पुरवठा	-5825
▁तट	-5826
▁वित्तीय	-5827
▁उद्देश्य	-5828
प्ट	-5829
▁राहून	-5830
▁फुले	-5831
▁कोकण	-5832
ोगा	-5833
▁मिश	-5834
▁गेम	-5835
िन्ह	-5836
▁उदय	-5837
णाने	-5838
▁पाण्या	-5839
og	-5840
▁हिन्दू	-5841
▁चर्च	-5842
▁करणारी	-5843
▁क्रे	-5844
▁राजेंद्र	-5845
▁गज	-5846
▁खुले	-5847
▁प्रभु	-5848
▁सिस्टम	-5849
लेस	-5850
▁पेर	-5851
व्यात	-5852
▁असावा	-5853
जिए	-5854
ित्स	-5855
▁me	-5856
▁वकील	-5857
▁देह	-5858
pe	-5859
▁रिश्ते	-5860
▁हवाई	-5861
िक्षा	-5862
▁माणस	-5863
▁500	-5864
टेन	-5865
▁ठेवण्यात	-5866
▁पंडित	-5867
▁घटक	-5868
सून	-5869
▁दिनांक	-5870
▁रमेश	-5871
टिंग	-5872
▁धमकी	-5873
▁पुण्यात	-5874
▁ज़ि	-5875
नाक	-5876
ठ्ठ	-5877
▁दुसरे	-5878
▁आत्मा	-5879
▁खुप	-5880
ांमुळे	-5881
पीठ	-5882
▁प्रका	-5883
▁नैसर्गिक	-5884
▁एटी	-5885
▁तम	-5886
▁जबरद	-5887
▁बॉक्स	-5888
▁ग्रामस्थ	-5889
▁खुशी	-5890
▁नेहमीच	-5891
पल	-5892
▁मानले	-5893
▁ओवर	-5894
पट्टी	-5895
▁पहिल्यांदा	-5896
▁२२	-5897
▁देतात	-5898
▁डाव	-5899
▁pre	-5900
▁चलता	-5901
▁जोड़	-5902
▁राहा	-5903
▁दृष्टि	-5904
▁45	-5905
▁अस्	-5906
▁घ्यावी	-5907
▁हरकत	-5908
▁कोरिया	-5909
▁दुर्लक्ष	-5910
▁बोले	-5911
▁नज़र	-5912
▁भीड़	-5913
▁४०	-5914
▁आमची	-5915
▁साहब	-5916
▁शंका	-5917
▁जवान	-5918
▁महिने	-5919
▁गावातील	-5920
▁सन्मान	-5921
▁महाविद्यालया	-5922
ity	-5923
ूला	-5924
▁रज	-5925
▁बळी	-5926
▁आलेला	-5927
नेश	-5928
▁भुग	-5929
इनल	-5930
▁वार्ता	-5931
कूल	-5932
▁बचाव	-5933
▁मुकाबले	-5934
साचे	-5935
▁१९९	-5936
▁साख	-5937
▁उनमें	-5938
▁भागी	-5939
▁विद्यापीठा	-5940
.6	-5941
▁हटा	-5942
्यून	-5943
▁चक्र	-5944
णीत	-5945
▁कने	-5946
▁गोंध	-5947
▁पड़ी	-5948
▁प्रोड	-5949
लिन	-5950
जनों	-5951
▁सम्मेल	-5952
ित्रा	-5953
वडी	-5954
ढ़ी	-5955
बॉल	-5956
धाना	-5957
चारिक	-5958
▁रेखा	-5959
▁हॉस्प	-5960
▁हथ	-5961
▁प्राय	-5962
▁रहना	-5963
▁रात्र	-5964
▁नक्ष	-5965
▁लॉन्च	-5966
▁जगत	-5967
स्थेत	-5968
ंचित	-5969
▁पालिके	-5970
▁अंग्रेजी	-5971
▁बीज	-5972
aj	-5973
age	-5974
▁लंबे	-5975
▁विज्ञ	-5976
▁भेजा	-5977
.7	-5978
झी	-5979
▁ww	-5980
▁प्रतियोग	-5981
▁पाळ	-5982
▁समुदाय	-5983
▁विश्ले	-5984
▁केर	-5985
▁दाम	-5986
▁en	-5987
▁अक्षय	-5988
▁न्यायाधीश	-5989
▁कार्यकर्ता	-5990
▁बातमी	-5991
▁तळ	-5992
▁ट्वीट	-5993
आप	-5994
▁कमरे	-5995
▁36	-5996
▁नागरिकांना	-5997
▁रास्ता	-5998
नाश	-5999
▁फ़िल्म	-6000
▁संदीप	-6001
▁दिशेने	-6002
ज्ज्ञ	-6003
▁इनकी	-6004
▁बातों	-6005
▁अॅड	-6006
▁प्रकरणी	-6007
▁तलाश	-6008
▁होम	-6009
▁पूर्णपणे	-6010
▁मोट	-6011
्वल	-6012
▁लोकांच्या	-6013
▁चीनी	-6014
▁त्याचं	-6015
ber	-6016
▁जसे	-6017
▁क्षेत्रा	-6018
▁उपस्थिती	-6019
▁पोर्ट	-6020
ातच	-6021
▁नामक	-6022
काचा	-6023
ाचे	-6024
▁निषेध	-6025
▁भरून	-6026
▁वडिलां	-6027
▁शाखा	-6028
▁खुलासा	-6029
▁पीठ	-6030
▁पती	-6031
▁यातील	-6032
ail	-6033
ठीण	-6034
नान	-6035
ाची	-6036
▁अटल	-6037
▁छत्रपती	-6038
▁लगती	-6039
च्ची	-6040
▁घूम	-6041
▁इंग्लैंड	-6042
▁थोडी	-6043
▁ठिकाण	-6044
▁सोय	-6045
▁मिस	-6046
▁बिन	-6047
▁आयुष्यात	-6048
दातर	-6049
▁फोड	-6050
त्रा	-6051
▁बुरा	-6052
▁राहिला	-6053
▁आशी	-6054
▁यांच्यावर	-6055
▁मतदा	-6056
्यूट	-6057
▁श्रीलं	-6058
▁बाबासाहेब	-6059
▁पैर	-6060
▁उचित	-6061
▁सीरीज	-6062
▁गार	-6063
▁बुद्धि	-6064
▁वाय	-6065
याची	-6066
▁भुगतान	-6067
▁वरील	-6068
▁भारताच्या	-6069
शः	-6070
▁गाँव	-6071
▁डोळे	-6072
ूने	-6073
▁अद्	-6074
▁सोसाय	-6075
▁पीड़ित	-6076
▁सेल	-6077
▁असावी	-6078
▁कष्ट	-6079
▁कारोबार	-6080
▁घटनास्थ	-6081
ंशी	-6082
▁रहि	-6083
स्वर	-6084
ष्णु	-6085
▁दिलीप	-6086
▁नेटवर्क	-6087
▁un	-6088
▁फूट	-6089
▁वेगळी	-6090
त्ये	-6091
▁एके	-6092
▁आर्ट	-6093
ust	-6094
▁हरी	-6095
▁नीट	-6096
▁रास्ते	-6097
▁परेशानी	-6098
▁गत	-6099
▁प्रताप	-6100
घन	-6101
परि	-6102
▁फर्	-6103
▁मुंह	-6104
▁रस्ते	-6105
▁सदा	-6106
▁वाटले	-6107
कर्णी	-6108
▁धान	-6109
▁रत्ना	-6110
▁दरवर्षी	-6111
साब	-6112
▁झू	-6113
▁पहुंची	-6114
ॉजी	-6115
ंसर	-6116
▁ब्ला	-6117
▁महानगर	-6118
ूर्ति	-6119
▁विनं	-6120
▁सुनवाई	-6121
वारा	-6122
▁कितने	-6123
▁कठीण	-6124
▁रहेंगे	-6125
▁प्राधिक	-6126
ोत्स	-6127
काता	-6128
▁तेथील	-6129
▁फरवरी	-6130
▁विनंती	-6131
▁मिलेगी	-6132
ंटल	-6133
▁एवढे	-6134
▁सुल	-6135
▁शहरी	-6136
▁एखादा	-6137
▁नक	-6138
▁द्यावे	-6139
▁सभागृह	-6140
▁बहुतेक	-6141
▁जिन्होंने	-6142
ांचं	-6143
▁काले	-6144
▁चेन्न	-6145
▁अडक	-6146
▁सदस्यों	-6147
.8	-6148
▁अरविंद	-6149
▁हजारो	-6150
▁वाजपेयी	-6151
▁व्यास	-6152
▁दिसंबर	-6153
▁मध्यप्रदेश	-6154
▁टाकून	-6155
▁कौत	-6156
▁मोहम्मद	-6157
▁यो	-6158
िवर्स	-6159
av	-6160
▁नाहीये	-6161
▁भाजपचे	-6162
गंज	-6163
▁बरी	-6164
▁तनाव	-6165
क्तिक	-6166
▁मिळवून	-6167
de	-6168
▁जाम	-6169
▁बहुता	-6170
▁नव्हतं	-6171
▁मागण्या	-6172
▁अग्नि	-6173
▁आमचे	-6174
▁चेक	-6175
▁पेज	-6176
▁वाहना	-6177
ेंव्हा	-6178
▁प्रवाश	-6179
ावट	-6180
▁आमचा	-6181
ोजक	-6182
▁मेट्रो	-6183
▁इंग्लंड	-6184
▁२०१७	-6185
▁बालों	-6186
▁प्रमो	-6187
िक्र	-6188
▁भरो	-6189
▁लिमिटेड	-6190
▁दृश्य	-6191
▁झाल्यास	-6192
▁फंड	-6193
▁पाठिंबा	-6194
▁प्रकारचे	-6195
ोग्राम	-6196
▁दादा	-6197
ंधरा	-6198
▁महाराष्ट्रातील	-6199
तेने	-6200
तेचा	-6201
▁देतो	-6202
▁मिशन	-6203
▁जू	-6204
ग्राम	-6205
▁बाइक	-6206
▁डायरे	-6207
▁ढा	-6208
▁कंट	-6209
▁लौट	-6210
▁कर्ण	-6211
▁फॅ	-6212
▁वेगळा	-6213
▁रुपयांची	-6214
▁लड़कियों	-6215
ठिका	-6216
▁खरा	-6217
पीएल	-6218
▁शस्त्र	-6219
▁स्वस्थ	-6220
म्भ	-6221
▁मनोज	-6222
▁मिलाकर	-6223
िलेश	-6224
▁आंध	-6225
पासूनच	-6226
▁केंद्रा	-6227
▁महामंड	-6228
▁रहेगी	-6229
▁नवर	-6230
▁अनुभ	-6231
▁हैदरा	-6232
▁चू	-6233
▁गम	-6234
▁qu	-6235
▁उत्तराखंड	-6236
▁डोंगर	-6237
विस	-6238
▁भेद	-6239
▁दिवसांत	-6240
▁जर्मनी	-6241
दाई	-6242
▁आजी	-6243
▁इंच	-6244
▁प्रदर्शित	-6245
▁विमा	-6246
▁पदक	-6247
▁सम्मेलन	-6248
▁आत्ता	-6249
चय	-6250
िमा	-6251
▁बघित	-6252
▁तुमचे	-6253
▁अत	-6254
▁महास	-6255
ोग्रा	-6256
▁अंतरराष्ट्रीय	-6257
▁चिकित्स	-6258
र्डर	-6259
▁गेट	-6260
▁उत्सुक	-6261
खं	-6262
▁अँड	-6263
इयों	-6264
▁पदवी	-6265
▁प्रॉ	-6266
▁कॅमे	-6267
▁मैत्री	-6268
▁अंब	-6269
साचा	-6270
▁आउट	-6271
▁असणे	-6272
▁पहन	-6273
▁पाते	-6274
▁हिस्से	-6275
▁माझं	-6276
▁न्यूज़	-6277
ोबा	-6278
▁जला	-6279
म्या	-6280
▁समाजवादी	-6281
▁आदर	-6282
▁कसं	-6283
▁रोल	-6284
▁फ्	-6285
▁उल्	-6286
▁बनाना	-6287
▁ग़	-6288
रेल	-6289
ग्ध	-6290
वीत	-6291
▁ब्रि	-6292
ure	-6293
▁सरळ	-6294
▁गाड़ी	-6295
▁प्रत्यक्षात	-6296
▁सुनिश्चित	-6297
हीन	-6298
▁भव्य	-6299
दर्शना	-6300
लंय	-6301
▁मारे	-6302
▁जयं	-6303
डु	-6304
▁व्रत	-6305
ya	-6306
▁पांढ	-6307
▁अखिलेश	-6308
▁चेन्नई	-6309
▁परिवहन	-6310
▁सुरवात	-6311
▁हैदराबाद	-6312
▁आपलं	-6313
▁कोलकाता	-6314
▁पढ़ाई	-6315
ांडे	-6316
▁भोसले	-6317
▁फेर	-6318
▁जरुर	-6319
▁राजीव	-6320
▁सोना	-6321
ृति	-6322
▁किल्	-6323
लील	-6324
ान्	-6325
▁मारहा	-6326
▁आणून	-6327
▁अन्यथा	-6328
▁घाला	-6329
▁गुप्त	-6330
ल्कुल	-6331
▁भूक	-6332
▁पस	-6333
▁प्रौ	-6334
▁अनेकदा	-6335
▁खुल	-6336
▁तीनों	-6337
▁मिश्रा	-6338
▁चैनल	-6339
▁जंगल	-6340
▁इस्लाम	-6341
▁निमित्ताने	-6342
स्वा	-6343
▁टेक	-6344
िने	-6345
▁एकर	-6346
▁भोग	-6347
द्दीन	-6348
▁पुढच्या	-6349
▁तुलनेत	-6350
ice	-6351
▁कितनी	-6352
▁क्रीडा	-6353
▁प्रोजे	-6354
▁समझा	-6355
▁समर्	-6356
▁वार्षिक	-6357
▁तुम्हारे	-6358
▁कड़ी	-6359
कृतिक	-6360
▁सॉफ्टवे	-6361
षेक	-6362
▁नाना	-6363
▁वर्मा	-6364
▁कलम	-6365
रेन्द्र	-6366
▁राज्यपाल	-6367
▁सीबीआई	-6368
▁लूट	-6369
▁उडा	-6370
▁भाषे	-6371
▁समझौ	-6372
धिका	-6373
▁माइ	-6374
▁कमजोर	-6375
▁आल्याने	-6376
▁एकी	-6377
▁चिर	-6378
दिष्ट	-6379
▁नुस	-6380
मुक	-6381
▁अपघात	-6382
▁छुट	-6383
▁रेट	-6384
▁दुचाकी	-6385
▁जाणाऱ्या	-6386
▁निकाला	-6387
▁अण्	-6388
▁डॉक	-6389
▁माफ	-6390
▁येथून	-6391
▁बिल्कुल	-6392
sh	-6393
▁प्रबंधन	-6394
▁छाप	-6395
▁जयपुर	-6396
खाने	-6397
▁हीच	-6398
▁उंची	-6399
पाठ	-6400
▁देताना	-6401
ard	-6402
▁इमारती	-6403
▁जिनमें	-6404
▁गर्भ	-6405
▁वेस्ट	-6406
▁कट्ट	-6407
▁अनुमति	-6408
णुकी	-6409
▁जगातील	-6410
▁पिढी	-6411
▁तंत्रज्ञान	-6412
सक	-6413
▁थाने	-6414
▁त्याचबरोबर	-6415
▁मिळून	-6416
पुरवठा	-6417
▁आरक्ष	-6418
▁पहाटे	-6419
▁home	-6420
▁आवास	-6421
▁सकें	-6422
▁विक्रम	-6423
▁निम्	-6424
▁अन्या	-6425
▁शपथ	-6426
▁अवधि	-6427
संध	-6428
▁पेक्षा	-6429
▁197	-6430
▁शिखर	-6431
केशन	-6432
▁सेंट	-6433
▁सुवर्ण	-6434
▁दबा	-6435
रीय	-6436
▁बऱ्याच	-6437
▁33	-6438
▁तैनात	-6439
▁अर्थव्यवस्था	-6440
ूष	-6441
▁राजे	-6442
▁ड्राइ	-6443
▁तुमचा	-6444
ish	-6445
▁संख्ये	-6446
▁शैली	-6447
▁ग्रहण	-6448
▁संभाजी	-6449
▁यानंतर	-6450
▁कुंड	-6451
▁आकर्षक	-6452
▁कौतुक	-6453
▁प्रशासनाने	-6454
▁दुका	-6455
▁प्रेस	-6456
▁अनुकूल	-6457
▁पारी	-6458
सास	-6459
▁बाजारपे	-6460
▁सभापती	-6461
हल	-6462
▁मनाया	-6463
▁सूत्रों	-6464
▁लप	-6465
▁आधीच	-6466
▁आयुक्ता	-6467
▁उड़	-6468
▁नावाने	-6469
▁विर	-6470
पार	-6471
▁निर्यात	-6472
▁दुर्ग	-6473
डो	-6474
▁कधीही	-6475
▁भरी	-6476
तेच्या	-6477
▁हमी	-6478
▁संग्रह	-6479
▁कृष्	-6480
ब्लिक	-6481
▁तथ	-6482
▁क्वि	-6483
▁ठराव	-6484
ट्	-6485
साने	-6486
ीय	-6487
▁माव	-6488
▁htt	-6489
▁स्पी	-6490
▁तल	-6491
णाव	-6492
▁पीने	-6493
▁कपड़े	-6494
▁पढ़े	-6495
▁संदर्भात	-6496
▁रणनी	-6497
▁परिषदेत	-6498
ुकी	-6499
ल्लाह	-6500
ृत्त	-6501
▁शही	-6502
▁ताकत	-6503
▁तिवारी	-6504
▁लोकशाही	-6505
▁जयंती	-6506
,1	-6507
▁असेच	-6508
▁पांड	-6509
▁बसून	-6510
वाडा	-6511
▁भय	-6512
▁अज्ञ	-6513
▁भेटी	-6514
▁सामन्यात	-6515
▁90	-6516
▁आयुर्	-6517
▁उत्कृष्ट	-6518
▁पराभव	-6519
▁इतक्या	-6520
▁कुटुंबा	-6521
▁हॉस्पिटल	-6522
▁आहात	-6523
▁बचत	-6524
▁मानते	-6525
▁चूक	-6526
▁कन्या	-6527
चंद्र	-6528
बान	-6529
जिक	-6530
▁नकार	-6531
▁लगने	-6532
▁साधन	-6533
टली	-6534
▁होय	-6535
▁विभागाच्या	-6536
तक	-6537
▁दोप	-6538
▁गिरी	-6539
▁तीसरे	-6540
▁होण्यासाठी	-6541
०००	-6542
▁दिसतात	-6543
▁प्रतीक	-6544
फॉर्म	-6545
▁विधि	-6546
वेज	-6547
▁पाहायला	-6548
▁रजि	-6549
▁वैय	-6550
▁आश	-6551
▁समस्याओं	-6552
ook	-6553
▁पूर	-6554
▁समन्व	-6555
▁वारं	-6556
▁पळ	-6557
▁झारखंड	-6558
▁प्राइ	-6559
▁क्रांती	-6560
लियों	-6561
▁मुलाख	-6562
▁हिसाब	-6563
म्बे	-6564
▁लालू	-6565
▁असम	-6566
▁बढ़ती	-6567
▁स्वयंसे	-6568
संक	-6569
▁अधिन	-6570
सागर	-6571
▁काळे	-6572
▁कार्यकर्ताओं	-6573
हिनी	-6574
▁मानना	-6575
▁be	-6576
▁तुमची	-6577
▁काँग्रेसचे	-6578
कोट	-6579
▁घरेलू	-6580
▁देगा	-6581
▁दुसरीकडे	-6582
99	-6583
▁भंड	-6584
▁महिले	-6585
▁तातडीने	-6586
वेदनशील	-6587
▁कम्प	-6588
▁निर्वा	-6589
परी	-6590
▁नऊ	-6591
▁होई	-6592
▁किरा	-6593
▁चालत	-6594
▁देखना	-6595
▁महामार्ग	-6596
▁प्लेट	-6597
▁विशेषतः	-6598
ानु	-6599
▁बीएस	-6600
स्थानी	-6601
▁भोज	-6602
▁कठोर	-6603
श्रे	-6604
▁गाड	-6605
▁स्थायी	-6606
▁ज़्यादा	-6607
ary	-6608
▁चुनौती	-6609
▁भाविक	-6610
▁गैस	-6611
▁अखबार	-6612
▁आशिया	-6613
रात	-6614
▁फौ	-6615
लन	-6616
▁इंजी	-6617
कडील	-6618
जनक	-6619
▁समितीच्या	-6620
यें	-6621
बीसी	-6622
डीए	-6623
▁पाना	-6624
▁ज्यादातर	-6625
▁तस्वीरें	-6626
▁समाजात	-6627
▁संस्कृत	-6628
pl	-6629
▁चाव	-6630
स्तीत	-6631
▁अपील	-6632
▁पद्म	-6633
▁पाण्यात	-6634
▁विद्युत	-6635
▁स्थाना	-6636
▁आना	-6637
चो	-6638
बाग	-6639
▁आक	-6640
▁34	-6641
▁www	-6642
▁किरदार	-6643
▁उभी	-6644
▁विक्र	-6645
▁अमिता	-6646
हाबाद	-6647
▁काढले	-6648
▁संसा	-6649
▁संबोधित	-6650
▁करियर	-6651
स्को	-6652
▁अनुर	-6653
▁वाटलं	-6654
ब्ल	-6655
▁बेल	-6656
मुक्त	-6657
▁तर्क	-6658
▁पित	-6659
ठिकाणी	-6660
▁एकत्रित	-6661
▁देण्याचे	-6662
द्यावर	-6663
▁ऑटो	-6664
▁निवडून	-6665
▁कोच	-6666
ite	-6667
▁हस्ता	-6668
▁नाकार	-6669
▁मधून	-6670
▁पहुँच	-6671
▁अतः	-6672
▁देशाच्या	-6673
▁दरवाजा	-6674
▁पाकिस्तानी	-6675
▁होनी	-6676
▁प्रोत्साहन	-6677
▁प्राकृतिक	-6678
▁पोहच	-6679
▁देसाई	-6680
▁खूपच	-6681
▁he	-6682
▁सेल्	-6683
▁कार्यालयात	-6684
▁अत्याचार	-6685
ord	-6686
▁अनुसू	-6687
स्पर	-6688
▁goo	-6689
सिएशन	-6690
▁बाबू	-6691
▁होटल	-6692
▁अश्या	-6693
▁स्थल	-6694
▁पालिका	-6695
▁धारण	-6696
▁वारंवार	-6697
▁जिनके	-6698
▁लेखा	-6699
▁अनो	-6700
शक्ती	-6701
▁अर्जुन	-6702
▁नाट्य	-6703
▁नेशनल	-6704
▁केरल	-6705
xt	-6706
▁इज	-6707
▁दास	-6708
▁ताजा	-6709
ावले	-6710
▁तसंच	-6711
▁फॉर	-6712
ल्याच्या	-6713
▁लागवड	-6714
▁नियुक्त	-6715
▁नवे	-6716
न्यास	-6717
▁रोकने	-6718
▁प्रकरणात	-6719
▁कुलकर्णी	-6720
▁व्यक्तिगत	-6721
▁पारंपरिक	-6722
▁दररोज	-6723
▁विभ	-6724
▁जातं	-6725
सैन	-6726
▁बॉल	-6727
▁37	-6728
याचे	-6729
र्श	-6730
मोहन	-6731
▁कार्यक्रमात	-6732
व्हर	-6733
▁करणं	-6734
▁निघून	-6735
ंटा	-6736
▁te	-6737
यो	-6738
▁प्रभाग	-6739
्यांत	-6740
▁आग्रह	-6741
▁वॉल	-6742
▁याप्रकरणी	-6743
▁ठरले	-6744
ह्य	-6745
▁वेध	-6746
गांव	-6747
▁दाग	-6748
▁म्हणणे	-6749
▁दीर्घ	-6750
▁प्रकृति	-6751
▁गीता	-6752
▁खाज	-6753
▁अवघड	-6754
▁राणे	-6755
▁गतिविध	-6756
▁छूट	-6757
▁नती	-6758
▁कंप्यूटर	-6759
▁फेक	-6760
▁२३	-6761
क्यात	-6762
▁कैंसर	-6763
ेंग	-6764
्यासाठी	-6765
पूर्व	-6766
चंद	-6767
▁प्रोजेक्ट	-6768
▁बच्चा	-6769
▁im	-6770
▁प्रशांत	-6771
▁नीला	-6772
▁देशभर	-6773
▁विशेषज्ञ	-6774
▁संकल्पना	-6775
राग	-6776
▁हालात	-6777
▁विकत	-6778
हू	-6779
▁यंत्रणा	-6780
वर्ड	-6781
▁सोल	-6782
हम	-6783
▁करेल	-6784
▁बाबी	-6785
▁माहौल	-6786
▁मुळात	-6787
▁राहिली	-6788
▁ट्रा	-6789
्याम	-6790
▁कारा	-6791
स्सा	-6792
▁पंढ	-6793
खला	-6794
▁टूट	-6795
▁बोट	-6796
30	-6797
▁मिलते	-6798
▁साधना	-6799
रित	-6800
▁डिजा	-6801
▁ऊस	-6802
▁पक्षाचे	-6803
ver	-6804
▁एजेंसी	-6805
माफी	-6806
▁कसो	-6807
▁2012	-6808
▁दिमाग	-6809
▁चिंचवड	-6810
ुरे	-6811
▁शाहर	-6812
थ्या	-6813
▁नंद	-6814
▁प्रतिनिध	-6815
▁cl	-6816
▁रांग	-6817
ऱ्यावर	-6818
▁लिस्ट	-6819
▁दुर्घटना	-6820
▁त्यामुळेच	-6821
▁पत्रिका	-6822
▁सण	-6823
▁विभागात	-6824
प्ले	-6825
▁ठेवला	-6826
िकार	-6827
▁दारू	-6828
▁रिट	-6829
▁संपन्न	-6830
विश्वास	-6831
▁अकाउंट	-6832
▁खेत	-6833
▁घसर	-6834
▁२६	-6835
णास	-6836
▁आणी	-6837
वाची	-6838
हिता	-6839
▁निवेदन	-6840
▁यांच्याकडे	-6841
प्ती	-6842
▁बुक	-6843
कर्ता	-6844
▁अनुवाद	-6845
▁दोपहर	-6846
▁गायकवाड	-6847
▁दिल्लीः	-6848
▁चमक	-6849
▁वाढी	-6850
▁प्रमाणे	-6851
▁सरासरी	-6852
▁टेक्न	-6853
चु	-6854
ताव	-6855
▁नीतीश	-6856
▁रेड	-6857
▁परीक्षण	-6858
▁कॉन्	-6859
▁आल्यावर	-6860
वेट	-6861
▁सुनावणी	-6862
▁काढला	-6863
वर्ती	-6864
▁शूटिंग	-6865
▁पश्चि	-6866
निमित्त	-6867
▁कुठल्याही	-6868
▁कुणाला	-6869
▁एक्सप्रेस	-6870
▁मनोहर	-6871
▁टॉप	-6872
▁सिक	-6873
▁दिये	-6874
▁मंत्रिमंड	-6875
▁इस्ला	-6876
ांसह	-6877
▁बंधन	-6878
▁लगते	-6879
▁युवाओं	-6880
▁बेहत	-6881
राला	-6882
▁विल	-6883
ांतून	-6884
यम	-6885
▁विमानत	-6886
▁एखादी	-6887
▁क्यू	-6888
▁जेवण	-6889
▁अवश्य	-6890
हेत	-6891
▁वायु	-6892
▁ज़रूर	-6893
▁समीक्षा	-6894
▁अजित	-6895
तलब	-6896
▁बताने	-6897
▁जिम्मेदारी	-6898
ॅप	-6899
▁आठवण	-6900
▁विधे	-6901
▁सरदार	-6902
▁am	-6903
▁कहां	-6904
▁आतंकवाद	-6905
▁पड़ेगा	-6906
▁चंद्रकांत	-6907
वालों	-6908
▁आल्यानंतर	-6909
▁जाएं	-6910
▁संपत्ति	-6911
▁सर्वत्र	-6912
▁दिलं	-6913
▁मुंडे	-6914
▁दाखवून	-6915
्यांकडून	-6916
कलन	-6917
▁कार्यों	-6918
भरा	-6919
पाट	-6920
▁साहेब	-6921
हीम	-6922
पदी	-6923
▁लड़ाई	-6924
▁पणजी	-6925
▁आखिरी	-6926
▁बजाय	-6927
▁वायरल	-6928
▁सुधारणा	-6929
▁अल्	-6930
▁मनसे	-6931
▁शुक्	-6932
▁महाग	-6933
▁असूनही	-6934
▁महिलाएं	-6935
ूर्त	-6936
▁अनिवार	-6937
▁सहकार्य	-6938
▁डिझ	-6939
▁भाषेत	-6940
end	-6941
▁यूनिवर्स	-6942
▁शेट	-6943
▁दाय	-6944
▁डीजल	-6945
▁व्हायला	-6946
▁रच	-6947
▁अभिनय	-6948
▁प्रतिभा	-6949
▁मिळव	-6950
माश	-6951
▁पुरानी	-6952
▁रत्नागिरी	-6953
▁नागरी	-6954
▁लाखों	-6955
▁गोळा	-6956
गेट	-6957
▁बेच	-6958
▁बढ़ने	-6959
▁ओपन	-6960
▁बढ	-6961
▁अधि	-6962
▁फाइ	-6963
▁गोल्ड	-6964
्रेट	-6965
▁सवि	-6966
▁वैयक्तिक	-6967
डीओ	-6968
राष्ट्र	-6969
▁इंडस्ट्री	-6970
▁गूगल	-6971
▁पद्धत	-6972
▁दंग	-6973
लंबित	-6974
▁क्लास	-6975
▁हक्क	-6976
▁मकान	-6977
डिंग	-6978
▁सम्बन्ध	-6979
्रि	-6980
▁गणित	-6981
▁घेण्याची	-6982
▁जागरूक	-6983
कर्षण	-6984
▁घ्यावा	-6985
▁राजू	-6986
▁तरीका	-6987
▁तुम्हें	-6988
ुख	-6989
▁वाटा	-6990
▁बुद्ध	-6991
▁पाहत	-6992
▁उपयोगी	-6993
धारा	-6994
▁जिसने	-6995
▁नमूद	-6996
ia	-6997
▁हथिया	-6998
कांवर	-6999
मण	-7000
▁सीसी	-7001
▁आबा	-7002
▁मरीज	-7003
▁प्लान	-7004
▁नोटबंदी	-7005
षित	-7006
▁काद	-7007
▁असतानाच	-7008
▁नेतृत्वा	-7009
▁प्रतियोगिता	-7010
▁महसूल	-7011
ull	-7012
2018	-7013
▁अब्द	-7014
म्मत	-7015
▁इनका	-7016
▁संध्याकाळी	-7017
▁उधर	-7018
▁वापरा	-7019
▁हुये	-7020
▁सातत्याने	-7021
गारी	-7022
ाला	-7023
▁दैनिक	-7024
वर्ग	-7025
▁दिलेली	-7026
▁बघून	-7027
▁नरेन्द्र	-7028
▁वसु	-7029
▁हॅ	-7030
ंकडे	-7031
▁पेड़	-7032
▁बोर	-7033
▁नातेवाई	-7034
▁मोटर	-7035
▁आपल्याकडे	-7036
▁स्वभाव	-7037
oun	-7038
वावे	-7039
ाव्यात	-7040
▁पहल	-7041
▁बैठकी	-7042
कीन	-7043
ण्याचं	-7044
▁२८	-7045
▁सीटों	-7046
▁कर्जमाफी	-7047
▁नेपाल	-7048
▁कुर्	-7049
▁वारा	-7050
▁असावे	-7051
▁अहवाला	-7052
▁सावर	-7053
▁कोसळ	-7054
▁अमिताभ	-7055
▁जितना	-7056
▁केल्याचे	-7057
▁म्हणुन	-7058
ायचं	-7059
▁नव्याने	-7060
ous	-7061
▁जानने	-7062
ाचा	-7063
▁रुपयांचा	-7064
सासाठी	-7065
▁संपादक	-7066
▁सर्वेक्षण	-7067
तर्फे	-7068
▁घन	-7069
▁माहितीनुसार	-7070
ॉम	-7071
▁कड	-7072
▁आमंत्र	-7073
▁याशिवाय	-7074
र्थी	-7075
▁मिळू	-7076
नातील	-7077
▁कडक	-7078
▁ख़ु	-7079
▁इस्रा	-7080
लाचे	-7081
परेशन	-7082
▁हौ	-7083
▁भटक	-7084
▁हनुमान	-7085
▁टाटा	-7086
▁दिवसांपासून	-7087
▁भाग्य	-7088
▁संगठ	-7089
▁pl	-7090
▁बीते	-7091
▁हल्का	-7092
ड्डा	-7093
▁घ्यायला	-7094
▁निरीक्षण	-7095
▁मंडल	-7096
काई	-7097
स्तव	-7098
▁हाउस	-7099
डिट	-7100
▁टैक्स	-7101
लावर	-7102
▁जेटली	-7103
▁व्यवस्थित	-7104
cc	-7105
कोर्ट	-7106
▁गौरतलब	-7107
▁दूरी	-7108
▁संमेल	-7109
▁इंतजार	-7110
▁लघु	-7111
त्येक	-7112
▁आढळून	-7113
▁हर्ष	-7114
▁पक्षी	-7115
▁बचाने	-7116
▁हजर	-7117
▁भोपाल	-7118
▁बिया	-7119
▁शहरों	-7120
▁अधिनियम	-7121
़ार	-7122
▁लेता	-7123
▁विवेक	-7124
▁नीर	-7125
10	-7126
ick	-7127
▁धूम	-7128
▁निर्माता	-7129
▁बल्लेबाज	-7130
▁दिवसात	-7131
▁लगाकर	-7132
▁भागा	-7133
▁दस्ता	-7134
▁बाळासाहेब	-7135
▁हजारों	-7136
▁गईं	-7137
▁वगळ	-7138
▁इसील	-7139
▁बच्चन	-7140
भाषा	-7141
▁विषयावर	-7142
▁तांत्रिक	-7143
▁अब्	-7144
न्दर	-7145
▁लाई	-7146
▁वादा	-7147
संख्य	-7148
▁माध्यमिक	-7149
▁धोनी	-7150
▁राधा	-7151
मैन	-7152
▁व्यवस्थापन	-7153
bi	-7154
त्रियों	-7155
▁तरत	-7156
स्फोट	-7157
▁ठार	-7158
▁सोयी	-7159
▁नृत्य	-7160
▁वेगळ्या	-7161
▁विचारले	-7162
▁कैद	-7163
▁सोसायटी	-7164
▁आहेच	-7165
बीन	-7166
▁राहू	-7167
▁लक्षण	-7168
▁आपाप	-7169
▁खूबसूरत	-7170
सेना	-7171
▁रूम	-7172
▁मुलं	-7173
▁मारहाण	-7174
▁पांडे	-7175
वित	-7176
बरी	-7177
▁प्रवाह	-7178
▁स्वतंत्रता	-7179
▁गाने	-7180
संप	-7181
हूर	-7182
▁2011	-7183
▁महिना	-7184
▁मागा	-7185
▁करतील	-7186
▁फसव	-7187
जिये	-7188
▁बायको	-7189
▁अस्थ	-7190
▁वाढली	-7191
▁इंजीनियर	-7192
▁अहमद	-7193
ॉय	-7194
▁काढण्यात	-7195
▁सवार	-7196
▁ऑफर	-7197
दायी	-7198
▁उजा	-7199
▁३५	-7200
▁थर	-7201
▁नितीन	-7202
▁घेणार	-7203
लीम	-7204
▁संवेदनशील	-7205
.9	-7206
▁ठेवली	-7207
▁प्रमाणावर	-7208
गाई	-7209
लिटी	-7210
bs	-7211
▁गृ	-7212
▁करण	-7213
बोध	-7214
▁कथित	-7215
▁लाइफ	-7216
▁मोर	-7217
▁so	-7218
▁पढ़ने	-7219
▁तंत्रज्ञाना	-7220
▁196	-7221
▁चक	-7222
फु	-7223
▁मोफत	-7224
▁प्रकाशन	-7225
▁मासिक	-7226
▁ठोक	-7227
▁बधा	-7228
पणी	-7229
▁सारख्या	-7230
▁जळगाव	-7231
▁बळ	-7232
निष्ठ	-7233
ॉर	-7234
निस	-7235
▁इंट	-7236
▁असल्याचं	-7237
▁मिश्रण	-7238
▁व्यायाम	-7239
▁co	-7240
▁हवं	-7241
▁चोप	-7242
▁गायब	-7243
▁सफर	-7244
▁मता	-7245
▁विवरण	-7246
▁२७	-7247
▁तोच	-7248
वाट	-7249
▁फुटबॉल	-7250
▁मदती	-7251
▁अपमान	-7252
▁आश्रम	-7253
वायचे	-7254
▁भाजपच्या	-7255
▁बेहतरीन	-7256
▁निदेशक	-7257
▁विश्लेषण	-7258
प्शन	-7259
▁टाइम	-7260
▁हाँ	-7261
ेर	-7262
खाना	-7263
▁ठेके	-7264
▁लावला	-7265
▁विभागाचे	-7266
विणे	-7267
▁सेक्टर	-7268
▁अग्रवाल	-7269
▁आजकल	-7270
▁दिखाया	-7271
▁चुनावों	-7272
▁लावली	-7273
▁आंध्र	-7274
वावा	-7275
▁उत्तरे	-7276
▁जहाज	-7277
विल	-7278
▁48	-7279
▁अवलंबून	-7280
▁परिस्थित	-7281
ाराच्या	-7282
▁धरून	-7283
▁ट्रांस	-7284
▁परिस्थितीत	-7285
▁लड़के	-7286
▁आयात	-7287
ज़ी	-7288
▁सभ	-7289
जूदा	-7290
अंतर्गत	-7291
▁महापालिकेच्या	-7292
ोगी	-7293
gle	-7294
▁प्रकारची	-7295
▁पक्षाच्या	-7296
पाला	-7297
▁हफ्	-7298
▁नेहरू	-7299
▁स्कूलों	-7300
पीएस	-7301
▁300	-7302
▁दया	-7303
▁प्राणी	-7304
▁सपना	-7305
डेकर	-7306
▁आकर्षित	-7307
पाने	-7308
यांना	-7309
▁महिन्यां	-7310
गोल	-7311
▁जाव	-7312
▁हॉल	-7313
▁पुनर्	-7314
▁अज्ञात	-7315
याने	-7316
▁तरंग	-7317
▁लाखो	-7318
▁मास्टर	-7319
▁कृष्णा	-7320
▁दही	-7321
▁मंजुरी	-7322
ction	-7323
▁मौजूदा	-7324
▁देवता	-7325
▁बॉस	-7326
▁ममता	-7327
▁दलों	-7328
▁अनुसूचित	-7329
▁शख	-7330
▁परस्पर	-7331
▁विस्तृत	-7332
gb	-7333
▁स्ने	-7334
▁चॅ	-7335
ांमधील	-7336
▁चप	-7337
▁चिंत	-7338
▁मर्यादा	-7339
▁अमेरिकन	-7340
ph	-7341
▁ठोस	-7342
▁जमकर	-7343
धान्य	-7344
▁द्यावी	-7345
ूल्य	-7346
तच	-7347
▁सोपे	-7348
▁निसर्ग	-7349
▁परिजनों	-7350
▁डाला	-7351
▁भूत	-7352
▁रवाना	-7353
▁सद्	-7354
▁अनिवार्य	-7355
▁सैन्य	-7356
▁बिल्ड	-7357
▁तरतूद	-7358
▁केश	-7359
▁संस्थापक	-7360
▁कहान	-7361
्यूब	-7362
▁कंपनीने	-7363
▁टिप्प	-7364
▁निः	-7365
▁नियुक्ती	-7366
संबंधी	-7367
▁युवती	-7368
▁प्रबंध	-7369
▁उंच	-7370
▁लक्ष्म	-7371
▁पंक	-7372
▁मालम	-7373
▁प्रवासी	-7374
▁नगरसेव	-7375
▁राखी	-7376
लट	-7377
▁शॉप	-7378
▁शहीद	-7379
▁38	-7380
▁डोळ	-7381
लिप	-7382
▁यानि	-7383
▁आठवड्यात	-7384
▁उम्मीदवारों	-7385
ॅशनल	-7386
▁किन्तु	-7387
▁लैंगिक	-7388
▁मेन	-7389
▁आनंदा	-7390
डेट	-7391
▁सुझ	-7392
▁चोट	-7393
▁उर्फ	-7394
▁सत्या	-7395
▁भिन्न	-7396
▁स्पेश	-7397
पाळ	-7398
▁त्यापैकी	-7399
ढावा	-7400
तेच	-7401
▁दशक	-7402
▁कवी	-7403
▁चारों	-7404
▁दुरुस्ती	-7405
▁यौन	-7406
ank	-7407
त्मिक	-7408
▁यावे	-7409
▁असाल	-7410
▁अनंत	-7411
▁अमृत	-7412
▁निदान	-7413
▁फाइनल	-7414
्टा	-7415
▁माफी	-7416
▁प्रगति	-7417
ace	-7418
▁अजिब	-7419
▁रिंग	-7420
▁उद्धव	-7421
क्ष्म	-7422
▁त्याग	-7423
▁बिज	-7424
▁अखिल	-7425
▁फेरी	-7426
▁विचारा	-7427
बोली	-7428
▁जिथे	-7429
▁सश	-7430
▁उठाया	-7431
▁पाण्याची	-7432
पालिका	-7433
▁चौहान	-7434
▁कित्येक	-7435
▁धड	-7436
दो	-7437
▁लीटर	-7438
▁di	-7439
▁समितीचे	-7440
▁ऐकून	-7441
फान	-7442
▁यूनिवर्सिटी	-7443
▁पूछता	-7444
▁विठ्ठ	-7445
ach	-7446
▁भरती	-7447
▁वाक्य	-7448
▁टेबल	-7449
▁बारीक	-7450
वाचे	-7451
▁नागरिकांनी	-7452
गज	-7453
▁बेरोज	-7454
ुद्ध	-7455
▁दाद	-7456
▁सम्मानित	-7457
▁विद्	-7458
▁सर्वोत्तम	-7459
▁महत्त्वाची	-7460
सेवा	-7461
▁अवघ	-7462
बंद	-7463
भारत	-7464
सभेत	-7465
▁लिखी	-7466
▁सिया	-7467
▁काव्य	-7468
कांसाठी	-7469
ुओं	-7470
▁कालावधीत	-7471
▁सहाय्य	-7472
▁उर्वर	-7473
▁समाजातील	-7474
▁निम्न	-7475
athi	-7476
▁शुभे	-7477
▁वाचून	-7478
▁आदित्यनाथ	-7479
▁प्रभा	-7480
माच्या	-7481
▁इमारत	-7482
▁अफ्री	-7483
▁75	-7484
▁एकही	-7485
धीर	-7486
▁सज	-7487
▁अधिकृत	-7488
▁बद्दल	-7489
▁पर्स	-7490
▁मूर्ति	-7491
▁छे	-7492
▁बधाई	-7493
▁चीज़	-7494
▁जप्त	-7495
▁खळ	-7496
ud	-7497
▁जोडी	-7498
लेख	-7499
▁मस	-7500
▁विष्णु	-7501
ध्दा	-7502
▁मृतदेह	-7503
शिक्ष	-7504
▁तमिल	-7505
▁फें	-7506
▁पुनः	-7507
▁अँ	-7508
क्सा	-7509
▁हेड	-7510
▁ट्रै	-7511
▁मार्गावर	-7512
एंगे	-7513
िसू	-7514
▁यांच्यात	-7515
्रिक	-7516
▁कहता	-7517
▁स्रो	-7518
▁अन्याय	-7519
▁यावर्षी	-7520
भूम	-7521
लेय	-7522
▁प्रवक्ता	-7523
▁पुल	-7524
चलित	-7525
▁शतक	-7526
▁go	-7527
राई	-7528
▁दौरे	-7529
▁lo	-7530
▁श्रीमती	-7531
▁समस्त	-7532
▁विदर्भ	-7533
▁चांद	-7534
▁or	-7535
▁डोळ्या	-7536
▁दिवसांपूर्वी	-7537
चिव	-7538
टके	-7539
▁सिंधु	-7540
▁६०	-7541
▁मुझसे	-7542
▁बिक्री	-7543
▁अस्व	-7544
▁कांब	-7545
▁श्रम	-7546
दया	-7547
भाल	-7548
लंघन	-7549
▁३१	-7550
▁कोत	-7551
स्त्रा	-7552
▁शर्म	-7553
▁नित	-7554
▁ठरला	-7555
▁बच्ची	-7556
▁शेर	-7557
ळणी	-7558
एसएस	-7559
▁रड	-7560
▁धडक	-7561
▁सिल	-7562
▁rs	-7563
मू	-7564
▁ठाकुर	-7565
▁अच	-7566
▁पैश	-7567
▁प्रियंका	-7568
▁राहतात	-7569
▁करोड	-7570
▁डिस्	-7571
▁पाण्याचा	-7572
धित	-7573
▁छोड़कर	-7574
ुती	-7575
▁भाजपने	-7576
▁म्हणता	-7577
▁वंचित	-7578
▁प्रकट	-7579
▁उमेदवारी	-7580
▁व्यवस्थाप	-7581
▁पुढा	-7582
▁मेक	-7583
▁मुदत	-7584
▁याकडे	-7585
▁55	-7586
▁तों	-7587
▁याबद्दल	-7588
▁बराच	-7589
▁कव	-7590
▁वाण	-7591
▁विटा	-7592
▁नयी	-7593
▁मिळतात	-7594
▁आणले	-7595
▁टिप्पणी	-7596
▁विभागीय	-7597
▁कण	-7598
▁जणू	-7599
ांपैकी	-7600
▁जातील	-7601
▁खार	-7602
▁भौतिक	-7603
▁blo	-7604
डीच	-7605
ंदर्य	-7606
▁बराम	-7607
भुत	-7608
▁फारच	-7609
▁मशहूर	-7610
▁आंखों	-7611
ातल्या	-7612
दाम	-7613
▁रुक	-7614
▁गेलं	-7615
ast	-7616
▁अपय	-7617
निर्म	-7618
▁सांभाळ	-7619
▁शासनाच्या	-7620
▁मुलांच्या	-7621
▁होण्या	-7622
▁खर्चा	-7623
▁खाजगी	-7624
up	-7625
▁माध	-7626
▁ऑपरेशन	-7627
▁पूजन	-7628
▁ट्रंप	-7629
भेद	-7630
▁घरों	-7631
▁दिवसा	-7632
▁कमे	-7633
▁अतिक	-7634
▁घ्यावे	-7635
▁व्यस्त	-7636
▁मुळे	-7637
▁ब्लॉक	-7638
▁बर्याच	-7639
▁सिद्धांत	-7640
▁सोनिया	-7641
▁कोणतेही	-7642
महा	-7643
सीन	-7644
▁डिजाइन	-7645
च्चे	-7646
▁लक्ष्मण	-7647
▁बदले	-7648
▁आतं	-7649
योजना	-7650
▁शंभर	-7651
लाइन	-7652
▁पंधरा	-7653
तेची	-7654
तू	-7655
▁काउ	-7656
ंटन	-7657
▁पाहु	-7658
▁मनोरंजन	-7659
स्पर्	-7660
डाच्या	-7661
र्डी	-7662
िव्य	-7663
पीट	-7664
▁आराख	-7665
▁सोचा	-7666
▁शेतकऱ्यांच्या	-7667
▁अंज	-7668
लीय	-7669
▁बुल	-7670
▁जीवनात	-7671
ांज	-7672
स्पद	-7673
▁हेल्	-7674
▁सिं	-7675
▁अभाव	-7676
थुन	-7677
▁पर्याप्त	-7678
▁तुट	-7679
▁post	-7680
▁नींद	-7681
णामुळे	-7682
▁बालक	-7683
ोत	-7684
▁फरार	-7685
▁बेटा	-7686
▁म्हणतो	-7687
▁वसा	-7688
▁गांड	-7689
▁काश्मीर	-7690
▁फटका	-7691
▁वर्षांच्या	-7692
राय	-7693
▁इसीलिए	-7694
all	-7695
▁आकडे	-7696
▁एअर	-7697
जर्स	-7698
▁पारित	-7699
▁पठ	-7700
▁दौरा	-7701
▁मुकद	-7702
▁अंगावर	-7703
अर्स	-7704
▁एकमेव	-7705
▁भरोसा	-7706
▁तिथि	-7707
▁सच्चा	-7708
▁हिमाचल	-7709
▁घेतात	-7710
▁मिळतो	-7711
▁सायकल	-7712
▁इलाहाबाद	-7713
▁अर्थसंक	-7714
▁गटा	-7715
▁भरत	-7716
▁रौ	-7717
▁डेव	-7718
▁तीर्थ	-7719
ore	-7720
▁tr	-7721
शिंग	-7722
▁मुख्यालय	-7723
▁पाता	-7724
,2	-7725
▁वाटप	-7726
▁कंपन्या	-7727
▁हफ्ते	-7728
▁समाजाच्या	-7729
▁थंड	-7730
▁दिनेश	-7731
▁उज्ज	-7732
▁किनारे	-7733
▁घेतलेल्या	-7734
▁व्हावी	-7735
टाई	-7736
▁त्यांचं	-7737
▁देण्या	-7738
▁व्हावे	-7739
▁गुन्ह	-7740
▁गोंधळ	-7741
▁तोपर्यंत	-7742
ेतून	-7743
दुर्ग	-7744
▁लगाई	-7745
ैतिक	-7746
▁रूस	-7747
▁जबरदस्त	-7748
▁व्यक्तीला	-7749
ावला	-7750
▁सिन्हा	-7751
▁थोर	-7752
▁कसोटी	-7753
▁प्रेरित	-7754
ill	-7755
▁प्रोग्राम	-7756
वाचा	-7757
▁जिसमे	-7758
वते	-7759
▁आहेस	-7760
▁वेगाने	-7761
▁मंत्रालया	-7762
▁करि	-7763
▁हेही	-7764
ब्स	-7765
▁गार्ड	-7766
▁ट्रस्ट	-7767
▁ओम	-7768
▁तिमा	-7769
ढ़े	-7770
▁धावा	-7771
श्विक	-7772
▁दीपिका	-7773
▁गाणी	-7774
▁परीक्षे	-7775
▁इंदिरा	-7776
झर	-7777
▁दुर	-7778
▁परिचय	-7779
▁पहुंचने	-7780
▁ट्रम्प	-7781
▁महत्त्वाचा	-7782
▁42	-7783
▁कमाल	-7784
वतात	-7785
▁शौचा	-7786
▁आकर्षण	-7787
नेते	-7788
▁बदली	-7789
सारखं	-7790
▁तेवढ	-7791
गडी	-7792
दारों	-7793
▁घाबर	-7794
▁संख्येने	-7795
गाह	-7796
▁बहुतांश	-7797
▁अशीच	-7798
▁बांग्ला	-7799
▁शब्	-7800
▁पाऊल	-7801
▁चाहिये	-7802
▁गेलेल्या	-7803
▁दुर्गा	-7804
▁बरं	-7805
▁गठबंधन	-7806
▁शाखे	-7807
▁भारताने	-7808
▁१९८	-7809
▁vide	-7810
▁जाहिरात	-7811
▁गुड	-7812
▁google	-7813
च्चार	-7814
▁खतरा	-7815
▁गर्मी	-7816
▁नामांक	-7817
▁शॉ	-7818
▁us	-7819
▁रामा	-7820
▁पाहणी	-7821
▁मिट्टी	-7822
शियन	-7823
▁सुरुवातीला	-7824
ूंनी	-7825
▁तलाक	-7826
▁चिकित्सक	-7827
वरुन	-7828
▁पुस्तके	-7829
▁पालकमंत्री	-7830
याचा	-7831
ांगी	-7832
▁राकेश	-7833
लाना	-7834
▁प्रमाणपत्र	-7835
ory	-7836
शीर	-7837
▁टीव्ही	-7838
इंट	-7839
वेदी	-7840
▁फायर	-7841
▁ताण	-7842
▁विज्ञापन	-7843
▁चक्क	-7844
तेचे	-7845
▁श्रीराम	-7846
▁ब्रेक	-7847
▁मानस	-7848
▁क्विंटल	-7849
क्षर	-7850
▁मक	-7851
▁अभिषेक	-7852
▁कपिल	-7853
▁रहीं	-7854
▁कमल	-7855
▁नकारात्मक	-7856
▁माज	-7857
▁जाणे	-7858
▁पर्यटक	-7859
स्वामी	-7860
▁आढावा	-7861
ख्यात	-7862
▁शिल्	-7863
▁तिघ	-7864
▁युरोप	-7865
▁कोर्स	-7866
▁वैश्विक	-7867
भाऊ	-7868
धना	-7869
▁आयुर्वेद	-7870
▁बचपन	-7871
▁अंतरावर	-7872
▁मुंबईतील	-7873
▁ओला	-7874
▁ढंग	-7875
▁कहाँ	-7876
▁साम्र	-7877
▁उल्लंघन	-7878
▁राऊ	-7879
▁रखता	-7880
▁समझने	-7881
▁कहती	-7882
▁सांगता	-7883
▁बघत	-7884
▁महादेव	-7885
▁खेती	-7886
▁वंश	-7887
▁रैली	-7888
▁बग	-7889
▁लागल्या	-7890
ne	-7891
▁श्रेष्ठ	-7892
▁मिलि	-7893
एसपी	-7894
▁उत्पादक	-7895
our	-7896
णेकर	-7897
esh	-7898
▁नाक	-7899
▁रिसर्च	-7900
▁सांगतो	-7901
▁टाई	-7902
राची	-7903
▁तकनीक	-7904
▁सारखे	-7905
▁असणारे	-7906
ith	-7907
▁पत्रकारों	-7908
▁संकेतस्थ	-7909
▁केरळ	-7910
▁भक्ति	-7911
▁तज्ज्ञ	-7912
▁सत्ताधारी	-7913
▁इसको	-7914
▁बुरी	-7915
फि	-7916
ब्ल्यू	-7917
▁श्रद्ध	-7918
▁उपनि	-7919
▁अमरी	-7920
▁सौंदर्य	-7921
▁खड़ी	-7922
पक्ष	-7923
▁श्रेय	-7924
▁घेव	-7925
वल्या	-7926
▁शिष्य	-7927
▁रशिया	-7928
▁बाजी	-7929
▁वास	-7930
▁बोलाव	-7931
▁गोद	-7932
▁झालो	-7933
▁जास्तीत	-7934
▁लंबी	-7935
▁तत्त्व	-7936
▁होणारे	-7937
गुरु	-7938
▁कृपा	-7939
▁रम	-7940
खित	-7941
▁आॅ	-7942
▁अजिबात	-7943
्रीत	-7944
▁पत्थर	-7945
▁बराबर	-7946
▁मजदूर	-7947
र्वाद	-7948
स्टार	-7949
▁निकट	-7950
▁गिरावट	-7951
दनगर	-7952
▁खिल	-7953
▁बट	-7954
▁ज्ञाने	-7955
▁तेंव्हा	-7956
▁सड़	-7957
▁धात	-7958
▁शीत	-7959
▁मीठ	-7960
▁विपक्ष	-7961
▁डु	-7962
▁कराई	-7963
▁घेतल्या	-7964
श्रेष्ठ	-7965
▁हद	-7966
▁सका	-7967
▁गप्पा	-7968
जेत	-7969
▁गोळी	-7970
▁दिसतो	-7971
▁स्टेड	-7972
▁येणार्या	-7973
▁काहीं	-7974
तिया	-7975
▁महाविद्यालय	-7976
ॉड	-7977
▁चित्रपटात	-7978
पेक्ष	-7979
▁कोर्	-7980
▁ज्यांना	-7981
▁कामाला	-7982
लेम	-7983
▁मालिका	-7984
वतो	-7985
▁गहरा	-7986
वाया	-7987
▁शख्स	-7988
▁जाताना	-7989
▁वरून	-7990
▁बरामद	-7991
▁कर्तव्य	-7992
▁निश्च	-7993
▁जबाबदार	-7994
ूर्ती	-7995
▁अभ्या	-7996
▁एकता	-7997
▁उपचारा	-7998
▁स्वाभि	-7999
▁लॅ	-8000
भाई	-8001
येत	-8002
▁बेकाय	-8003
ack	-8004
▁समाजाला	-8005
▁म्हणाली	-8006
▁ज्योतिष	-8007
▁राष्ट्रपती	-8008
▁पंप	-8009
▁महत्वाचे	-8010
▁भाभी	-8011
देन	-8012
▁शोषण	-8013
▁हादसे	-8014
▁काळी	-8015
▁अधिसू	-8016
क्चर	-8017
▁अभियंता	-8018
▁le	-8019
▁एसपी	-8020
▁हार्दिक	-8021
▁रानी	-8022
▁बैंकों	-8023
ोम	-8024
मधल्या	-8025
▁सिक्	-8026
फ़ी	-8027
▁चळव	-8028
कारों	-8029
▁तुल	-8030
▁रिज	-8031
▁द्वार	-8032
▁खरो	-8033
▁by	-8034
▁194	-8035
▁स्थानों	-8036
भूमि	-8037
▁इच्छुक	-8038
जेदार	-8039
प्रकाश	-8040
▁येणे	-8041
▁आध्या	-8042
▁भविष्यात	-8043
▁श्रीलंका	-8044
▁सोन्या	-8045
▁comp	-8046
▁जाहिराती	-8047
ेंच	-8048
▁संगणक	-8049
▁महिलांना	-8050
्यूर	-8051
घ्र	-8052
▁लोकल	-8053
तिरिक्त	-8054
ानों	-8055
▁पडून	-8056
भाग्य	-8057
▁काली	-8058
▁रिझ	-8059
▁अर्ध	-8060
▁कामया	-8061
▁सतीश	-8062
णीच्या	-8063
ांता	-8064
लाची	-8065
▁आजादी	-8066
▁कट्टर	-8067
▁आत्मविश्वास	-8068
▁धरती	-8069
दाता	-8070
ाराचा	-8071
▁नसतो	-8072
मात्र	-8073
ाज़	-8074
टीन	-8075
▁कादंब	-8076
ऱ्यात	-8077
▁जस्ट	-8078
▁मच्छ	-8079
▁वेळेत	-8080
खु	-8081
▁शेवटच्या	-8082
▁नक्स	-8083
▁लिखे	-8084
ari	-8085
▁लीग	-8086
▁ऋण	-8087
▁ध्ये	-8088
▁अॅप	-8089
▁मान्यवर	-8090
ोवा	-8091
▁हळूह	-8092
▁२०१६	-8093
▁पन	-8094
▁आतंकी	-8095
▁साक्षी	-8096
ुलर	-8097
▁cont	-8098
▁पुरूष	-8099
माणिक	-8100
▁कठिन	-8101
बरा	-8102
▁दिग्गज	-8103
▁मायबोली	-8104
ंकडून	-8105
▁आरोपियों	-8106
▁किंग	-8107
▁होणारी	-8108
पंथ	-8109
▁साप	-8110
▁जुड़	-8111
▁रिक्त	-8112
▁स्टेडियम	-8113
▁निर्भर	-8114
्राष्ट्रीय	-8115
▁सर्वसाधारण	-8116
▁रेक	-8117
▁पन्ना	-8118
टि	-8119
ंधन	-8120
▁विधेयक	-8121
साइ	-8122
ांपर्यंत	-8123
फ्टी	-8124
▁देखे	-8125
▁हळूहळू	-8126
▁रॅ	-8127
▁उल्लेखनीय	-8128
▁जिम्मेदार	-8129
ूहिक	-8130
▁बाढ़	-8131
ख्	-8132
मुळं	-8133
▁भान	-8134
▁एवढी	-8135
▁लिहिले	-8136
विदा	-8137
▁लात	-8138
▁पाहू	-8139
जाने	-8140
▁परदेश	-8141
खोर	-8142
▁शुभेच्छा	-8143
▁full	-8144
▁z	-8145
▁देण्यास	-8146
▁योजनाओं	-8147
वायचा	-8148
▁चरित्र	-8149
विकास	-8150
▁घरातील	-8151
▁शिक्षकों	-8152
▁छवि	-8153
▁शाहरुख	-8154
वण्याचा	-8155
▁अजी	-8156
▁सामूहिक	-8157
▁सलग	-8158
ग्रहा	-8159
▁खिलाड़ियों	-8160
▁अतिक्रम	-8161
▁मंदिरात	-8162
ईत	-8163
ळीच्या	-8164
▁वापरून	-8165
प्रमाणेच	-8166
▁प्रण	-8167
▁नांदे	-8168
▁सफेद	-8169
▁बनाये	-8170
▁कोणीही	-8171
▁मोरे	-8172
▁ka	-8173
▁रिलाय	-8174
▁तकनीकी	-8175
ूर्ण	-8176
स्टे	-8177
▁परिणामी	-8178
शाह	-8179
▁app	-8180
▁नाहीतर	-8181
▁डिझेल	-8182
न्सी	-8183
▁गलती	-8184
▁कामात	-8185
सिड	-8186
▁सेने	-8187
गाच्या	-8188
ans	-8189
▁दावे	-8190
▁आरती	-8191
▁उपास	-8192
▁द्यावा	-8193
▁यांच्याशी	-8194
द्वार	-8195
ट्या	-8196
▁दुधा	-8197
▁कळत	-8198
▁प्रवी	-8199
▁गले	-8200
▁चांदी	-8201
▁मुफ्त	-8202
▁बढ़ावा	-8203
▁दाल	-8204
▁शनि	-8205
▁पाठ्य	-8206
▁जॉन	-8207
▁नगरा	-8208
▁समितीने	-8209
विण्याचा	-8210
टू	-8211
ष्कार	-8212
नाल्ड	-8213
▁राजद	-8214
▁चलाने	-8215
▁ठरेल	-8216
ग्रा	-8217
▁पूछताछ	-8218
▁बदलने	-8219
▁सुविध	-8220
▁डॉकटर	-8221
धक	-8222
▁पुढाकार	-8223
▁कोरे	-8224
▁स्टो	-8225
▁नॉ	-8226
▁नोटिस	-8227
्युनि	-8228
▁बैठा	-8229
▁सम्प	-8230
▁निसर्	-8231
▁उशि	-8232
तांना	-8233
ांमधून	-8234
▁चुप	-8235
▁इलाकों	-8236
ाराची	-8237
▁डाटा	-8238
ie	-8239
▁आर्य	-8240
ंसक	-8241
▁वाहतुकी	-8242
▁एप	-8243
▁मर्याद	-8244
▁मित्रा	-8245
....	-8246
▁मदतीने	-8247
▁आधिकार	-8248
▁बरीच	-8249
▁बर्फ	-8250
▁निशाना	-8251
▁कंपनीच्या	-8252
▁करायचं	-8253
दायिक	-8254
▁अवघ्या	-8255
▁केल्याची	-8256
ध्व	-8257
▁टेल	-8258
▁गौतम	-8259
▁बौद्ध	-8260
तीच	-8261
▁दौड़	-8262
णकर	-8263
▁फस	-8264
▁पीसी	-8265
▁अडीच	-8266
▁स्मरण	-8267
▁स्वतःची	-8268
▁नौकर	-8269
▁विपरीत	-8270
▁झो	-8271
▁आफ्र	-8272
▁राजीनामा	-8273
▁65	-8274
▁बाजारपेठ	-8275
▁मेड़ी	-8276
▁शेजारी	-8277
वायची	-8278
▁समृद्ध	-8279
धर्म	-8280
▁संचालन	-8281
▁अमेरिकेत	-8282
लित	-8283
▁विद्यार्थ्यांनी	-8284
▁ऑल	-8285
ल्हे	-8286
▁नाच	-8287
▁बाबत	-8288
▁राहते	-8289
▁मेड़ीसिन	-8290
▁फां	-8291
▁अभिव्य	-8292
▁पंतप्रधाना	-8293
ug	-8294
दरी	-8295
▁बेस्ट	-8296
ध्यापक	-8297
▁जगभर	-8298
▁१९७	-8299
▁संचार	-8300
▁बाळग	-8301
कांमध्ये	-8302
ंकिंग	-8303
▁प्रदेशा	-8304
▁घटनास्थळी	-8305
ळाचे	-8306
कडी	-8307
▁२९	-8308
▁असाच	-8309
लाब	-8310
▁राज्याच्या	-8311
ांनाही	-8312
▁कितीही	-8313
▁तुझे	-8314
▁भीषण	-8315
▁टाका	-8316
▁गोरख	-8317
▁इधर	-8318
▁भीम	-8319
▁बंड	-8320
▁चिन्ह	-8321
▁मातृ	-8322
▁लेंगे	-8323
▁उन्न	-8324
▁वनडे	-8325
▁बॅंके	-8326
▁हवामान	-8327
▁प्रामाणिक	-8328
▁ke	-8329
▁बाजूने	-8330
▁द्यायला	-8331
▁तथ्य	-8332
▁ऑप	-8333
▁जिवंत	-8334
▁मुक्ति	-8335
▁बिंद	-8336
▁फार्म	-8337
तेत	-8338
▁सिंच	-8339
▁आस्था	-8340
▁त्यास	-8341
▁एंटी	-8342
▁मजबूर	-8343
▁दूसरों	-8344
▁लोकांची	-8345
▁अडथ	-8346
▁मांस	-8347
लयीन	-8348
्लिश	-8349
▁जिलों	-8350
▁अभ्य	-8351
▁आजवर	-8352
▁ट्रॅ	-8353
▁अकेले	-8354
▁कमेटी	-8355
स्पे	-8356
▁marathi	-8357
▁49	-8358
▁सगळ्यात	-8359
▁राहतो	-8360
ip	-8361
एक	-8362
▁अहमदनगर	-8363
▁संगीता	-8364
▁जीतने	-8365
▁पोलिसांच्या	-8366
▁चार्ज	-8367
▁पावर	-8368
▁दिलेले	-8369
▁लिहून	-8370
ंजय	-8371
▁सुझाव	-8372
▁स्पेशल	-8373
▁वाळू	-8374
▁हेक्टर	-8375
▁रहस्य	-8376
▁लिखने	-8377
ैव	-8378
▁आमतौर	-8379
▁पोर	-8380
▁द्वितीय	-8381
इत	-8382
षद	-8383
▁दुब	-8384
▁गठन	-8385
▁एवढा	-8386
▁फसल	-8387
▁सकेंगे	-8388
▁देखभाल	-8389
वाज	-8390
ies	-8391
आरपी	-8392
▁विहि	-8393
▁मंजूरी	-8394
▁प्रौद्योग	-8395
ac	-8396
नस	-8397
▁सूक्ष्म	-8398
24	-8399
ार्क	-8400
▁किमती	-8401
▁आधिकारिक	-8402
ोंग	-8403
▁मं	-8404
▁सर्वसामान्य	-8405
टिक	-8406
सकर	-8407
▁परिषदेच्या	-8408
▁आचार्य	-8409
▁पंढर	-8410
▁खोली	-8411
▁जणांना	-8412
▁मिळालेल्या	-8413
▁ग्री	-8414
मुख्या	-8415
▁अभ्यासक्रम	-8416
▁पैकी	-8417
▁त्यांच्याकडे	-8418
म्र	-8419
ोजित	-8420
▁भाजपला	-8421
▁पापा	-8422
▁लिटर	-8423
▁संतुल	-8424
te	-8425
▁भरे	-8426
तिनि	-8427
▁अनि	-8428
▁भिंती	-8429
ress	-8430
▁blog	-8431
▁it	-8432
▁लुक	-8433
▁आठवणी	-8434
पिक	-8435
▁तिल	-8436
▁44	-8437
▁ख्या	-8438
▁अधिकांश	-8439
कार्	-8440
▁सवय	-8441
▁नांदेड	-8442
स्करण	-8443
ंकन	-8444
▁अनुप	-8445
▁सुनकर	-8446
▁सभागृहात	-8447
▁वृद्ध	-8448
▁tim	-8449
वाहा	-8450
पत्रे	-8451
▁होणार्या	-8452
▁बीड	-8453
▁टुक	-8454
ोजी	-8455
्यांशी	-8456
▁नद	-8457
मुना	-8458
▁शेतकऱ्यांनी	-8459
▁पंजी	-8460
▁प्रवीण	-8461
▁साधा	-8462
▁प्रत्येकी	-8463
▁कू	-8464
▁खाल	-8465
▁उर्वरित	-8466
▁राजकुमार	-8467
▁विश	-8468
▁चाचणी	-8469
▁शिफार	-8470
▁नैतिक	-8471
▁खबरें	-8472
लेशन	-8473
▁कांबळे	-8474
▁झाल्याची	-8475
▁हिट	-8476
▁मागित	-8477
▁सुधीर	-8478
▁नसताना	-8479
राचा	-8480
्रीकर	-8481
▁युती	-8482
▁des	-8483
▁प्रतिष्ठा	-8484
▁पर्यट	-8485
▁देणारे	-8486
▁उग	-8487
▁कार्यकर्त्यांनी	-8488
▁घटनाओं	-8489
▁इलेक्ट्रॉन	-8490
▁चट	-8491
▁कात	-8492
▁जाओ	-8493
▁साधला	-8494
डप	-8495
▁2010	-8496
▁स्वस्त	-8497
यांनी	-8498
ीन	-8499
▁पाउ	-8500
▁टेली	-8501
ass	-8502
▁एटीएम	-8503
मिळ	-8504
▁खाता	-8505
▁बेड	-8506
▁यात्रियों	-8507
▁प्रजा	-8508
▁स्मृति	-8509
▁स्नान	-8510
▁चुनावी	-8511
िंक	-8512
▁रुग्णालया	-8513
वरे	-8514
▁गौरी	-8515
▁देखी	-8516
▁चक्कर	-8517
▁स्तरावर	-8518
▁क्रा	-8519
▁त्वर	-8520
▁वापसी	-8521
▁घेण्याचा	-8522
▁जानता	-8523
▁लिखित	-8524
▁दुर्दै	-8525
▁नील	-8526
▁बनाते	-8527
▁विजयी	-8528
▁प्रशासकीय	-8529
▁कॉर्	-8530
▁आंब	-8531
▁कैमरा	-8532
▁गळ	-8533
▁आलोचना	-8534
▁तिसऱ्या	-8535
ption	-8536
▁जगताप	-8537
▁ठरणार	-8538
िना	-8539
▁स्वि	-8540
▁वनस्प	-8541
▁शरण	-8542
टीस	-8543
▁अशाच	-8544
▁पुकार	-8545
▁ग्राहकों	-8546
▁तिकडे	-8547
ैली	-8548
ोदर	-8549
▁खतर	-8550
▁इंद्र	-8551
▁गॅस	-8552
▁मुद्दों	-8553
app	-8554
▁भात	-8555
▁चीजों	-8556
▁महत्त्वपूर्ण	-8557
वासियों	-8558
▁असणार्या	-8559
▁अंधे	-8560
▁अश्लील	-8561
▁आट	-8562
मर्श	-8563
▁बहुमत	-8564
▁जापान	-8565
▁रवींद्र	-8566
▁लागलं	-8567
ath	-8568
▁कॉपी	-8569
धिकाऱ	-8570
▁प्रामुख्या	-8571
▁टाकले	-8572
▁यापुढे	-8573
▁पगार	-8574
ue	-8575
ावधान	-8576
▁मुज	-8577
▁गडकरी	-8578
▁विचारों	-8579
जान	-8580
▁केंद्रित	-8581
▁बघायला	-8582
▁परिस	-8583
▁भागीदारी	-8584
▁एसी	-8585
पीय	-8586
स्थापित	-8587
▁धाड	-8588
त्त्व	-8589
▁संजीव	-8590
बाल	-8591
▁off	-8592
▁शून	-8593
▁क्षेत्रीय	-8594
▁मिठा	-8595
▁सुनने	-8596
▁खालील	-8597
▁शिवि	-8598
ff	-8599
सत्ता	-8600
▁हाईकोर्ट	-8601
ॉट्स	-8602
▁पार्टनर	-8603
मेर	-8604
▁माणसे	-8605
सेन	-8606
▁स्वराज	-8607
▁आक्रमक	-8608
▁४५	-8609
▁अन्त	-8610
▁वाई	-8611
▁निपट	-8612
▁लिहा	-8613
ंबू	-8614
▁खरीदने	-8615
▁प्रदीप	-8616
शीत	-8617
▁असती	-8618
▁अाहे	-8619
▁क्षम	-8620
ांतर्गत	-8621
▁श्रृ	-8622
▁इस्ती	-8623
बिल	-8624
▁इमर	-8625
▁कांदा	-8626
▁उत्पादों	-8627
▁लाया	-8628
▁43	-8629
म्मच	-8630
▁क्रमां	-8631
▁बिहारी	-8632
▁महेंद्र	-8633
▁नाराजी	-8634
▁पत्रकारिता	-8635
▁भट्ट	-8636
▁तहसीलदार	-8637
रस	-8638
▁39	-8639
याला	-8640
▁टोक	-8641
▁पढ़ा	-8642
▁पोषण	-8643
पेपर	-8644
▁ताकद	-8645
▁लेती	-8646
▁पुरुषों	-8647
▁निकलने	-8648
र्वी	-8649
खार	-8650
▁राष्ट्रा	-8651
▁त्याचप्रमाणे	-8652
▁येतं	-8653
▁ग्लो	-8654
▁जड	-8655
▁वक्तव्य	-8656
▁दृष्टिको	-8657
▁new	-8658
▁कुणा	-8659
▁प्रथा	-8660
▁दर्शकों	-8661
▁रसाय	-8662
▁सेहत	-8663
हाने	-8664
▁आबादी	-8665
▁१९६	-8666
▁माणसाला	-8667
▁ब्या	-8668
▁मेळ	-8669
▁होणारा	-8670
ोध्या	-8671
▁पब्लिक	-8672
▁वस्त्र	-8673
▁कंट्रोल	-8674
▁अध्यक्षता	-8675
ोलॉजी	-8676
▁शोर	-8677
▁रिया	-8678
▁किल्ला	-8679
▁सविस्तर	-8680
▁राज्यमंत्री	-8681
ren	-8682
▁सूरज	-8683
स्वती	-8684
▁चेंड	-8685
▁गुल	-8686
नीत	-8687
▁प्राधान्य	-8688
ंमुळे	-8689
▁भारताला	-8690
▁एक्ट्रेस	-8691
ंखला	-8692
▁वाढते	-8693
▁स्पर्श	-8694
चर्स	-8695
नेर	-8696
▁कारभार	-8697
▁आध्यात्मिक	-8698
▁आवक	-8699
▁साहित्यिक	-8700
▁नावाच्या	-8701
शनी	-8702
▁उमट	-8703
▁वचन	-8704
▁परमेश्व	-8705
▁जानवर	-8706
▁बघा	-8707
पांडे	-8708
▁परदेशी	-8709
▁साझा	-8710
क्रिया	-8711
▁आधा	-8712
▁बनकर	-8713
kar	-8714
▁अर्धा	-8715
▁पुण्य	-8716
▁२०१४	-8717
▁महाजन	-8718
▁प्रस्तावित	-8719
पाणी	-8720
प्रस	-8721
ुलकर	-8722
▁योग्यता	-8723
भु	-8724
ूच्या	-8725
▁वैभव	-8726
▁अण्णा	-8727
नेही	-8728
▁लागलो	-8729
▁mah	-8730
बिनेट	-8731
▁काढली	-8732
माची	-8733
▁कंटा	-8734
▁इत्यादि	-8735
▁पूल	-8736
▁मतदारसंघ	-8737
▁तुकारा	-8738
▁शोक	-8739
▁स्टोरी	-8740
▁प्रतिदिन	-8741
िड	-8742
▁ग्रामीणों	-8743
राचे	-8744
▁जता	-8745
▁अंडर	-8746
▁सबको	-8747
ंजा	-8748
▁अको	-8749
▁गती	-8750
ुनिया	-8751
▁सुरूवात	-8752
▁प्रामुख्याने	-8753
▁पुर्ण	-8754
▁नियुक्ति	-8755
▁हक	-8756
▁आव्हा	-8757
▁टक्कर	-8758
स्से	-8759
▁अहमदाबाद	-8760
▁स्क्र	-8761
▁रिक्षा	-8762
▁चिप	-8763
▁मोहीम	-8764
▁रान	-8765
▁शेकड	-8766
▁ab	-8767
निर्माण	-8768
▁नमस्कार	-8769
ru	-8770
्टे	-8771
निय	-8772
मुखी	-8773
ूबाज	-8774
ंतराव	-8775
पक्षी	-8776
पाक	-8777
▁सोहळा	-8778
▁निर्मित	-8779
फाय	-8780
व्यू	-8781
▁रघु	-8782
▁दीवार	-8783
दोष	-8784
port	-8785
▁सेवे	-8786
▁as	-8787
▁स्टी	-8788
▁निवडणुका	-8789
▁शालेय	-8790
▁डालकर	-8791
▁इंग्लिश	-8792
रोप	-8793
▁शिवराज	-8794
▁सभे	-8795
▁अद्भुत	-8796
▁150	-8797
▁वैध	-8798
▁मनाने	-8799
▁वार्ड	-8800
य्य	-8801
▁ग्राहकांना	-8802
यांच्या	-8803
म्बा	-8804
कोश	-8805
खें	-8806
▁आपस	-8807
▁स्वतःचे	-8808
जना	-8809
▁अकाद	-8810
▁बंदोब	-8811
▁पर्वत	-8812
▁आल्याचे	-8813
▁आशीर्वाद	-8814
▁उत्पादने	-8815
▁उघ	-8816
▁स्ट्र	-8817
▁त्वरित	-8818
▁ग्रीन	-8819
▁चम्मच	-8820
प्रकारे	-8821
▁बड	-8822
▁फौज	-8823
▁सिलसि	-8824
▁व्यक्तिम	-8825
संधान	-8826
▁दहशतवाद	-8827
▁सोया	-8828
▁गेल्यावर	-8829
▁कीमतों	-8830
▁बिर	-8831
▁शेट्टी	-8832
▁स्वरुप	-8833
▁अफ्रीका	-8834
▁सर्वश्रेष्ठ	-8835
▁राठ	-8836
▁वाळ	-8837
▁अर्थाने	-8838
▁आएगा	-8839
▁प्रेमी	-8840
▁अपडेट	-8841
▁स्वर्ण	-8842
▁अपर	-8843
▁बॉडी	-8844
▁ख़ा	-8845
▁नाथ	-8846
▁भिज	-8847
▁मचा	-8848
▁संपत्ती	-8849
विरोधी	-8850
▁उठाने	-8851
.30	-8852
▁म्हणे	-8853
संघा	-8854
▁बहस	-8855
▁सुट्टी	-8856
sl	-8857
▁आवाज़	-8858
▁पाणीपुरवठा	-8859
▁सिम	-8860
डीपी	-8861
▁हड़	-8862
ेटा	-8863
खालील	-8864
▁तरुणी	-8865
▁औसत	-8866
▁समर्पित	-8867
ry	-8868
▁पिका	-8869
▁महंगा	-8870
▁टप्प्यात	-8871
▁लोकतंत्र	-8872
▁अल्लाह	-8873
▁शेतकर्यांना	-8874
▁सीमित	-8875
▁सत्कार	-8876
ईओ	-8877
▁ठरवले	-8878
▁मालूम	-8879
ोगे	-8880
▁अयोध्या	-8881
▁संगठनों	-8882
▁अहि	-8883
▁खरोखर	-8884
▁आगी	-8885
▁मारून	-8886
मस	-8887
चाही	-8888
्यव	-8889
▁जस	-8890
▁गांवों	-8891
▁सामोरे	-8892
▁घातली	-8893
▁पीड	-8894
▁सास	-8895
▁घातला	-8896
ंकार	-8897
▁लिहाज	-8898
▁क्व	-8899
▁नियमों	-8900
▁पोस्टर	-8901
▁पाठक	-8902
▁काका	-8903
▁सदन	-8904
▁हळू	-8905
डकी	-8906
▁मस्जि	-8907
▁बेश	-8908
▁वैशिष्ट्य	-8909
▁comment	-8910
▁पडतो	-8911
▁नायक	-8912
▁चन्द्र	-8913
▁नाश	-8914
▁महोत्सव	-8915
▁लगाते	-8916
▁उगा	-8917
▁सेव	-8918
▁खेलने	-8919
▁उशिरा	-8920
▁सुप्र	-8921
▁नमक	-8922
▁शेष	-8923
िक्कत	-8924
▁केदार	-8925
▁वीर्य	-8926
▁दोबारा	-8927
▁सर्विस	-8928
▁८०	-8929
▁दिलच	-8930
▁2009	-8931
▁पहुँ	-8932
▁न्यायम	-8933
▁म्हणाल्या	-8934
्यामध्ये	-8935
▁जोख	-8936
▁आपसे	-8937
▁तुम्हारी	-8938
me	-8939
▁195	-8940
▁केन्द	-8941
▁बातम्या	-8942
ुआ	-8943
▁जीबी	-8944
▁मुलायम	-8945
▁वर्षाच्या	-8946
▁मनमोहन	-8947
▁खळबळ	-8948
कामना	-8949
▁बसपा	-8950
▁वसंत	-8951
▁ः	-8952
▁नेमके	-8953
▁एर	-8954
▁हिरा	-8955
▁सरल	-8956
▁अतुल	-8957
▁बिलकुल	-8958
▁मागच्या	-8959
▁मुखर्जी	-8960
▁रुपयांच्या	-8961
▁सुनाई	-8962
▁श्वास	-8963
बली	-8964
▁चेह	-8965
ेक्षा	-8966
▁केल्यावर	-8967
▁तरच	-8968
▁वेश	-8969
▁आक्षेप	-8970
▁बसले	-8971
▁शिल्प	-8972
▁माझ्याकडे	-8973
▁निकले	-8974
▁रणनीति	-8975
▁ताव	-8976
▁उपाययोजना	-8977
▁असंख्य	-8978
▁प्राधिकरण	-8979
▁ठिक	-8980
▁2008	-8981
▁प्रौद्योगिकी	-8982
▁घेतो	-8983
▁47	-8984
▁सध्याच्या	-8985
▁डिझा	-8986
▁दिग्दर्शक	-8987
▁ईमेल	-8988
▁जायचे	-8989
▁तेही	-8990
▁नवीनतम	-8991
pur	-8992
▁सीता	-8993
▁प्रात	-8994
▁न्यायालयाच्या	-8995
▁कायदेशीर	-8996
▁गुना	-8997
▁वें	-8998
▁वाटे	-8999
▁मछ	-9000
्यूटी	-9001
▁खबरों	-9002
▁मैत्र	-9003
▁वाढले	-9004
▁प्रयत्ना	-9005
▁खत	-9006
पाशी	-9007
▁sc	-9008
▁अवतार	-9009
▁कमांड	-9010
कथ	-9011
भाविक	-9012
▁फिल्में	-9013
▁मारली	-9014
▁खेले	-9015
▁त्यानं	-9016
▁सड़कों	-9017
▁डेस्क	-9018
▁मागास	-9019
▁51	-9020
▁जिनका	-9021
▁दिवसीय	-9022
▁धक्कादायक	-9023
णसी	-9024
▁राजकारणात	-9025
▁उतना	-9026
▁किम	-9027
▁माला	-9028
▁not	-9029
▁प्राप्ति	-9030
▁00	-9031
▁डायरेक्टर	-9032
▁झाडे	-9033
▁लाइट	-9034
▁वर्क	-9035
▁प्रांत	-9036
▁आपूर्ति	-9037
▁५००	-9038
▁अस्वस्थ	-9039
▁प्रदेशाध्यक्ष	-9040
▁शिल्लक	-9041
ातही	-9042
्रल	-9043
▁पध्द	-9044
▁आणली	-9045
ोर्ट	-9046
▁मूलभूत	-9047
▁ऐप	-9048
▁कानूनी	-9049
▁महज	-9050
▁स्कू	-9051
ॉस	-9052
▁परमाण	-9053
▁भंग	-9054
▁अष्ट	-9055
’’	-9056
▁कक्ष	-9057
▁पुष्प	-9058
▁होंगी	-9059
▁करवाया	-9060
▁जनावर	-9061
▁आज्ञ	-9062
▁ठरली	-9063
टाला	-9064
▁विटामिन	-9065
▁३२	-9066
▁निर्वाचन	-9067
▁अनुसंधान	-9068
▁कहे	-9069
वण्याची	-9070
ृत्ति	-9071
▁उपभो	-9072
▁वेबसाईट	-9073
▁41	-9074
▁अगोदर	-9075
▁सीसीटी	-9076
कीस	-9077
▁अवकाश	-9078
▁स्टील	-9079
कर्त	-9080
▁सोनी	-9081
▁सहारा	-9082
▁हंस	-9083
▁ईमान	-9084
▁टाकला	-9085
▁असतानाही	-9086
▁नर्स	-9087
▁पदाधिकार	-9088
श्या	-9089
▁मैचों	-9090
▁मुकाबला	-9091
चण	-9092
चाली	-9093
ळाची	-9094
▁तुलसी	-9095
▁बढ़े	-9096
▁कार्त	-9097
▁वयाच्या	-9098
वळी	-9099
▁46	-9100
▁काँग्रेसच्या	-9101
▁मूल्या	-9102
▁देशपांडे	-9103
▁श्याम	-9104
▁उच्चार	-9105
▁शेतात	-9106
▁मुकेश	-9107
▁थोड्या	-9108
orn	-9109
▁संस्थेच्या	-9110
▁पढ	-9111
पाच्या	-9112
▁ग्ला	-9113
▁वाचन	-9114
▁स्कोर	-9115
▁रस्त्या	-9116
▁बेळगाव	-9117
▁जाण्याची	-9118
▁कर्णधार	-9119
▁सभेत	-9120
▁पत्ता	-9121
▁अन्दर	-9122
▁अंतर्राष्ट्रीय	-9123
चरण	-9124
▁लेन	-9125
▁what	-9126
▁अवस्थेत	-9127
▁तुकाराम	-9128
une	-9129
▁समर्थक	-9130
▁ज्	-9131
हेरी	-9132
▁पुष्टि	-9133
▁सुन्दर	-9134
▁वाराणसी	-9135
▁सरस्वती	-9136
▁दाट	-9137
▁आमिर	-9138
ृष्टी	-9139
▁एह	-9140
स्तरीय	-9141
णीस	-9142
▁कैम	-9143
▁अपघाता	-9144
ata	-9145
▁वाढदिव	-9146
od	-9147
▁ठरते	-9148
▁नावाचा	-9149
▁श्राव	-9150
▁प्रावधान	-9151
▁फटा	-9152
ब्दी	-9153
▁निराश	-9154
▁झेल	-9155
▁दिवाली	-9156
▁क्रेडिट	-9157
▁दरवाजे	-9158
▁आजूबाज	-9159
▁शिवसेनेचे	-9160
ाजवळ	-9161
▁लंदन	-9162
▁फ्रांस	-9163
▁शर्त	-9164
▁सबके	-9165
म्ह	-9166
▁जिनकी	-9167
▁निष्कर्ष	-9168
न्त्र	-9169
▁जानी	-9170
▁बचने	-9171
▁विद्यमान	-9172
▁शेकडो	-9173
▁बदमाश	-9174
▁बढ़ो	-9175
▁विंड	-9176
▁रासाय	-9177
▁लाज	-9178
▁सुरे	-9179
प्पी	-9180
▁fe	-9181
सदीय	-9182
दृष्ट	-9183
▁उपज	-9184
▁न्यून	-9185
▁पदार्	-9186
त्रे	-9187
योग्य	-9188
कांकडून	-9189
▁याविषयी	-9190
▁त्याच्यावर	-9191
▁सर्वांनी	-9192
▁किड	-9193
▁प्रमोद	-9194
▁प्रक्रिये	-9195
भोवती	-9196
बारी	-9197
▁ऑन	-9198
य्या	-9199
ेंट्स	-9200
▁बिजनेस	-9201
ँह	-9202
▁स्वरूपात	-9203
▁बांग्लादेश	-9204
▁बताई	-9205
▁ठो	-9206
▁दोघांनी	-9207
ंदाजी	-9208
डम	-9209
▁असल	-9210
▁मर्यादित	-9211
▁कनेक्शन	-9212
ित्री	-9213
डीसी	-9214
ell	-9215
▁मारने	-9216
ळेकर	-9217
ाविष	-9218
▁अनुमानित	-9219
▁नियंत्रित	-9220
नामी	-9221
▁बढ़ते	-9222
्रीट	-9223
▁बोलते	-9224
▁ब्लैक	-9225
▁छाती	-9226
▁प्रतिस्पर्	-9227
सुर	-9228
▁ऑफ़	-9229
राजे	-9230
▁गाड्या	-9231
▁डांस	-9232
▁पड़ती	-9233
▁पिश	-9234
▁धनंजय	-9235
▁वॉलपेपर	-9236
▁केन्द्रीय	-9237
चाच	-9238
तियां	-9239
▁श्रीमंत	-9240
▁दस्त	-9241
ult	-9242
▁अधिवेश	-9243
पचारिक	-9244
▁वेळेस	-9245
▁तत्काल	-9246
नेच	-9247
▁पश्चिमी	-9248
वावी	-9249
▁अपहरण	-9250
▁खींच	-9251
,5	-9252
▁घेताना	-9253
केज	-9254
ram	-9255
ृहा	-9256
▁झाडा	-9257
▁लुट	-9258
▁जरिये	-9259
वर्ष	-9260
▁आशंका	-9261
▁वर्च	-9262
▁स्रोत	-9263
ash	-9264
▁बनता	-9265
▁अर्थातच	-9266
▁लातूर	-9267
▁स्पीड	-9268
▁स्वाभाविक	-9269
▁ठाम	-9270
▁कुठेही	-9271
▁त्यातच	-9272
▁७०	-9273
वेदना	-9274
▁राऊत	-9275
▁res	-9276
▁सभासद	-9277
राल	-9278
▁जपान	-9279
▁व्यंग	-9280
▁स्वाद	-9281
▁फ्रान्स	-9282
▁उद्दिष्ट	-9283
▁माणसं	-9284
▁राज्याचे	-9285
▁अधिसूचना	-9286
▁सूत्रांनी	-9287
वास्तव	-9288
▁आरंभ	-9289
▁with	-9290
▁जाण्यासाठी	-9291
▁वाहने	-9292
▁चर्चेत	-9293
▁कुशल	-9294
▁रासायनिक	-9295
▁दिक्कत	-9296
▁फसवणूक	-9297
पिंग	-9298
▁अंजाम	-9299
▁मायावती	-9300
▁पाइ	-9301
▁झटका	-9302
ंकी	-9303
▁bl	-9304
▁निर्देशक	-9305
▁वीस	-9306
▁हस्तक्षेप	-9307
्यौ	-9308
न्दगी	-9309
▁जादू	-9310
▁सर्च	-9311
▁घेतलं	-9312
▁बीमा	-9313
▁काठ	-9314
जमेंट	-9315
म्मा	-9316
▁ब्रिटेन	-9317
▁उत्सुकता	-9318
▁52	-9319
▁ड्रेस	-9320
आती	-9321
▁सीधा	-9322
▁दला	-9323
पूत	-9324
▁लावले	-9325
▁टु	-9326
▁दाब	-9327
▁कानपुर	-9328
▁लोन	-9329
सिद्ध	-9330
▁जीता	-9331
▁01	-9332
▁आल	-9333
▁पवन	-9334
▁विठ्ठल	-9335
वरच	-9336
्यांकडे	-9337
ाये	-9338
▁आयी	-9339
▁यज्ञ	-9340
▁फाउंड	-9341
▁स्वर्ग	-9342
▁विनय	-9343
▁अपवाद	-9344
▁जस्टिस	-9345
भूषण	-9346
▁रोजाना	-9347
्राट	-9348
▁बाधा	-9349
▁उडाली	-9350
दला	-9351
▁शब्दा	-9352
▁दिल्लीत	-9353
▁पावसाने	-9354
करता	-9355
▁ऐलान	-9356
▁जमान	-9357
तंय	-9358
▁मसाला	-9359
▁सहयोगी	-9360
▁दुष्काळ	-9361
▁वाजे	-9362
▁समावि	-9363
▁आमंत्रित	-9364
▁मले	-9365
▁उक्त	-9366
▁भगत	-9367
▁हेतू	-9368
▁खरंच	-9369
▁गुलाब	-9370
▁दिवसभर	-9371
,6	-9372
▁गंग	-9373
कोण	-9374
दून	-9375
▁बापू	-9376
लिता	-9377
▁भागवत	-9378
्रु	-9379
▁प्रसंगी	-9380
▁सवल	-9381
▁सर्वांत	-9382
रीच्या	-9383
▁संचालित	-9384
▁स्टार्ट	-9385
▁झाल्यामुळे	-9386
ऊस	-9387
नास	-9388
▁टेनिस	-9389
▁पेस्ट	-9390
▁पाएंगे	-9391
▁सैक	-9392
▁बैल	-9393
▁शार	-9394
▁कर्जा	-9395
▁जोड़ी	-9396
▁थोडक्यात	-9397
▁पडलेल्या	-9398
मह	-9399
दुर	-9400
▁अगली	-9401
▁कोंडी	-9402
▁समस	-9403
der	-9404
िज्य	-9405
मॅट	-9406
▁हवेत	-9407
▁यादीत	-9408
▁मानसिकता	-9409
▁हैः	-9410
▁प्रोडक्ट	-9411
line	-9412
एमसी	-9413
▁कमेंट	-9414
▁हथियार	-9415
मेन	-9416
पाली	-9417
▁सौं	-9418
▁video	-9419
▁उपर	-9420
▁मालक	-9421
▁संसदीय	-9422
▁इंदौर	-9423
▁बढ़कर	-9424
▁निरंतर	-9425
▁रावत	-9426
▁डोक्यावर	-9427
ष्क	-9428
▁मालमत्ता	-9429
▁त्याबद्दल	-9430
▁जमी	-9431
▁त्यो	-9432
▁रकम	-9433
पुढ	-9434
▁फ्ला	-9435
▁रखकर	-9436
▁मुसलमानों	-9437
▁pol	-9438
▁पोर्टल	-9439
▁सीर	-9440
▁ध्येय	-9441
▁पालखी	-9442
▁व्यासपीठ	-9443
▁जुड़ा	-9444
ूंच्या	-9445
▁चुदाई	-9446
▁आगमन	-9447
▁परमाणु	-9448
▁दहशतवादी	-9449
▁मेर	-9450
▁जायेगी	-9451
लिये	-9452
▁घेवून	-9453
▁फर्जी	-9454
▁संस	-9455
लांनी	-9456
▁प्रकृती	-9457
वो	-9458
▁चेताव	-9459
▁निकालने	-9460
▁देणाऱ्या	-9461
कीम	-9462
▁झे	-9463
▁यात्री	-9464
▁बजा	-9465
▁कोश	-9466
सेट	-9467
▁नेत्यांनी	-9468
▁महत्त्वाच्या	-9469
▁ग्रामपंचायती	-9470
▁आभा	-9471
▁काटे	-9472
▁गोपाल	-9473
▁राष्ट्रवादीचे	-9474
▁कॉफी	-9475
▁यावी	-9476
▁रथ	-9477
ळाला	-9478
▁औरत	-9479
▁अतिक्रमण	-9480
▁वसूल	-9481
▁भास्कर	-9482
▁मुळ	-9483
▁गतिविधियों	-9484
▁टोल	-9485
▁येणारे	-9486
▁मानी	-9487
▁चीजें	-9488
म्य	-9489
▁पाहिलं	-9490
▁डब	-9491
▁यायला	-9492
▁भरने	-9493
▁man	-9494
▁सुहा	-9495
▁मेगा	-9496
▁गोविंद	-9497
▁समीर	-9498
▁दहावी	-9499
ड्डे	-9500
▁अजुन	-9501
▁चलती	-9502
▁इंजन	-9503
▁रिका	-9504
▁पार्किंग	-9505
▁सपने	-9506
▁फूड	-9507
▁१९४	-9508
▁मुकदमा	-9509
▁एसो	-9510
▁आचार	-9511
▁जितनी	-9512
▁वाढला	-9513
▁उघडकीस	-9514
गाळ	-9515
▁दिव्या	-9516
▁रामदास	-9517
▁केल्याचा	-9518
▁दिलासा	-9519
▁गेंदबाज	-9520
श्त	-9521
▁बहर	-9522
▁मिसा	-9523
▁दिलेला	-9524
▁इक	-9525
वलेल्या	-9526
▁विभागातील	-9527
मेट	-9528
▁शांतता	-9529
▁भास	-9530
iz	-9531
प्रसंगी	-9532
▁फाउंडेशन	-9533
ढ़ा	-9534
▁कराव	-9535
▁भारताचा	-9536
▁56	-9537
लुओं	-9538
▁400	-9539
कर्मी	-9540
एगा	-9541
▁प्रीम	-9542
▁पर्रीकर	-9543
▁प्रोफे	-9544
▁श्रीनगर	-9545
▁shi	-9546
▁१९५	-9547
िवूड	-9548
▁वास्तु	-9549
▁टाय	-9550
▁लिही	-9551
▁at	-9552
ांपासून	-9553
▁काळ्या	-9554
▁मासे	-9555
▁संबंधों	-9556
▁बहुजन	-9557
▁ट्रेलर	-9558
▁हस	-9559
▁बांधून	-9560
▁महाव	-9561
स्सी	-9562
▁युन	-9563
▁साळ	-9564
▁राज्यसभा	-9565
▁जुळ	-9566
▁डोक्यात	-9567
बरे	-9568
▁प्लॅ	-9569
▁जनतेला	-9570
▁गाणं	-9571
▁वाटू	-9572
▁घडत	-9573
सोबतच	-9574
ेंडर	-9575
▁उडी	-9576
▁सुर्	-9577
▁दुकाने	-9578
▁भुज	-9579
▁वाणिज्य	-9580
▁विजेता	-9581
लेंडर	-9582
▁सनात	-9583
स्त्री	-9584
▁शौचालय	-9585
▁धूप	-9586
,4	-9587
द्री	-9588
▁पुण्यातील	-9589
▁64	-9590
▁गर्ल	-9591
▁गिरा	-9592
▁फोटोग्रा	-9593
वेळा	-9594
▁दक्ष	-9595
▁प्रत्याशी	-9596
▁काशी	-9597
▁लक	-9598
▁वाहनों	-9599
शेखर	-9600
लीला	-9601
मैं	-9602
देशिक	-9603
▁समजले	-9604
▁खतरनाक	-9605
▁शॉपिंग	-9606
ल्य	-9607
▁जड़	-9608
▁विस	-9609
▁अब्दुल	-9610
▁मिनी	-9611
▁कम्युनि	-9612
▁अमीर	-9613
▁हंगामा	-9614
विण्याची	-9615
▁मिनिटे	-9616
▁प्रचलित	-9617
▁सुग	-9618
▁तेरे	-9619
▁शकणार	-9620
टकर	-9621
यंकर	-9622
ink	-9623
जाती	-9624
▁रोप	-9625
ण्यावर	-9626
▁रायगड	-9627
▁लंबा	-9628
▁पंढरपूर	-9629
▁मसा	-9630
▁निमंत्र	-9631
फ्रेंड	-9632
ge	-9633
▁सदैव	-9634
लप	-9635
▁स्थग	-9636
▁व्हावा	-9637
▁रसिक	-9638
▁अधिकतर	-9639
▁अपघातात	-9640
मिट	-9641
▁54	-9642
▁ki	-9643
▁तीच	-9644
▁पडता	-9645
cri	-9646
▁जरुरी	-9647
▁संस्करण	-9648
▁हमे	-9649
▁शत्रु	-9650
▁जायेंगे	-9651
▁लोकांचा	-9652
▁बोलता	-9653
कळ	-9654
नन	-9655
▁आश्र	-9656
िशन	-9657
▁मार्क	-9658
▁यांनीही	-9659
▁संगम	-9660
राण	-9661
ष्का	-9662
▁लागतील	-9663
वीन	-9664
▁खेलों	-9665
▁चेतावनी	-9666
ight	-9667
ान्त	-9668
▁भोजपुरी	-9669
▁महीनों	-9670
वणार	-9671
▁अकादमी	-9672
माळ	-9673
मरी	-9674
जोरी	-9675
▁वापरले	-9676
▁ईरान	-9677
ताब्दी	-9678
▁शास्त्री	-9679
शैली	-9680
▁गोव	-9681
▁वाटतो	-9682
▁संपु	-9683
▁तमिलना	-9684
▁तुळ	-9685
▁जगहों	-9686
▁योगेश	-9687
मांड	-9688
▁हटाने	-9689
own	-9690
▁टूर्	-9691
▁दाखिल	-9692
▁शुभार	-9693
▁पाहिजेत	-9694
▁med	-9695
▁हाइ	-9696
▁कुटुंबी	-9697
▁संताप	-9698
▁महाराष्ट्राच्या	-9699
▁चाट	-9700
शंकर	-9701
▁खनि	-9702
▁मुर्	-9703
▁रुपयांचे	-9704
▁साक्षात्	-9705
वाढ	-9706
▁समन्वय	-9707
त्रिम	-9708
▁यासंदर्भात	-9709
▁आइए	-9710
▁बलि	-9711
सायला	-9712
▁वावर	-9713
▁जियो	-9714
▁पथकाने	-9715
▁यहीं	-9716
▁करणाऱ	-9717
▁जिक्र	-9718
▁भारताचे	-9719
▁खैर	-9720
▁सीजन	-9721
▁हद्दी	-9722
पटॉप	-9723
▁लाय	-9724
▁होली	-9725
▁पक्षनेते	-9726
▁व्यक्तियों	-9727
र्दी	-9728
▁बनावट	-9729
▁समक्ष	-9730
▁अडचण	-9731
▁निविदा	-9732
व्हे	-9733
▁प्रतिनिधित्व	-9734
भवती	-9735
▁विधी	-9736
ोळ	-9737
▁गटात	-9738
▁कशाला	-9739
cl	-9740
▁कराड	-9741
▁रणवीर	-9742
▁पुनर्व	-9743
▁jo	-9744
▁देगी	-9745
▁सौंप	-9746
▁मीडियावर	-9747
▁चव	-9748
▁वेल	-9749
11	-9750
▁http	-9751
▁सहाय्यक	-9752
▁मस्जिद	-9753
▁2000	-9754
वतीने	-9755
टेक	-9756
ळीस	-9757
▁स्त	-9758
▁कंत्रा	-9759
जल्ट	-9760
▁नागरिकों	-9761
पटू	-9762
▁अख्	-9763
▁धोक	-9764
▁अकबर	-9765
▁रिजल्ट	-9766
▁आदत	-9767
▁शर्ट	-9768
▁खेड	-9769
▁बटा	-9770
▁मेज	-9771
▁ख्रि	-9772
▁जानकार	-9773
▁सगळ्यांना	-9774
▁अर्थसंकल्प	-9775
ुरा	-9776
ोळी	-9777
▁रेप	-9778
▁समाविष्ट	-9779
▁रोटी	-9780
▁ऍड	-9781
▁संक्रम	-9782
▁संघटनेचे	-9783
फिकेशन	-9784
▁बदलते	-9785
एक्स	-9786
▁साफ़	-9787
▁शास्त्रीय	-9788
▁फोर	-9789
▁इसलिये	-9790
▁जन्मदिन	-9791
पालिके	-9792
▁previ	-9793
▁खासकर	-9794
▁del	-9795
▁रेकॉर्ड	-9796
▁माओ	-9797
▁मालिके	-9798
ical	-9799
▁कादंबरी	-9800
▁मधुमे	-9801
▁सज्ज	-9802
▁किंमती	-9803
▁ब्	-9804
तिम	-9805
▁गोप	-9806
ेवर	-9807
डीच्या	-9808
▁यहोवा	-9809
▁कमर	-9810
▁आधारे	-9811
वाल्या	-9812
▁सांगू	-9813
निर्मिती	-9814
लरी	-9815
माचा	-9816
ep	-9817
पुरात	-9818
विषयक	-9819
▁अर्पण	-9820
▁ऐन	-9821
▁सितम्बर	-9822
▁जाल	-9823
▁दोघेही	-9824
▁साखरे	-9825
▁श्रीकृष्ण	-9826
▁नोकर	-9827
कण	-9828
▁kh	-9829
▁म्यु	-9830
▁मुलाला	-9831
वावर	-9832
▁विजया	-9833
▁शून्य	-9834
▁आरएसएस	-9835
▁प्राइवेट	-9836
▁कुं	-9837
▁तथापि	-9838
▁लोकसंख्या	-9839
▁सांस	-9840
▁परीक्ष	-9841
▁वाटेल	-9842
▁रेश	-9843
▁नारे	-9844
▁२०१५	-9845
▁उपक्रमा	-9846
▁लाइव	-9847
,3	-9848
▁एकीकडे	-9849
▁नाज	-9850
▁गुलाम	-9851
▁दिखाने	-9852
टिल	-9853
फेल	-9854
▁आपापल्या	-9855
▁स्वयंसेवक	-9856
▁अंधार	-9857
▁बाँ	-9858
धीन	-9859
▁सहमत	-9860
▁हिन्दु	-9861
प्रथम	-9862
▁रक	-9863
लांच्या	-9864
डगाव	-9865
पाचे	-9866
▁उभ्या	-9867
▁फैला	-9868
▁फेंक	-9869
▁मारपीट	-9870
▁वेगवेगळे	-9871
▁तारा	-9872
शाळा	-9873
▁चांगलं	-9874
▁सिंधुदुर्ग	-9875
▁nm	-9876
सेक्स	-9877
▁72	-9878
▁वान	-9879
▁हल्ली	-9880
ाविषयी	-9881
▁संसाधन	-9882
ियस	-9883
ंथा	-9884
▁रॉय	-9885
▁महामार्	-9886
▁एंट	-9887
▁प्रथमच	-9888
▁यंत्रणे	-9889
▁गिरफ्तारी	-9890
▁मनीष	-9891
▁उर्दू	-9892
ंचं	-9893
गुण	-9894
▁रावण	-9895
▁लागून	-9896
वृत्ती	-9897
▁यूरोप	-9898
▁hai	-9899
▁तिकी	-9900
▁जायला	-9901
ष्ठी	-9902
du	-9903
इम	-9904
▁कौशल्य	-9905
▁अपार	-9906
▁डोके	-9907
▁मिरव	-9908
▁चळवळी	-9909
▁होण्यास	-9910
▁सोडले	-9911
▁सिंगा	-9912
▁कौर	-9913
▁चारा	-9914
▁चौकी	-9915
▁कृत्रिम	-9916
▁निवडणुकीच्या	-9917
▁कोणा	-9918
ूंगा	-9919
▁उस्	-9920
ॉर्क	-9921
मार्ट	-9922
▁पुराण	-9923
ana	-9924
कोळ	-9925
▁मज़	-9926
▁टाइम्स	-9927
बड	-9928
▁विचित्र	-9929
abad	-9930
वर्गीय	-9931
▁आकडेवारी	-9932
ऱ्हा	-9933
पोरेट	-9934
▁यावरून	-9935
▁मार्गदर्शना	-9936
▁उपस्थितीत	-9937
▁तमिलनाडु	-9938
▁चलन	-9939
▁वक़	-9940
गावरील	-9941
ईडी	-9942
▁ग्रॅम	-9943
▁मुँह	-9944
▁सेवाओं	-9945
▁व्याज	-9946
india	-9947
▁काढण्यासाठी	-9948
18	-9949
ऊक	-9950
▁जर्मन	-9951
बाबा	-9952
▁गाळ	-9953
्रॉइड	-9954
जाग	-9955
▁जीवित	-9956
▁गंध	-9957
ainik	-9958
▁वन्य	-9959
▁नोटाबंदी	-9960
▁शरीफ	-9961
▁ढूं	-9962
▁पैशा	-9963
▁भयंकर	-9964
▁दिल्याने	-9965
▁मराठीत	-9966
ंगल	-9967
▁परिवारों	-9968
लये	-9969
▁ब्लड	-9970
▁ठेवणे	-9971
▁स्टोर	-9972
नेशनल	-9973
▁आँखों	-9974
▁सुरक्षे	-9975
ंगाने	-9976
▁बार्	-9977
▁तड	-9978
▁बोलने	-9979
ष्टीकरण	-9980
▁कन्	-9981
▁कलर	-9982
▁देणारा	-9983
कून	-9984
▁जाणार्या	-9985
▁आणण्यासाठी	-9986
▁डील	-9987
▁घडा	-9988
▁चौथे	-9989
▁माळ	-9990
▁घंटा	-9991
▁बुलाया	-9992
▁इंटरव्यू	-9993
हट	-9994
▁वगळता	-9995
पक्षीय	-9996
भावी	-9997
मोडी	-9998
▁ro	-9999
▁उत्ते	-10000
▁अशक्य	-10001
▁अस्तित्वात	-10002
पाची	-10003
▁तलाव	-10004
▁बिघड	-10005
▁मॅने	-10006
ळाचा	-10007
▁उद्योज	-10008
▁ट्रेनिंग	-10009
साम	-10010
book	-10011
▁रोहि	-10012
▁तपशील	-10013
▁हिंग	-10014
जेरी	-10015
▁समू	-10016
ैकी	-10017
ैट	-10018
▁मकर	-10019
▁कृत	-10020
▁जनपद	-10021
▁सार्थ	-10022
▁बुद्धी	-10023
▁dainik	-10024
▁दरात	-10025
▁शेड	-10026
▁सिद्धार्थ	-10027
▁पेंशन	-10028
▁सीबीआय	-10029
▁फिट	-10030
र्नर	-10031
▁छायाचित्र	-10032
▁अफग	-10033
▁मैन	-10034
▁बढ़ता	-10035
▁परिषदेचे	-10036
एडा	-10037
क्ते	-10038
नामेंट	-10039
▁अभिनंदन	-10040
per	-10041
▁कैसा	-10042
ोरा	-10043
▁विद्यार्थियों	-10044
▁ठरत	-10045
▁inter	-10046
▁व्यवस्थे	-10047
▁देशी	-10048
▁प्रोफेसर	-10049
▁खुर्	-10050
▁यूजर्स	-10051
क्टरी	-10052
▁बीसीसी	-10053
▁फळे	-10054
▁एशियाई	-10055
▁त्याबाबत	-10056
▁वातावरणात	-10057
▁वध	-10058
▁ब्रांड	-10059
▁नुसार	-10060
▁अखंड	-10061
▁अनिय	-10062
▁हिम्मत	-10063
▁फं	-10064
तीर्ण	-10065
▁सम्बंध	-10066
▁पंकज	-10067
ड़िया	-10068
▁याचं	-10069
▁विधा	-10070
▁नसल्यामुळे	-10071
▁शीघ्र	-10072
▁महागाई	-10073
▁क्रांति	-10074
ेन	-10075
खण्ड	-10076
ताच्या	-10077
▁em	-10078
▁चिम	-10079
▁बाला	-10080
▁वर्चस्व	-10081
ेंडा	-10082
वेळ	-10083
▁उन्होने	-10084
▁previous	-10085
याँ	-10086
▁ग्ल	-10087
▁अन्ना	-10088
ib	-10089
▁झग	-10090
▁acc	-10091
▁पथक	-10092
▁देखिए	-10093
▁बिब	-10094
▁पश्चात	-10095
▁रक्ता	-10096
▁जाणारे	-10097
▁त्यापेक्षा	-10098
ऊंड	-10099
▁राजपूत	-10100
नियां	-10101
▁साईट	-10102
▁ग्रामपंचायत	-10103
▁संतृ	-10104
प्रेमी	-10105
▁पुराना	-10106
▁सॉफ्टवेअर	-10107
▁कुप	-10108
घाट	-10109
▁नुकताच	-10110
▁तात्काळ	-10111
▁पिव	-10112
▁बीमारियों	-10113
▁चेयर	-10114
▁बम	-10115
▁लगेगा	-10116
▁छू	-10117
▁चाहत	-10118
▁जाणारी	-10119
▁लागवडी	-10120
▁सर्व्ह	-10121
फळ	-10122
▁दत्ता	-10123
▁निच	-10124
▁विषयों	-10125
ांपेक्षा	-10126
▁99	-10127
▁इंजिन	-10128
त्स	-10129
▁कारणों	-10130
▁होताना	-10131
विण्याचे	-10132
▁घेण्या	-10133
▁फीचर	-10134
▁पुरात	-10135
मध्येही	-10136
▁तूर	-10137
▁घट्ट	-10138
▁असणारी	-10139
▁स्पोर्ट	-10140
▁पाण्याच्या	-10141
▁बुर	-10142
▁सहमति	-10143
▁पूंजी	-10144
▁सुरवाती	-10145
संचा	-10146
▁कोय	-10147
ईस	-10148
रेटर	-10149
▁this	-10150
▁मेहता	-10151
▁यशा	-10152
▁अपलोड	-10153
▁कबीर	-10154
▁फ़ोन	-10155
▁विश्वा	-10156
▁मय	-10157
▁अतिथि	-10158
रात्री	-10159
स्वरूप	-10160
▁माघ	-10161
▁उमेश	-10162
▁प्राचार्य	-10163
▁बांधका	-10164
▁तन	-10165
▁कुठली	-10166
▁शकतील	-10167
▁अभय	-10168
स्ताना	-10169
▁संघाचे	-10170
▁वाव	-10171
संबंध	-10172
▁वयात	-10173
▁राशी	-10174
▁मनुष	-10175
▁त्यांच्याकडून	-10176
▁जवाहर	-10177
▁निफ्टी	-10178
ाविर	-10179
▁बनते	-10180
▁पिछली	-10181
▁05	-10182
▁फ्रेंच	-10183
▁अक्षरशः	-10184
▁वर्षांचा	-10185
▁रोज़	-10186
▁तुरु	-10187
▁नजदी	-10188
▁बदलून	-10189
▁त्योहार	-10190
र्टी	-10191
▁झुक	-10192
▁घरच्या	-10193
▁पाठ्यक्रम	-10194
ारों	-10195
▁हीरो	-10196
▁सान	-10197
▁अचूक	-10198
जन्य	-10199
मित्र	-10200
▁वरच्या	-10201
िग	-10202
पने	-10203
▁वळण	-10204
▁सावरकर	-10205
▁वक़्त	-10206
▁एमआय	-10207
▁टर्म	-10208
तेश	-10209
प्पल	-10210
ेंनी	-10211
▁भला	-10212
▁भूकंप	-10213
▁केंद्रात	-10214
▁सकी	-10215
▁अद	-10216
▁लं	-10217
▁जताई	-10218
▁लड़ने	-10219
▁डालने	-10220
▁स्नात	-10221
▁साध्य	-10222
▁rec	-10223
▁गर्भवती	-10224
▁मालकी	-10225
▁टूर्नामेंट	-10226
▁सॅ	-10227
▁चैंप	-10228
▁बेंगल	-10229
▁वाढत्या	-10230
▁शिशु	-10231
▁नवरात्र	-10232
कांड	-10233
▁wor	-10234
▁देणारी	-10235
▁सोहळ्या	-10236
ha	-10237
able	-10238
▁भीमा	-10239
▁वेळो	-10240
▁जमाती	-10241
▁राजनैतिक	-10242
▁सर्वप्रथम	-10243
▁श्रीवास्तव	-10244
▁उध	-10245
▁गड़	-10246
▁डाळ	-10247
▁घडवून	-10248
▁मेसेज	-10249
▁दिग्दर्श	-10250
र्ध्य	-10251
▁रांची	-10252
▁पाहण्यासाठी	-10253
▁शकले	-10254
▁युक्त	-10255
▁दीपावली	-10256
▁पोषक	-10257
▁महासचिव	-10258
▁मोटा	-10259
▁ललित	-10260
आम	-10261
▁बघता	-10262
▁कामासाठी	-10263
▁स्मारक	-10264
▁दिवसांनी	-10265
ube	-10266
▁भगवा	-10267
▁महोत्स	-10268
▁मम्मी	-10269
▁निकष	-10270
▁अनेकांना	-10271
▁शिला	-10272
▁ज्याला	-10273
▁कोरेगाव	-10274
▁चीफ	-10275
▁मैत्रिणी	-10276
▁साम्राज्य	-10277
ित्त	-10278
▁गिरीश	-10279
▁विधानसभे	-10280
हक	-10281
▁जॉब	-10282
▁ट्रेक	-10283
▁आतंकियों	-10284
▁दिसले	-10285
▁प्रादेशिक	-10286
▁समझौता	-10287
ंपर्यंत	-10288
▁जाणारा	-10289
▁तीसरी	-10290
▁पाउडर	-10291
▁sp	-10292
▁शिविर	-10293
▁ब्रह्	-10294
निर	-10295
्वळ	-10296
पोटी	-10297
▁धोखा	-10298
▁स्वरू	-10299
▁गोव्यात	-10300
पोर	-10301
▁जुने	-10302
▁नगराध्यक्ष	-10303
ग्रहण	-10304
▁एनसी	-10305
▁परवड	-10306
▁हं	-10307
▁गरी	-10308
▁face	-10309
▁छेड़	-10310
▁डेब	-10311
क्षिक	-10312
▁तुझी	-10313
▁अंतर्	-10314
तिनिधी	-10315
▁दुपार	-10316
▁दुश्	-10317
▁लोकांचे	-10318
▁खुली	-10319
▁गाना	-10320
▁rgb	-10321
▁सख्त	-10322
▁आपो	-10323
▁पडू	-10324
▁मतभेद	-10325
िवस	-10326
कांशी	-10327
ध्याय	-10328
▁मनाला	-10329
▁होताच	-10330
▁वस्ती	-10331
▁लावण्यात	-10332
▁पेमेंट	-10333
▁३६	-10334
ाराचे	-10335
ाराला	-10336
▁छत	-10337
▁भूख	-10338
रावती	-10339
▁मध्यवर्ती	-10340
▁मिरची	-10341
▁स्फोट	-10342
▁सुटका	-10343
ance	-10344
▁गैंग	-10345
▁सिग्	-10346
लेल	-10347
▁कैबिनेट	-10348
ैर्य	-10349
ोपाठ	-10350
▁तत्काळ	-10351
▁ज्ञानेश्वर	-10352
▁यूरो	-10353
▁क्लि	-10354
▁रायपुर	-10355
दाद	-10356
▁उड़ा	-10357
ानन	-10358
▁तस्	-10359
▁७५	-10360
▁कामत	-10361
▁hsl	-10362
▁नवम्बर	-10363
▁सरकारकडून	-10364
▁ठेवण्यासाठी	-10365
▁भक्ती	-10366
▁महिन्यांत	-10367
ारण	-10368
▁सूट	-10369
▁शब्दकोश	-10370
ळाने	-10371
▁शोभा	-10372
▁बोलले	-10373
▁अमोल	-10374
▁सत्त	-10375
▁छुट्टी	-10376
रानी	-10377
▁इंग्रज	-10378
▁पीढ़ी	-10379
▁लोखंड	-10380
▁1000	-10381
▁कब्जा	-10382
▁सीटें	-10383
सृष्टी	-10384
▁धवन	-10385
▁थोडं	-10386
▁व्यक्तित्व	-10387
▁नजरे	-10388
▁संघाने	-10389
दशी	-10390
ारू	-10391
▁चेत	-10392
▁दैर्ध्य	-10393
▁पेय	-10394
▁उन्हीं	-10395
▁हल्कापन	-10396
फ्फर	-10397
▁डाव्या	-10398
▁लहर	-10399
ld	-10400
डेसी	-10401
▁हैरान	-10402
▁किरकोळ	-10403
ण्याला	-10404
▁मांगी	-10405
▁फेरीत	-10406
▁मोर्चे	-10407
▁संतृप्ति	-10408
चौ	-10409
▁मोटार	-10410
▁गुस्सा	-10411
ount	-10412
▁लेखी	-10413
▁जाप	-10414
▁पहिल्यांदाच	-10415
हिद	-10416
ऱ्याला	-10417
▁आज्ञा	-10418
वणी	-10419
▁उत्पादना	-10420
्न	-10421
ळला	-10422
▁आपोआप	-10423
▁वेळोवेळी	-10424
▁अजीब	-10425
80	-10426
load	-10427
धिकृत	-10428
मुख्य	-10429
▁तेरा	-10430
▁आणला	-10431
▁भूमी	-10432
▁हैक्सा	-10433
▁निघाले	-10434
▁गुगल	-10435
▁स्टूड	-10436
▁अलीकडे	-10437
▁केल्यामुळे	-10438
बानी	-10439
▁मंदी	-10440
पीठा	-10441
िकाओं	-10442
स्टाग्राम	-10443
विनी	-10444
▁भूमिके	-10445
▁कोळ	-10446
▁मीना	-10447
▁असल्याचेही	-10448
डेसीमल	-10449
▁सुशील	-10450
▁जयंत	-10451
▁रजनी	-10452
▁यथ	-10453
ट्टा	-10454
▁धडा	-10455
▁चौकात	-10456
लांना	-10457
▁हैक्साडेसीमल	-10458
्ज	-10459
▁आनंदी	-10460
▁हजेरी	-10461
▁घंट	-10462
▁ठेकेदार	-10463
▁मार्गाने	-10464
▁अभिमान	-10465
▁53	-10466
तीचा	-10467
▁संदि	-10468
▁बिल्ली	-10469
▁तिकीट	-10470
▁तेथून	-10471
बां	-10472
▁चौथ्या	-10473
▁निकाली	-10474
▁झूठ	-10475
▁वृत्ती	-10476
कारण	-10477
▁वां	-10478
▁बंदर	-10479
▁मथ	-10480
▁सनातन	-10481
▁चावल	-10482
▁यात्रे	-10483
▁कोप	-10484
▁रुख	-10485
▁नक्षत्र	-10486
▁पाती	-10487
▁मिलियन	-10488
▁धागा	-10489
▁लाड	-10490
▁नामांकन	-10491
ंपैकी	-10492
▁यापैकी	-10493
▁प्रसिद्धी	-10494
चून	-10495
तेला	-10496
▁तारीफ	-10497
▁आफ	-10498
भावना	-10499
▁जानना	-10500
▁अंबानी	-10501
▁प्रतिष्ठान	-10502
▁तृतीय	-10503
▁पावले	-10504
▁कन	-10505
▁डोनाल्ड	-10506
▁उत्तीर्ण	-10507
▁प्रतिनिधि	-10508
▁चंडी	-10509
▁रत्न	-10510
▁संरचना	-10511
▁हरे	-10512
▁कोठे	-10513
▁next	-10514
▁गुलाबी	-10515
▁रेस्ट	-10516
▁आतंकवादी	-10517
▁टें	-10518
▁जुना	-10519
▁जागरण	-10520
▁प्रिया	-10521
▁लाट	-10522
्यादी	-10523
▁संपादन	-10524
▁जना	-10525
▁निशान	-10526
▁मत्	-10527
▁बेचने	-10528
▁पॉवर	-10529
▁वर्षांनी	-10530
▁फाइल	-10531
▁अविनाश	-10532
▁मदर	-10533
टाच्या	-10534
▁न्यूनतम	-10535
▁मराठवाड	-10536
▁पासपोर्ट	-10537
ंत्रिकी	-10538
लाचा	-10539
वंता	-10540
▁नोटीस	-10541
▁श्रृंखला	-10542
▁डाले	-10543
▁ऑर्डर	-10544
▁व्हायरल	-10545
▁तिथून	-10546
▁परिवर्त	-10547
▁बाहु	-10548
▁चमत्कार	-10549
▁बोध	-10550
▁लड़का	-10551
▁इस्तीफा	-10552
▁कारणे	-10553
▁जोखिम	-10554
▁विचारला	-10555
टात	-10556
▁बेत	-10557
▁स्टॉक	-10558
▁कार्यक्रमों	-10559
▁वेदना	-10560
▁भट	-10561
▁अधीन	-10562
▁सरकारचा	-10563
ree	-10564
▁असतांना	-10565
▁हस्ताक्षर	-10566
शात	-10567
▁बटन	-10568
▁जिल्हाध्यक्ष	-10569
कथा	-10570
▁तणाव	-10571
▁बोलून	-10572
बीआई	-10573
च्छेद	-10574
▁घातक	-10575
▁वाटचाल	-10576
▁ऊँ	-10577
▁करवाने	-10578
कै	-10579
लाश	-10580
▁तीसरा	-10581
▁सामु	-10582
▁खारिज	-10583
▁सिविल	-10584
▁दिसू	-10585
▁संशयित	-10586
▁साक्षात्कार	-10587
▁मलिक	-10588
▁निलंबित	-10589
▁पुस्तकात	-10590
▁पड़ने	-10591
ऱ्याच्या	-10592
▁द्रा	-10593
▁इथल्या	-10594
▁प्रिंट	-10595
▁सिनेमात	-10596
ांला	-10597
▁शिज	-10598
▁येण्याची	-10599
▁कॅमेरा	-10600
▁थाम	-10601
▁असणारा	-10602
▁घडला	-10603
ंडीज	-10604
▁हेल्थ	-10605
्टमेंट	-10606
▁अवय	-10607
▁बुजु	-10608
▁धान्य	-10609
▁नोएडा	-10610
▁पडणार	-10611
▁छोड़ने	-10612
शर	-10613
▁ऐका	-10614
▁कैंप	-10615
▁सेमी	-10616
▁बहिणी	-10617
ंतून	-10618
स्टिट	-10619
▁परिचित	-10620
्टन	-10621
▁दिव्य	-10622
▁व्हिडीओ	-10623
▁नॅशनल	-10624
har	-10625
तरीय	-10626
लिसी	-10627
▁बांधव	-10628
▁सरस	-10629
ase	-10630
▁लोकप्रतिनिधी	-10631
र्मी	-10632
▁टॅट	-10633
▁कॅन	-10634
▁मांडली	-10635
ल्फ	-10636
▁कोतवाली	-10637
▁आरटी	-10638
▁असोसिएशन	-10639
वाइ	-10640
▁नयेत	-10641
▁जातीय	-10642
▁ट्रेड	-10643
▁हॉट	-10644
▁दिलाने	-10645
न्नी	-10646
▁बुड	-10647
डिय	-10648
▁संता	-10649
▁तलवार	-10650
▁अधिकतम	-10651
ाराने	-10652
ंगत	-10653
▁do	-10654
▁उच	-10655
सनीय	-10656
▁मुलीला	-10657
ंव	-10658
▁फ्रे	-10659
▁स्वतःचा	-10660
▁विधायकों	-10661
▁व्यवसाया	-10662
▁युनि	-10663
प्रयोग	-10664
▁विपक्षी	-10665
▁आवडत	-10666
ंसह	-10667
▁नारी	-10668
▁सगळा	-10669
▁रिजर्व	-10670
▁सकेगा	-10671
▁हालचाली	-10672
यात्रा	-10673
▁all	-10674
▁दिखने	-10675
▁निवार	-10676
▁निकला	-10677
▁९०	-10678
▁शाहू	-10679
▁स्टाफ	-10680
▁pm	-10681
ानिस्तान	-10682
▁सतर्क	-10683
पुत्र	-10684
▁कायदे	-10685
बिन	-10686
▁2007	-10687
▁गोरे	-10688
▁सेंट्रल	-10689
एससी	-10690
दुर्	-10691
▁हज़ार	-10692
na	-10693
जागृती	-10694
▁अनुष्का	-10695
ोदय	-10696
▁शुक्ल	-10697
▁उपनिरी	-10698
ong	-10699
▁छापा	-10700
पाठी	-10701
▁बुजुर्ग	-10702
▁जोग	-10703
,2018	-10704
लैंगिक	-10705
▁भक्ता	-10706
▁संकलन	-10707
▁निव्वळ	-10708
▁०००	-10709
▁सच्चाई	-10710
धानिक	-10711
▁धमा	-10712
▁सरो	-10713
दृष्ट्या	-10714
▁राजनाथ	-10715
▁मार्क्स	-10716
दर्शी	-10717
▁कालेज	-10718
▁ब्राउ	-10719
▁देहरा	-10720
▁रोशनी	-10721
लिस्ट	-10722
▁भूषण	-10723
▁मार्गदर्शनाखाली	-10724
कालिक	-10725
▁उपन्यास	-10726
▁म्यू	-10727
▁हिला	-10728
▁online	-10729
ft	-10730
किट	-10731
हिम	-10732
▁संघात	-10733
नेल	-10734
▁व्	-10735
▁बनाता	-10736
ावेळी	-10737
कश	-10738
पदक	-10739
▁आएंगे	-10740
▁जितने	-10741
लोनी	-10742
▁लगाना	-10743
▁आंग	-10744
ब्रा	-10745
पत्रक	-10746
्यूरो	-10747
▁वैचारिक	-10748
▁प्रत	-10749
▁मैदानावर	-10750
▁कसर	-10751
▁सपोर्ट	-10752
▁उलग	-10753
▁तसाच	-10754
▁नोटि	-10755
▁पेरणी	-10756
▁आएगी	-10757
माचे	-10758
विंग	-10759
▁अधिकाऱ्यांनी	-10760
ise	-10761
क्व	-10762
▁eng	-10763
▁ओबीसी	-10764
लिखित	-10765
▁अनुरोध	-10766
▁स्मृती	-10767
▁सप्	-10768
लीकडे	-10769
▁एग्	-10770
▁फॉलो	-10771
▁लागतं	-10772
▁विचारलं	-10773
▁फवार	-10774
▁प्रतिपादन	-10775
▁सेलि	-10776
▁ज़रूरत	-10777
▁तिन्ही	-10778
गडा	-10779
कर्ताओं	-10780
▁दोस्ती	-10781
umb	-10782
▁परभ	-10783
त्तात	-10784
▁कार्यकाल	-10785
▁57	-10786
▁गुंड	-10787
▁sm	-10788
ोत्तर	-10789
▁गप्प	-10790
▁घडले	-10791
वाड़ा	-10792
▁जानकर	-10793
पीसी	-10794
▁डेढ़	-10795
▁भयान	-10796
फेक	-10797
▁कंध	-10798
▁शिब	-10799
ांबरोबर	-10800
▁घेण्यास	-10801
गीर	-10802
धारक	-10803
▁down	-10804
▁इर	-10805
▁कार्तिक	-10806
▁इंटरनेशनल	-10807
गाचे	-10808
▁कलेक्टर	-10809
▁सोयाबीन	-10810
▁सुधा	-10811
व्यवस्था	-10812
▁तुम्हारा	-10813
▁हसन	-10814
▁ब्याज	-10815
▁ग्रंथा	-10816
ट्र	-10817
▁गर्व	-10818
▁रूपांतर	-10819
▁68	-10820
▁सुष	-10821
▁पाठपुरा	-10822
▁इमरान	-10823
▁पैरों	-10824
▁बनले	-10825
▁शोधून	-10826
▁उद्योजक	-10827
orm	-10828
लैंड	-10829
▁ज्यांनी	-10830
▁दिग	-10831
▁पळून	-10832
यांची	-10833
▁टाकली	-10834
▁lat	-10835
▁आयकर	-10836
▁मॉडेल	-10837
▁रोमांच	-10838
▁जवानों	-10839
▁पडतात	-10840
▁समझते	-10841
ितरण	-10842
▁बुलेट	-10843
▁पावडर	-10844
▁साधने	-10845
22	-10846
शुल्क	-10847
▁लापर	-10848
▁fr	-10849
▁hind	-10850
▁क्यो	-10851
▁श्रीकांत	-10852
ड़न	-10853
▁ताक	-10854
गृहात	-10855
पद्ध	-10856
ंत्रिक	-10857
▁आईपीएल	-10858
▁बंदोबस्त	-10859
▁घाटी	-10860
▁पूछे	-10861
▁आरोपों	-10862
करार	-10863
▁नसतात	-10864
▁एकनाथ	-10865
्यांसह	-10866
▁आईटी	-10867
▁विवेकान	-10868
▁अटी	-10869
▁तुकडे	-10870
वश	-10871
▁आगरा	-10872
▁कन्न	-10873
▁मरण	-10874
कडं	-10875
▁मुठ	-10876
▁पन्नास	-10877
▁उष्ण	-10878
▁सांगितली	-10879
न्शन	-10880
▁जज	-10881
▁डीएम	-10882
तला	-10883
▁मेला	-10884
▁मुंबईच्या	-10885
▁मार्केटिंग	-10886
▁विवा	-10887
▁भव	-10888
पंथी	-10889
▁श्रीदेवी	-10890
▁सामील	-10891
▁शुरुआती	-10892
▁तशीच	-10893
▁एवढेच	-10894
ूनी	-10895
▁खाण	-10896
▁पाठपुरावा	-10897
▁58	-10898
▁par	-10899
▁खोट	-10900
जीवन	-10901
▁सांड	-10902
▁बाहरी	-10903
▁मोहिमे	-10904
ect	-10905
▁घोड	-10906
▁धीर	-10907
▁मॉड	-10908
केच	-10909
▁मेघ	-10910
▁वाहून	-10911
▁जवाना	-10912
▁ट्रॉ	-10913
▁स्पष्टीकरण	-10914
▁नेत्र	-10915
▁एकमात्र	-10916
ंतू	-10917
▁sex	-10918
▁जां	-10919
▁ओळखले	-10920
▁सामर्थ	-10921
▁घोर	-10922
▁गाणे	-10923
▁फेटा	-10924
▁नेतृत्वाखाली	-10925
▁विचारात	-10926
▁तेंड	-10927
▁मिर्च	-10928
▁सुरूच	-10929
व्यवहार	-10930
▁ग्लोबल	-10931
▁दळ	-10932
▁निबंध	-10933
अस	-10934
▁आक्रमण	-10935
डीएम	-10936
▁आईला	-10937
▁त्याप्रमाणे	-10938
▁08	-10939
▁ऋषि	-10940
▁लढाई	-10941
▁प्राण्या	-10942
ण्यापूर्वी	-10943
▁07	-10944
▁खेला	-10945
▁हॉकी	-10946
▁जागेवर	-10947
▁राफेल	-10948
▁शुभकामना	-10949
▁जाएँ	-10950
▁पायी	-10951
▁ser	-10952
▁देखो	-10953
▁आळ	-10954
▁लंडन	-10955
▁सेल्स	-10956
▁एकमेकांना	-10957
मंडल	-10958
▁ठहरा	-10959
▁पहायला	-10960
▁कंपनीचे	-10961
▁पात्रता	-10962
कांक्षा	-10963
▁संस्थेचे	-10964
▁अल्पसंख्य	-10965
▁पिढ	-10966
▁फेल	-10967
▁दायर	-10968
▁भयानक	-10969
ुश	-10970
▁देहरादून	-10971
▁पटा	-10972
▁तारखे	-10973
▁इथं	-10974
▁अध्यक्षते	-10975
day	-10976
▁विकासासाठी	-10977
▁गुट	-10978
▁क्रोध	-10979
▁पक्षात	-10980
▁एकल	-10981
▁तुझा	-10982
▁पालघर	-10983
▁गावी	-10984
▁छापे	-10985
▁सिफार	-10986
▁09	-10987
▁गोंद	-10988
▁मूर्ख	-10989
गाची	-10990
▁एवढ्या	-10991
▁गल्ली	-10992
उथ	-10993
मेज	-10994
़ी	-10995
▁बचे	-10996
▁फ्रेंड	-10997
▁इस्प	-10998
▁साढ़े	-10999
▁स्थला	-11000
▁बनना	-11001
संती	-11002
▁येणारा	-11003
▁इंजीनियरिंग	-11004
ोषित	-11005
▁उपन	-11006
▁निख	-11007
▁बँकेच्या	-11008
▁डॉट	-11009
▁दुर्ल	-11010
▁विचारधारा	-11011
ंबीर	-11012
लिनी	-11013
▁चूस	-11014
▁कैमरे	-11015
▁वर्गात	-11016
▁संग्रहा	-11017
▁पाही	-11018
▁काँग्रेसने	-11019
▁webs	-11020
▁फायदेमंद	-11021
▁कार्यक्रमाचे	-11022
बेल	-11023
▁वाड	-11024
▁योगा	-11025
▁केव्हा	-11026
टेज	-11027
▁मच	-11028
▁तेजस्वी	-11029
जाति	-11030
▁कंपनीला	-11031
▁स्वतःच	-11032
▁नुकतेच	-11033
▁मोठय़ा	-11034
▁कुंडली	-11035
काळात	-11036
गुती	-11037
न्नर	-11038
▁ओडि	-11039
▁जाया	-11040
▁विलास	-11041
▁तुरुंग	-11042
▁अमरावती	-11043
▁संघाच्या	-11044
▁डाक	-11045
▁चौथा	-11046
▁घोटाले	-11047
▁लता	-11048
▁इनकार	-11049
▁ओलांड	-11050
▁सफ़	-11051
▁जुनी	-11052
▁टप्पा	-11053
बेर	-11054
▁gr	-11055
▁इटली	-11056
▁किंब	-11057
कर्मियों	-11058
श्न	-11059
▁दुकानदार	-11060
▁पेठ	-11061
कन	-11062
▁यशवंत	-11063
▁नं	-11064
▁उच्चतम	-11065
▁भुजबळ	-11066
▁आजपर्यंत	-11067
▁सनी	-11068
▁चोरट	-11069
▁निगर	-11070
▁माही	-11071
▁प्रतीक्षा	-11072
बाकी	-11073
▁दुबई	-11074
प्रसाद	-11075
▁जगभरात	-11076
प्रीत	-11077
▁सीईओ	-11078
▁खात्यात	-11079
▁शास्त्रज्ञ	-11080
▁विनायक	-11081
ौली	-11082
▁घेर	-11083
▁नफा	-11084
▁मुजफ्फर	-11085
▁प्रकारचा	-11086
▁समजते	-11087
▁प्रबोध	-11088
▁तिथल्या	-11089
▁छात्राओं	-11090
▁प्रतिष्ठित	-11091
▁डूब	-11092
▁लम्	-11093
▁मोठं	-11094
▁उपस्थिति	-11095
▁महावितरण	-11096
▁सिख	-11097
▁इकडे	-11098
▁शब्दात	-11099
▁घेण्याचे	-11100
▁आवडते	-11101
▁किंतु	-11102
▁सीन	-11103
▁सुविधाओं	-11104
▁शिवसेनेच्या	-11105
▁one	-11106
▁सैकड़ों	-11107
▁गोयल	-11108
▁संघटनेच्या	-11109
विड	-11110
▁अवगत	-11111
▁नवरा	-11112
▁विकि	-11113
रायला	-11114
▁सब्जी	-11115
खोरी	-11116
्यूल	-11117
▁मामा	-11118
ूळ	-11119
▁संक	-11120
रीस	-11121
गुरू	-11122
▁शुरूआत	-11123
vie	-11124
▁रनों	-11125
▁एलईडी	-11126
▁06	-11127
▁रखती	-11128
▁सराव	-11129
▁सक्ती	-11130
▁निराशा	-11131
▁रेडियो	-11132
▁मंडळाच्या	-11133
▁गाई	-11134
▁पाली	-11135
सें	-11136
▁गोरखपुर	-11137
▁वाचायला	-11138
▁बरो	-11139
▁रिक्	-11140
▁वनस्पती	-11141
▁उपनिरीक्षक	-11142
एमएस	-11143
िनि	-11144
▁देखता	-11145
▁लांबी	-11146
▁प्रशंसा	-11147
फ्तार	-11148
▁बक	-11149
मिशन	-11150
▁शुभारंभ	-11151
▁जीते	-11152
▁आजकाल	-11153
▁विस्फोट	-11154
▁आजाद	-11155
▁असंही	-11156
ह्न	-11157
▁खनिज	-11158
▁ज्यात	-11159
▁मिलना	-11160
▁मेंदू	-11161
मिळना	-11162
एट	-11163
ग्स	-11164
▁कामयाब	-11165
▁आपत्ति	-11166
▁सिफारिश	-11167
▁अधिकाधिक	-11168
▁चेंडू	-11169
▁हत्ती	-11170
▁गुरुजी	-11171
▁महाड	-11172
▁रस्त्याच्या	-11173
60	-11174
ावती	-11175
▁गरीबी	-11176
▁सिंचन	-11177
▁घास	-11178
▁हुक	-11179
▁मित्रों	-11180
पासुन	-11181
राज्य	-11182
डीला	-11183
शक्ति	-11184
out	-11185
मुळेच	-11186
▁उगाच	-11187
द्धिक	-11188
▁सई	-11189
ण्यापेक्षा	-11190
यच्या	-11191
▁whats	-11192
▁पार्वती	-11193
लीट	-11194
▁यकीन	-11195
▁उड्डा	-11196
▁झालाय	-11197
▁कहकर	-11198
▁बोलू	-11199
▁सरकारची	-11200
ूती	-11201
▁अंतरिक्ष	-11202
ोजा	-11203
सैनिक	-11204
तल	-11205
▁बनती	-11206
▁काँ	-11207
▁बढ़ोतरी	-11208
खू	-11209
▁ओबा	-11210
पाचा	-11211
▁कस्	-11212
प्रति	-11213
▁शताब्दी	-11214
▁उपचारासाठी	-11215
बर्ग	-11216
चार्ज	-11217
▁पडेल	-11218
▁डिप	-11219
▁वारसा	-11220
▁घरगुती	-11221
▁मिलेंगे	-11222
▁मीरा	-11223
▁संगीतकार	-11224
▁नुकतीच	-11225
▁रिश्ता	-11226
▁कारखाने	-11227
इंग	-11228
ड्स	-11229
पना	-11230
▁खोलीत	-11231
▁येणारी	-11232
▁यंदाच्या	-11233
▁नाश्	-11234
▁मोती	-11235
▁काढत	-11236
▁रामदेव	-11237
▁वैदिक	-11238
लंड	-11239
लांची	-11240
▁गोळ्या	-11241
▁अनधिकृत	-11242
▁सरकारचे	-11243
▁भेजने	-11244
िले	-11245
▁प्रवर्	-11246
▁हिरासत	-11247
▁शॉर्ट	-11248
खट	-11249
▁व्यक्तीच्या	-11250
▁वाणी	-11251
▁गणेशोत्सव	-11252
ोसी	-11253
ड्ड	-11254
▁जरुरत	-11255
▁शीर्षक	-11256
स्पी	-11257
▁कडून	-11258
▁ड्राय	-11259
▁शहराच्या	-11260
िप्ट	-11261
र्व्ह	-11262
▁आराखडा	-11263
▁३३	-11264
ॉक्स	-11265
▁राजस्व	-11266
▁परिश्रम	-11267
▁अनेकांनी	-11268
▁जानें	-11269
▁ज्ञात	-11270
▁हड़ताल	-11271
▁लड़कियां	-11272
जीक	-11273
हेज	-11274
▁भजन	-11275
टीक	-11276
गावकर	-11277
▁मेले	-11278
▁रुचि	-11279
शार	-11280
▁उदार	-11281
विटी	-11282
बिया	-11283
▁gen	-11284
▁निगरानी	-11285
▁पहुंचाने	-11286
▁नशे	-11287
▁मरने	-11288
▁ज़रूरी	-11289
▁सप्त	-11290
▁विद्र	-11291
सेंस	-11292
▁लोट	-11293
▁कॉमर्स	-11294
टीने	-11295
▁वारी	-11296
ूज	-11297
▁देशाला	-11298
▁औपचारिक	-11299
▁नग	-11300
▁जोध	-11301
▁समजा	-11302
▁बंगळ	-11303
वयीन	-11304
▁ठरू	-11305
▁कुंभ	-11306
,7	-11307
साळ	-11308
▁थंडी	-11309
▁बढ़त	-11310
▁स्तरीय	-11311
▁राबविण्यात	-11312
▁भरपाई	-11313
▁दड	-11314
▁संहिता	-11315
▁विष्ण	-11316
▁इच्छित	-11317
▁एससी	-11318
▁कार्यकार	-11319
डीचा	-11320
पर्य	-11321
पुर्वी	-11322
▁खोटे	-11323
▁कार्यान्व	-11324
▁bo	-11325
▁बेसिक	-11326
▁भेदभाव	-11327
▁स्थितीत	-11328
▁महिलांनी	-11329
शियम	-11330
▁व्हे	-11331
▁लोकप्रियता	-11332
▁थां	-11333
▁tw	-11334
▁नफ	-11335
▁उत्तरी	-11336
▁can	-11337
मानुसार	-11338
▁समलैंगिक	-11339
जिकल	-11340
▁ताना	-11341
▁ज्ञापन	-11342
टीच्या	-11343
▁करोड़ों	-11344
▁जिम	-11345
▁इकाई	-11346
ऱ्याने	-11347
▁कच्चे	-11348
▁गेम्स	-11349
▁facebook	-11350
ोलन	-11351
▁अंत्य	-11352
▁हंगाम	-11353
▁नावाची	-11354
▁उंचा	-11355
▁स्नेह	-11356
▁चोपड़ा	-11357
▁बुनिया	-11358
▁दीदी	-11359
▁पडते	-11360
▁दीन	-11361
पोरेशन	-11362
▁यांचं	-11363
तावर	-11364
▁उद्भव	-11365
▁दमदार	-11366
▁जागरूकता	-11367
▁क्रमांकावर	-11368
▁सत्तेत	-11369
12	-11370
▁हुसैन	-11371
▁भ्रष्ट	-11372
रूद्ध	-11373
्युअल	-11374
▁संतु	-11375
▁करिअर	-11376
▁शिवार	-11377
▁स्थानक	-11378
▁उपमुख्य	-11379
▁बदलत	-11380
az	-11381
▁एल्	-11382
▁pune	-11383
▁मृतक	-11384
▁युवराज	-11385
▁जमिनीवर	-11386
▁दृष्टिकोण	-11387
▁सर्वोत्	-11388
▁उभारणी	-11389
▁समझौते	-11390
▁चौर	-11391
▁पदे	-11392
ासाठी	-11393
▁गहरी	-11394
▁हिस्सों	-11395
▁गुज	-11396
▁धनु	-11397
ेंदिवस	-11398
प्रदायिक	-11399
▁खड्डे	-11400
▁घडामोडी	-11401
▁लस	-11402
मूल	-11403
▁ढेर	-11404
ऱ्यांना	-11405
▁कारखाना	-11406
▁त्यातही	-11407
▁संस्थानों	-11408
▁तिचं	-11409
विल्या	-11410
▁जनजागृती	-11411
▁फट	-11412
▁शंक	-11413
▁सेवान	-11414
स्फ	-11415
▁exam	-11416
▁मरीजों	-11417
▁३४	-11418
म्परा	-11419
▁प्रोटीन	-11420
▁दुध	-11421
▁पट्टी	-11422
ख़	-11423
▁सवालों	-11424
▁प्रशासनिक	-11425
ुला	-11426
ैक्ट	-11427
▁रोशन	-11428
मानाने	-11429
▁सेक्सी	-11430
▁दोघांना	-11431
▁चिं	-11432
पालन	-11433
त्याच	-11434
▁वाया	-11435
लपुर	-11436
▁चुकीचे	-11437
▁बॉलिवूड	-11438
▁ज्यामुळे	-11439
▁दिवसेंदिवस	-11440
▁पीडित	-11441
▁त्यावरून	-11442
▁85	-11443
▁परवाना	-11444
▁मिळतील	-11445
वेष	-11446
▁मुक	-11447
▁आलोक	-11448
▁तुमने	-11449
▁एसोसिएशन	-11450
▁सेन	-11451
▁अपराधी	-11452
मते	-11453
लिग	-11454
aw	-11455
▁भां	-11456
ऱ्यांनी	-11457
▁मुलींना	-11458
▁लोकं	-11459
▁हळद	-11460
▁तिथेच	-11461
▁टेक्नोलॉजी	-11462
ave	-11463
▁आजम	-11464
▁साधून	-11465
df	-11466
▁अड्	-11467
▁पक्षाने	-11468
ोद	-11469
▁डेव्ह	-11470
लेन	-11471
▁अला	-11472
▁घातले	-11473
▁indian	-11474
▁अडचणीत	-11475
▁जन्माला	-11476
▁गेह	-11477
▁पाण	-11478
▁असलं	-11479
▁मंगेश	-11480
▁जेणेकर	-11481
▁मधल्या	-11482
▁पीड़िता	-11483
लेंस	-11484
यॉर्क	-11485
▁व्यापा	-11486
▁निवृत्त	-11487
▁जितेंद्र	-11488
न्सर	-11489
▁देशभरात	-11490
▁लीला	-11491
▁ड्राइवर	-11492
▁शक्तिशाली	-11493
णाई	-11494
▁चूं	-11495
▁संशयिता	-11496
विता	-11497
▁कैश	-11498
ुमार	-11499
▁सोचने	-11500
क्रोश	-11501
▁फेस्ट	-11502
▁मानने	-11503
▁जोड़ने	-11504
ेतरी	-11505
▁इस्राएल	-11506
▁अणु	-11507
संख्ये	-11508
▁कॉम्प	-11509
▁व्यापारियों	-11510
्योर	-11511
▁250	-11512
▁कामाचा	-11513
▁बोग	-11514
झन	-11515
लांट	-11516
▁लेखात	-11517
▁अर्चना	-11518
▁असायला	-11519
▁उपवि	-11520
▁ठेवत	-11521
▁धारणा	-11522
▁नावावर	-11523
▁२०१३	-11524
▁जिंदा	-11525
लियन	-11526
▁गड़ब	-11527
▁सेवानिव	-11528
▁केलाय	-11529
▁कारणी	-11530
▁संतप्त	-11531
▁टोळी	-11532
▁आठवले	-11533
▁अनुभवी	-11534
▁घालत	-11535
▁टिका	-11536
▁चार्	-11537
▁अपंग	-11538
▁latest	-11539
मिली	-11540
▁फीस	-11541
▁पाण्याचे	-11542
▁कास	-11543
▁एप्	-11544
▁अवयव	-11545
▁भारताची	-11546
लाग	-11547
▁नट	-11548
वताना	-11549
▁करावं	-11550
हुना	-11551
▁नाका	-11552
▁फार्	-11553
▁तरूण	-11554
▁परता	-11555
▁दलितों	-11556
▁उभारण्यात	-11557
नाय	-11558
▁संप्र	-11559
▁सम्पूर्ण	-11560
▁ज्यांच्या	-11561
ळवळ	-11562
▁लघ	-11563
▁निरोप	-11564
▁हिंसक	-11565
act	-11566
गीत	-11567
▁एयरपोर्ट	-11568
बस	-11569
▁पूज	-11570
▁दाखवली	-11571
▁शिवसेनेने	-11572
▁अंगण	-11573
▁असुर	-11574
▁देशाचे	-11575
▁कम्युनिस्ट	-11576
▁परम्परा	-11577
▁घी	-11578
▁सजाव	-11579
▁तेवढे	-11580
▁चंद्रशेखर	-11581
▁त्यांच्यात	-11582
▁फू	-11583
▁सुषमा	-11584
▁कंपनियां	-11585
▁सावित्री	-11586
▁पार्टियों	-11587
▁परिस्थितियों	-11588
▁59	-11589
वंशी	-11590
▁जलद	-11591
▁कमतर	-11592
▁अमेरिकेच्या	-11593
फिया	-11594
▁ओरड	-11595
▁छंद	-11596
▁दागिने	-11597
▁पाहिला	-11598
गें	-11599
▁अतिरे	-11600
▁घटनेची	-11601
▁are	-11602
टनेस	-11603
फेक्ट	-11604
▁जवळजवळ	-11605
▁बजाव	-11606
फ्रेंस	-11607
▁निदर्शना	-11608
डीचे	-11609
▁म्हा	-11610
▁पुरावे	-11611
ani	-11612
▁फर्क	-11613
कोन	-11614
▁रेस	-11615
▁उठाए	-11616
▁एक्टर	-11617
▁चंद्रा	-11618
▁pri	-11619
▁गढ़	-11620
▁झलक	-11621
▁नदीच्या	-11622
शासन	-11623
▁सुलभ	-11624
▁2006	-11625
र्की	-11626
ंतरित	-11627
▁ठेवावे	-11628
शो	-11629
▁रूग्	-11630
▁ठाण्या	-11631
▁वृत्तपत्र	-11632
▁अफगानिस्तान	-11633
▁https	-11634
्यांतील	-11635
▁नगरी	-11636
▁आवर्ज	-11637
▁परभणी	-11638
ज़ल	-11639
▁नाटका	-11640
▁खतरे	-11641
मां	-11642
▁खऱ्या	-11643
▁मधुर	-11644
▁याआधी	-11645
▁धोकादायक	-11646
भूति	-11647
▁मानवा	-11648
▁बांगला	-11649
▁भाषाओं	-11650
मीत	-11651
▁आसन	-11652
▁live	-11653
▁ख़बर	-11654
ood	-11655
▁fi	-11656
▁सराह	-11657
▁उदाहर	-11658
▁गुंडा	-11659
▁मिलिंद	-11660
▁जिलाधिकारी	-11661
▁विमानतळ	-11662
▁कागदपत्रे	-11663
डन	-11664
▁62	-11665
▁टिप	-11666
▁भ्रम	-11667
▁मधुमेह	-11668
▁राहावे	-11669
▁बल्लेबाजी	-11670
▁ओलं	-11671
▁जमानत	-11672
▁रसायन	-11673
▁साजरी	-11674
▁मध्यरात्री	-11675
▁मार्गदर्शक	-11676
cial	-11677
▁उजव्या	-11678
▁डोळ्यात	-11679
▁ईद	-11680
▁पॉप	-11681
▁आधे	-11682
धुनिक	-11683
▁यावा	-11684
▁delhi	-11685
▁तिमाही	-11686
▁मदन	-11687
▁इतकं	-11688
▁फारसा	-11689
▁संदिग्ध	-11690
▁इलेक्ट्रॉनिक	-11691
▁चैंपियन	-11692
गंगा	-11693
▁मुं	-11694
▁पाँच	-11695
▁हार्ड	-11696
▁फलंदाज	-11697
इए	-11698
ऊदी	-11699
▁तालाब	-11700
▁सोचते	-11701
▁इन्हीं	-11702
▁ब्यूरो	-11703
▁भै	-11704
▁मील	-11705
▁अनुरूप	-11706
▁ठाऊक	-11707
▁व्यवसायात	-11708
▁संवेदना	-11709
▁मणि	-11710
▁रजिस्ट्र	-11711
बध	-11712
▁राक्ष	-11713
्युर	-11714
▁फ़ा	-11715
▁गाण्या	-11716
▁वर्षभर	-11717
▁नसलेल्या	-11718
▁सांगते	-11719
▁सर्वोत्कृष्ट	-11720
प्ल	-11721
▁धनगर	-11722
▁रोगी	-11723
▁पाळी	-11724
▁नायडू	-11725
▁मोब	-11726
▁phone	-11727
▁इंधन	-11728
▁कोलि	-11729
▁दिलचस्प	-11730
▁पेन	-11731
▁लिखाण	-11732
ँस	-11733
▁तपा	-11734
▁उभर	-11735
▁अकोला	-11736
▁चेहर	-11737
नानंतर	-11738
▁बतौर	-11739
▁खोलने	-11740
▁किंबहुना	-11741
▁ख्याल	-11742
▁विभाजन	-11743
▁करतोय	-11744
▁प्रभू	-11745
▁पेड	-11746
कार्ड	-11747
▁अकरा	-11748
▁हत्ये	-11749
प्य	-11750
▁शहद	-11751
▁महत्वाची	-11752
▁दुल	-11753
▁चढ़ा	-11754
फ़ा	-11755
▁अनुष	-11756
▁आपणास	-11757
▁ग्लास	-11758
▁निर्मा	-11759
▁गृहमंत्री	-11760
▁वर्षापासून	-11761
क्कल	-11762
▁सेल्फी	-11763
▁त्यांच्याशी	-11764
▁उग्र	-11765
▁राणा	-11766
▁विहिरी	-11767
▁सॉफ्टवेयर	-11768
▁कुत्र	-11769
▁बसत	-11770
▁सम्राट	-11771
▁फिर्यादी	-11772
▁ag	-11773
▁बढ़ी	-11774
▁कापूस	-11775
डीएस	-11776
▁अद्य	-11777
▁हिंदुस्तान	-11778
हाई	-11779
▁बेरोजगार	-11780
▁मिसळ	-11781
ताची	-11782
▁कोस	-11783
▁माझ्यासाठी	-11784
▁पुरी	-11785
ोनेशिया	-11786
▁नागरिकांच्या	-11787
▁पलट	-11788
▁नर्म	-11789
▁मज़ा	-11790
▁चूंकि	-11791
▁क्रांत	-11792
▁रेड्डी	-11793
▁120	-11794
▁फेडर	-11795
▁मल्टी	-11796
खेड	-11797
▁गोग	-11798
▁भाड	-11799
▁हक्का	-11800
▁आयोगाने	-11801
स्कृत	-11802
▁दांत	-11803
▁साउथ	-11804
▁02	-11805
▁बैक	-11806
▁नेहा	-11807
▁राणी	-11808
ज़ार	-11809
सर्जन	-11810
▁नक्षल	-11811
▁निश्चय	-11812
▁बारावी	-11813
▁वारदात	-11814
ax	-11815
ोबत	-11816
रित्या	-11817
▁वसुली	-11818
▁सावध	-11819
▁खेळाड	-11820
▁ट्विट	-11821
▁कहला	-11822
▁पाये	-11823
▁अफसर	-11824
▁खेळी	-11825
▁गांधीजी	-11826
▁चिकन	-11827
▁दिसला	-11828
▁मस्ती	-11829
▁लिखते	-11830
▁सीरिया	-11831
▁कितीतरी	-11832
▁लहानपणी	-11833
▁बृह	-11834
▁त्यांच्यासाठी	-11835
▁जौ	-11836
▁बेस	-11837
▁बिमार	-11838
▁महाराजांच्या	-11839
▁मुन	-11840
▁सीमे	-11841
▁सलामी	-11842
▁मांडले	-11843
कले	-11844
▁कुश	-11845
▁असंत	-11846
▁पिक्	-11847
▁उपायुक्त	-11848
धाम	-11849
▁दां	-11850
▁सारखी	-11851
▁जोरावर	-11852
▁ज्ञाना	-11853
▁दिल्यानंतर	-11854
▁ढोल	-11855
▁ट्यूब	-11856
▁सैनिकों	-11857
▁लापरवाही	-11858
कास	-11859
▁दैनंद	-11860
▁वाढेल	-11861
मक	-11862
▁खेळत	-11863
▁सोनम	-11864
▁दरबार	-11865
लग्न	-11866
▁आन्द	-11867
▁सदस्यांनी	-11868
▁सेवक	-11869
▁टोमॅट	-11870
ेशर	-11871
▁चंडीगढ़	-11872
▁पायाभूत	-11873
▁तशा	-11874
▁दोघी	-11875
पदार्थ	-11876
▁तौ	-11877
▁63	-11878
ध्याप	-11879
िरे	-11880
▁अमृ	-11881
▁उपग्रह	-11882
्रेड	-11883
▁पकड़ा	-11884
▁रणबीर	-11885
एसई	-11886
द्व	-11887
माया	-11888
▁किनार	-11889
▁बॅंक	-11890
▁ओडिशा	-11891
▁जनतेच्या	-11892
▁जीने	-11893
▁अव्वल	-11894
▁महापालिकेने	-11895
▁दफ्	-11896
▁प्लस	-11897
▁सुखी	-11898
संस्था	-11899
▁हिं	-11900
▁वर्तु	-11901
ication	-11902
वेस्ट	-11903
▁रक्षण	-11904
▁प्रश्नच	-11905
▁लेवल	-11906
▁प्रोफा	-11907
ॉग	-11908
बाला	-11909
▁मकसद	-11910
▁गोव्या	-11911
▁पोर्	-11912
▁आईए	-11913
▁घाई	-11914
वण्याचे	-11915
▁पॉलिसी	-11916
▁सावधान	-11917
▁बाह्य	-11918
▁उत्पी	-11919
▁राज्यभर	-11920
▁पावसाळ्यात	-11921
▁पेंट	-11922
ल्ल्या	-11923
दत	-11924
मिया	-11925
लाईन	-11926
▁निवृत्ती	-11927
▁त्रिपाठी	-11928
▁संग्राम	-11929
▁तथाकथ	-11930
▁महाभारत	-11931
▁एचडी	-11932
▁स्वराज्य	-11933
▁निदर्शनास	-11934
वरही	-11935
▁सुरळीत	-11936
▁टाइप	-11937
▁मुना	-11938
▁वाहिनी	-11939
▁महत्वाचा	-11940
▁थीम	-11941
▁सामन्या	-11942
कप	-11943
जिन	-11944
▁ध्वनि	-11945
▁साहि	-11946
▁दुष्कर्म	-11947
▁मनापासून	-11948
▁उदाहरणार्थ	-11949
▁रामचंद्र	-11950
गाला	-11951
धारणा	-11952
▁whatsapp	-11953
खात	-11954
▁ज्व	-11955
चीही	-11956
▁चिंतन	-11957
▁अप्	-11958
▁इजा	-11959
▁शुक्ला	-11960
▁लायक	-11961
▁दराने	-11962
▁नारा	-11963
▁उपोषण	-11964
▁कारणीभूत	-11965
▁प्राध्यापक	-11966
▁होण्याचा	-11967
▁मारत	-11968
▁जोड़ा	-11969
▁कैसी	-11970
▁पाश्च	-11971
▁२०११	-11972
िफ	-11973
▁सबूत	-11974
▁दर्शा	-11975
▁रोगों	-11976
▁ड्यूटी	-11977
▁सिर्फ़	-11978
▁न्यूयॉर्क	-11979
▁संगण	-11980
▁sam	-11981
▁डबल	-11982
▁विषयी	-11983
लाइट	-11984
▁विराज	-11985
▁व्हॉट्स	-11986
eral	-11987
▁जायचं	-11988
▁साजिश	-11989
▁प्रस्थापित	-11990
▁चांगलीच	-11991
टींग	-11992
▁पून	-11993
▁चळवळ	-11994
▁तांब	-11995
क्ताओं	-11996
▁एकूणच	-11997
▁रिझर्व्ह	-11998
ख्त	-11999
▁नशी	-12000
▁रेसि	-12001
▁चलाया	-12002
▁सूचित	-12003
▁बीत	-12004
ांजली	-12005
▁रोचक	-12006
▁२०१२	-12007
▁download	-12008
क्ल	-12009
स्ड	-12010
▁खुद्द	-12011
▁काळातील	-12012
▁मालिकेत	-12013
▁स्वयंपाक	-12014
▁सगळेच	-12015
ॉप्टर	-12016
▁जेथे	-12017
▁माधव	-12018
▁मिळालं	-12019
▁हाऊस	-12020
स्थितीत	-12021
कूर	-12022
रियर	-12023
▁सीनियर	-12024
▁डॉक्टरांनी	-12025
▁phot	-12026
▁कळले	-12027
▁समजत	-12028
▁श्रीम	-12029
askar	-12030
दृष्टी	-12031
▁बॉम्ब	-12032
▁तत्वों	-12033
▁अधिवेशन	-12034
▁आंकड़ों	-12035
▁लांच	-12036
▁चेयरमैन	-12037
▁महिलांच्या	-12038
▁गोवि	-12039
▁दोनो	-12040
▁प्रोत्साहित	-12041
झम	-12042
▁लोह	-12043
▁उपरो	-12044
▁क्वा	-12045
▁आशियाई	-12046
▁आंदोलनात	-12047
ky	-12048
वाहिक	-12049
▁भेजे	-12050
▁रकमे	-12051
▁मिठाई	-12052
▁यमुना	-12053
▁प्रसारण	-12054
▁दफ्तर	-12055
▁निमित्त	-12056
ाजित	-12057
▁नॉन	-12058
▁विखे	-12059
▁कोलिन्स	-12060
▁दस्तावेज	-12061
▁डू	-12062
ढाई	-12063
▁लढत	-12064
▁फैंस	-12065
वानों	-12066
▁ठरवून	-12067
▁website	-12068
▁चौथी	-12069
▁वाचना	-12070
ेंगी	-12071
▁मुहूर्त	-12072
▁col	-12073
▁कवर	-12074
▁नवन	-12075
▁विश्राम	-12076
▁संवाददाता	-12077
▁आकलन	-12078
▁su	-12079
▁आर्मी	-12080
▁मैसेज	-12081
▁छुटकारा	-12082
▁गुन्हेगार	-12083
ळके	-12084
▁फिरत	-12085
▁शिस्त	-12086
▁जनक	-12087
ळ्याच्या	-12088
▁अर्थात्	-12089
▁पावसामुळे	-12090
निरा	-12091
मोन	-12092
▁ठरवलं	-12093
िवली	-12094
आइ	-12095
▁67	-12096
▁केक	-12097
▁वाम	-12098
▁द्वी	-12099
▁विनाम	-12100
▁टोमॅटो	-12101
विलेल्या	-12102
▁तेंडुलकर	-12103
▁आमच्याकडे	-12104
▁समुदा	-12105
▁कंटे	-12106
▁भेंट	-12107
▁गेलेले	-12108
▁गणना	-12109
▁मानता	-12110
▁विकार	-12111
▁गह	-12112
▁३७	-12113
asht	-12114
▁कल्	-12115
▁पायलट	-12116
▁दीक्षित	-12117
▁आपसी	-12118
▁ऐवजी	-12119
▁वर्षांची	-12120
वडे	-12121
▁घंटों	-12122
▁मीटिंग	-12123
▁सर्दी	-12124
▁निघाला	-12125
▁सरकारों	-12126
▁त्यौ	-12127
▁बारह	-12128
▁नेत्या	-12129
▁विनामूल्य	-12130
▁ग्रामस्थांनी	-12131
प्टन	-12132
▁अमरीका	-12133
▁आलू	-12134
▁निवेद	-12135
▁गव	-12136
▁दात	-12137
▁विवेकानंद	-12138
▁कुटुंबातील	-12139
▁सील	-12140
▁चालले	-12141
▁साथियों	-12142
▁उद्देशाने	-12143
▁जाळ	-12144
▁मावळ	-12145
▁ट्रेंड	-12146
शियों	-12147
▁स्थळ	-12148
▁यूनिट	-12149
▁पंजाबी	-12150
▁सिग्नल	-12151
▁बीस	-12152
ांसोबत	-12153
▁ऐश्वर	-12154
▁स्टेज	-12155
▁असुन	-12156
▁माध्य	-12157
▁चालना	-12158
▁फैल	-12159
कार्य	-12160
▁शशिक	-12161
▁गाँधी	-12162
▁तथाकथित	-12163
▁मंडी	-12164
▁जोरात	-12165
▁चांगलाच	-12166
▁गुंतवणूकदार	-12167
▁बजर	-12168
ुत्तर	-12169
▁सीपी	-12170
▁अध्यक्षतेखाली	-12171
40	-12172
▁एन्	-12173
▁नावाखाली	-12174
सिटी	-12175
मध्येच	-12176
ँगा	-12177
▁सिल्	-12178
▁विश्र	-12179
▁सह्याद	-12180
▁विशेषता	-12181
िकर	-12182
लाइ	-12183
ण्डे	-12184
▁फलक	-12185
▁विचारणा	-12186
▁पावसाची	-12187
▁इंडोनेशिया	-12188
डीची	-12189
▁हाक	-12190
▁जानिए	-12191
▁दिसेल	-12192
▁भाष्य	-12193
▁भावनाओं	-12194
माई	-12195
▁संक्रमण	-12196
▁विक्रे	-12197
▁फैशन	-12198
▁सिखा	-12199
▁प्राधिकर	-12200
▁सर्वांचे	-12201
▁अत्यधिक	-12202
▁मागणीसाठी	-12203
▁पसंती	-12204
▁तोंडावर	-12205
▁फारसे	-12206
▁पचा	-12207
▁पांडुर	-12208
▁my	-12209
▁मुळी	-12210
तीचे	-12211
▁धातु	-12212
▁सिनेम	-12213
▁सुनते	-12214
▁परिक्ष	-12215
tube	-12216
▁सदी	-12217
▁ओळखी	-12218
▁चंदन	-12219
▁टिळक	-12220
▁स्ट्रा	-12221
रेस्ट	-12222
▁नित्य	-12223
▁ख़ास	-12224
▁शेखर	-12225
▁क्षति	-12226
▁रात्रि	-12227
▁कार्यकारिणी	-12228
किक	-12229
▁tra	-12230
▁चुने	-12231
रीत्या	-12232
▁विडियो	-12233
ांसमोर	-12234
ta	-12235
▁सुखा	-12236
▁वाटली	-12237
ational	-12238
▁आक्रोश	-12239
▁मांडला	-12240
▁संयोजक	-12241
▁सेवाएं	-12242
▁सर्वसामान	-12243
▁03	-12244
योगी	-12245
▁तव	-12246
टुंब	-12247
▁कामना	-12248
▁पहिल्याच	-12249
बोल	-12250
ठ्या	-12251
▁मसी	-12252
▁गवर्	-12253
▁सौदा	-12254
▁आल्याची	-12255
▁जाण्याचा	-12256
गाचा	-12257
▁2005	-12258
▁पैमाने	-12259
▁माझ्यावर	-12260
▁दिखे	-12261
▁रूपए	-12262
▁सऊदी	-12263
▁गंभीरता	-12264
▁बैग	-12265
▁चालेल	-12266
▁त्याच्याकडे	-12267
▁आयटी	-12268
ावयास	-12269
▁उदयपुर	-12270
▁यास	-12271
▁पेटी	-12272
स्टन	-12273
न्य	-12274
▁लावा	-12275
▁समारंभ	-12276
▁आईने	-12277
▁महार	-12278
▁कटौती	-12279
▁लीजिए	-12280
▁मासूम	-12281
▁करूनही	-12282
ण्ट	-12283
▁डाक्टर	-12284
▁फांसी	-12285
▁ठराविक	-12286
▁मिळावी	-12287
▁देण्याच्या	-12288
ऱ्याची	-12289
▁जाणवत	-12290
चाप	-12291
▁पीएच	-12292
्यांचं	-12293
▁एंट्री	-12294
▁कीजिए	-12295
▁मनोरंज	-12296
▁साइकिल	-12297
▁इंस्टाग्राम	-12298
ावा	-12299
▁गोपनीय	-12300
▁हंगामात	-12301
▁राष्ट्राध्यक्ष	-12302
▁मानक	-12303
▁आजारी	-12304
▁तस्करी	-12305
▁उपवास	-12306
▁उपासना	-12307
▁पारिवार	-12308
▁कंग	-12309
▁हाफ	-12310
▁दिसली	-12311
▁कंड	-12312
▁ताबा	-12313
▁साध्या	-12314
▁बिमारियों	-12315
▁जसा	-12316
▁आज़ा	-12317
ब्बत	-12318
▁बैठकर	-12319
▁देशाची	-12320
▁दैनंदिन	-12321
टून	-12322
▁जिओ	-12323
▁inf	-12324
▁संस्थेने	-12325
कडा	-12326
▁चाचा	-12327
▁टंचाई	-12328
▁मनपा	-12329
▁सूरत	-12330
▁प्रलंबित	-12331
शिव	-12332
णाऱया	-12333
▁मनावर	-12334
▁अफसरों	-12335
वेश	-12336
▁चेतना	-12337
▁कुलदीप	-12338
▁अप्रतिम	-12339
▁तरू	-12340
▁जादा	-12341
▁गणेशोत्स	-12342
▁महिन्याच्या	-12343
मारे	-12344
▁देशभ	-12345
▁वाहि	-12346
▁ब्लॅक	-12347
▁त्यौहार	-12348
▁ऑलि	-12349
ांबद्दल	-12350
▁पक्षाला	-12351
▁95	-12352
▁देण	-12353
▁इतिहासात	-12354
्ठा	-12355
▁क्षणी	-12356
▁तोडगा	-12357
▁पार्थ	-12358
▁शिफारस	-12359
▁मूल्यांकन	-12360
चेंज	-12361
▁आसमान	-12362
▁दर्जन	-12363
▁बौद्धिक	-12364
स्कूल	-12365
ंसिल	-12366
▁काटने	-12367
▁दुरुस्त	-12368
नायक	-12369
▁५५	-12370
▁संतुलन	-12371
▁कुठेतरी	-12372
ंद्रा	-12373
िकारक	-12374
▁पत्ते	-12375
▁आंतरिक	-12376
▁कनिष्ठ	-12377
▁दक्षता	-12378
▁शाख	-12379
▁स्पेस	-12380
▁पारिवारिक	-12381
ल्याप्रमाणे	-12382
▁कायद	-12383
▁जीवा	-12384
▁फिटनेस	-12385
▁यूं	-12386
▁काना	-12387
▁बताए	-12388
मिळनाडू	-12389
▁झां	-12390
▁टूर	-12391
hm	-12392
त्वावर	-12393
▁पौधे	-12394
▁बुकिंग	-12395
▁सभ्यता	-12396
▁हिंदुत्व	-12397
षभ	-12398
डीवर	-12399
शास्त्रा	-12400
▁महाविद्यालयात	-12401
सेवक	-12402
▁प्रतिरो	-12403
▁रंज	-12404
▁समस्य	-12405
▁दाखवले	-12406
▁शब्दांत	-12407
▁भांडवल	-12408
▁होईपर्यंत	-12409
▁कम्पनी	-12410
▁हसत	-12411
▁केशव	-12412
▁कमिटी	-12413
▁तिसरा	-12414
▁मूड	-12415
▁सम्बंधित	-12416
शाळ	-12417
▁डिवा	-12418
▁जुर्मा	-12419
▁जवळच्या	-12420
▁बैठी	-12421
▁सृजन	-12422
▁वर्षं	-12423
▁मारुती	-12424
▁प्रयासों	-12425
▁अत्याधुनिक	-12426
ताचे	-12427
▁बड़	-12428
▁देईल	-12429
▁स्तु	-12430
दक	-12431
▁वकि	-12432
▁१९३	-12433
▁केलंय	-12434
▁विसर्जन	-12435
शांत	-12436
स्थी	-12437
▁एम्	-12438
▁आपल्याच	-12439
▁भ्रमण	-12440
▁bhaskar	-12441
झल	-12442
▁हाे	-12443
▁डाली	-12444
▁अध्यक्षा	-12445
िकारी	-12446
▁इतकेच	-12447
▁खायला	-12448
▁पदावर	-12449
▁हाताने	-12450
▁रिलायंस	-12451
▁fl	-12452
विचार	-12453
▁उठून	-12454
ेंडे	-12455
▁ढूंढ	-12456
▁नसतं	-12457
▁सुखद	-12458
▁कोकणात	-12459
▁बनर्जी	-12460
साठा	-12461
▁chan	-12462
त्तों	-12463
▁लाभार्थ	-12464
चीच	-12465
▁झील	-12466
▁डेंग	-12467
▁नीरव	-12468
▁रिश्तों	-12469
▁pat	-12470
▁लेट	-12471
▁धुळे	-12472
▁वसू	-12473
नू	-12474
▁दत्तात	-12475
umbai	-12476
ल्याचं	-12477
▁हेमंत	-12478
▁महल	-12479
▁सुर्ख	-12480
▁परिपूर्ण	-12481
▁inst	-12482
▁एमबी	-12483
▁मोड़	-12484
▁श्रावण	-12485
चें	-12486
▁दशा	-12487
▁चोद	-12488
▁शांती	-12489
▁जामीन	-12490
ुली	-12491
वलेले	-12492
स्टेट	-12493
▁बापट	-12494
▁डॉक्टरों	-12495
▁थोड़े	-12496
्याकडे	-12497
▁स्किन	-12498
▁समजावून	-12499
▁इकट	-12500
▁सिपा	-12501
▁73	-12502
▁जिसको	-12503
▁मंत्रियों	-12504
▁शहरांमध्ये	-12505
▁यूट	-12506
तिष्क	-12507
▁लेटे	-12508
▁कमाली	-12509
हाच्या	-12510
▁ओबामा	-12511
▁विलक्षण	-12512
झील	-12513
▁३००	-12514
▁सोडा	-12515
▁मार्गी	-12516
▁लष्करी	-12517
▁अधिकारों	-12518
▁नमु	-12519
▁ध्रु	-12520
▁मल्ह	-12521
▁चमचा	-12522
▁क्षमा	-12523
▁चुकीच्या	-12524
▁शेतकर्यांच्या	-12525
भंग	-12526
▁सखोल	-12527
▁किस्म	-12528
▁खिताब	-12529
▁पहाड़	-12530
▁दाखवत	-12531
स्पेक्टर	-12532
▁भूमिकेत	-12533
▁बॅग	-12534
▁बहादुर	-12535
▁कराए	-12536
▁एक्शन	-12537
▁ब्लू	-12538
ारासाठी	-12539
▁हैंः	-12540
▁सल्लागार	-12541
हां	-12542
करांना	-12543
▁जाई	-12544
▁नेले	-12545
▁मुहैया	-12546
न्तर	-12547
विरोध	-12548
भोग	-12549
▁पूरक	-12550
▁समझना	-12551
२०	-12552
▁प्राथमिकता	-12553
िवड	-12554
▁एकज	-12555
▁अनुया	-12556
ali	-12557
▁डाॅ	-12558
▁चार्ट	-12559
▁बहू	-12560
पत्रा	-12561
▁उर्जा	-12562
▁हवाले	-12563
▁असावेत	-12564
▁लोकसभे	-12565
▁उतारा	-12566
▁बिल्डिंग	-12567
▁टिप्स	-12568
▁एकादशी	-12569
▁जंगलात	-12570
▁इनाम	-12571
▁मोकळे	-12572
▁gu	-12573
▁यी	-12574
▁शत्रू	-12575
▁पुजारी	-12576
दत्त	-12577
▁तेरी	-12578
▁पाइप	-12579
करांनी	-12580
co	-12581
लांग	-12582
▁लागा	-12583
▁गरीबों	-12584
ric	-12585
▁६५	-12586
▁जुट	-12587
▁चिट्	-12588
▁आवर्जून	-12589
▁अडथळा	-12590
पात्र	-12591
ग्रस्ता	-12592
गळ	-12593
्लोक	-12594
▁मेघा	-12595
▁वॉटर	-12596
▁उसमे	-12597
▁मन्द	-12598
▁सगळीकडे	-12599
▁चिड	-12600
▁मंदिराच्या	-12601
▁यूजर	-12602
▁संतान	-12603
▁चालणार	-12604
▁माणसाच्या	-12605
▁अभिव्यक्ति	-12606
▁रिप	-12607
▁आन्दोलन	-12608
▁कुमारी	-12609
▁जागृत	-12610
▁कुस्ती	-12611
▁शौक	-12612
▁मछली	-12613
▁कनेक्ट	-12614
▁अवशेष	-12615
▁प्रमोशन	-12616
▁प्रदेशात	-12617
▁ऐकू	-12618
▁औषधे	-12619
▁कलाकारों	-12620
▁बंधनकारक	-12621
▁लू	-12622
▁चाच	-12623
यांचा	-12624
▁आपदा	-12625
▁उड्डाण	-12626
▁लाभार्थी	-12627
न्ने	-12628
▁यवत	-12629
नावश्यक	-12630
▁विधानसभेत	-12631
▁संवर्धन	-12632
वेयर	-12633
▁चालली	-12634
▁इम	-12635
▁स्टाइल	-12636
▁शिक्षणा	-12637
▁संस्थाओं	-12638
संघात	-12639
▁मद्य	-12640
▁चॉक	-12641
▁इराण	-12642
25	-12643
श्वरी	-12644
▁ऑप्शन	-12645
तास	-12646
जेक्ट	-12647
▁रॉयल	-12648
▁वरुण	-12649
▁शिष्ट	-12650
▁राहतील	-12651
▁समाजाचे	-12652
▁वैज्ञानिकों	-12653
▁खाऊ	-12654
▁पहुँचा	-12655
शमन	-12656
हिया	-12657
▁मानें	-12658
्यवधी	-12659
लक्ष्मी	-12660
बै	-12661
खरे	-12662
▁जगदी	-12663
▁सह्याद्री	-12664
▁अभियांत्रिकी	-12665
▁69	-12666
ावीर	-12667
▁बसली	-12668
▁पूर्णतः	-12669
▁मुलांनी	-12670
▁अविश्वास	-12671
▁टँ	-12672
▁धना	-12673
▁नों	-12674
▁असंच	-12675
▁लष्कर	-12676
▁शेल	-12677
▁कुत्ते	-12678
▁थकबाकी	-12679
▁सरकारवर	-12680
▁कर्मियों	-12681
▁स्वाभिमानी	-12682
▁रिटर्न	-12683
▁क्रिकेटर	-12684
▁तिच्यावर	-12685
▁त्यातल्या	-12686
ारस	-12687
▁गिफ्ट	-12688
▁राखीव	-12689
▁लगाएं	-12690
▁sy	-12691
मैथुन	-12692
▁सब्ज	-12693
▁कार्बन	-12694
▁समोरच्या	-12695
रेन	-12696
पणाने	-12697
▁तरतु	-12698
▁पाहिली	-12699
▁मुखिया	-12700
रूप	-12701
वीय	-12702
▁पग	-12703
▁एसिड	-12704
▁उचलून	-12705
▁आंदोलना	-12706
▁लाइसेंस	-12707
▁व्यक्तीने	-12708
▁वाढू	-12709
▁हुईं	-12710
▁दिव्यांग	-12711
▁राष्ट्रवादीच्या	-12712
▁धाम	-12713
▁बैटरी	-12714
▁आंकड़े	-12715
▁प्रसारित	-12716
▁खंडपीठा	-12717
▁ओळी	-12718
▁मद्	-12719
त्यक्ष	-12720
माद	-12721
▁असह	-12722
▁बोनस	-12723
▁अजिंक	-12724
▁बियाणे	-12725
▁आंटी	-12726
▁पाटी	-12727
▁मोदींनी	-12728
▁कोट्यवधी	-12729
बास	-12730
▁नवाज	-12731
▁मत्स्य	-12732
▁अंतरा	-12733
▁रामायण	-12734
रह	-12735
तीला	-12736
▁खिडकी	-12737
▁उतनी	-12738
▁मट	-12739
▁मेरठ	-12740
▁साला	-12741
▁निघालो	-12742
▁शाळेच्या	-12743
▁आम्हा	-12744
▁मिळावा	-12745
▁अर्थव्यवस्थे	-12746
तेय	-12747
▁q	-12748
▁२०१०	-12749
ऊट	-12750
पुट	-12751
▁कना	-12752
▁अनुसर	-12753
▁गैरसम	-12754
िओ	-12755
▁प्रतिबद्ध	-12756
ड़की	-12757
▁कहें	-12758
▁चाळीस	-12759
▁संलग्न	-12760
▁77	-12761
▁भुव	-12762
▁मिळवले	-12763
▁चलो	-12764
▁धैर्य	-12765
कांक्षी	-12766
मोल	-12767
आईटी	-12768
▁औषधी	-12769
▁राहणे	-12770
▁पंतप्रधानांनी	-12771
आन	-12772
▁spe	-12773
▁तिनं	-12774
▁अरुणा	-12775
▁शाहिद	-12776
▁स्कीम	-12777
▁अश्विनी	-12778
▁टक्क्यांनी	-12779
विजय	-12780
▁sub	-12781
नै	-12782
▁सकल	-12783
स्टेबल	-12784
▁मिक्स	-12785
▁अद्यापही	-12786
▁निमंत्रण	-12787
▁वैसा	-12788
▁राहण्याची	-12789
▁प्रत्येकाला	-12790
▁तिथं	-12791
▁साहाय	-12792
▁गावे	-12793
तेसाठी	-12794
▁कांड	-12795
▁वाचले	-12796
▁जूझ	-12797
खाल	-12798
िनर	-12799
▁वर्धा	-12800
▁आकडा	-12801
तल्या	-12802
▁नजदीक	-12803
▁जोधपुर	-12804
▁त्याचवेळी	-12805
▁शेजार	-12806
▁बेकायदा	-12807
▁बैंकिंग	-12808
▁व्हाट्स	-12809
▁कागदपत्र	-12810
▁मिळवण्यासाठी	-12811
छाड़	-12812
ोलकर	-12813
▁एबी	-12814
▁जब्	-12815
▁पड़ोसी	-12816
▁विश्वसनीय	-12817
▁dis	-12818
▁अपयश	-12819
▁ध्या	-12820
▁घूमने	-12821
▁निवारण	-12822
▁जैव	-12823
▁नरेश	-12824
▁फ्रंट	-12825
▁गार्डन	-12826
▁रंगाचा	-12827
फोड	-12828
राना	-12829
▁कॉंग्रेसचे	-12830
▁काज	-12831
▁अहवालात	-12832
▁हान	-12833
▁दोहरा	-12834
▁नेमकी	-12835
▁लाखा	-12836
भ्र	-12837
स्टल	-12838
▁स्फ	-12839
▁देवर	-12840
▁शाही	-12841
▁देशाचा	-12842
▁प्रवृत्ति	-12843
मास	-12844
▁आवार	-12845
▁साहस	-12846
▁उन्हे	-12847
▁दिगंबर	-12848
युद्ध	-12849
▁your	-12850
▁कळलं	-12851
▁पेट्रोलियम	-12852
▁कीमतें	-12853
▁प्रीमियम	-12854
▁झी	-12855
▁फंस	-12856
▁hindust	-12857
▁फिर्याद	-12858
▁माल्या	-12859
▁रफ्तार	-12860
पत्ता	-12861
▁गायी	-12862
▁स्पेन	-12863
▁उस्माना	-12864
▁वस्तुओं	-12865
▁यांच्याकडून	-12866
▁ईंटर	-12867
▁आवृत्ती	-12868
▁उपभोक्ता	-12869
▁एखादे	-12870
▁mumbai	-12871
▁प्रांता	-12872
▁पालिकेच्या	-12873
िजन	-12874
▁कम्	-12875
▁04	-12876
▁खोद	-12877
▁जटिल	-12878
▁किडनी	-12879
▁वादग्रस्त	-12880
▁एनडीए	-12881
▁हिरव्या	-12882
▁रोका	-12883
▁विमर्श	-12884
▁आठवडा	-12885
▁पृष्ठभूमि	-12886
▁तेव्हापासून	-12887
▁अधिकार्यांनी	-12888
▁ko	-12889
▁ताई	-12890
▁रूट	-12891
▁प्रश्नांची	-12892
▁मारी	-12893
▁विजेते	-12894
▁रोजच्या	-12895
▁कार्यकर्त्यांना	-12896
ट्टे	-12897
▁बेव	-12898
कार्ट	-12899
▁हार्ट	-12900
▁पंक्ति	-12901
▁टक्क्यां	-12902
▁pra	-12903
वण्या	-12904
▁comm	-12905
▁बनवून	-12906
सिनो	-12907
▁क्रीम	-12908
▁विद्यापीठाच्या	-12909
द्वारा	-12910
▁करण्याबाबत	-12911
आईआर	-12912
▁घराच्या	-12913
▁अब्ज	-12914
▁शिल्पा	-12915
ताचा	-12916
▁घबरा	-12917
▁याठिकाणी	-12918
io	-12919
िल्हा	-12920
▁सशक्त	-12921
▁सेकंड	-12922
▁महामार्गावर	-12923
दुखी	-12924
▁ट्रैक	-12925
▁वेगळं	-12926
▁सारखा	-12927
▁प्रयत्	-12928
▁वितरित	-12929
▁बादल	-12930
▁क्लीन	-12931
▁मुलाखत	-12932
▁अजिंक्य	-12933
▁एंटर	-12934
▁कोटा	-12935
▁हिवा	-12936
ksh	-12937
▁रां	-12938
ating	-12939
▁कमला	-12940
▁ठेऊन	-12941
▁शोधत	-12942
रेज	-12943
▁उपाध्याय	-12944
ial	-12945
▁मस्तिष्क	-12946
,9	-12947
▁सबका	-12948
▁चांगलेच	-12949
▁डिस्प्ले	-12950
▁दर्जेदार	-12951
ens	-12952
कुट	-12953
▁अठ	-12954
▁बोझ	-12955
▁डिवाइस	-12956
▁दिसम्बर	-12957
▁चित्त	-12958
▁हाताळ	-12959
▁बसेस	-12960
▁रेंज	-12961
▁पाचशे	-12962
▁हजारे	-12963
▁युवकों	-12964
▁अँड्रॉइड	-12965
▁झट	-12966
▁kar	-12967
▁उमर	-12968
▁मानो	-12969
▁द्वारे	-12970
▁साहजिक	-12971
19	-12972
▁बनला	-12973
▁काफ़ी	-12974
▁निश्चितच	-12975
▁चवी	-12976
▁एरिया	-12977
▁पट्ट	-12978
estion	-12979
▁हाला	-12980
पूर्वीच	-12981
▁रस्त्यावरील	-12982
▁अश्व	-12983
▁वापरली	-12984
▁नुकत्याच	-12985
▁पक्षांनी	-12986
▁येताना	-12987
ाजत	-12988
▁चाकू	-12989
▁बहुधा	-12990
▁वापरता	-12991
▁श्व	-12992
वंतराव	-12993
▁नगरपालिका	-12994
▁सद्य	-12995
▁बढ़िया	-12996
▁कोणीतरी	-12997
▁हृद	-12998
▁धडपड	-12999
ेंब	-13000
▁पच	-13001
▁एकतर	-13002
पीडिया	-13003
▁गुंतवणुकी	-13004
▁अफगा	-13005
▁66	-13006
ंदना	-13007
▁जशी	-13008
ature	-13009
▁क्रमशः	-13010
▁hindustan	-13011
▁कंत्राट	-13012
त्वे	-13013
▁इम्	-13014
▁जाट	-13015
▁बॉय	-13016
▁सिग	-13017
▁करणा	-13018
▁ओलंपिक	-13019
▁चित्रे	-13020
▁महंगाई	-13021
▁योजनेत	-13022
,8	-13023
ुम	-13024
▁प्रारूप	-13025
15	-13026
परा	-13027
लीफ	-13028
▁कामाची	-13029
▁समस्याएं	-13030
dia	-13031
▁भाडे	-13032
▁नकळत	-13033
▁साधे	-13034
▁कॉमे	-13035
▁मुलीच्या	-13036
▁सुपरस्टार	-13037
press	-13038
▁आचरण	-13039
▁जीवनशैली	-13040
▁साझे	-13041
▁उपदेश	-13042
▁तावडे	-13043
ॅड	-13044
▁द्वीप	-13045
▁घेतलेला	-13046
▁दस्तावे	-13047
▁विक्रेत	-13048
▁विषयांवर	-13049
▁नाबा	-13050
▁चालला	-13051
▁उद्यान	-13052
▁मुठभे	-13053
▁सायबर	-13054
▁मंगळवार	-13055
▁बुनियादी	-13056
▁now	-13057
/0	-13058
रिय	-13059
ज़न	-13060
िटीज	-13061
▁share	-13062
▁आजोबा	-13063
▁कब्जे	-13064
ंबद्दल	-13065
▁उस्मानाबाद	-13066
▁येई	-13067
▁कुणीही	-13068
▁अधिकाऱ्यांना	-13069
▁78	-13070
▁चोख	-13071
▁बिता	-13072
ated	-13073
▁रहकर	-13074
▁ठेवता	-13075
▁बोलणे	-13076
▁द्यायचे	-13077
▁मानवाधिकार	-13078
श्मी	-13079
▁चौरा	-13080
▁झाल्याचा	-13081
tm	-13082
▁मजेदार	-13083
श्वत	-13084
▁बसा	-13085
माध्यम	-13086
▁विनि	-13087
▁भावने	-13088
▁अवार्ड	-13089
▁शेवटचा	-13090
▁नीतियों	-13091
▁मुलांची	-13092
▁उभं	-13093
▁गोपी	-13094
▁पहना	-13095
▁राठोड	-13096
▁तारे	-13097
▁तरीकों	-13098
गेड	-13099
ब्बे	-13100
▁धरला	-13101
▁अप्रत्यक्ष	-13102
▁परियोजनाओं	-13103
▁स्तं	-13104
▁सव्वा	-13105
▁जगभरातील	-13106
ण्याने	-13107
▁mahar	-13108
▁राहणाऱ्या	-13109
▁यम	-13110
▁अंकुश	-13111
▁पोटात	-13112
▁शेतकर्यांनी	-13113
▁कोने	-13114
▁करावेत	-13115
▁प्रारम्भ	-13116
शन्स	-13117
कडच्या	-13118
▁अंकों	-13119
▁कृत्य	-13120
▁स्वीकृति	-13121
जेस	-13122
▁गुं	-13123
▁गुन्हेगारी	-13124
बोट	-13125
ुटी	-13126
ब्बर	-13127
▁बाइ	-13128
▁किस्	-13129
▁चौरस	-13130
वरच्या	-13131
▁मजकूर	-13132
▁अग्रणी	-13133
▁ट्रान्स	-13134
ंधा	-13135
▁hy	-13136
दादा	-13137
▁कबु	-13138
▁टांग	-13139
▁निर्दोष	-13140
▁रसो	-13141
▁लाह	-13142
▁raj	-13143
ंपेक्षा	-13144
▁उपमुख्यमंत्री	-13145
▁क्रो	-13146
▁times	-13147
▁बताना	-13148
▁मुंबईला	-13149
▁न्यायमूर्ती	-13150
तन्य	-13151
▁तिखट	-13152
▁दुष्ट	-13153
▁बाज़ार	-13154
▁तड़	-13155
▁पीट	-13156
वाड़	-13157
▁३८	-13158
▁धाक	-13159
▁मानवता	-13160
▁बेकायदेशीर	-13161
iss	-13162
ियेत	-13163
▁फेस	-13164
निवास	-13165
▁गोळीबार	-13166
▁मजाक	-13167
▁कैलाश	-13168
▁पासवर्ड	-13169
▁महाराजांनी	-13170
▁पेशेवर	-13171
▁कॉम्	-13172
▁नकोस	-13173
▁कर्मचाऱ्यांना	-13174
▁बिझ	-13175
▁भारतीयों	-13176
डि़	-13177
पीए	-13178
▁जुल	-13179
ंही	-13180
▁एव्ह	-13181
▁टॅटू	-13182
▁उद्यम	-13183
▁नाहीच	-13184
▁निपटने	-13185
▁बाट	-13186
▁सिड	-13187
▁bank	-13188
व्यापी	-13189
▁मिळावे	-13190
चिट	-13191
▁तह	-13192
▁फरा	-13193
▁युक्ति	-13194
▁रोष	-13195
▁गजानन	-13196
▁बढ़ाया	-13197
ंभा	-13198
▁आठवत	-13199
▁क्षी	-13200
▁story	-13201
▁जॉर्ज	-13202
▁सिलसिला	-13203
▁निर्देशन	-13204
▁पदार्थों	-13205
▁पृथ्वीराज	-13206
▁इलेक्ट्रिक	-13207
▁भैया	-13208
▁प्रकारात	-13209
गू	-13210
▁पांडेय	-13211
▁पूर्वे	-13212
▁शस्त्रक्रिया	-13213
▁तात्पुर	-13214
▁सामर्थ्य	-13215
▁महावीर	-13216
▁रेसिपी	-13217
▁व्यवस्थापक	-13218
▁४२	-13219
▁शरीरात	-13220
▁नाइट	-13221
▁साडी	-13222
▁नेमका	-13223
▁श्रमिक	-13224
▁योजनेचा	-13225
न्म	-13226
▁उदयन	-13227
▁शोधा	-13228
▁पुनराव	-13229
▁प्रखंड	-13230
▁डोंब	-13231
sc	-13232
ेला	-13233
▁सौरभ	-13234
▁कार्ट	-13235
▁मराठवाडा	-13236
▁होईना	-13237
▁कंपनीत	-13238
▁क्योकि	-13239
▁ब्रिटन	-13240
ांजलि	-13241
▁नाबाद	-13242
▁चलेगा	-13243
▁फवारणी	-13244
▁टीचर	-13245
कुछ	-13246
▁ऋतु	-13247
▁पुतळा	-13248
▁बहाने	-13249
गोलिक	-13250
▁प्रॉब्	-13251
▁नातेवाईक	-13252
▁गेहूं	-13253
▁निकली	-13254
▁ऐश्वर्या	-13255
▁सीसीटीव्ही	-13256
17	-13257
▁सीखने	-13258
▁घेतल्यानंतर	-13259
द्रे	-13260
हारिक	-13261
▁सैम	-13262
▁घेते	-13263
▁अनुषंगाने	-13264
न्दा	-13265
ब्बी	-13266
▁दरो	-13267
▁भावी	-13268
▁सुध्दा	-13269
▁स्नातक	-13270
आव	-13271
▁नूत	-13272
सायकल	-13273
▁असल्याच्या	-13274
लेक्स	-13275
▁सिंचाई	-13276
▁केळी	-13277
▁क्रूर	-13278
▁ईंटरनल	-13279
▁बाप्पा	-13280
▁परराष्ट्र	-13281
आरसी	-13282
▁दाव	-13283
्यानं	-13284
▁काढणे	-13285
▁एक्स्प	-13286
▁कपड	-13287
▁करेंगी	-13288
▁सुविधाएं	-13289
डली	-13290
रुप	-13291
ॅक्ट	-13292
▁मॉल	-13293
ध्वनी	-13294
▁गिरने	-13295
▁जनसंख्या	-13296
लीक	-13297
▁per	-13298
▁लागल्याने	-13299
▁दिवसांच्या	-13300
ूंचे	-13301
▁अवर	-13302
▁झपाट	-13303
▁यासह	-13304
▁फारशी	-13305
▁शेतकऱ्यांची	-13306
▁किल	-13307
▁नसी	-13308
▁अरबी	-13309
▁एहसास	-13310
▁राज्या	-13311
▁अमेरिकेतील	-13312
ऊंट	-13313
मिथ	-13314
लीज़	-13315
▁चिद	-13316
▁यूएस	-13317
▁जगदीश	-13318
▁अनियमित	-13319
लांचा	-13320
▁आलेख	-13321
▁वेस्टइ	-13322
▁गोलंदाज	-13323
▁मिळाल्या	-13324
▁अपराधियों	-13325
क्टी	-13326
प्रमाण	-13327
मार्टम	-13328
▁साधारणपणे	-13329
▁पराभूत	-13330
▁पोहोचले	-13331
फुल	-13332
वेन	-13333
ence	-13334
▁माले	-13335
▁तीव्रता	-13336
मनी	-13337
▁हेम	-13338
▁समग्र	-13339
णाम	-13340
▁वाटी	-13341
▁विघ	-13342
▁व्यतिरिक्त	-13343
पाय	-13344
▁193	-13345
▁श्लोक	-13346
▁भौगोलिक	-13347
▁आत्महत्ये	-13348
▁नाहीं	-13349
int	-13350
▁ऑफिसर	-13351
▁चित्रपटाच्या	-13352
संचार	-13353
▁कांस्य	-13354
▁चिल्ला	-13355
▁विभागों	-13356
▁हानी	-13357
▁मलेशिया	-13358
▁समुद्रा	-13359
▁जेणेकरून	-13360
काया	-13361
म्बई	-13362
र्ता	-13363
रेखा	-13364
▁खोला	-13365
▁अभिनव	-13366
▁कॅसिनो	-13367
▁आलिया	-13368
▁use	-13369
▁पला	-13370
▁तिसर	-13371
▁बन्द	-13372
▁मिळणे	-13373
▁मेकअप	-13374
▁साखळी	-13375
ल्ट	-13376
▁लय	-13377
ायच्या	-13378
▁मद्देन	-13379
▁घ्यायचा	-13380
▁रिकार्ड	-13381
▁राघ	-13382
▁लकड़ी	-13383
ंपासून	-13384
▁मतदाता	-13385
▁मन्दिर	-13386
uk	-13387
▁बही	-13388
▁नीरज	-13389
▁मजबूती	-13390
▁बेरोजगारी	-13391
▁जातक	-13392
▁घरातून	-13393
▁अल्पवयीन	-13394
▁इन्फ	-13395
▁जूनियर	-13396
बेट	-13397
▁रतन	-13398
▁काबू	-13399
▁जागेत	-13400
▁नकली	-13401
▁ब्रॉड	-13402
▁वाटला	-13403
▁म्हणायचे	-13404
नीर	-13405
पता	-13406
▁add	-13407
▁वेळेवर	-13408
▁मतदारसंघात	-13409
शाळे	-13410
ंगाना	-13411
▁fir	-13412
लांचे	-13413
▁याता	-13414
▁उपमहा	-13415
▁कराना	-13416
▁दायित्व	-13417
डले	-13418
▁अपरि	-13419
▁कामावर	-13420
▁दाखवला	-13421
▁निरनिरा	-13422
▁लाईन	-13423
▁ऑपरेट	-13424
▁ट्रेडिंग	-13425
आउट	-13426
▁बरस	-13427
▁पाठवून	-13428
▁पारितोष	-13429
▁76	-13430
▁एजेंस	-13431
▁मिळवला	-13432
▁भिडे	-13433
▁पांडुरंग	-13434
णारं	-13435
लेंज	-13436
ळावा	-13437
▁ढकल	-13438
▁हकी	-13439
▁कसली	-13440
▁विद्वान	-13441
▁74	-13442
▁पुरावा	-13443
▁महिन्यांपासून	-13444
वटी	-13445
▁विविधता	-13446
स्टिट्यूट	-13447
▁मिळालेली	-13448
▁पैट	-13449
▁2004	-13450
▁बहुसंख्य	-13451
▁देन	-13452
्युटर	-13453
▁आंबा	-13454
▁केसर	-13455
▁किल्ले	-13456
▁प्रतिकूल	-13457
▁पोस्टमार्टम	-13458
ee	-13459
काव	-13460
▁आशि	-13461
cription	-13462
▁झोपड	-13463
▁क्रिस	-13464
▁उमा	-13465
▁दुखी	-13466
▁ज़ोर	-13467
▁दायरे	-13468
▁84	-13469
▁हून	-13470
▁चलिए	-13471
▁पतंग	-13472
▁पदाधिकाऱ	-13473
▁दाऊ	-13474
मार्क	-13475
▁शुगर	-13476
▁आरक्षित	-13477
▁साडेतीन	-13478
▁तज्ञ	-13479
▁कोठडी	-13480
▁स्पोर्ट्स	-13481
शोध	-13482
साव	-13483
▁पुरोगा	-13484
▁वृत्ता	-13485
▁गेल्याने	-13486
ांनो	-13487
▁बनवा	-13488
▁माधुरी	-13489
▁घ्यायची	-13490
▁लाच	-13491
▁माइक्रो	-13492
▁मनाई	-13493
▁चॉकलेट	-13494
▁जाएंगी	-13495
वापर	-13496
▁शुक	-13497
▁साठा	-13498
टुंबिक	-13499
▁वाटून	-13500
▁day	-13501
▁मिरज	-13502
▁चतुर्थी	-13503
खले	-13504
▁नतीजे	-13505
▁मोहिम	-13506
▁किल्ल्या	-13507
▁यांच्यातील	-13508
ॉर्	-13509
▁bre	-13510
▁परे	-13511
▁कुलग	-13512
शाच्या	-13513
▁खेलते	-13514
▁वापरू	-13515
▁स्टैंड	-13516
▁साप्ताह	-13517
▁समानता	-13518
▁डॉल	-13519
ोबारी	-13520
▁पारा	-13521
▁लगेचच	-13522
▁पुच्ची	-13523
23	-13524
▁भैर	-13525
▁पहने	-13526
▁वाचक	-13527
▁जागीच	-13528
▁यातायात	-13529
oll	-13530
गों	-13531
▁साइड	-13532
▁यूरोपीय	-13533
▁संघटनेने	-13534
एव	-13535
▁उड़ान	-13536
▁मैदानात	-13537
▁ब्रिज	-13538
रिस	-13539
▁बडे	-13540
▁कमीत	-13541
▁जैविक	-13542
▁होण्याचे	-13543
▁खोत	-13544
▁कुठले	-13545
▁नागपुर	-13546
▁माहीती	-13547
ोही	-13548
▁गठित	-13549
▁पोर्न	-13550
▁सदस्या	-13551
▁संबंधिता	-13552
टीसी	-13553
▁वडा	-13554
▁घोडे	-13555
▁पत्रा	-13556
▁प्रता	-13557
▁सादरी	-13558
▁संघाला	-13559
▁फ्लिप	-13560
▁महापालिकेत	-13561
▁व्हॅ	-13562
▁स्वार्थ	-13563
▁लीक	-13564
मंदिर	-13565
▁कहाणी	-13566
▁विहार	-13567
▁विष्णू	-13568
▁समुद्री	-13569
▁धावत	-13570
▁कारोबारी	-13571
▁कौटुंबिक	-13572
▁भूखंड	-13573
▁बायो	-13574
▁विशेषज्ञों	-13575
▁समीप	-13576
कांकडे	-13577
▁प्रादुर्	-13578
▁प्रशिक्षक	-13579
किरी	-13580
यांचे	-13581
▁केबल	-13582
▁ठिकठिकाणी	-13583
▁बेन	-13584
▁ऊंचाई	-13585
▁डिस्क	-13586
▁शतकात	-13587
▁सेंसर	-13588
▁नारियल	-13589
▁बदमाशों	-13590
▁question	-13591
▁दुर्भाग्य	-13592
निश	-13593
बर्ट	-13594
▁लाठी	-13595
वैधानिक	-13596
इंड	-13597
वेषण	-13598
▁नसे	-13599
▁येश	-13600
▁नविन	-13601
▁माफिया	-13602
▁पुस्तका	-13603
▁प्रवाशांना	-13604
▁माणसा	-13605
▁पुरेसे	-13606
सूत्र	-13607
▁समजू	-13608
▁निंदा	-13609
▁निर्णा	-13610
▁परदेशात	-13611
▁सुरेंद्र	-13612
थून	-13613
▁हिल	-13614
▁वेळीच	-13615
तीची	-13616
▁गली	-13617
▁शिक्	-13618
▁संपत	-13619
▁कुठलाही	-13620
▁कुटुंबिया	-13621
िवा	-13622
▁पहात	-13623
▁तत्पर	-13624
▁घड़ी	-13625
▁टाकत	-13626
▁त्रा	-13627
▁जमिनीत	-13628
▁विश्वच	-13629
▁इन्होंने	-13630
▁राजने	-13631
olog	-13632
▁रियल	-13633
▁अनुराग	-13634
▁तरतुदी	-13635
▁सोनाली	-13636
▁प्रक्षे	-13637
▁सौभाग्य	-13638
▁ठहर	-13639
▁बरकरार	-13640
▁मांडणी	-13641
रक	-13642
वायचं	-13643
▁पुस्तकं	-13644
vel	-13645
▁सज्	-13646
दृश्य	-13647
स्टीट	-13648
▁हादसा	-13649
▁मेजर	-13650
▁बँकेचे	-13651
▁मुख्यतः	-13652
ob	-13653
gar	-13654
हों	-13655
▁कडा	-13656
▁यवतमाळ	-13657
▁कोर्टात	-13658
▁विद्यार्थिनी	-13659
▁ठळक	-13660
▁संकु	-13661
▁कटा	-13662
▁पाठवले	-13663
आयटी	-13664
▁शाश्वत	-13665
ame	-13666
बत्ती	-13667
▁अग्निशमन	-13668
▁उमेदवारा	-13669
कच	-13670
▁गिन	-13671
यकुमार	-13672
▁द्यायची	-13673
▁नाद	-13674
▁माळी	-13675
▁फर्स्ट	-13676
वादन	-13677
▁संदेह	-13678
▁दुकानात	-13679
ब्रे	-13680
िंग्स	-13681
ma	-13682
▁बक्षी	-13683
▁मागितली	-13684
▁मुठभेड़	-13685
▁घोटाळा	-13686
▁प्लॅस्टिक	-13687
he	-13688
▁येताच	-13689
▁स्वार	-13690
कोप	-13691
ेने	-13692
▁op	-13693
▁पागल	-13694
▁शाळेतील	-13695
▁महत्त्वाचं	-13696
▁सुक	-13697
▁दुहेरी	-13698
▁शक्यतो	-13699
▁२००८	-13700
▁प्लांट	-13701
▁जोश	-13702
▁फ्लॅट	-13703
▁वापरला	-13704
▁वास्तू	-13705
▁आखिरकार	-13706
▁डायरेक्ट	-13707
mber	-13708
वेळे	-13709
▁क्रि	-13710
▁नाबालिग	-13711
▁उपलब्धता	-13712
वणारे	-13713
▁सातार	-13714
ुं	-13715
▁आजचा	-13716
ित्या	-13717
▁दुकाना	-13718
▁कथन	-13719
▁ब्रिगेड	-13720
▁मोहिते	-13721
▁देवस्थान	-13722
ोहित	-13723
▁कोपर	-13724
▁असिस्ट	-13725
▁उत्पीड़न	-13726
▁दशल	-13727
्यूशन	-13728
▁देरी	-13729
▁बुरे	-13730
▁प्रां	-13731
सनी	-13732
▁लाश	-13733
▁दिवे	-13734
लिट	-13735
▁पौध	-13736
▁ग्वाल	-13737
▁मैनेजर	-13738
▁गैरसमज	-13739
▁कॉमन	-13740
▁तंबा	-13741
▁बसलो	-13742
▁click	-13743
▁पहाड़ी	-13744
▁आशय	-13745
▁सूच	-13746
▁जुगार	-13747
▁आपत्ती	-13748
▁संकल्पने	-13749
▁राधाकृष्ण	-13750
lish	-13751
▁अगदीच	-13752
▁आनन्द	-13753
▁प्रोफ	-13754
▁संभाल	-13755
रेख	-13756
िनल	-13757
▁from	-13758
▁उशीर	-13759
▁ठप्प	-13760
▁बोर्	-13761
▁ac	-13762
▁षट	-13763
िएटर	-13764
▁तुमचं	-13765
▁समुद्रात	-13766
▁वीं	-13767
▁पीड़ा	-13768
▁बारामती	-13769
▁कंपन्यांना	-13770
टिया	-13771
▁सत्	-13772
वादियों	-13773
▁प्रेमात	-13774
वह	-13775
▁मुद्र	-13776
▁म्हात	-13777
▁आवि	-13778
▁कोंब	-13779
▁मारले	-13780
▁जणांनी	-13781
▁सर्जरी	-13782
▁कलाम	-13783
▁सापडले	-13784
▁इतरांना	-13785
ake	-13786
▁सुमित	-13787
▁निवडणुकीसाठी	-13788
र्जे	-13789
▁डायल	-13790
▁डालें	-13791
▁वरदान	-13792
संस्कार	-13793
िण	-13794
्वान	-13795
▁निम	-13796
▁मिड	-13797
▁निष्ठा	-13798
▁कथे	-13799
▁बोल्ड	-13800
▁आईच्या	-13801
ोरील	-13802
▁बेर	-13803
14	-13804
सिस	-13805
▁अंकित	-13806
▁महाबळ	-13807
▁वर्गी	-13808
▁आशीष	-13809
▁संसाध	-13810
▁कबड्डी	-13811
चिर	-13812
▁ऋषी	-13813
▁संयम	-13814
▁फोर्स	-13815
▁आईं	-13816
शीलता	-13817
▁घटनाएं	-13818
▁फोटोग्राफी	-13819
▁अलि	-13820
▁हानि	-13821
▁मोकळा	-13822
▁बसलेल्या	-13823
▁बाण	-13824
▁गायन	-13825
▁हमसे	-13826
ग़	-13827
▁कोटींची	-13828
▁आरोपींना	-13829
▁आयपीएल	-13830
▁शू	-13831
्रेसी	-13832
▁काजू	-13833
थान	-13834
▁इय	-13835
2017	-13836
▁600	-13837
▁रिलेशन	-13838
▁सार्थक	-13839
▁भ्रष्टाचारा	-13840
मिंटन	-13841
▁इक्	-13842
▁अगु	-13843
▁एडि	-13844
▁विला	-13845
▁सलाम	-13846
वलेली	-13847
▁काढता	-13848
▁मिळाल्याने	-13849
भागीय	-13850
▁बेबी	-13851
▁आंख	-13852
▁शासक	-13853
ळली	-13854
▁पसी	-13855
प्राय	-13856
▁सूर्या	-13857
संगत	-13858
सानी	-13859
▁धबध	-13860
▁कामों	-13861
▁वेस्टइंडीज	-13862
▁tag	-13863
▁वसाह	-13864
▁कुठून	-13865
▁समर्थकों	-13866
दिनी	-13867
ल्लू	-13868
▁गंमत	-13869
▁ठंडा	-13870
▁top	-13871
▁भिती	-13872
नेश्वर	-13873
▁सर्वांच्या	-13874
▁झटक	-13875
▁बूथ	-13876
षार	-13877
▁खोड	-13878
▁देवताओं	-13879
▁किचन	-13880
▁परंतू	-13881
▁हल्के	-13882
▁नसल्याची	-13883
माय	-13884
हास	-13885
▁तूप	-13886
▁जानवरों	-13887
▁लाद	-13888
डब्ल्यू	-13889
▁अरूण	-13890
▁खरोखरच	-13891
▁वारकरी	-13892
▁उपरोक्त	-13893
ंचल	-13894
▁अहो	-13895
▁intern	-13896
po	-13897
igh	-13898
▁तुर्की	-13899
▁सापडला	-13900
ांवरील	-13901
▁बिस्तर	-13902
▁हिंदुस्थान	-13903
न्ग	-13904
▁यार	-13905
▁असफल	-13906
▁रजिस्टर	-13907
▁कोणालाही	-13908
▁पारदर्शक	-13909
▁कार्यक्रमाला	-13910
▁लम्बे	-13911
▁हास्य	-13912
▁पुतळ्या	-13913
▁पाकिस्ताना	-13914
बुक	-13915
▁ठाकर	-13916
▁पराभ	-13917
▁अध्यापक	-13918
▁act	-13919
▁छेड	-13920
▁ग्रेड	-13921
▁सेवेत	-13922
▁अर्ध्या	-13923
▁pdf	-13924
▁मौन	-13925
▁उठाकर	-13926
▁पसरली	-13927
▁सोनवणे	-13928
रन	-13929
▁आशु	-13930
▁कंद	-13931
▁अन्तर	-13932
स्र	-13933
▁कूट	-13934
संग्र	-13935
▁आइये	-13936
▁कारकि	-13937
▁दशलक्ष	-13938
▁बुखार	-13939
▁व्यावहारिक	-13940
नामे	-13941
ोन्न	-13942
▁पक्षों	-13943
▁विरोधा	-13944
▁प्रश्नावर	-13945
▁सेलिब्र	-13946
▁देशांमध्ये	-13947
प्पट	-13948
▁शाका	-13949
▁२००९	-13950
▁यूनियन	-13951
▁हेर	-13952
▁पकडून	-13953
▁स्थगित	-13954
▁विश्वनाथ	-13955
▁शिक्षकांना	-13956
▁फरी	-13957
▁मर्द	-13958
▁इंकार	-13959
▁मुस्लीम	-13960
▁लिफ्ट	-13961
▁जोपर्यंत	-13962
वाण	-13963
ष्म	-13964
▁स्ल	-13965
कर्ते	-13966
▁माई	-13967
adesh	-13968
▁नावाचे	-13969
▁आतंकवादियों	-13970
▁प्रेक्षकांना	-13971
▁उक	-13972
बलेट	-13973
िय्या	-13974
▁पेशकश	-13975
▁म्हणते	-13976
सावा	-13977
▁met	-13978
▁गोक	-13979
▁आपात	-13980
▁अंधश्र	-13981
▁लटक	-13982
खेरीस	-13983
▁कोमल	-13984
▁कोटींचा	-13985
▁मंडळाचे	-13986
ैं	-13987
▁४८	-13988
▁भक्तों	-13989
▁पदार्पण	-13990
▁तोंडा	-13991
▁हल्दी	-13992
▁अनुप्रयोग	-13993
लिकडे	-13994
▁आवर	-13995
▁बगल	-13996
ेंच्या	-13997
डीज	-13998
▁त्याकडे	-13999
▁सत्तेवर	-14000
▁जेम्स	-14001
,0	-14002
श्मा	-14003
▁छाव	-14004
नीकरण	-14005
▁पक्षाची	-14006
▁मुस	-14007
▁चपेट	-14008
▁मथुरा	-14009
▁समाधी	-14010
▁कामाच्या	-14011
▁बहिष्कार	-14012
▁विद्यार्थ्यांची	-14013
णीचा	-14014
▁म्हणावे	-14015
▁हलक	-14016
▁अमान	-14017
▁लोकसंख्ये	-14018
वायु	-14019
▁साहू	-14020
स्कट	-14021
▁ठेवू	-14022
▁देनी	-14023
▁आवडेल	-14024
▁गोष्टींचा	-14025
▁पोक	-14026
▁कहानियों	-14027
▁रिलायन्स	-14028
▁नांग	-14029
▁सहसा	-14030
दिवसीय	-14031
▁विकिपीडिया	-14032
ात्य	-14033
▁कमतरता	-14034
▁शैक्षिक	-14035
▁छेद	-14036
▁जेब	-14037
प्रधान	-14038
▁टाळण्यासाठी	-14039
hat	-14040
▁पीस	-14041
▁कारभ	-14042
▁जाँच	-14043
▁केलेलं	-14044
जियम	-14045
ट्टी	-14046
▁ईशान	-14047
▁लाभदायक	-14048
▁भडक	-14049
▁98	-14050
▁कधीतरी	-14051
▁इस्लामी	-14052
▁नियमितपणे	-14053
▁परशु	-14054
▁पोटन	-14055
▁होण्याच्या	-14056
▁संच	-14057
▁हॉटे	-14058
▁तेवढी	-14059
▁रहात	-14060
र्थियों	-14061
▁समृद्धि	-14062
arch	-14063
वाढी	-14064
▁शकला	-14065
▁कैलास	-14066
▁बैठने	-14067
▁खुल्या	-14068
▁ब्रह्मा	-14069
चेल	-14070
▁मेष	-14071
▁हिने	-14072
चेच	-14073
▁जावा	-14074
▁नियत	-14075
▁जणांचा	-14076
▁समीकरण	-14077
ँकि	-14078
▁तहरी	-14079
▁अकेला	-14080
▁विरोधक	-14081
▁ठाकूर	-14082
▁मंदिरों	-14083
▁उपहार	-14084
▁स्मिथ	-14085
▁भाजीपाला	-14086
र्जर	-14087
▁भूप	-14088
▁निर्णायक	-14089
▁description	-14090
धु	-14091
▁वयोग	-14092
▁स्वय	-14093
▁द्राक्ष	-14094
मानात	-14095
▁म्हणू	-14096
▁स्तंभ	-14097
ife	-14098
▁71	-14099
▁दुखा	-14100
▁86	-14101
डेंट	-14102
प्लो	-14103
▁गुड़	-14104
लीच्या	-14105
▁बर्बाद	-14106
▁धरना	-14107
▁रंजन	-14108
▁कमाने	-14109
▁अंड	-14110
▁नामदेव	-14111
पन्न	-14112
ल्डर	-14113
ोरेज	-14114
▁दीजिए	-14115
्यांमुळे	-14116
▁पर्यायी	-14117
▁झालंय	-14118
▁मध्या	-14119
▁मलाही	-14120
▁जागांसाठी	-14121
▁पेशी	-14122
ांबाबत	-14123
▁त्रुटी	-14124
▁तिमाहीत	-14125
वासा	-14126
▁हें	-14127
▁रोमन	-14128
▁प्रया	-14129
▁शिमला	-14130
▁राजाराम	-14131
▁वापरत	-14132
▁जातियों	-14133
तें	-14134
▁टीमों	-14135
▁भाज्या	-14136
▁घेतलेली	-14137
▁रोखण्यासाठी	-14138
▁पुण्याच्या	-14139
▁वाजेपर्यंत	-14140
र्षी	-14141
▁लोड	-14142
▁ग्रो	-14143
▁परमात्मा	-14144
▁बीसीसीआई	-14145
sp	-14146
▁ii	-14147
▁देवून	-14148
▁हिमालय	-14149
विजन	-14150
डमिंटन	-14151
▁जोड़े	-14152
▁नोंदी	-14153
▁पसंदी	-14154
▁व्याख्यान	-14155
▁इव	-14156
▁पटकन	-14157
▁असायची	-14158
ठाण	-14159
▁उंग	-14160
▁रुज	-14161
▁दर्शक	-14162
▁त्याशिवाय	-14163
▁चिनी	-14164
▁साधी	-14165
▁जन्मा	-14166
▁शिवरा	-14167
▁उठता	-14168
▁बदनाम	-14169
▁youtube	-14170
▁वैष्ण	-14171
▁संज्ञा	-14172
▁comments	-14173
▁विभागाकडून	-14174
नॅशनल	-14175
▁चुनौ	-14176
▁बँकेत	-14177
▁तेव्हाच	-14178
▁चेहऱ्यावर	-14179
▁cre	-14180
▁ele	-14181
▁संकल	-14182
▁पंजीकरण	-14183
▁सावधानी	-14184
▁शिष्यवृत्ती	-14185
ष्टिक	-14186
ूपी	-14187
▁फॅशन	-14188
phone	-14189
▁बिस्	-14190
▁फ्लिपकार्ट	-14191
▁मर्	-14192
▁स्टोरेज	-14193
▁घराबाहेर	-14194
▁फोक	-14195
▁ख़त्म	-14196
▁प्रवासात	-14197
रथ	-14198
यावर	-14199
▁कोले	-14200
▁तूफान	-14201
▁तेलंगाना	-14202
▁ट्रैफिक	-14203
▁आत्तापर्यंत	-14204
▁चेतन	-14205
▁सुमन	-14206
▁किराए	-14207
श्म	-14208
▁छठ	-14209
▁मशिन	-14210
▁परंपरे	-14211
▁सोनेरी	-14212
90	-14213
अभावी	-14214
▁फ़िर	-14215
▁असावं	-14216
▁मुद्दाम	-14217
ert	-14218
नेशन	-14219
▁पिके	-14220
कुमारी	-14221
▁गृहीत	-14222
▁इस्पित	-14223
▁म्हणणं	-14224
▁दाऊद	-14225
▁पहनने	-14226
▁मसाले	-14227
▁मुरली	-14228
कॉ	-14229
▁भरले	-14230
▁मूत्र	-14231
▁बंगाली	-14232
▁आलाय	-14233
▁बिगड़	-14234
अॅप	-14235
▁पोटनिवड	-14236
ign	-14237
▁पिटाई	-14238
▁मानला	-14239
▁प्रेशर	-14240
▁पहुंचकर	-14241
िमित्त	-14242
▁बस्ती	-14243
ॉफ्ट	-14244
▁शोधण्यासाठी	-14245
रीबन	-14246
यातील	-14247
▁इमाम	-14248
▁नम्बर	-14249
▁प्रगत	-14250
▁गुजराती	-14251
▁मेडल	-14252
▁युद्धा	-14253
▁जं	-14254
णीला	-14255
▁पढ़ते	-14256
▁पर्सनल	-14257
डतो	-14258
▁मुलांसाठी	-14259
मधला	-14260
य्यद	-14261
▁डब्ल्यू	-14262
▁बर्तन	-14263
▁संसदे	-14264
▁सरचिट	-14265
▁दक्षिणे	-14266
▁hot	-14267
▁खरच	-14268
स्टिंग	-14269
▁लिहिली	-14270
▁संध्याकाळ	-14271
▁लाईट	-14272
▁साठे	-14273
▁प्रभाकर	-14274
▁ज्याच्या	-14275
▁यशवंतराव	-14276
▁व्यक्तींना	-14277
oc	-14278
▁रसोई	-14279
▁ह्यात	-14280
▁पसंदीदा	-14281
दूत	-14282
▁मठ	-14283
▁नवल	-14284
▁मुआव	-14285
▁प्रबंधक	-14286
▁मूल्यों	-14287
▁नेत्यांना	-14288
▁पोत	-14289
▁चिन्	-14290
ूली	-14291
▁चलना	-14292
▁संयोग	-14293
▁विद्यालयों	-14294
नीस	-14295
▁घाव	-14296
स्तिक	-14297
▁४००	-14298
▁पश्चिमे	-14299
▁rel	-14300
▁धरले	-14301
▁नतीजा	-14302
▁बघू	-14303
▁प्रारंभिक	-14304
▁प्रशासनाला	-14305
कीर	-14306
पूस	-14307
▁ढे	-14308
▁जगन्	-14309
ंबरोबर	-14310
▁नसतील	-14311
▁पकड़े	-14312
▁ससु	-14313
▁मद्देनजर	-14314
िएंट	-14315
▁लड़कों	-14316
▁लीजिये	-14317
▁माननीय	-14318
▁बांगलादेश	-14319
टम	-14320
▁maharasht	-14321
▁भया	-14322
▁विनाश	-14323
▁जेंव्हा	-14324
वडा	-14325
्रामक	-14326
▁बंदूक	-14327
▁पूर्वा	-14328
und	-14329
▁अहसास	-14330
▁लिहिलं	-14331
▁महाराष्ट्राचे	-14332
जापूर	-14333
बोर्ड	-14334
▁हलचल	-14335
▁रजिस्ट्रेशन	-14336
ुभ	-14337
▁cr	-14338
तीसाठी	-14339
▁यासारख्या	-14340
गाल	-14341
बिंद	-14342
▁रहिवासी	-14343
मोट	-14344
▁अमृतसर	-14345
▁खात्याने	-14346
▁2002	-14347
▁पैदल	-14348
▁account	-14349
वेता	-14350
▁mark	-14351
दंड	-14352
▁डॉक्ट	-14353
▁आयोगाच्या	-14354
▁नींबू	-14355
▁अवध	-14356
▁सवयी	-14357
जेक्शन	-14358
▁उत्पन्	-14359
▁खड्ड	-14360
▁नाकाम	-14361
▁बाजूस	-14362
सीबी	-14363
▁अश्र	-14364
▁बसणार	-14365
▁रास्त	-14366
▁कुर्सी	-14367
▁org	-14368
▁आलम	-14369
बाह्य	-14370
▁ऊर्फ	-14371
▁युनिट	-14372
▁तस्वीरों	-14373
▁pay	-14374
▁वरना	-14375
▁कनाडा	-14376
▁रात्रीच्या	-14377
▁जिल्ह्याच्या	-14378
▁वेड	-14379
▁दलाल	-14380
▁जालना	-14381
▁मेहमान	-14382
▁येण्या	-14383
▁स्थानावर	-14384
▁प्रकरणाची	-14385
▁उठे	-14386
▁पूनम	-14387
▁बगैर	-14388
▁चूर्ण	-14389
▁जिनसे	-14390
ेंद्रिय	-14391
▁mp	-14392
▁जुर्माना	-14393
▁शासनाकडून	-14394
▁free	-14395
▁पातळ	-14396
▁आह्वान	-14397
▁मध्येच	-14398
▁मंडळाने	-14399
काशी	-14400
▁ठंड	-14401
▁रमा	-14402
▁सरक	-14403
▁हाव	-14404
हेरील	-14405
▁आधीच्या	-14406
▁शेता	-14407
▁सिगरेट	-14408
▁एक्सचेंज	-14409
▁विरोधकांनी	-14410
िद	-14411
▁बहाल	-14412
र्निंग	-14413
▁डिझाइन	-14414
▁संतुष्ट	-14415
▁डोळ्यासमोर	-14416
▁कविताओं	-14417
ual	-14418
गडे	-14419
▁इनसे	-14420
▁हाथी	-14421
▁मारकर	-14422
▁वाढदिवस	-14423
▁वर्षभरात	-14424
मोर	-14425
▁सोडला	-14426
▁अशावेळी	-14427
▁bi	-14428
▁la	-14429
▁यहू	-14430
▁पर्दा	-14431
▁निवडणू	-14432
▁स्वाभिमान	-14433
▁महाबळेश्वर	-14434
गणना	-14435
▁देणं	-14436
▁सरचिटणीस	-14437
सिडी	-14438
▁परिप	-14439
चित्रे	-14440
्रेन	-14441
▁बताती	-14442
▁भागांत	-14443
▁फुक	-14444
▁विषयक	-14445
निरपेक्ष	-14446
टेबल	-14447
▁साड़ी	-14448
▁कोणाच्या	-14449
ज्जत	-14450
▁१५०	-14451
▁तालि	-14452
▁बरसात	-14453
▁आल्यास	-14454
▁इंजिनि	-14455
▁शेतकऱ्यांचे	-14456
▁जीप	-14457
▁गांग	-14458
▁चैतन्य	-14459
▁गेल्यानंतर	-14460
िं	-14461
▁श्या	-14462
▁बिल्डर	-14463
▁खरीप	-14464
▁धोक्यात	-14465
▁उत्तरप्रदेश	-14466
▁बलों	-14467
क्षमता	-14468
र्भातील	-14469
▁प्रातः	-14470
▁लष्करा	-14471
विश्	-14472
▁जीभ	-14473
▁उजागर	-14474
▁निकाय	-14475
▁नियाम	-14476
▁मिळताच	-14477
करणे	-14478
रेगा	-14479
▁गोरी	-14480
हानी	-14481
▁दुश्मन	-14482
▁असण्याची	-14483
ेश्व	-14484
▁आप्	-14485
समवेत	-14486
▁तरफ़	-14487
िएट	-14488
▁वट	-14489
▁चरम	-14490
▁हवाल	-14491
▁क्रमवारी	-14492
▁प्रेक्षक	-14493
▁निम्नलिखित	-14494
▁hd	-14495
▁वात	-14496
▁मोक्ष	-14497
▁वेळात	-14498
▁घ्यायचे	-14499
▁तितक्या	-14500
▁रक्ष	-14501
▁सायक	-14502
▁सृष्टी	-14503
▁कांद्या	-14504
view	-14505
▁97	-14506
▁डाऊन	-14507
▁सिंगल	-14508
▁गिल	-14509
वणारी	-14510
▁सुल्	-14511
▁खरंतर	-14512
▁बंगला	-14513
▁बनेगा	-14514
रंग	-14515
वळे	-14516
▁नाई	-14517
▁दंगल	-14518
▁प्रभात	-14519
कॉम	-14520
▁जहा	-14521
▁शकतं	-14522
विण्यास	-14523
▁एनर्जी	-14524
▁सुने	-14525
परिषद	-14526
▁हवाला	-14527
▁रिपब्लिक	-14528
ike	-14529
चिक	-14530
▁पीछा	-14531
दारांना	-14532
▁नेमणूक	-14533
▁अभिनेते	-14534
▁त्यामुळं	-14535
द्वी	-14536
▁पाठकों	-14537
▁बघितले	-14538
ंतरण	-14539
▁sch	-14540
▁सिस	-14541
▁तेवढा	-14542
▁हत्याकांड	-14543
jp	-14544
▁कूद	-14545
▁शमी	-14546
▁चाहें	-14547
▁विंडोज	-14548
▁अर्थमंत्री	-14549
▁ऊंची	-14550
▁लावावा	-14551
▁अन्तर्गत	-14552
हाचे	-14553
वणाऱ्या	-14554
▁ग्वालियर	-14555
वुन	-14556
वराव	-14557
▁गेलेली	-14558
भूती	-14559
▁चौघ	-14560
▁कड़ा	-14561
▁कच्चा	-14562
▁अध्यादेश	-14563
▁उत्साहात	-14564
डला	-14565
िक्सल	-14566
▁गेंदों	-14567
▁व्यर्थ	-14568
ालय	-14569
▁कर्कर	-14570
▁मुक्ता	-14571
▁87	-14572
▁हिम	-14573
▁खाऊन	-14574
▁मायने	-14575
▁लिखना	-14576
शिक्षित	-14577
▁एनडी	-14578
▁नोबेल	-14579
▁फायरिंग	-14580
▁लिखकर	-14581
अन	-14582
खत	-14583
▁800	-14584
▁विलंब	-14585
▁हकीकत	-14586
▁सरी	-14587
▁साधु	-14588
▁कौतु	-14589
▁वाकई	-14590
नात्मक	-14591
▁बाजारों	-14592
▁सम्पन्न	-14593
▁आओ	-14594
▁धाग	-14595
▁एनजी	-14596
▁धरणे	-14597
▁पादु	-14598
▁दुबे	-14599
▁फीट	-14600
▁मिमी	-14601
▁बनारस	-14602
▁पैठ	-14603
▁ऐकले	-14604
▁मोर्च	-14605
▁अध्याय	-14606
▁अर्पित	-14607
ळीचा	-14608
ition	-14609
▁किराया	-14610
▁छीन	-14611
▁नशा	-14612
▁क्यु	-14613
▁विधवा	-14614
▁एक्स्प्रेस	-14615
▁word	-14616
▁आम्ह	-14617
▁रहिवा	-14618
▁फिल्मी	-14619
▁मजदूरों	-14620
▁संभावित	-14621
▁घेतल्याने	-14622
▁bus	-14623
▁नज़	-14624
▁प्रवि	-14625
िद्र	-14626
▁ध्वज	-14627
▁एकजुट	-14628
▁प्रादुर्भाव	-14629
▁गर्लफ्रेंड	-14630
▁शर्य	-14631
▁विरासत	-14632
ोला	-14633
▁२०००	-14634
म्पियन	-14635
▁तितका	-14636
▁पैकेज	-14637
▁अर्धशत	-14638
▁दर्जाचे	-14639
▁न्यायालयीन	-14640
▁कद	-14641
▁भंडार	-14642
▁अंदाजा	-14643
▁जोकि	-14644
▁दादर	-14645
▁ठिय्या	-14646
▁उपजिल्हा	-14647
▁व्यासपीठावर	-14648
ावरी	-14649
▁निचे	-14650
वज	-14651
ंकि	-14652
बों	-14653
▁पसंत	-14654
▁बाधित	-14655
▁विरूद्ध	-14656
▁ज़िन्दगी	-14657
▁माहितीसाठी	-14658
▁यथा	-14659
▁सवलत	-14660
▁बिंदु	-14661
▁बालिका	-14662
▁कायमस्वर	-14663
▁तरुणांना	-14664
▁बॅक	-14665
▁ज़िंदगी	-14666
▁बाजारपेठेत	-14667
जक	-14668
▁त्रस्त	-14669
▁general	-14670
▁na	-14671
▁चं	-14672
▁बाथर	-14673
▁नर्मदा	-14674
▁उपकरणों	-14675
▁फलंदाजी	-14676
राक	-14677
▁गहन	-14678
▁मोटी	-14679
▁प्रवृत्ती	-14680
फन	-14681
▁sup	-14682
▁कमान	-14683
▁झटके	-14684
▁आवाजा	-14685
▁जागृती	-14686
▁पहुंचाया	-14687
नीज	-14688
ोपचार	-14689
ंबित	-14690
▁संघाचा	-14691
ms	-14692
गढ	-14693
माबाद	-14694
▁अनाज	-14695
▁हैंड	-14696
▁मानवीय	-14697
now	-14698
पातळी	-14699
▁चित्रा	-14700
▁चित्रकार	-14701
ियान	-14702
▁ass	-14703
▁कौश	-14704
▁रोट	-14705
▁२०१९	-14706
बूत	-14707
▁बोस	-14708
▁जमाने	-14709
▁डॉलर्स	-14710
▁नेऊन	-14711
▁चारही	-14712
▁पर्दे	-14713
▁फूलों	-14714
▁विसरून	-14715
▁दिल्यास	-14716
▁योजनेच्या	-14717
▁उन्हाळ्यात	-14718
पौर	-14719
▁खनन	-14720
▁आवेद	-14721
▁बाईक	-14722
णीवर	-14723
▁श्रा	-14724
▁जनहित	-14725
▁राहात	-14726
▁मुलांचे	-14727
▁सेंद्रिय	-14728
▁पाठविण्यात	-14729
▁प्रभावशाली	-14730
▁83	-14731
▁net	-14732
▁लॉग	-14733
कीच्या	-14734
▁दिखता	-14735
▁येण्यासाठी	-14736
▁शिकत	-14737
▁श्रद्धांजलि	-14738
बैक	-14739
▁सीधी	-14740
▁जगाला	-14741
▁टिकून	-14742
▁भक्कम	-14743
▁तोड़ने	-14744
▁साप्ताहिक	-14745
जोड	-14746
▁पैन	-14747
▁सिंघ	-14748
▁कोळी	-14749
▁सासू	-14750
▁गहराई	-14751
▁अंदाजे	-14752
▁स्पर्धेच्या	-14753
ॉर्ट	-14754
▁वाइ	-14755
▁बाले	-14756
▁खन्ना	-14757
▁समागम	-14758
तोष	-14759
▁विपण	-14760
▁लहानपणा	-14761
▁हानिकारक	-14762
ेकडून	-14763
▁करवाई	-14764
▁पावसाचा	-14765
▁शिवलिंग	-14766
▁होंठ	-14767
▁ठरविले	-14768
▁पाठीशी	-14769
▁शिष्टमंड	-14770
▁मडगाव	-14771
▁ahm	-14772
▁gov	-14773
▁ढाई	-14774
▁पदर	-14775
▁मसल	-14776
▁एम्स	-14777
▁टुकड़े	-14778
cy	-14779
भाज	-14780
▁बताता	-14781
▁बेकार	-14782
▁आवाजात	-14783
▁जगन्नाथ	-14784
व्यतिरिक्त	-14785
▁याप्रसंगी	-14786
▁घुम	-14787
▁छेड़छाड़	-14788
▁लिहिलेल्या	-14789
16	-14790
▁कपा	-14791
▁कीं	-14792
▁क्वार	-14793
विज्ञान	-14794
▁टायर	-14795
▁बागा	-14796
▁एकदिवसीय	-14797
▁जळ	-14798
▁नीम	-14799
▁इमेज	-14800
▁पैसों	-14801
▁ब्रँड	-14802
▁उज्जैन	-14803
▁महत्वाच्या	-14804
▁गुणों	-14805
▁प्रतीत	-14806
▁88	-14807
ोंडा	-14808
▁बजेट	-14809
▁अनुदा	-14810
▁विश्रांती	-14811
ष्मा	-14812
राणिक	-14813
▁लावत	-14814
▁सोपा	-14815
शिंगटन	-14816
▁बँकेने	-14817
ारोप	-14818
▁उला	-14819
▁वीक	-14820
▁श्रो	-14821
▁छोड़ा	-14822
▁विराजमान	-14823
▁प्रक्रियेत	-14824
र्डे	-14825
▁बंधू	-14826
▁गेलेला	-14827
▁प्याज	-14828
▁सुरेख	-14829
▁भाइयों	-14830
▁सलाहकार	-14831
▁नक्सलियों	-14832
roid	-14833
बाबतीत	-14834
▁पाचव्या	-14835
13	-14836
ंबाबत	-14837
aper	-14838
▁घटा	-14839
वामुळे	-14840
▁प्रसिध्द	-14841
▁tech	-14842
▁टँकर	-14843
लपमेंट	-14844
▁बाथरूम	-14845
▁वैशाली	-14846
▁पध्दतीने	-14847
गि	-14848
यड	-14849
han	-14850
चुनाव	-14851
▁यंत्रण	-14852
▁सर्वजण	-14853
▁वाजण्याच्या	-14854
गोर	-14855
पेट	-14856
▁मोटे	-14857
▁लम्बी	-14858
▁कमजोरी	-14859
led	-14860
▁सैफ	-14861
संपदा	-14862
स्थाना	-14863
▁जताया	-14864
▁मांगा	-14865
▁लवकरात	-14866
पाव	-14867
▁होश	-14868
▁गुफा	-14869
▁उब	-14870
▁सुस	-14871
▁उपस्थ	-14872
▁चिदंबर	-14873
न्थ	-14874
▁उठाते	-14875
▁पद्धति	-14876
▁साधारणतः	-14877
▁धूल	-14878
फार्म	-14879
▁पूर्त	-14880
▁३९	-14881
लानी	-14882
▁अस्थिर	-14883
bile	-14884
वेअर	-14885
▁कॉलनी	-14886
▁समाजाची	-14887
निमित्ताने	-14888
▁सहारे	-14889
ध्यक्षा	-14890
▁खूबसूरती	-14891
▁परीक्षेत	-14892
▁मार्गावरील	-14893
गता	-14894
दियों	-14895
▁मुळा	-14896
▁पौराणिक	-14897
▁भेटायला	-14898
िकोन	-14899
▁अस्मिता	-14900
▁यूट्यूब	-14901
्ति	-14902
▁ह्र	-14903
▁रचने	-14904
▁अर्धव	-14905
▁दिग्विजय	-14906
▁साइंस	-14907
▁अभ्यर्थियों	-14908
alth	-14909
▁लाए	-14910
aking	-14911
▁अण्ण	-14912
▁आमचं	-14913
▁मालिश	-14914
▁लेटेस्ट	-14915
अरी	-14916
खास	-14917
बीज	-14918
▁कौल	-14919
▁तांबे	-14920
▁कंपन्यांनी	-14921
शब्द	-14922
ांकित	-14923
▁कपात	-14924
▁बिबट	-14925
......	-14926
▁स्पॉट	-14927
▁मांगने	-14928
▁समृद्धी	-14929
▁आयुर्वेदिक	-14930
▁दिवाळीच्या	-14931
▁अधिकार्यांना	-14932
▁जेएन	-14933
▁पुला	-14934
▁दुसरं	-14935
▁गुस्से	-14936
▁बांधण्यात	-14937
▁ahmed	-14938
▁ऐकायला	-14939
पळ	-14940
पोर्	-14941
▁नान	-14942
▁रोबोट	-14943
तेनुसार	-14944
▁हद्दीत	-14945
▁सोनू	-14946
णामध्ये	-14947
▁सुनीता	-14948
▁घेतलेले	-14949
▁चुंब	-14950
▁दबंग	-14951
▁स्टु	-14952
▁चाइ	-14953
▁पाण्डे	-14954
▁कुठलीही	-14955
▁चीनच्या	-14956
▁सामंज	-14957
▁बदनामी	-14958
▁गडचिर	-14959
▁चरणों	-14960
▁थिएटर	-14961
ेतर	-14962
▁नौज	-14963
जवळील	-14964
▁चाला	-14965
▁विभागाला	-14966
▁upd	-14967
▁रजत	-14968
▁कबूल	-14969
▁पक्का	-14970
▁पवित्रा	-14971
▁अल्पसंख्यक	-14972
▁कॉन्ट	-14973
▁इंस्टीट	-14974
▁राजकारणी	-14975
डत	-14976
शेत	-14977
ारिक	-14978
▁जानती	-14979
▁पड़ोस	-14980
▁डै	-14981
▁फर्म	-14982
पिता	-14983
ॅक्स	-14984
ॉलॉजी	-14985
▁ज़मीन	-14986
▁बसस्थान	-14987
,99	-14988
▁बरोबरी	-14989
▁संस्थेत	-14990
▁तले	-14991
मागील	-14992
▁अपयशी	-14993
▁परिजन	-14994
▁दिवंगत	-14995
▁सिद्धू	-14996
▁पुरोगामी	-14997
▁प्रतिबंधक	-14998
▁how	-14999
▁कॅश	-15000
▁ऑक्स	-15001
▁रूसी	-15002
ics	-15003
एसआई	-15004
पीएफ	-15005
ियाबाद	-15006
▁तांदू	-15007
▁शिक्का	-15008
▁कोर्टाने	-15009
▁सांगितला	-15010
▁शिक्षणासाठी	-15011
य़ात	-15012
ामुळे	-15013
▁उपनगर	-15014
दं	-15015
▁झळक	-15016
▁कोथि	-15017
प्लेक्स	-15018
▁अफ़	-15019
दाताओं	-15020
▁shiksh	-15021
▁एफआईआर	-15022
▁गला	-15023
▁मोग	-15024
▁अजमेर	-15025
▁मुक्ती	-15026
पेक्षाही	-15027
▁खरेदीसाठी	-15028
▁प्रॉप	-15029
▁अंगणवाडी	-15030
▁घडलेल्या	-15031
ंतरी	-15032
▁माणु	-15033
▁करूंगा	-15034
▁आयुक्तांनी	-15035
▁शोभ	-15036
▁समापन	-15037
▁भावनिक	-15038
▁एमआयडीसी	-15039
▁सांगताना	-15040
▁प्रशिक्षित	-15041
▁sa	-15042
▁पाचन	-15043
▁बेटियों	-15044
▁फते	-15045
▁इथून	-15046
▁डिप्लो	-15047
▁सवा	-15048
स्पति	-15049
▁घालण्यात	-15050
स्स	-15051
▁मनः	-15052
▁सिपाही	-15053
▁लिप	-15054
ीलैंड	-15055
▁time	-15056
▁अफगाणि	-15057
▁वातावर	-15058
▁यांसारख्या	-15059
▁माणुस	-15060
▁अंग्रेजों	-15061
▁संग्रहालय	-15062
व्	-15063
ंथन	-15064
िस्त	-15065
▁प्रॉड	-15066
▁गांभीर	-15067
▁पुत्री	-15068
▁अनावश्यक	-15069
▁मीच	-15070
▁गुहा	-15071
विण्या	-15072
▁असाही	-15073
▁थोरात	-15074
▁वसूली	-15075
क्रांती	-15076
▁मुश्कि	-15077
मज	-15078
▁1.5	-15079
▁प्रमाणित	-15080
▁४३	-15081
▁सक्	-15082
वलेला	-15083
▁जोडून	-15084
▁समजूत	-15085
▁असंतोष	-15086
गृहा	-15087
▁वायू	-15088
पद्धती	-15089
▁नागरिकांची	-15090
स्ति	-15091
▁त्रिपुरा	-15092
▁काँग्रेसला	-15093
▁वर्षापूर्वी	-15094
काही	-15095
ष्टात	-15096
▁किले	-15097
▁घेणं	-15098
▁सर्टि	-15099
▁अयोग्य	-15100
▁रामनाथ	-15101
▁इस्लामिक	-15102
▁पेल	-15103
▁चालते	-15104
▁शेअर्स	-15105
▁ठरतो	-15106
▁मागून	-15107
▁राहण्यासाठी	-15108
गामी	-15109
▁उन्नत	-15110
लयाच्या	-15111
▁फोरम	-15112
so	-15113
▁कैफ	-15114
▁बुलंद	-15115
▁असायचा	-15116
▁बहरहाल	-15117
▁प्रतिबि	-15118
▁संभाव्य	-15119
▁साहजिकच	-15120
be	-15121
करीता	-15122
▁मर्जी	-15123
▁राखून	-15124
▁साक्षर	-15125
▁परामर्श	-15126
▁दृष्टिकोन	-15127
▁पहलुओं	-15128
▁निभ	-15129
▁पनीर	-15130
▁पूछने	-15131
▁पौर्ण	-15132
▁पड़ेगी	-15133
▁ऐकत	-15134
▁पेयजल	-15135
▁पदाधिकारियों	-15136
▁एंज	-15137
▁काटा	-15138
▁पडद्यावर	-15139
▁प्रोफेशन	-15140
सेफ	-15141
▁येता	-15142
▁सुदै	-15143
▁अभिवादन	-15144
▁दूरसंचार	-15145
▁निर्मल	-15146
▁उतरले	-15147
▁खालच्या	-15148
▁अधिवेशनात	-15149
▁तपकिरी	-15150
▁ह्याची	-15151
णीचे	-15152
▁घायलों	-15153
▁परिधान	-15154
मोक	-15155
विच	-15156
डच्या	-15157
▁high	-15158
▁कपड़ा	-15159
▁रेटिंग	-15160
▁उपमहापौर	-15161
ूख	-15162
▁४१	-15163
▁नेताजी	-15164
▁82	-15165
▁कारक	-15166
▁हिरो	-15167
▁फ्रेम	-15168
▁सस्ते	-15169
▁उपलब्धि	-15170
▁अभिभाव	-15171
▁मुम्बई	-15172
▁यथार्थ	-15173
▁निर्माताओं	-15174
▁2003	-15175
▁ढी	-15176
घाती	-15177
क्रमे	-15178
ड्यात	-15179
▁चिपळ	-15180
▁माथे	-15181
▁बोलाय	-15182
▁बोलावून	-15183
तेवर	-15184
ध्दी	-15185
▁टोप	-15186
▁आंगन	-15187
▁टोपी	-15188
▁कमीशन	-15189
ऱ्यांच्या	-15190
▁जब्त	-15191
▁मिथुन	-15192
▁डिक	-15193
ौड़	-15194
▁नहर	-15195
▁एकंद	-15196
▁नग्न	-15197
▁पॉइंट	-15198
▁मच्छी	-15199
▁हुशार	-15200
▁पकड़ने	-15201
▁संघटनांनी	-15202
सिअस	-15203
▁sing	-15204
▁आंकड़ा	-15205
▁ईमानदारी	-15206
▁असी	-15207
▁बर्थ	-15208
▁विषा	-15209
▁आंखें	-15210
▁दुल्ह	-15211
▁उदाहरणे	-15212
▁एलि	-15213
▁मीन	-15214
केश्वर	-15215
▁आश्रय	-15216
▁तासात	-15217
▁डोंबिवली	-15218
▁पालकांनी	-15219
▁साद	-15220
▁फटाके	-15221
▁तोंडात	-15222
▁विनिमय	-15223
▁गेंदबाजी	-15224
▁प्रयत्नशील	-15225
▁अमल	-15226
▁छिपा	-15227
▁दुग्ध	-15228
▁अश्विन	-15229
▁एसएमएस	-15230
▁झि	-15231
▁बाळाला	-15232
▁केंद्रे	-15233
▁विवादित	-15234
▁निर्देशांक	-15235
▁उपअ	-15236
itter	-15237
▁दगडफेक	-15238
▁मानसून	-15239
▁पालकांना	-15240
▁रवै	-15241
▁कराल	-15242
▁बकवास	-15243
▁प्रोफाइल	-15244
▁गोव्यातील	-15245
▁इनको	-15246
▁केमिक	-15247
▁अन्वेषण	-15248
टकी	-15249
▁फ़ै	-15250
▁बंट	-15251
▁टेम्	-15252
▁वर्षाचा	-15253
▁रिकॉर्डर	-15254
▁संकेतस्थळावर	-15255
▁लोण	-15256
▁कामं	-15257
▁मोठमो	-15258
▁क्राइम	-15259
▁पदोन्न	-15260
▁सदस्यता	-15261
▁कारकिर्दी	-15262
▁विद्यापीठात	-15263
ka	-15264
▁बसे	-15265
वाहिनी	-15266
▁हेल्प	-15267
▁राहिलो	-15268
▁सिलसिले	-15269
▁मैनेजमेंट	-15270
▁br	-15271
▁अमरीकी	-15272
▁केल्याप्रकरणी	-15273
ेक्स	-15274
▁लाना	-15275
▁करीबी	-15276
▁जिंकून	-15277
▁पूर्वज	-15278
▁रिपोर्ट्स	-15279
ूँगा	-15280
▁ईसाई	-15281
▁चंद्रपूर	-15282
▁पत्रकारांशी	-15283
केन	-15284
▁देसी	-15285
▁नारळ	-15286
▁बहीण	-15287
▁व्हाइट	-15288
▁आब	-15289
▁कापड	-15290
▁चिकट	-15291
▁शीतल	-15292
▁इंतजाम	-15293
▁जापानी	-15294
▁मौजूदगी	-15295
▁सांप्रदायिक	-15296
cal	-15297
▁बसू	-15298
▁आणण्यात	-15299
▁करतांना	-15300
▁सहानु	-15301
्यामुळे	-15302
▁125	-15303
▁जायची	-15304
▁राहता	-15305
▁महासागर	-15306
ंभी	-15307
्रय	-15308
▁फेड	-15309
▁सीम	-15310
▁फीसद	-15311
▁लाँच	-15312
▁महीना	-15313
ण्डल	-15314
▁mobile	-15315
▁लाईव्ह	-15316
▁पुनर्वसन	-15317
▁इजाजत	-15318
▁ब्लाक	-15319
▁सप्लाई	-15320
▁रविंद्र	-15321
ारीत	-15322
▁हनी	-15323
▁स्टॅ	-15324
त्त्वा	-15325
▁प्लॅन	-15326
▁रंगों	-15327
नाई	-15328
▁काठी	-15329
▁तितकी	-15330
▁बलिदान	-15331
▁बादशाह	-15332
तांत्रिक	-15333
▁सांप	-15334
▁स्वभा	-15335
▁पडल्या	-15336
▁बिझनेस	-15337
▁आफ्रिके	-15338
अरिंग	-15339
▁अहंकार	-15340
▁दक्षिणी	-15341
कती	-15342
▁औरंग	-15343
▁कुरु	-15344
▁महिमा	-15345
▁पावसाच्या	-15346
▁नियमानुसार	-15347
▁प्रतिस्पर्धी	-15348
▁बेंच	-15349
▁जंगली	-15350
▁माणिक	-15351
▁विज्ञाना	-15352
▁तकरीबन	-15353
▁प्रायः	-15354
▁शॉट	-15355
▁जोपास	-15356
▁कालखंड	-15357
▁चिदंबरम	-15358
▁ठेवी	-15359
▁94	-15360
▁नाराजगी	-15361
▁नोटिफिकेशन	-15362
▁सस्ता	-15363
▁शिक्षित	-15364
▁एमपी	-15365
▁सीडी	-15366
▁लिहित	-15367
▁भाषांतर	-15368
▁देशभरातील	-15369
▁दोघांच्या	-15370
▁द्विपक्षीय	-15371
▁नाहि	-15372
र्निया	-15373
▁इतरही	-15374
▁बहनों	-15375
▁हेलिक	-15376
▁अस्तित्	-15377
▁nc	-15378
ाजनक	-15379
▁डीजी	-15380
ळले	-15381
देशक	-15382
▁बिछ	-15383
▁खांब	-15384
▁पप्प	-15385
▁जलवायु	-15386
▁पिण्याच्या	-15387
▁xx	-15388
▁मॅच	-15389
▁गाजर	-15390
▁अटलजी	-15391
▁गीतों	-15392
▁बनाती	-15393
प्राप्त	-15394
▁अर्धवट	-15395
▁मिळण्याची	-15396
▁आषा	-15397
बाजार	-15398
▁इसने	-15399
▁लेखिका	-15400
▁माऊ	-15401
▁वारे	-15402
▁शिंग	-15403
▁फ्लैट	-15404
▁ढो	-15405
▁अलं	-15406
▁सेठ	-15407
▁बनाएं	-15408
▁समन्वयक	-15409
▁उमेदवारांना	-15410
नाट	-15411
▁समता	-15412
▁उल्हा	-15413
▁गुंता	-15414
▁सम्मिल	-15415
▁ससुराल	-15416
▁सिमेंट	-15417
रचना	-15418
▁आस्	-15419
▁ख्वा	-15420
▁बनली	-15421
▁तकलीफ	-15422
▁मौलिक	-15423
▁डोंगरा	-15424
▁सालाना	-15425
▁एकंदरीत	-15426
▁रोहन	-15427
▁अभयार	-15428
▁पाहतो	-15429
म्पिक	-15430
▁आपणच	-15431
▁स्ना	-15432
▁खेतों	-15433
▁मिडिया	-15434
▁कलाकृती	-15435
▁पक्षप्रमुख	-15436
साइज	-15437
▁खेली	-15438
साल	-15439
▁शोष	-15440
▁आपरा	-15441
▁न्यायिक	-15442
▁विचारसर	-15443
▁निदेशालय	-15444
एफसी	-15445
▁बडी	-15446
▁डावी	-15447
▁तेज़	-15448
▁व्यय	-15449
▁फाऊंड	-15450
▁ट्रॉफी	-15451
▁संतुलित	-15452
▁म्हणायला	-15453
▁संसाधनों	-15454
▁चित्रण	-15455
▁हालाँकि	-15456
▁महिन्यांपूर्वी	-15457
▁तांदूळ	-15458
▁षड	-15459
ावीत	-15460
▁port	-15461
▁रचनात्मक	-15462
▁लोका	-15463
▁सुगंध	-15464
▁ye	-15465
लोकन	-15466
▁हल्ले	-15467
▁नियोजित	-15468
▁बीए	-15469
▁महिंद्रा	-15470
▁मऊ	-15471
▁नाश्ता	-15472
▁तिसर्या	-15473
▁तर्	-15474
न्सिल	-15475
▁सिंहा	-15476
▁गतवर्षी	-15477
▁पूर्णिमा	-15478
▁संपुष्टात	-15479
▁mot	-15480
तेमुळे	-15481
▁द्यायचा	-15482
▁सदस्यीय	-15483
▁पेशा	-15484
▁झालेलं	-15485
▁उपचुनाव	-15486
▁सोडण्यात	-15487
मुच	-15488
मधली	-15489
▁कोष	-15490
डक्या	-15491
▁ईस्ट	-15492
▁जूते	-15493
▁दारु	-15494
▁लिहाजा	-15495
▁द्विवेदी	-15496
रीचे	-15497
ावरुन	-15498
▁राशन	-15499
▁तुषार	-15500
▁सहजपणे	-15501
▁सृष्टि	-15502
ृत्व	-15503
▁अपूर्ण	-15504
▁sk	-15505
▁गरजा	-15506
▁अनुच्छेद	-15507
▁सांगायचे	-15508
▁तमा	-15509
▁सूजन	-15510
▁किस्मत	-15511
▁चैनलों	-15512
▁mas	-15513
▁अनू	-15514
▁पंख	-15515
्यांपैकी	-15516
▁पड़ते	-15517
▁लैपटॉप	-15518
▁चेन	-15519
▁लहस	-15520
▁that	-15521
▁सराहना	-15522
▁टाकण्यात	-15523
ऱ्याचा	-15524
▁महाडिक	-15525
▁सुवर्णपदक	-15526
मोज	-15527
श्यप	-15528
▁साच	-15529
▁रमन	-15530
▁तोडून	-15531
▁साझेदारी	-15532
▁श्रीनिवास	-15533
ार्स	-15534
▁bjp	-15535
▁दुष्काळी	-15536
▁हरिद्वार	-15537
▁ढग	-15538
▁वगैर	-15539
संचालन	-15540
▁नदियों	-15541
▁सांगायला	-15542
ावरच	-15543
▁आंस	-15544
▁बबन	-15545
▁हिस	-15546
▁छुट्ट	-15547
▁ग्रस्त	-15548
▁राजमार्ग	-15549
ऱया	-15550
एनजी	-15551
▁मूवी	-15552
▁वाढून	-15553
▁सेकंद	-15554
▁मिसळून	-15555
▁किताबें	-15556
▁खडक	-15557
▁जाड	-15558
▁अमृता	-15559
▁त्वचे	-15560
▁मानकर	-15561
▁मारला	-15562
▁असायचे	-15563
▁दिसणार	-15564
▁शिष	-15565
▁पुरेशी	-15566
▁गावांमध्ये	-15567
▁93	-15568
▁नळ	-15569
iness	-15570
ांत्य	-15571
▁विकासाच्या	-15572
▁ओठ	-15573
▁शिबिर	-15574
▁पेन्शन	-15575
▁मुंबईः	-15576
▁अदर	-15577
▁फाशी	-15578
▁अवॉर्ड	-15579
्यांमधील	-15580
▁पंचायती	-15581
वेकर	-15582
▁१९२	-15583
▁परवा	-15584
▁कॅम्प	-15585
▁विपणन	-15586
▁मामूली	-15587
▁सीरियल	-15588
▁कबुली	-15589
▁ज्वारी	-15590
▁गायत्री	-15591
▁त्याच्याशी	-15592
गिर	-15593
एनएस	-15594
▁sec	-15595
▁दृढ	-15596
▁जमीनी	-15597
▁बोलायला	-15598
▁तिरु	-15599
गट	-15600
▁किशन	-15601
▁गटातील	-15602
▁पुरेसा	-15603
▁इंडेक्स	-15604
▁अर्थशास्त्र	-15605
▁हिन्दुस्तान	-15606
▁वासु	-15607
▁trans	-15608
▁अपक्ष	-15609
▁पकडले	-15610
▁स्विकार	-15611
▁कम्प्यूटर	-15612
चक्र	-15613
▁हुकूम	-15614
▁निर्बंध	-15615
▁नम्र	-15616
षदे	-15617
▁१९१	-15618
व्यवस्थे	-15619
▁गडचिरोली	-15620
▁४४	-15621
▁link	-15622
▁गहरे	-15623
▁स्वे	-15624
▁रुग्णांना	-15625
▁शाळांमध्ये	-15626
कुंड	-15627
▁अमुक	-15628
▁चर्चित	-15629
▁आपराधिक	-15630
▁प्रोसेस	-15631
▁संरक्षक	-15632
▁ठरलेल्या	-15633
▁नसल्याचा	-15634
▁वर्षांनंतर	-15635
डेड	-15636
▁जतन	-15637
▁दापो	-15638
▁ट्रिप	-15639
▁सिंगापुर	-15640
▁एथ	-15641
▁सटीक	-15642
▁स्वरुपात	-15643
▁तबा	-15644
▁आजोब	-15645
▁असमर्थ	-15646
▁कुलगुरू	-15647
ond	-15648
द्दा	-15649
▁बनवले	-15650
▁नियामक	-15651
▁दुकानों	-15652
▁अनुक्रमे	-15653
▁एमएस	-15654
▁शिफ्ट	-15655
यह	-15656
▁दलाच्या	-15657
▁धर्मनिरपेक्ष	-15658
▁अभंग	-15659
चेही	-15660
▁उठाना	-15661
▁स्वीकृत	-15662
▁फाऊंडेशन	-15663
दानी	-15664
▁मूक	-15665
▁गव्ह	-15666
▁फाटा	-15667
▁हरित	-15668
ानगर	-15669
▁पुढचा	-15670
▁किशोरी	-15671
▁मुन्ना	-15672
▁महासंघा	-15673
▁मतदाताओं	-15674
▁पोलिसांकडून	-15675
▁पंकजा	-15676
▁संशया	-15677
पदासाठी	-15678
▁कामयाबी	-15679
जीवी	-15680
तोड	-15681
▁id	-15682
▁टमा	-15683
▁मुसळ	-15684
▁सागरी	-15685
▁हमलावर	-15686
▁वाहनांची	-15687
▁सेल्सिअस	-15688
▁स्त्रियों	-15689
▁शुभकामनाएं	-15690
हद	-15691
▁सहका	-15692
▁गर्दन	-15693
▁बताये	-15694
▁साम्य	-15695
▁दुर्गम	-15696
▁देणार्या	-15697
ँक	-15698
च्याच	-15699
▁स्थलों	-15700
▁इंटरनॅशनल	-15701
ुष	-15702
ruit	-15703
▁पिच	-15704
पत्रिका	-15705
ांगण	-15706
▁अंकल	-15707
▁इथेच	-15708
▁भेजी	-15709
कासाठी	-15710
▁अधिकच	-15711
्विक	-15712
▁जनजाति	-15713
▁pradesh	-15714
▁दिसायला	-15715
▁अनिश्चित	-15716
मराह	-15717
▁पैनल	-15718
▁इंस्पेक्टर	-15719
▁परेशानियों	-15720
▁चाँ	-15721
▁नुस्	-15722
▁निशाने	-15723
▁तुम्हांला	-15724
▁सुरवातीला	-15725
▁सेवानिवृत्त	-15726
▁पाकिस्तानच्या	-15727
र्जन	-15728
ल्मी	-15729
▁डिफ	-15730
▁माथ	-15731
▁पठार	-15732
▁एग्जाम	-15733
▁काउंसिल	-15734
रेकर	-15735
▁सुचना	-15736
▁दरा	-15737
▁पहलू	-15738
▁प्रहार	-15739
▁लक्षणीय	-15740
▁कॉर्पोरेट	-15741
▁फ़र	-15742
▁टीके	-15743
▁एकंदर	-15744
▁फैक्ट	-15745
ाजा	-15746
▁दवाओं	-15747
▁कुणीतरी	-15748
▁वेगवेगळी	-15749
uck	-15750
र्या	-15751
▁हता	-15752
aipur	-15753
▁अंडे	-15754
▁पाईप	-15755
▁सतह	-15756
ऱ्याचे	-15757
▁गळ्यात	-15758
▁वैवाहिक	-15759
▁आजूबाजूला	-15760
▁परिस्थिति	-15761
▁nove	-15762
▁मौर्य	-15763
▁प्रकरणातील	-15764
इनरी	-15765
दर्भा	-15766
▁पोटा	-15767
▁पिस्त	-15768
▁परिभाषा	-15769
▁उजवी	-15770
▁जुटा	-15771
▁म्है	-15772
▁करीना	-15773
▁बक्षीस	-15774
▁android	-15775
▁सहाय्याने	-15776
गान	-15777
▁कागज	-15778
▁एकाग्र	-15779
▁भाजपची	-15780
ेचा	-15781
▁गळा	-15782
▁लों	-15783
▁कॉमेडी	-15784
▁दिखाते	-15785
▁ह्याचा	-15786
▁स्वप्ना	-15787
नेत	-15788
▁धाडस	-15789
▁नसले	-15790
▁नांद	-15791
▁वायरस	-15792
▁वेगवान	-15793
णून	-15794
▁छळ	-15795
▁hel	-15796
▁संवैधानिक	-15797
ुळ	-15798
psc	-15799
बला	-15800
▁टच	-15801
▁तें	-15802
▁एटीएस	-15803
▁दूंगा	-15804
▁हेतूने	-15805
▁सांगणार	-15806
▁दिल्याचे	-15807
ंकू	-15808
सरे	-15809
▁ख़ुद	-15810
▁तेव्ह	-15811
▁निर्देशित	-15812
▁रेल्वेच्या	-15813
▁दाभ	-15814
▁पाद	-15815
वाड़ी	-15816
▁सुल्तान	-15817
▁pe	-15818
▁आकांक्षा	-15819
▁देणगी	-15820
▁वडिलांनी	-15821
▁हव	-15822
▁एपी	-15823
▁मोन	-15824
▁फायद्या	-15825
bo	-15826
▁61	-15827
च्छे	-15828
▁खंत	-15829
▁उपभोग	-15830
▁तरुणाई	-15831
▁दरवाढी	-15832
▁दुप्पट	-15833
▁समाजाने	-15834
▁प्रदेशातील	-15835
▁चुर	-15836
▁वाचत	-15837
▁पोर्तु	-15838
बुल	-15839
garh	-15840
▁फोकस	-15841
▁दुष्का	-15842
▁सोमनाथ	-15843
▁सांसदों	-15844
▁प्रॉपर्टी	-15845
▁दृढ़	-15846
▁न्यु	-15847
▁खुर्ची	-15848
▁श्वेता	-15849
▁फोनवर	-15850
▁वाटतात	-15851
▁मुलाखती	-15852
▁कंस	-15853
▁सम्मिलित	-15854
क्टे	-15855
▁आमंत्रण	-15856
▁गर्भा	-15857
▁हिरवा	-15858
▁विदेशों	-15859
[...]
