▁.	7278809
▁,	3123837
▁आहे	1669306
▁आणि	998855
▁या	900585
▁-	574584
▁व	507581
▁नाही	499210
च्या	480326
▁हे	465219
▁आहेत	418994
च	408207
▁तर	401702
▁ते	397644
ला	371091
▁)	360249
चा	351114
▁होते	344000
चे	340919
ही	336093
▁(	335788
▁एक	331392
ची	328280
▁हा	310028
▁'	298347
▁यांनी	286931
▁पण	284781
▁काही	266973
▁असे	266389
▁ही	260470
▁केली	245894
▁त्या	244889
ने	241054
▁‘	240131
मध्ये	230101
’	227892
▁मी	224401
▁?	222946
▁की	220693
▁होती	212017
▁केले	210774
▁"	206359
▁होता	206239
▁करण्यात	200865
▁तो	192610
▁केला	188813
▁!	185070
▁करून	182777
वर	171844
▁म्हणून	168783
▁आले	166357
त	165456
▁आपल्या	164406
▁त्यामुळे	158990
▁आता	154999
▁त्यांनी	154819
▁मात्र	154803
स	152921
▁झाली	148039
▁ती	146973
▁झाले	144126
▁का	141708
▁सर्व	140669
▁असून	138970
▁म्हणजे	137771
▁अशी	137359
▁एका	136856
▁काय	136757
▁मला	135619
▁आली	131332
▁झाला	131019
▁	130692
▁दोन	129148
साठी	129082
▁किंवा	128370
▁यांच्या	128037
ात	127445
▁अनेक	127213
▁काम	126394
▁त्यांना	125124
▁असा	124821
▁त्यांच्या	124655
ली	123572
▁सुरू	123399
▁आपण	123079
▁होत	121210
ले	121115
▁न	120829
▁माहिती	118683
▁तरी	118054
▁अशा	116569
▁आला	115820
ं	114861
▁तसेच	109366
▁आज	108032
▁:	107337
क	106298
ता	105325
▁करत	103521
▁मध्ये	101283
तील	101127
चं	95517
▁असते	94490
▁दिली	93474
▁येथे	93193
▁त्याला	91724
▁असेल	90885
▁कमी	89941
ांच्या	89461
शी	87995
ल्या	87821
▁जात	87281
▁असलेल्या	86086
▁/	85381
▁मग	84246
▁विचार	83953
ून	83417
वा	83308
कडे	82944
म	82508
ावर	82033
▁येत	81659
ड	80628
ू	80058
▁आम्ही	79856
ळ	79396
ना	79116
▁येथील	78606
कर	78106
▁हजार	77881
णे	77288
न	77261
▁कारण	77251
ांना	77146
मुळे	76303
▁माझ्या	74567
▁घेऊन	74528
▁त्याच्या	74241
ांनी	73936
▁असं	73926
पासून	72868
ातील	72570
▁;	72225
ल	72016
व	71630
▁तयार	70993
प	70868
ण	70858
▁सांगितले	70819
ांची	70312
▁करण्यासाठी	70086
▁यांना	69421
य	69052
्या	68689
▁प्रयत्न	68652
▁अधिक	68356
▁पाणी	68166
▁डॉ	67912
▁नाहीत	67857
▁तीन	67261
▁तेव्हा	67248
▁जे	66880
▁असल्याचे	66050
ते	65793
▁ना	65646
▁दिले	65445
ांचा	65344
▁त्यात	65162
▁होतो	64847
▁जाते	64315
▁विविध	64257
▁लोक	64107
▁इतर	63560
▁होणार	63029
ट	62673
▁पोलिस	62602
ांचे	61966
▁असतात	61927
▁निर्माण	61585
▁पुढे	61392
▁दिला	61078
▁करणे	60662
र	60639
▁प्रश्न	60556
ज	60527
▁जास्त	60471
▁वाढ	60195
▁पाटील	59884
▁मुंबई	59402
लं	59310
▁पुन्हा	59119
▁तुम्ही	58639
▁भारतीय	58634
▁झालेल्या	58509
▁पूर्ण	58406
▁गेल्या	58382
ु	58254
▁ह्या	58227
▁खूप	57862
▁अ	57831
▁असल्याने	57692
ातून	57337
▁असतो	57325
▁मराठी	57208
▁राज्य	56729
▁वापर	56451
री	56246
पर्यंत	56215
ंना	56213
द	56187
▁प्रत्येक	56159
▁करू	55666
▁दिवस	55663
▁परंतु	55661
▁म्हणाले	55615
▁वर	55558
▁येणार	55419
▁निर्णय	55194
▁होतं	54952
▁लाख	54905
▁फक्त	54560
ंच्या	54498
मधील	54425
का	54312
ो	54108
डी	54038
▁असताना	53972
ती	53854
▁गेले	53738
▁देण्यात	53656
▁नाव	53550
▁होईल	53212
▁च्या	53140
ब	53023
ग	52530
▁यावेळी	52254
▁बंद	52221
लेल्या	52150
▁त्याचा	52092
▁त्याने	51859
▁चार	51845
▁दाखल	51449
या	51338
ुन	51321
▁वेळ	51112
▁जिल्हा	50996
▁“	50976
▁ला	50920
▁वा	50918
▁करता	50760
▁मोठ्या	50471
▁आपल्याला	50041
▁केवळ	49989
▁ठिकाणी	49988
▁त्यानंतर	49861
▁श्री	49402
रा	49128
▁घेतला	48491
▁स	48423
▁भाग	48419
▁आ	48304
▁रुपये	48191
▁मागणी	48150
▁ज्या	47867
▁सध्या	47744
के	47538
तात	47271
▁त्यांची	47159
▁ता	47144
नी	47089
ळे	46667
▁व्यक्त	46553
णी	46488
▁त्याची	46346
डे	46291
▁त्यांचे	46236
▁उपलब्ध	45818
▁कोटी	45786
सा	45656
े	45641
ंची	45635
डा	45621
▁कधी	45600
▁येईल	45358
▁केलेल्या	45242
ंचा	45179
▁पाच	45067
▁बाहेर	45027
▁रोजी	44911
▁पुणे	44859
▁दर	44776
मा	44664
▁यांची	44612
▁जर	44156
▁टक्के	44089
नं	43928
▁१	43839
▁करीत	43793
ः	43727
ि	43449
▁सुरु	43288
▁अगदी	43281
▁घेतली	43145
▁बस	43062
▁उत्तर	42977
▁यात	42794
तो	42775
▁करण्याची	42540
▁दरम्यान	42398
णार	42379
▁कि	42248
▁पाहिजे	42212
▁उपस्थित	42211
▁–	42152
▁अध्यक्ष	42149
▁राज	42103
▁नवीन	42095
▁इ	42067
रे	42063
▁शिक्षण	41995
▁२	41879
▁यासाठी	41877
▁ने	41870
▁होऊ	41806
▁करतात	41772
▁आमच्या	41720
▁सरकार	41710
▁अधिकारी	41592
▁प	41401
▁नंतर	41379
ंनी	41322
▁वेळी	41292
लेले	41252
▁करा	41232
णा	41126
सह	40978
▁मदत	40851
कडून	40847
▁म	40839
▁येते	40834
▁याची	40797
से	40696
▁महाराष्ट्र	40696
▁चर्चा	40589
▁तिला	40469
▁त्याचे	40449
▁दोन्ही	40445
▁दि	40249
▁गोष्टी	39906
▁किती	39792
▁सु	39788
▁तिच्या	39563
ाव	39550
▁देखील	39517
▁यांचे	39505
▁तुम्हाला	39216
फ	39122
▁चाल	38979
▁त	38909
ळी	38876
▁>	38650
्यात	38511
▁काळात	38464
▁करताना	38223
▁आपले	38200
▁परत	38164
▁याचा	38079
▁त्यांचा	38070
▁ग	38017
वे	37992
टी	37960
▁वि	37951
▁करुन	37860
▁लागले	37822
ळा	37587
श	37489
▁विशेष	37473
▁क	37471
्यांच्या	37396
▁नि	37382
▁चा	37343
की	37263
ण्याचा	37210
ंचे	37192
▁वाट	37065
तून	37035
▁आवश्यक	37028
▁प्रकार	36946
▁यांचा	36933
▁जातो	36916
▁विकास	36906
▁भर	36903
लेली	36713
ण्याची	36707
▁योग्य	36704
▁लक्षात	36630
ांवर	36547
▁भेट	36438
लेला	36410
▁गेली	36326
▁मुख्य	36243
▁देत	36219
ां	36216
▁ब	36141
▁गरज	36114
पणे	36111
िक	35983
▁करण्याचा	35981
▁।	35952
बद्दल	35921
▁नये	35837
▁आर्थिक	35745
▁पोलीस	35630
▁द	35612
▁सरकारने	35520
▁गेला	35365
▁लक्ष	35363
ण्यात	35359
▁महिला	35354
▁’	35229
▁राजकीय	35068
▁घटना	34992
▁तुमच्या	34953
▁ज	34937
ख	34866
▁कर	34762
▁केंद्र	34755
▁स्पष्ट	34620
▁आपली	34568
नंतर	34551
▁पोलिसांनी	34546
ण्या	34531
▁रा	34474
▁जी	34414
दा	34394
▁जागा	34359
▁होत्या	34359
▁घेत	34341
ंत	34288
ण्यासाठी	34204
▁फार	34202
▁यामुळे	34195
वरून	34119
▁माजी	33990
▁करणार	33929
▁मोठा	33788
▁३	33741
...	33721
ताना	33669
▁जाणार	33557
▁दिवशी	33520
▁घर	33490
▁बदल	33399
▁त्यासाठी	33351
▁आई	33339
▁मे	33298
▁सकाळी	33290
झ	33285
▁एकदा	33248
्य	33204
▁मोदी	33131
▁चित्रपट	33123
ांत	33106
▁आमदार	32907
▁१०	32895
▁अर्थ	32862
▁करतो	32837
▁व्यक्ती	32801
▁मुख्यमंत्री	32783
▁शेतकरी	32697
ित	32656
▁के	32501
▁रात्री	32465
▁शकतो	32376
ह	32368
▁आलेल्या	32305
ांमध्ये	32177
▁होऊन	32044
▁हात	32038
▁शक्यता	32014
▁त्यावर	32004
▁भारत	31991
▁जो	31949
▁याच	31878
▁जातात	31835
ावे	31831
▁जाहीर	31762
▁लेख	31721
▁शब्द	31714
्यांना	31642
▁ह	31626
पा	31616
▁कारवाई	31542
ंग	31508
▁प्रमाणात	31481
वी	31458
▁५	31369
ई	31357
▁लागली	31344
लो	31286
दार	31208
▁सर्वात	31154
▁खेळ	31131
▁सुरुवात	31063
▁घरी	31010
▁पक्ष	30785
▁आपला	30757
▁समोर	30727
▁आनंद	30715
▁प्रमुख	30681
▁घेतले	30582
्	30500
▁लहान	30464
बाबत	30422
▁पार	30397
न्स	30280
▁देश	30247
▁योजना	30148
िंग	30109
▁मा	30105
▁र	30103
▁संपूर्ण	30096
▁लागला	30056
▁अनुभव	29957
▁1	29908
▁उ	29905
▁भ	29891
▁ख	29884
▁करावी	29824
जी	29797
पेक्षा	29623
्याच्या	29473
▁इथे	29326
▁पैसे	29262
▁मोठी	29180
▁भूमिका	29179
▁सुमारे	29166
▁शोध	29155
▁सेवा	29120
▁ए	29116
▁खरेदी	29099
▁केलं	29034
▁राष्ट्रीय	28993
अ	28886
▁प्रवेश	28864
▁देव	28823
▁वर्षे	28812
▁शिक	28781
टे	28723
गा	28643
▁हि	28636
र्	28613
▁पहिल्या	28576
▁४	28525
▁पा	28417
▁मार्ग	28411
▁आय	28361
▁करावा	28318
▁भाजप	28288
▁गोष्ट	28282
वून	28257
्यांनी	28253
▁हो	28222
▁तिथे	28212
▁शकते	28156
▁सामाजिक	28124
▁भागात	28050
वि	27976
णाऱ्या	27942
▁लोकांना	27915
णारे	27788
▁रंग	27776
▁पवार	27715
▁स्वतः	27686
▁समावेश	27680
▁खर्च	27663
▁जाऊन	27653
▁ल	27647
वरील	27644
▁तू	27635
▁आणखी	27557
मी	27492
▁सहा	27480
▁देऊन	27446
▁आहोत	27355
▁समाज	27339
▁दिसत	27332
▁करायला	27307
▁पंतप्रधान	27303
गाव	27195
▁मागे	27154
ेत	27151
▁कु	27133
▁ओ	27045
णं	27009
थ	26993
मधून	26970
ार	26961
▁प्र	26862
▁माध्यमातून	26852
▁केल्या	26813
ॅ	26769
▁माझा	26754
▁काळ	26727
्यांची	26636
▁2	26568
▁आदेश	26547
्यांचा	26460
▁आरोप	26439
▁कोणत्याही	26405
▁आधी	26397
▁म्हटले	26328
▁सा	26281
▁”	26271
▁अभ्यास	26252
▁परिणाम	26182
▁च	26130
▁संधी	26104
▁मनात	26058
▁करावे	26046
्यावर	26022
▁करण्याचे	26017
▁शहर	25915
▁आम्हाला	25871
▁बा	25839
▁अर्ज	25833
▁सादर	25808
▁याबाबत	25776
ें	25764
▁जेव्हा	25755
वत	25754
कार	25729
स्	25675
प्रमाणे	25592
▁एकूण	25560
▁कार्यक्रम	25538
▁एखाद्या	25518
भ	25494
▁उच्च	25418
▁ठर	25413
▁चित्र	25374
▁निवड	25336
▁येतो	25310
▁अन्य	25293
▁काँग्रेस	25273
्याची	25254
▁असता	25237
शा	25230
▁मित्र	25228
्याने	25202
▁कसे	25073
▁वाटत	25065
▁दूर	24987
▁मन	24947
▁लागेल	24885
बा	24880
▁दहा	24872
टा	24845
▁जा	24844
▁कार	24843
▁रु	24843
▁एस	24808
पणा	24792
▁आदी	24754
▁विजय	24743
▁माझी	24707
▁चे	24676
▁त्याच	24614
▁ऑफ	24610
ध	24589
पी	24588
वाडी	24564
▁नवी	24546
▁जाईल	24540
▁वर्षी	24520
▁जि	24494
▁अत्यंत	24489
▁चालू	24475
▁प्रकल्प	24470
▁मिळत	24440
ल्याने	24398
▁दुसऱ्या	24362
प्र	24328
▁विश्वास	24316
▁सोड	24307
▁आल्या	24281
▁को	24223
▁ची	24201
▁3	24196
ण्याचे	24190
▁वगैरे	24116
▁वाच	24103
▁बी	24065
▁मान	24058
ण्यास	24047
ांसाठी	24043
▁दिल्ली	24031
▁फोन	24007
▁नेते	23990
▁रेल्वे	23966
▁असल्याची	23962
▁पुढील	23956
▁10	23950
▁श	23903
नात	23870
▁झालं	23831
व्ह	23801
▁%	23801
▁मंत्री	23801
▁मोठे	23796
s	23762
▁ओळख	23707
▁विषय	23705
▁यावर	23577
सोबत	23542
▁भारतात	23526
▁असतील	23525
▁खा	23512
▁लागते	23510
णारा	23492
▁भाव	23423
▁मिळाली	23409
▁वाटते	23372
▁मृत्यू	23366
र्स	23344
▁शक्य	23326
▁अटक	23321
्यांचे	23303
▁सर	23301
▁आरोग्य	23207
▁म्हणतात	23160
▁राम	23147
▁पाठ	23048
▁अजून	23041
▁असलेले	23030
▁सात	23025
▁मराठा	23021
ंड	23011
▁शि	23011
▁राज्यात	22993
▁घड	22992
▁अतिशय	22978
▁स्थानिक	22968
▁उत्पादन	22962
▁घरात	22951
▁घेण्यात	22917
्स	22902
▁संबंध	22868
▁परिस्थिती	22861
▁१५	22858
देखील	22799
िका	22776
्याला	22773
▁मु	22762
▁आठ	22748
▁करणाऱ्या	22740
▁दे	22719
▁कार्य	22690
▁गाव	22681
▁तिने	22678
▁संबंधित	22670
▁येतात	22666
▁वे	22666
▁पर्यंत	22635
▁शकत	22631
ण्याच्या	22624
ावी	22498
▁ई	22485
▁नव्हते	22476
▁कळ	22450
त्या	22427
▁त्यावेळी	22424
न्	22422
▁जिल्ह्यातील	22404
पूर	22403
जा	22399
ल्यावर	22389
द्वारे	22351
▁काढून	22305
▁पि	22304
▁पुरस्कार	22255
▁नोंद	22189
▁गांधी	22160
▁फोटो	22154
▁माझे	22143
▁होतात	22141
▁_	22135
▁खाली	22129
▁एकत्र	22098
सी	22096
वले	22095
▁प्रसिद्ध	22083
▁मत	22082
▁महा	22078
▁प्रेम	21955
▁२०	21950
▁तसे	21871
नुसार	21868
▁प्रमाण	21868
▁*	21852
ंद	21842
नाच्या	21836
▁झाल्या	21803
▁कृषी	21802
▁उद्योग	21801
▁धर्म	21762
▁तरीही	21750
▁]	21748
▁वर्ष	21717
▁संस्था	21674
▁पुर	21661
नि	21622
▁उत्तम	21617
▁पु	21555
▁गुन्हा	21523
▁पो	21518
▁दिलेल्या	21511
ारा	21446
▁१२	21442
▁येऊन	21437
▁सं	21381
▁सुद्धा	21351
▁तास	21347
▁जग	21328
▁संख्या	21321
▁क्षेत्रात	21305
▁जन्म	21266
▁विरोध	21263
▁कोणी	21258
▁अधिकार	21244
▁करते	21222
▁पासून	21218
▁निवडणूक	21201
ंवर	21178
▁फ	21167
▁आण	21157
▁तालुक्यातील	21141
▁विभाग	21137
▁गो	21135
▁यश	21123
▁कोण	21113
▁5	21105
▁उप	21092
ेल	21089
▁रे	21083
▁आंदोलन	21062
्याचा	21041
▁काल	21027
▁समिती	21022
मान	21018
▁दिसून	20999
▁राष्ट्रवादी	20982
▁शिव	20920
▁आर	20905
▁मो	20839
▁स्त्री	20836
▁देशात	20834
▁६	20808
▁भा	20793
मे	20787
▁साहित्य	20692
▁थेट	20605
▁कंपनी	20594
▁मि	20582
▁वाहतूक	20559
▁नव्हे	20534
सर	20511
▁नव्या	20487
▁कायम	20483
”	20476
▁चांगले	20452
▁हवा	20449
▁लाभ	20436
▁चौकशी	20413
▁राज्यातील	20413
▁गा	20393
▁शहरात	20374
▁सरकारी	20329
▁तेथे	20317
वली	20271
▁सहभागी	20260
▁साली	20256
दी	20248
▁[	20237
▁परिसरात	20217
▁वय	20212
णारी	20147
▁प्रवास	20137
▁विद्यार्थी	20135
▁बे	20084
▁मिळ	20059
▁प्रकाश	20053
▁ट	20032
▁तरुण	20023
▁प्रचंड	20012
▁शकतात	19979
बी	19964
▁तपास	19948
वला	19937
▁बन	19921
हा	19913
ा	19892
▁प्रा	19885
▁प्राप्त	19775
▁अॅ	19753
▁संप	19748
▁गंभीर	19739
▁असलेली	19722
▁आत	19706
समोर	19685
आ	19680
▁अन	19678
▁पाहून	19567
▁सी	19567
सुद्धा	19563
▁शेती	19541
▁पाय	19519
▁ये	19496
▁वेळा	19482
▁सुंदर	19467
▁असले	19452
▁नगर	19419
▁कसा	19415
▁सदस्य	19381
▁नव्हती	19377
▁ध	19372
कांनी	19331
▁4	19321
बरोबर	19309
▁यामध्ये	19308
▁नव्हता	19285
▁ड	19235
▁जाऊ	19215
▁करण्यास	19211
▁शिंदे	19201
▁घालून	19174
▁ग्रामीण	19139
▁जवळ	19121
२	19118
ल्यानंतर	19110
▁विक्री	19088
▁आलं	19077
▁शिवाजी	19069
▁कॅ	19065
▁शिवाय	19035
▁निधी	19021
▁नाशिक	18995
▁३०	18946
▁मिळाले	18937
▁अस	18935
▁याचे	18926
▁जिल्ह्यात	18910
▁सगळे	18909
ंब	18892
▁रक्कम	18882
▁शकता	18882
▁नसल्याने	18867
▁धाव	18862
▁गुण	18851
नाची	18846
▁बोल	18830
▁झालेली	18825
गे	18795
▁मार	18765
▁गाडी	18755
▁टाक	18754
▁कल्पना	18752
▁अर्थात	18736
▁बाब	18722
▁वाजता	18701
▁शाळा	18692
▁नरेंद्र	18691
▁मंदिर	18681
▁टी	18606
यला	18588
िया	18586
▁डी	18573
▁पड	18551
▁असेही	18539
▁थांब	18531
▁बघ	18525
▁लढ	18493
▁झ	18471
▁मिळाला	18469
▁हेच	18463
▁करणारे	18459
५	18450
▁प्रथम	18435
▁संघ	18409
▁त्यातून	18387
ऱ्या	18370
▁पी	18361
▁नव	18343
▁भाषा	18339
कांना	18332
घ	18320
▁जाधव	18303
▁शहरातील	18293
▁जबाबदारी	18287
▁पुरुष	18282
ढ	18238
ंच	18200
ारी	18148
ल्स	18147
▁गट	18136
▁कुठे	18098
▁मिळेल	18081
नाचा	18057
▁क्षेत्र	18045
सं	18043
▁सगळ्या	18035
▁प्रतिनिधी	18032
▁केलेली	18029
▁घट	18027
▁नोकरी	18021
▁याला	18009
हून	18001
जे	17972
▁येऊ	17955
▁घ्या	17953
▁प्रक्रिया	17952
▁असो	17943
्यांवर	17938
▁पाऊस	17921
▁कर्ज	17903
▁आयोजित	17865
ठ	17837
▁हवे	17814
▁तक्रार	17805
▁सह	17788
्याचे	17783
▁कामे	17777
▁असलेला	17764
▁माग	17730
▁खासदार	17675
▁११	17655
▁जीवन	17648
▁प्रति	17634
▁बाल	17626
▁स्थान	17618
▁संजय	17546
▁पद्धतीने	17532
▁८	17525
▁तुला	17505
▁असतं	17474
▁७	17472
▁नको	17456
▁फायदा	17449
को	17445
िस	17439
▁पदार्थ	17407
▁कशी	17396
▁2018	17346
▁लग्न	17343
१	17334
▁बोलत	17326
्र	17318
▁सांग	17318
▁केलेले	17304
▁20	17255
▁बांधकाम	17231
▁तु	17224
▁समज	17211
▁सोडून	17207
▁लागत	17203
▁मूळ	17202
पे	17180
▁उभे	17155
▁घोषणा	17127
▁त्रास	17122
कांच्या	17106
▁प्रदेश	17106
अर	17057
▁पत्रकार	17054
▁नका	17039
▁भावना	17038
ूर	17033
▁बरोबर	17029
▁तयारी	17025
▁काढ	17010
्यां	17009
४	17000
▁बि	16978
▁असल्यामुळे	16971
▁गणेश	16965
▁15	16952
▁नियम	16947
▁गावात	16945
०	16941
▁एम	16889
▁कोल्हापूर	16845
▁अप	16839
▁आवाज	16836
▁निर्मिती	16823
▁यशस्वी	16808
खा	16803
णार्या	16802
▁पत्र	16786
▁कला	16777
▁जीव	16776
▁वाद	16759
▁कर्मचारी	16746
▁मुलांना	16735
▁लि	16735
▁शे	16732
▁पर	16713
▁चव्हाण	16711
▁बाजूला	16691
▁फिर	16682
स्ट	16622
ए	16621
▁बाजार	16557
▁पर्याय	16548
▁झालेला	16542
▁शेवटी	16538
▁झाल्याने	16533
▁राहुल	16497
▁द्या	16493
व्या	16488
▁पुस्तक	16485
▁व्यवसाय	16483
▁जण	16478
▁न्यायालयाने	16458
a	16448
▁देणे	16428
▁झालेले	16421
▁देशातील	16420
▁महिन्यात	16401
३	16371
कां	16368
▁मांड	16362
ये	16357
▁हातात	16353
ंमध्ये	16334
▁उपयोग	16329
▁12	16314
्रा	16300
▁असल्याचा	16285
मो	16282
▁२५	16276
▁म्हणजेच	16269
▁महाराज	16242
▁दूध	16238
बाई	16237
▁उघड	16234
▁चांगला	16214
▁देण्यासाठी	16213
▁सतत	16199
▁केंद्रीय	16190
▁सार्वजनिक	16178
सु	16172
ल्याचे	16160
ॉ	16158
▁#	16140
▁झाल्यानंतर	16134
▁जमा	16132
खाली	16130
▁माणूस	16111
नाचे	16096
▁किंमत	16094
सारख्या	16076
▁वस्तू	16054
▁उतर	15998
भर	15996
▁मान्य	15994
६	15987
▁रोज	15980
▁अथवा	15970
▁एकाच	15962
७	15948
▁रस्त्यावर	15942
दे	15903
ळ्या	15897
▁१६	15889
▁पद	15871
▁मोबाईल	15859
कु	15848
▁नुकसान	15831
▁असणार	15817
▁साखर	15791
पण	15760
▁दुपारी	15748
▁जोड	15745
▁वेगवेगळ्या	15738
▁खास	15735
▁काहीच	15722
▁जून	15715
▁मार्च	15714
▁काळजी	15708
▁घेता	15706
▁वातावरण	15700
▁6	15692
▁मागील	15665
▁सो	15663
ुर	15642
▁वन	15632
राव	15625
▁चांगली	15603
▁जागतिक	15580
ष	15569
▁लागतो	15558
▁खरे	15556
▁ऐक	15555
ावरून	15543
▁१८	15521
▁माल	15504
▁प्रतिसाद	15502
▁आकार	15499
▁विरोधी	15491
विषयी	15473
▁मुलगा	15470
▁लागणार	15463
▁प्रयोग	15444
▁सुविधा	15438
▁कथा	15423
▁आंतरराष्ट्रीय	15410
▁सामान्य	15395
▁वतीने	15392
▁पूर्वी	15387
▁रस्ता	15365
▁समस्या	15352
▁लागू	15337
▁हाती	15332
▁वीज	15326
▁उपचार	15311
▁तब्बल	15269
▁सामना	15266
▁आधार	15242
▁इच्छा	15233
सारखे	15230
शे	15211
▁काहीही	15194
▁होण्याची	15163
▁नेहमी	15133
गी	15124
▁शिक्षक	15121
▁दु	15118
▁बांध	15110
▁साठी	15106
▁सूचना	15096
ल्यास	15071
▁गु	15057
आय	15056
▁स्व	15051
▁हवी	15028
कांची	15026
जवळ	15016
▁छान	15011
लाच	15005
▁अचानक	15001
▁जवळपास	14994
▁झोप	14992
▁ठेवून	14960
▁नक्की	14954
▁दा	14937
ंट	14910
▁सोबत	14889
▁घाल	14888
▁अंदाज	14865
▁व्यवस्था	14855
मु	14852
▁पत्नी	14838
▁सहज	14826
▁मुख्यमंत्र	14820
▁ताब्यात	14815
▁निश्चित	14805
▁पडला	14794
ल्	14784
▁11	14774
▁निवडणुकीत	14763
▁उद्या	14752
▁सत्ता	14734
▁देऊ	14720
तं	14703
▁मिळणार	14678
▁मिळते	14670
▁सुमारास	14670
▁सोशल	14636
ऊ	14631
▁राजा	14628
▁य	14625
▁ज्येष्ठ	14617
▁टीका	14608
क्	14600
▁व्या	14579
▁म्हण	14578
▁लावून	14566
८	14526
▁खान	14518
▁दक्षिण	14516
▁काहीतरी	14514
▁किमान	14505
▁फडणवीस	14501
▁जानेवारी	14495
▁संवाद	14494
▁इंग्रजी	14490
▁न्याय	14488
▁सि	14478
गड	14471
▁नागरिक	14457
▁गर्दी	14454
▁केलेला	14433
▁स्वतःच्या	14432
▁ऑनलाइन	14431
▁शिर	14426
▁एकच	14402
▁वर्षात	14396
▁व्ह	14396
▁आजच्या	14386
▁ऑगस्ट	14375
▁स्	14374
▁सर्वच	14360
▁हिंदू	14340
▁शाळेत	14339
ड्या	14332
्यांमध्ये	14320
▁सरकारच्या	14309
▁म्हणाला	14293
▁आवाहन	14292
नाला	14282
▁डॉक्टर	14280
णाच्या	14273
▁जुलै	14273
▁पोहोच	14266
▁जरा	14265
▁५०	14258
▁९	14251
▁सातारा	14237
▁स्थिती	14235
▁१७	14229
▁राष्ट्र	14228
▁वाढत	14222
▁परवानगी	14219
▁जखमी	14213
y	14207
▁मुली	14206
▁a	14186
▁परिषद	14186
▁उपक्रम	14182
▁उमेदवार	14182
▁आग	14174
▁स्वच्छ	14145
▁नसेल	14143
▁+	14136
▁अन्न	14115
मि	14108
▁संपर्क	14104
९	14102
▁खासगी	14067
▁योग	14061
▁कायदा	14053
▁पहिला	14050
▁येत्या	14038
▁तुझ्या	14034
▁सप्टेंबर	14022
▁त्यानुसार	13996
▁सांगत	13996
हि	13986
▁शिवसेना	13979
▁दिसते	13978
▁स्वतंत्र	13976
▁होणे	13963
▁राहील	13951
▁शेअर	13946
▁दिल्या	13929
ओ	13916
▁आजही	13910
▁अपेक्षा	13891
▁१४	13883
▁नोव्हेंबर	13881
▁असू	13877
▁कदाचित	13870
▁प्रस्ताव	13869
▁ज्ञान	13861
▁करायचा	13835
▁मुले	13818
▁जमीन	13816
मधे	13810
पु	13807
लि	13781
▁स्पर्धा	13778
▁सदर	13774
▁वळ	13771
▁नागपूर	13770
▁इतिहास	13758
▁एप्रिल	13757
▁विद्यार्थ	13756
िन	13751
▁नसते	13748
▁लांब	13740
▁आयुक्त	13731
पर	13728
करण	13712
▁8	13710
▁आलेले	13700
▁चांगल्या	13694
▁प्रत्यक्ष	13694
ताच	13691
▁ले	13691
▁उल्लेख	13661
▁तिचा	13655
▁न्यायालयात	13652
▁सचिन	13649
▁अजूनही	13631
काच्या	13627
▁केस	13615
शिवाय	13613
▁हर	13611
▁इंडिया	13608
▁असली	13599
ी	13597
▁सन	13595
▁दुसरा	13584
▁धु	13571
▁चि	13545
▁पोस्ट	13544
▁चढ	13536
▁महाराष्ट्रात	13529
▁सोलापूर	13528
o	13513
▁ठाकरे	13508
▁कोणत्या	13499
▁राहिले	13494
▁सोमवारी	13491
टर	13482
ळून	13481
▁जाती	13478
▁२०१८	13472
▁रि	13464
▁पूर्व	13461
▁7	13448
▁स्वीकार	13447
▁म्हणूनच	13444
▁राहणार	13415
▁आरोपी	13405
▁औरंगाबाद	13385
ील	13384
▁करण्या	13384
▁दृष्टीने	13380
रो	13367
ाने	13357
▁अखेर	13347
▁घेणे	13346
▁प्रकारे	13325
▁करायचे	13322
▁असला	13317
▁सिनेमा	13316
्री	13310
▁कविता	13307
▁सर्वाधिक	13301
▁अंतिम	13287
मन	13268
▁...	13262
▁मुलगी	13236
▁वाईट	13236
▁उठ	13218
▁करण्याच्या	13215
▁व्यवहार	13212
ायला	13207
कांचा	13192
▁पे	13189
▁दावा	13186
▁त्यातील	13182
▁हु	13177
▁बो	13175
्यु	13173
स्त	13165
▁साध	13161
▁केल्यानंतर	13158
▁सिद्ध	13155
काला	13142
▁क्रिकेट	13131
▁विरोधात	13128
▁बँक	13119
भा	13097
▁उलट	13096
▁संचालक	13090
▁यु	13087
तीच्या	13085
▁s	13058
▁जोरदार	13043
ानं	13037
▁क्रमांक	13036
▁बाजारात	13036
▁विद्यार्थ्यांना	13035
▁पाहिले	13023
▁लाल	13011
▁वर्ग	13011
▁बैठक	13010
▁शासनाने	13009
▁लोकांनी	13002
वाद	12999
▁याने	12986
नासाठी	12985
▁झाल्यावर	12982
वाला	12975
क्स	12962
▁लवकरच	12936
▁डिसेंबर	12928
▁बाबतीत	12916
▁विक	12906
▁एकदम	12897
▁से	12895
िल	12876
▁नावे	12876
▁असल्यास	12855
▁१३	12845
कांचे	12827
्रे	12819
ोर	12814
▁मते	12799
▁पडले	12791
वादी	12787
▁शासकीय	12769
▁किलो	12766
▁नदी	12759
त्	12732
▁टीम	12732
▁संघटना	12722
▁उपाय	12718
▁9	12716
म्	12712
▁18	12701
▁जाण	12699
रीत	12696
▁थ	12696
▁करायची	12690
▁आघाडी	12667
णाचा	12648
उ	12629
▁भागातील	12629
▁सरकारला	12610
▁खात	12608
▁ठेवले	12599
▁देण्याची	12596
i	12583
डून	12576
▁30	12565
▁मधील	12559
पट	12553
▁परीक्षा	12537
▁इत्यादी	12530
▁भाऊ	12511
▁म्हणत	12507
▁धोरण	12493
▁रविवारी	12490
ारे	12485
▁संत	12476
ीत	12473
▁याच्या	12464
ल्याची	12462
▁उत्पन्न	12458
▁व्यावसायिक	12456
▁खो	12453
er	12449
▁क्र	12437
▁येतील	12416
▁बोलताना	12400
▁नक्कीच	12399
▁सत्य	12396
ेश	12381
▁प्राथमिक	12374
▁ठेव	12366
▁कामगार	12364
यचे	12359
▁जन	12358
▁माहीत	12347
▁राब	12335
▁कॉंग्रेस	12320
नाथ	12314
▁तसा	12306
▁घेण्यासाठी	12294
▁25	12283
▁पाड	12282
▁प्रकरण	12277
क्ष	12266
▁सर्वोच्च	12265
▁लागतात	12260
्यातून	12227
▁रद्द	12223
▁नसल्याचे	12206
▁करु	12190
▁फुट	12178
▁मुंबईत	12169
▁बुधवारी	12161
▁यादी	12158
▁शक्ती	12142
▁देणार	12140
▁तिचे	12138
▁कुणी	12129
▁ठाण्यात	12128
▁स्पर्धेत	12124
▁मध्य	12117
▁होणाऱ्या	12088
▁कदम	12086
▁देशमुख	12085
▁आवड	12084
▁तिची	12076
▁प्रशिक्षण	12067
▁नियोजन	12063
▁शुक्रवारी	12062
नगर	12058
▁दिवाळी	12055
▁सुट	12051
▁पाव	12050
▁सगळं	12047
सारखी	12044
्यातील	12040
लाय	12034
▁शरद	12030
▁m	12009
▁यंदा	12007
ळत	11984
बे	11980
▁गेलो	11980
▁मुद्दा	11974
▁तपासणी	11973
▁जरी	11968
▁करणारा	11966
▁संरक्षण	11964
▁फु	11941
▁कामगिरी	11936
▁इतकी	11928
3	11913
▁खरं	11910
▁मंडळी	11898
▁मंगळवारी	11892
▁मॅ	11889
▁पट	11885
▁साजरा	11885
▁तेच	11865
▁आयोजन	11859
▁तशी	11852
▁माध्यम	11847
▁गरजेचे	11819
वार	11807
▁सहकारी	11795
▁जाणून	11790
▁येणाऱ्या	11784
▁समजून	11781
ल्यामुळे	11752
▁गोवा	11749
▁आलेली	11735
▁बैठकीत	11731
▁बंदी	11730
▁पैसा	11728
▁सांगितलं	11719
▁लाव	11718
▁दुसर्या	11717
2	11710
▁एन	11709
ानंतर	11707
▁घेऊ	11705
▁२०१७	11687
▁पहा	11682
▁सुरक्षा	11666
▁जुन्या	11659
▁आतापर्यंत	11657
▁ऑक्टोबर	11648
▁लवकर	11645
▁देता	11636
▁मधे	11623
ान	11617
▁नगरसेवक	11610
▁सम	11608
▁शैक्षणिक	11607
▁स्वातंत्र्य	11601
णाची	11598
▁असत	11598
▁अडचणी	11583
िर	11577
▁जल	11568
▁अहवाल	11557
वण्यात	11556
▁शनिवारी	11546
▁जय	11544
▁शेतकऱ्यांना	11518
▁त्यांच्यावर	11517
c	11508
▁फरक	11506
▁जम	11493
▁निरीक्षक	11484
▁वरिष्ठ	11480
▁हस्ते	11477
ावरील	11474
▁करणार्या	11473
▁स्थापन	11471
▁वैद्यकीय	11467
▁महापालिका	11463
इ	11456
▁संशोधन	11454
▁बु	11425
वणे	11424
▁बाकी	11421
▁उभा	11417
▁पात्र	11401
▁ठाणे	11396
बाहेर	11392
त्व	11362
▁मंजूर	11356
ाज	11354
सारखा	11352
▁भीती	11349
लात	11341
▁जनता	11332
▁संघर्ष	11323
▁पश्चिम	11311
▁प्रकारच्या	11293
वू	11292
▁मूर्ती	11292
▁ऍ	11291
▁नाईक	11289
▁रोख	11286
▁संगीत	11278
▁‘‘	11274
णाला	11262
ing	11256
▁शांत	11251
सन	11241
▁अंतर्गत	11241
▁धर	11240
▁तोंड	11198
ंसाठी	11197
▁अव	11190
▁अशोक	11185
▁सहभाग	11183
▁केल्याने	11156
ांशी	11131
▁वर्षांपूर्वी	11130
कि	11126
▁आव्हान	11117
▁देवेंद्र	11114
य़ा	11110
▁रोग	11106
p	11098
▁अद्याप	11097
▁पहिले	11096
लाही	11095
▁झाल्याचे	11086
▁पाहता	11080
▁रो	11078
▁वर्षांपासून	11071
▁मार्गदर्शन	11070
हे	11068
4	11049
▁=	11047
▁नियंत्रण	11046
राज	11044
▁खु	11043
गर	11040
▁कुटुंब	11032
ँ	11016
दरम्यान	11015
b	11002
▁वाटतं	10994
▁सांगतात	10984
▁बरेच	10982
▁पडली	10979
▁16	10977
▁विधानसभा	10973
▁13	10971
▁कधीच	10969
्यांसाठी	10965
▁पहिली	10957
काने	10954
▁रुग्णालयात	10952
▁काप	10951
▁दीड	10948
▁संस्कृती	10945
▁आदिवासी	10944
पैकी	10943
▁सांगली	10935
▁चहा	10926
▁सचिव	10921
▁होतील	10915
▁दर्शन	10910
▁अन्	10908
▁आव	10904
▁14	10899
▁वर्षांत	10882
▁लाग	10877
▁यांच्यासह	10872
नावर	10867
▁गुन्हे	10867
▁लगेच	10858
▁कचरा	10855
ानी	10852
▁केल्यास	10852
1	10844
▁शा	10833
▁हाच	10833
▁डे	10825
▁वाज	10816
▁जोशी	10810
▁शकेल	10810
था	10809
▁बसला	10807
▁c	10804
▁मंडळ	10798
यात	10784
▁बाबा	10772
▁कोणतीही	10768
▁टा	10760
▁आरक्षण	10759
णाचे	10754
गु	10753
▁50	10742
▁आशा	10740
▁स्वतःला	10737
▁ऑनलाईन	10715
▁क्षेत्रातील	10714
मंत्री	10709
शील	10707
विले	10706
▁१००	10684
्ये	10677
तोय	10676
▁कृती	10676
▁आयुष्य	10667
▁नसून	10665
▁परिसरातील	10655
▁खात्री	10653
▁स्वागत	10653
▁वाह	10651
नाने	10650
▁खेळाडू	10643
▁घडली	10642
दि	10630
6	10620
पूर्वी	10619
▁महत्त्वाचे	10617
दर	10616
▁चीन	10616
▁तेल	10611
▁जिल्हाधिकारी	10606
▁हल्ला	10600
▁कार्यकर्ते	10598
▁रूप	10583
वता	10581
▁सांगण्यात	10579
▁जगात	10575
▁पार्श्वभूमीवर	10575
▁ठेवा	10573
▁असणाऱ्या	10572
ठा	10571
क्या	10566
▁देण्याचा	10564
ष्ट	10563
e	10551
▁घरा	10550
▁भारतातील	10548
▁शासन	10540
▁पातळीवर	10535
▁विधान	10535
d	10528
▁पडत	10524
▁आत्महत्या	10511
▁राहून	10505
t	10504
वण्यासाठी	10492
▁पेट्रोल	10491
▁पिंपरी	10489
▁कोणताही	10482
▁तसं	10474
वास	10469
▁असावा	10468
▁आजार	10468
8	10464
▁प्रगती	10441
विरुद्ध	10440
▁करणारी	10432
▁गणपती	10419
▁संदेश	10419
▁गुरुवारी	10413
▁मानसिक	10412
तर	10407
▁अंग	10403
▁तालुक्यात	10396
▁बातम्या	10396
▁व्ही	10395
▁फळ	10392
▁बाजू	10390
▁फेब्रुवारी	10386
▁अंमलबजावणी	10382
▁घ	10381
पुढे	10374
▁वडील	10370
▁सांगून	10362
▁शिक्षा	10360
▁इतके	10358
▁व्हिडिओ	10354
▁माहित	10353
▁अं	10344
ुल	10338
सि	10324
००	10324
▁असल्या	10324
▁२१	10324
▁संयुक्त	10316
ल्याचा	10315
▁हॉटेल	10312
▁बाळ	10308
▁वाहन	10305
m	10304
▁जिल्ह	10299
काची	10298
ाव्या	10292
▁त्यामध्ये	10283
▁हिंदी	10281
वान	10280
▁आंबेडकर	10272
7	10260
▁महत्त्व	10259
▁औषध	10245
5	10235
▁प्रतिक्रिया	10234
▁इतका	10211
▁पोलिसांना	10211
▁पाकिस्तान	10209
ंज	10206
▁अड	10203
▁कॉ	10188
वेळी	10168
▁इशारा	10165
▁आमची	10160
▁देतात	10159
▁पाल	10139
पद	10136
▁क्षमता	10136
▁मस्त	10125
▁सायंकाळी	10121
▁दुर्लक्ष	10116
▁राजकारण	10116
▁नेहमीच	10111
▁आलेला	10106
▁बळी	10101
ृ	10099
▁पुण्यात	10097
लीत	10096
▁त्याचं	10090
▁सुख	10083
▁मुला	10076
▁घ्यावी	10051
▁कॉलेज	10044
▁मानले	10039
▁विभागाने	10034
▁पुरवठा	10017
▁बार	10011
▁पंच	10005
▁टो	10001
▁लोकांच्या	9996
▁तीव्र	9994
▁17	9993
▁मतदान	9993
▁२४	9985
धी	9978
▁ठेवण्यात	9963
▁t	9950
▁राहिला	9948
काचे	9944
▁कार्ड	9944
▁सौ	9943
▁बातमी	9935
▁गावातील	9933
▁काळा	9930
▁दिशेने	9930
णीत	9927
▁छोट्या	9919
▁यातील	9919
ावं	9900
ुक	9899
▁मतदार	9896
▁मीटर	9892
▁तळ	9885
▁घा	9884
▁डोळे	9882
▁भु	9870
▁दाखव	9862
▁पूर्णपणे	9861
▁सोय	9850
▁भरून	9849
▁दाख	9843
▁जसे	9839
▁छत्रपती	9834
▁पसर	9828
▁आयुष्यात	9821
▁गुंतवणूक	9813
▁’’	9809
▁वाग	9808
▁वार	9808
▁भरपूर	9804
करिता	9791
ायचे	9789
▁पीक	9770
▁भारताच्या	9770
लेलं	9766
▁उड	9766
▁महापौर	9763
काचा	9759
ांचं	9754
▁नव्हतं	9745
▁तक्रारी	9741
िव्ह	9738
▁तेथील	9737
▁बाबासाहेब	9727
▁वरील	9727
▁नैसर्गिक	9726
9	9716
▁अति	9702
▁छ	9699
▁जाणीव	9691
▁वाटले	9689
▁महिने	9680
▁मोर्चा	9680
▁कठीण	9676
पूर्ण	9674
गो	9672
▁अंतर	9668
▁लोकप्रिय	9663
▁19	9657
▁कलाकार	9656
▁पूजा	9655
▁अनिल	9654
▁करार	9651
▁निकाल	9651
▁एखादा	9647
धा	9645
▁गुरु	9634
ांकडून	9624
य़	9623
▁साधारण	9620
▁कुमार	9618
▁२२	9612
ूक	9611
पि	9599
▁बहुतेक	9590
तेचा	9586
▁कल्याण	9581
विरोधात	9576
▁नागरिकांना	9572
▁नस	9567
▁यांच्यावर	9556
पत्र	9552
ेशन	9550
▁मुस्लिम	9547
▁वेगळे	9546
▁४०	9543
▁दर्श	9530
्ट	9516
▁ढ	9515
▁ओढ	9514
▁आमचे	9510
▁कार्यरत	9509
▁लो	9506
▁फुले	9503
िव	9500
▁d	9487
▁मान्यता	9485
g	9483
▁जावे	9482
▁मिळवून	9480
▁द्यावे	9478
ांकडे	9477
▁नंबर	9470
▁सुच	9469
डीत	9462
▁पाया	9461
द्	9456
नातून	9455
▁आत्म	9455
▁साव	9454
▁अपेक्षित	9448
▁कसं	9445
▁प्रकरणी	9445
▁आमचा	9442
▁१९	9442
▁सल्ला	9430
▁देतो	9428
▁पती	9418
▁दरवर्षी	9407
▁सरळ	9404
▁यातून	9402
▁निर्	9396
तेने	9395
▁रक्त	9390
▁टाकून	9388
▁प्रकारचे	9387
▁महाराष्ट्रातील	9385
▁थोडा	9384
▁विनंती	9384
वळ	9382
▁पाठिंबा	9381
तीत	9372
िय	9371
वाच्या	9364
▁जु	9361
▁बाई	9354
▁सुरक्षित	9353
▁आपलं	9342
▁b	9338
▁प्रत्यक्षात	9328
ूप	9325
ळीत	9321
▁शंका	9319
▁माझं	9318
ाय	9315
r	9309
धार	9305
▁वाघ	9304
▁नाहीये	9300
▁धार्मिक	9299
ंक	9297
▁भाजपचे	9294
▁कर्नाटक	9293
▁पं	9284
▁पॅ	9283
▁दिस	9280
▁अनेकदा	9276
▁रस्ते	9275
al	9266
▁झाल्यास	9264
▁लोकसभा	9261
▁नीट	9253
▁विश्व	9253
▁असणे	9251
▁म्हटलं	9250
▁विषया	9250
आर	9243
▁आणून	9240
▁जाग	9236
▁हाय	9233
तीने	9226
▁in	9213
▁मोज	9207
▁हीच	9201
▁पाह	9193
यची	9186
बरोबरच	9179
▁दिसतात	9179
▁स्थापना	9175
▁चंद्र	9172
ईन	9169
पुर	9168
शि	9166
▁निघ	9161
ंदा	9160
▁लोकशाही	9160
▁सुरवात	9153
▁दखल	9151
▁नोंदणी	9144
▁पुढच्या	9143
▁f	9137
▁प्रसंग	9132
वायला	9125
▁वै	9124
▁शिक्ष	9122
▁l	9116
िता	9113
▁कपडे	9109
▁दिवसांत	9102
▁तालुका	9099
▁हजारो	9095
▁तुमचे	9091
▁अनु	9082
वीत	9081
▁जाणाऱ्या	9063
▁2017	9055
नो	9052
ातच	9049
▁रुपयांची	9042
▁बनव	9038
▁निमित्ताने	9037
ग्	9029
▁सहन	9026
स्थ	9024
▁हत्या	9023
▁कोर	9021
ांग	9020
ोप	9019
▁माती	9014
द्या	9005
▁the	9002
▁स्वप्न	8994
हो	8993
▁जगातील	8992
0	8987
▁रुपया	8986
▁इमारती	8984
▁आगामी	8982
▁गाय	8977
▁किलोमीटर	8966
▁तुलनेत	8965
▁जाता	8958
▁समाधान	8954
▁त्याचबरोबर	8952
फा	8951
तेच्या	8947
▁येथून	8947
▁तंत्रज्ञान	8945
लय	8938
▁असावी	8938
▁मिळून	8938
▁21	8937
▁असेच	8935
▁ग्रंथ	8932
▁कधीही	8928
▁थोडे	8925
▁जिंक	8923
▁नाटक	8912
▁तार	8910
▁विद्यापीठ	8909
▁रस	8908
▁सुर	8907
▁आधीच	8905
▁नावाने	8903
▁p	8900
▁कशा	8900
▁बसून	8888
▁देताना	8887
▁चालत	8883
▁विशिष्ट	8880
▁मंत्र	8875
गत	8873
▁विज्ञान	8872
▁क्रीडा	8867
▁इतक्या	8863
▁पिक	8863
शास्त्र	8859
▁मुक्त	8857
h	8852
▁राग	8851
ायची	8844
▁गोड	8844
▁फुल	8842
▁24	8841
▁वाचा	8841
▁घटक	8836
n	8833
यचा	8832
ोक	8826
▁सुरेश	8824
▁आल्याने	8821
▁विवाह	8814
▁ऑ	8798
खे	8796
▁मानवी	8794
▁युद्ध	8793
▁उभी	8791
▁पहाटे	8784
▁ति	8783
▁संदर्भात	8780
▁यानंतर	8772
▁शहा	8767
▁संभाजी	8765
▁कडे	8763
▁पेक्षा	8761
▁आलो	8760
▁कौतुक	8753
▁समाजात	8748
झा	8743
▁पंचायत	8739
▁पाहायला	8733
राम	8729
▁अपघात	8729
▁पोट	8729
▁अॅड	8722
पो	8718
प्	8708
l	8706
▁भोसले	8700
▁फा	8698
▁खुप	8691
कला	8689
▁देशाच्या	8677
ांतील	8672
▁पराभव	8671
वलं	8667
▁कार्यकारी	8667
▁तुमचा	8667
ोड	8665
▁शरीर	8664
▁करणं	8661
k	8648
▁साठ	8645
टक	8643
बु	8636
▁दुसरीकडे	8634
मत	8632
सिंग	8625
▁फेसबुक	8625
▁होण्यासाठी	8588
▁क्रांती	8579
ोल	8570
▁आहात	8565
फे	8559
▁वाटलं	8559
▁रोड	8557
▁स्वामी	8552
वड	8550
▁राख	8543
▁निवडून	8541
▁आवश्यकता	8539
▁नजर	8539
▁नारायण	8532
▁कम	8529
▁g	8520
▁मधून	8519
▁सभापती	8518
▁प्रशासनाने	8514
▁बारा	8514
्ह	8506
▁लेखक	8503
▁तुमची	8499
ळात	8498
▁नवा	8498
▁परिषदेत	8497
▁वर्	8497
त्र	8496
▁आल्यावर	8495
▁उभार	8492
▁बॅ	8490
▁विकसित	8490
▁इन	8482
णात	8479
▁नऊ	8479
▁राहिली	8478
▁त्यामुळेच	8474
त्य	8470
▁पाण्यात	8465
▁काढले	8463
▁निघून	8459
ॅट	8457
▁तसंच	8457
▁स्टेशन	8455
▁ठरले	8453
▁व्यापार	8452
▁काँग्रेसचे	8451
▁सर्वांना	8449
मागे	8445
सम	8440
▁काळे	8435
ऱ	8429
▁झाड	8428
मेंट	8427
▁दगड	8422
▁आधारित	8421
▁खूपच	8420
▁अवघड	8416
ति	8411
▁ठिकाण	8410
मार्फत	8407
▁दुसरी	8407
▁देण्याचे	8406
▁वारंवार	8377
ed	8376
▁विशेषतः	8375
▁आड	8371
विण्यासाठी	8369
▁ठ	8369
गार	8367
▁तातडीने	8365
▁सिंग	8364
▁हल	8362
गिरी	8358
▁राह	8358
▁विभागाच्या	8353
▁आधुनिक	8351
▁म्हणणे	8351
▁विद्या	8350
▁सामन्यात	8349
▁है	8347
▁सन्मान	8343
▁वृत्त	8342
▁कार्यक्रमात	8329
▁प्रकरणात	8327
▁मर	8325
es	8323
़	8323
राच्या	8312
▁विकत	8305
व्ही	8297
▁कुठल्याही	8296
▁ठेवला	8295
▁देशा	8294
▁पक्षाचे	8293
an	8289
ांतून	8289
▁यापूर्वी	8288
दान	8280
▁अश्या	8277
▁लिहि	8277
▁अतिरिक्त	8274
ाच्या	8266
▁टिक	8264
▁समितीच्या	8261
▁आश्वासन	8260
▁सांस्कृतिक	8247
याच्या	8243
▁दिलं	8242
डू	8237
▁व्हायला	8235
▁शेख	8235
▁नाम	8233
▁होय	8225
▁जमिनी	8223
▁डोंगर	8221
▁जेव	8217
▁नवे	8217
वन	8216
en	8213
▁कार्यालयात	8210
▁दररोज	8209
▁एखादी	8203
▁विमान	8202
▁चौ	8199
▁माने	8194
▁कार्यालया	8187
▁रहा	8186
▁रुग्ण	8186
▁आठवण	8184
▁असूनही	8183
जन	8180
▁दर्जा	8180
▁भाषेत	8180
▁सण	8180
िती	8178
▁यंत्रणा	8178
▁सरपंच	8177
▁उदाहरण	8169
▁कल	8166
ाची	8161
▁मिळव	8158
▁दाखवून	8152
▁पान	8149
▁पाहत	8149
स्ता	8148
▁आपल्याकडे	8146
▁करेल	8145
▁राहत	8141
▁जेवण	8137
ळू	8129
▁वेगळी	8120
▁वाटा	8118
▁समुद्र	8118
▁पद्धत	8110
▁n	8108
▁रोजगार	8108
ण्याचं	8107
▁यांच्याकडे	8106
▁पद्धती	8104
▁लागवड	8103
▁काढला	8096
▁मोड	8096
ांमुळे	8088
▁साथ	8086
▁पालक	8084
▁विमा	8083
▁घ्यायला	8082
▁उर	8081
▁खर	8070
▁गोळा	8066
▁लेखन	8060
▁कोकण	8055
▁कामकाज	8053
▁वजन	8052
▁थोडी	8051
▁गाज	8043
▁समर्थ	8041
▁इंटरनेट	8040
▁नेम	8039
▁असावे	8030
▁घेण्याची	8016
▁बघून	8014
▁गड	8013
षा	8010
▁राणे	8009
▁भारता	8007
▁आल्यानंतर	8004
▁धा	8002
ंकडे	7997
▁पोच	7992
▁सुधारणा	7991
▁22	7987
सिंह	7983
कडील	7981
घा	7981
▁याप्रकरणी	7981
▁फोड	7979
▁सार	7973
वाची	7972
▁बाज	7968
▁सुनील	7968
्यांकडून	7967
f	7964
विण्यात	7964
शन	7962
▁आदर्श	7962
▁मात	7959
▁दिलेली	7956
▁स्वरूप	7956
▁धोका	7955
▁म्हणुन	7951
ंगी	7947
▁यां	7947
▁व्यापारी	7945
▁असतानाच	7944
ाचा	7943
▁प्रभाव	7938
▁सातत्याने	7936
ाला	7933
▁सरासरी	7927
▁म्ह	7924
▁सकारात्मक	7920
▁ऊस	7917
ाजी	7912
ताई	7911
▁संकल्पना	7910
ांसह	7908
▁२३	7907
▁घ्यावा	7905
विली	7904
▁नव्याने	7902
▁युवा	7902
▁गाठ	7895
▁गायकवाड	7894
▁सुनावणी	7892
▁com	7891
द्र	7888
यी	7888
▁सहकार	7887
▁मुलं	7886
▁नमूद	7882
विला	7880
▁चौक	7878
▁चिंचवड	7868
▁याशिवाय	7868
▁हक्क	7868
▁मिळू	7860
▁संध्याकाळी	7853
▁हाता	7850
▁पर्यावरण	7841
▁पाळ	7841
ल्यात	7831
▁आहेच	7828
▁कॉल	7827
▁कुलकर्णी	7823
▁news	7819
▁साकार	7816
िम	7808
▁सहकार्य	7797
▁फूट	7791
▁विचारले	7791
▁यादव	7789
▁संशोध	7789
▁पथ	7786
▁सुभाष	7784
▁वेगळा	7781
▁खे	7779
▁सावंत	7775
in	7772
▁तोच	7770
▁दंड	7770
▁धक्का	7768
▁२६	7749
▁केल्याचे	7743
▁पकड	7743
▁तोड	7742
▁आम	7738
▁दुःख	7737
▁लंड	7734
▁धन	7729
▁वेग	7723
▁ऐतिहासिक	7721
दास	7719
▁विषयावर	7714
▁h	7698
▁हवं	7698
▁गोल	7697
▁कालावधी	7693
▁रत्नागिरी	7690
▁आजी	7686
v	7684
▁दिवसात	7684
णासाठी	7683
▁आठवड	7682
▁चंद्रकांत	7682
▁बाळासाहेब	7678
ानुसार	7674
▁वैयक्तिक	7664
▁e	7660
▁उंच	7660
▁परिस्थितीत	7660
ूत	7659
▁दिन	7654
▁उत्तरे	7652
▁पेट	7652
▁ठेवली	7650
▁प्रमाणावर	7650
▁शो	7650
▁कट	7649
▁मोफत	7646
▁बाद	7642
▁धरून	7638
वावे	7634
▁खून	7633
▁रुपयांचा	7632
▁आढळून	7631
▁40	7622
▁दुचाकी	7621
▁सारख्या	7614
▁कड	7610
u	7609
▁करतील	7605
▁जातं	7603
▁लावला	7603
▁दार	7599
▁मुंडे	7597
▁प्रकारची	7595
▁२८	7595
पासूनच	7592
▁मार्	7591
▁वाढली	7584
ंडी	7583
▁घे	7579
▁दुसरे	7574
ेश्वर	7571
▁चोर	7569
▁खि	7566
वात	7564
▁सगळी	7563
▁पक्षाच्या	7561
तच	7556
▁रू	7553
▁हजर	7553
▁पोहच	7550
▁भाजपच्या	7548
▁आकाश	7542
▁आभार	7542
▁अवलंबून	7539
▁ठार	7538
वेल	7534
▁वी	7529
▁बोट	7527
▁घेणार	7525
▁विनोद	7523
▁माहितीनुसार	7522
▁कप	7521
माला	7520
▁खरा	7519
विणे	7515
▁दिवसांपासून	7514
▁अभिनेत्री	7511
▁उंची	7497
▁अमित	7495
▁डि	7494
▁भाजपा	7494
र्फे	7492
▁एकर	7491
याचे	7490
▁व्यवस्थापन	7490
साच्या	7486
▁पेपर	7485
ar	7482
▁सभा	7479
▁देसाई	7478
▁गप्पा	7477
▁सर्वत्र	7477
▁नितीन	7476
▁असल्याचं	7474
▁बऱ्याच	7474
▁सोपे	7474
▁कित्येक	7463
▁प्राण	7462
▁23	7459
▁निसर्ग	7457
▁अनुदान	7454
▁राजेंद्र	7439
ळाच्या	7438
ावून	7438
▁ग्रुप	7436
▁सूर्य	7432
▁पणजी	7430
▁किल्ला	7429
▁जळगाव	7426
▁स्ट	7426
▁लावली	7425
क्र	7422
▁मारहाण	7420
सला	7416
▁बाय	7416
न्या	7415
▁कर्जमाफी	7415
▁देते	7413
▁मीडिया	7411
कात	7410
ांमधील	7407
एम	7406
▁जिथे	7404
ठे	7400
▁गुजरात	7400
ढा	7394
▁परि	7386
▁प्रशासन	7382
▁काढण्यात	7380
कल	7373
िप	7372
▁खाते	7372
▁जणू	7372
▁नाग	7372
▁पाण्याची	7371
▁पार्टी	7371
▁ऐकून	7367
▁द्यावी	7357
▁ऊ	7351
▁क्षण	7350
▁इंग्लंड	7349
▁तरतूद	7347
लंय	7343
▁पळ	7343
▁महत्त्वाची	7339
▁घाट	7337
▁चु	7334
▁नाट्य	7332
▁गरीब	7331
▁ऐ	7330
▁कारखान	7318
▁पिढी	7313
ायचा	7311
▁राहू	7310
र्ड	7303
▁बहु	7302
▁of	7299
▁पाहा	7297
▁प्रमाणे	7294
▁महाविद्यालया	7294
▁विभागाचे	7280
राने	7277
▁सिंह	7277
▁यावे	7268
माने	7267
▁त्यापैकी	7267
ेट	7266
▁मागण्या	7266
▁२७	7263
ातल्या	7262
▁ग्राम	7262
कट	7259
▁बाबी	7259
चर	7251
ळकर	7251
▁दो	7243
▁कवी	7241
▁कान	7237
कुमार	7232
दु	7229
▁कंपनीने	7227
▁पाट	7227
▁समाजातील	7227
▁राव	7225
▁मंजुरी	7218
▁रचना	7215
▁बराच	7211
▁गेलं	7203
ठी	7202
ूस	7199
▁बदला	7199
▁महापालिकेच्या	7199
क्ट	7198
▁परंपरा	7198
▁अजित	7196
▁ताप	7193
ढे	7192
▁मिळतात	7183
▁एल	7182
ंप	7181
तेची	7177
▁म्हणता	7177
▁संदर्भ	7177
▁ब्लॉग	7176
▁विभागात	7172
▁प्रकाशित	7171
▁नियुक्ती	7168
▁एच	7165
▁एकही	7164
कारी	7163
ंडे	7162
सो	7159
▁संतोष	7159
ाचे	7158
▁आठवड्यात	7150
it	7149
▁राहतात	7149
टीत	7147
▁बद्दल	7144
▁उपयुक्त	7143
▁शक	7143
▁हेही	7141
▁दिशा	7140
▁सारे	7127
▁मह	7126
▁वाचून	7125
िके	7124
▁त्यांचं	7121
साहेब	7119
▁यांच्यात	7119
▁भाजी	7116
▁कामा	7115
ल्याच्या	7114
ै	7110
्यू	7105
पत	7104
▁फारच	7104
▁आणले	7102
▁सांभाळ	7101
▁मार्गावर	7095
▁दिसतो	7092
▁पुस्त	7088
▁कालावधीत	7085
▁भेटी	7085
▁माय	7085
▁देवी	7083
▁जप	7082
▁महान	7077
पाल	7076
▁भांड	7075
▁याबद्दल	7075
ार्	7072
▁नकार	7072
▁धरण	7070
▁महेश	7069
▁दुरुस्ती	7066
▁भारती	7057
▁समान	7052
▁ठरला	7051
▁म्हणतो	7048
ोग	7044
ंतर	7039
खी	7039
रु	7039
▁खाजगी	7036
ार्थ	7033
▁जीवनात	7033
▁भाजपने	7026
▁समितीचे	7024
ध्द	7022
ॅन	7020
▁असाल	7020
ाती	7019
सू	7016
▁w	7016
▁शंभर	7014
▁अंगावर	7013
▁अरे	7013
▁अवस्था	7013
▁गरम	7009
▁पाण्याचा	7007
▁भार	7007
▁खरी	7004
▁नागरिकांनी	7004
ोन	7003
ंडा	6995
ेतून	6992
▁पंधरा	6986
▁मुलांच्या	6986
▁वर्षा	6985
▁दिलीप	6984
▁उद्देश	6983
▁मुळे	6979
▁डाव	6977
मार	6975
▁नष्ट	6975
▁शुल्क	6971
▁तोपर्यंत	6970
▁महत्त्वाचा	6970
▁विशाल	6966
▁कोणतेही	6956
▁कलम	6955
▁याकडे	6954
▁घेतात	6953
▁मुळात	6950
▁एकमेव	6944
▁विसर	6943
मय	6940
▁यावर्षी	6940
▁पाऊल	6939
ांपैकी	6935
▁अशीच	6935
▁एसटी	6934
▁समाजाच्या	6934
▁जातील	6933
्यासाठी	6932
▁मिळतो	6932
बर	6930
▁वर्षांच्या	6929
वाचा	6927
ियन	6927
▁कोड	6926
कड	6923
▁मृतदेह	6923
याचा	6922
▁ट्रक	6922
यु	6918
▁थंड	6914
▁टाळ	6913
बल	6903
▁व्हावे	6900
एस	6897
▁गाणी	6894
▁घ्यावे	6892
▁लागल्या	6888
▁कंपन्या	6883
▁विरुद्ध	6878
▁100	6875
▁अंतरावर	6873
णाने	6872
▁३१	6866
▁नागरी	6863
▁बरं	6860
तेचे	6858
▁उमेदवारी	6857
▁पदाधिकारी	6857
ऐवजी	6856
▁गेलेल्या	6853
▁सुरुवातीला	6853
स्ती	6848
▁सां	6844
मर	6840
or	6836
▁आप	6832
▁गोंधळ	6832
▁मैत्री	6832
▁असणारे	6831
▁वेगाने	6830
▁व्हावी	6829
▁चुक	6826
वतात	6823
▁28	6823
▁जाताना	6819
▁शेतकऱ्यांच्या	6817
▁more	6816
▁शासनाच्या	6816
▁जागी	6813
▁टन	6813
▁वेगळ्या	6812
▁सैनिक	6810
▁26	6803
▁31	6801
▁बघत	6800
ोज	6798
▁कडक	6798
▁घेतलेल्या	6795
▁भारताने	6794
िज	6792
▁जाणे	6791
▁बहुतांश	6789
▁फे	6788
▁निषेध	6787
▁नर	6784
▁ग्राहक	6782
▁आहेस	6778
▁संदीप	6778
▁सांगतो	6777
▁परिसर	6775
▁६०	6773
हर	6771
▁नियमित	6770
यचं	6769
▁ताण	6769
▁झालो	6768
▁ठळक	6768
▁तांत्रिक	6768
▁भाष	6765
ढी	6762
▁मानव	6760
ॉन	6757
▁लाखो	6747
▁सांगता	6745
▁कसोटी	6743
▁फटका	6740
▁पर्यटन	6739
ल्ला	6738
ाराचा	6737
▁फि	6736
▁टि	6735
▁वाटप	6730
वल्या	6728
▁चिंता	6727
लिंग	6725
▁व्यक्तीला	6721
▁धडक	6718
▁नसतो	6715
▁जाहिरात	6713
वरुन	6710
▁विस्तार	6709
▁जप्त	6708
▁स्मार्ट	6703
▁उदा	6702
▁सायकल	6702
▁वाय	6699
▁लैंगिक	6698
▁काळी	6695
▁अजिबात	6692
▁आख	6690
▁होणारे	6688
लक	6686
▁संख्येने	6686
▁पदवी	6685
▁दारू	6680
▁सवाल	6680
ाराच्या	6673
/	6665
▁म्हणाली	6665
शक्ती	6663
▁ज्यांना	6662
▁संस्थ	6658
▁साहेब	6658
▁इन्	6653
at	6651
▁मध्यम	6650
▁न्या	6645
▁27	6644
▁चोरी	6642
▁सापड	6642
▁समाजाला	6640
▁तेंव्हा	6638
▁स्प	6638
▁राहा	6635
▁दोघे	6634
मधल्या	6633
तर्फे	6631
ूं	6631
▁मुंबईतील	6630
▁पुस्तके	6629
▁हॅ	6628
▁अम	6627
▁पाहणी	6624
िट	6621
▁जागे	6621
रण	6620
▁आढावा	6615
▁नेत	6615
▁वर्णन	6614
▁हळूहळू	6613
▁गृह	6612
▁बाग	6607
▁चूक	6606
▁पटेल	6604
ad	6598
▁जबाबदार	6597
▁तिसऱ्या	6596
▁प्रचार	6596
ंगा	6593
वायचे	6590
वारी	6589
▁जास्तीत	6589
▁अंश	6587
▁कामाला	6586
मुक्त	6582
▁घेतल्या	6580
▁रशिया	6576
मला	6571
▁हिंदु	6569
▁उपाध्यक्ष	6566
▁मार्केट	6565
णीच्या	6558
ल्ड	6556
▁दरवाजा	6551
बाजी	6549
▁वरून	6548
▁पालकमंत्री	6544
▁बायको	6540
एल	6539
वर्	6535
झर	6534
▁गार	6534
▁प्रे	6534
▁अधीक्षक	6531
▁स्वच्छता	6531
▁प्लास्टिक	6528
▁चित्रपटात	6527
▁महत्वाचे	6521
▁पडून	6517
क्षा	6516
▁बाजूने	6516
श्र	6515
▁चेहरा	6515
▁उद्धव	6510
▁पाहू	6510
▁राष्ट्रपती	6510
▁लॉ	6509
▁शेवटच्या	6509
कांवर	6508
▁नेतृत्व	6506
▁मजा	6506
र्म	6503
▁येणे	6503
▁भरती	6495
▁तत्कालीन	6487
▁महसूल	6487
▁उचल	6484
▁करायचं	6483
▁पृथ्वी	6483
झी	6481
▁जाहिराती	6477
▁भविष्यात	6475
▁होणारी	6473
▁चक्क	6472
▁अा	6469
▁बलात्कार	6466
▁मंदिरात	6466
ंशी	6465
वण्याचा	6465
काळ	6463
▁दीपक	6463
▁कळत	6462
▁दश	6462
लां	6461
▁नाय	6460
शाही	6459
▁आजवर	6458
▁r	6456
▁गावा	6452
▁महिलांना	6452
▁सकाळ	6451
▁नाहीतर	6450
▁लिहिले	6445
ंकडून	6439
वाचे	6439
तांना	6436
▁शर्मा	6433
▁येणार्या	6432
पात	6431
तु	6429
बि	6426
ावले	6424
▁सुधार	6424
प्रमाणेच	6423
माच्या	6419
▁कितीही	6413
▁व्यवस्थित	6413
▁नात	6411
▁and	6410
ूट	6400
ँग	6398
▁उत्सव	6396
▁वापरून	6393
▁तालुक	6391
▁त्यास	6389
▁कोणीही	6388
ांमधून	6385
▁बरीच	6384
▁कोणाला	6383
▁ठरेल	6383
विण्याचा	6382
▁उद्घाटन	6382
▁अमेरिकेत	6377
ळीच्या	6376
▁औद्योगिक	6376
ाराची	6373
चक	6372
▁असाच	6369
▁i	6368
▁घरातील	6366
▁मीठ	6365
▁किरण	6364
▁स्वतःची	6364
▁वर्त	6363
करी	6358
▁लेखा	6357
▁ठे	6352
▁वेळेत	6350
▁द्यायला	6347
▁गण	6343
▁मध	6341
▁करोड	6340
ावत	6339
▁देण्यास	6333
▁परिणामी	6333
साला	6330
▁३५	6328
▁द्यावा	6326
▁तथा	6325
देव	6324
▁गेल्यावर	6321
▁सलग	6319
▁जिवंत	6318
▁महिन्या	6317
▁प्रोत्साहन	6315
▁अवघ्या	6312
▁कामात	6309
कांसाठी	6306
▁यांच्याशी	6306
▁हट	6306
▁कुर	6305
▁लोकांची	6305
▁मज	6302
▁अमेरिका	6300
▁आणी	6297
▁सगळ्यात	6292
▁राहते	6291
▁वृक्ष	6291
▁अल्प	6284
▁कर्	6284
▁मोबाइल	6276
▁याचिका	6275
▁लिहून	6273
न्ट	6266
▁मदतीने	6264
▁राहतो	6257
▁वाक	6253
भाव	6252
▁कंपनीच्या	6251
▁एफ	6250
▁त्यांच्याकडे	6249
▁शुभेच्छा	6246
▁राज्याच्या	6239
▁निवेदन	6232
▁नोटा	6231
▁दिलेले	6230
पती	6225
▁हरकत	6224
▁अडीच	6223
▁प्रश्ना	6221
▁सर्वसामान्य	6220
▁तिकडे	6217
▁कृष्ण	6216
▁अॅप	6208
▁धावा	6207
▁किमी	6204
▁विक्रम	6203
▁सांगा	6201
▁समितीने	6200
▁अन्यथा	6198
▁माणसे	6198
कारा	6197
▁लागलं	6196
▁अमेरिकन	6194
▁डो	6194
्टी	6193
▁शुद्ध	6193
▁read	6191
▁२०१६	6188
▁दम	6182
▁छोटे	6181
▁कष्ट	6179
▁टाका	6178
▁प्रतिमा	6177
लया	6175
▁ऑफिस	6175
▁नाना	6173
▁वेतन	6172
▁भाजपला	6170
▁ऊर्जा	6163
▁आठवणी	6162
संदर्भात	6160
▁कुठल्या	6159
ऊन	6156
▁2016	6153
▁पातळी	6143
▁प्रणाली	6142
▁ब्रिटिश	6137
▁सवय	6137
▁चो	6123
▁प्रेरणा	6122
▁राजीनामा	6120
▁v	6116
▁अशाच	6112
▁देणारे	6111
▁युती	6110
▁गुरू	6107
राचा	6106
▁तुलना	6106
▁झा	6104
▁महिना	6101
▁विद्यार्थ्यांनी	6101
▁किमती	6096
▁मना	6095
▁केल्याची	6083
▁सक्षम	6080
▁मिळालेल्या	6079
▁टाकले	6077
ोली	6076
▁हवामान	6073
▁असती	6072
वाने	6071
▁घेण्याचा	6070
▁भगवान	6068
न्ड	6067
▁परिषदेच्या	6065
▁बळ	6063
▁बॉ	6063
▁रमेश	6060
▁राय	6060
▁शाळ	6060
▁पाण्या	6059
▁महाग	6057
सारखं	6056
▁पैकी	6056
▁निदान	6055
▁मालिका	6055
प्पा	6053
▁हिर	6053
▁कै	6050
ूल	6048
ष्टी	6046
▁माणसाला	6044
▁स्तरावर	6042
▁उत्पाद	6030
▁उद	6029
ंता	6023
▁ऑस्ट्रेलिया	6022
▁महात्मा	6022
▁बरे	6021
नला	6020
ज्ञ	6014
▁मर्यादा	6014
▁जगा	6013
▁येतं	6011
▁जणांना	6005
्यांशी	6003
▁पोलिसांच्या	6003
र्त	6002
्व	5995
▁लागलो	5994
▁घटनास्थळी	5993
यत	5992
▁वाळू	5989
ावली	5988
▁ताकद	5986
▁नावाच्या	5986
▁उर्वरित	5983
▁विर	5983
▁आयोग	5982
ों	5980
▁सीमा	5973
▁भान	5971
▁असणार्या	5968
▁बघायला	5966
▁मोरे	5965
▁होणार्या	5965
पू	5962
▁राजेश	5962
▁ठरणार	5961
ग्र	5958
ूड	5956
ॅम	5956
▁प्रत्येकी	5956
▁सभागृहात	5953
▁प्रवासी	5952
▁marathi	5951
▁कांबळे	5948
▁वापरा	5948
लने	5943
▁भू	5942
▁अना	5938
▁डाय	5937
▁बर	5936
▁सब	5933
▁सूर	5932
▁अँड	5931
▁भारताला	5930
▁चाचणी	5929
ण्ड	5928
▁अरुण	5927
प्रमुख	5926
▁परस्पर	5918
▁बचत	5914
▁मेल	5914
▁भो	5913
्रो	5912
▁गि	5910
डि	5909
▁नांदेड	5909
▁भव्य	5906
▁सगळ	5904
▁सैन	5904
वीर	5900
▁त्याचप्रमाणे	5900
▁लक्ष्मी	5896
▁शेतकऱ्यांनी	5896
▁साधला	5893
▁to	5891
▁राजकारणात	5889
▁टे	5888
▁झाल्याची	5887
▁घसर	5886
चार	5883
▁कारभार	5883
▁तंत्र	5882
हु	5880
▁कार्यकर्त्यांनी	5877
▁अर्थाने	5876
▁प्रवा	5875
▁स्त्रिया	5875
▁१९७	5873
▁लिटर	5870
ंमुळे	5865
्यास	5863
▁मै	5863
यन	5860
यांच्या	5860
ूम	5854
▁सोप	5854
काम	5853
▁आदर	5852
▁होणारा	5852
ग्रस्त	5850
▁गॅस	5849
▁२९	5849
▁मता	5848
▁धार	5840
नातील	5832
▁साई	5831
▁संस्कार	5830
लाल	5828
▁वाढते	5828
▁आक्रमक	5827
▁संपत्ती	5824
▁अहमदनगर	5822
▁राजधानी	5819
▁माज	5817
यक	5814
▁प्राधान्य	5811
▁राजू	5811
▁स्वतःचे	5811
डक	5807
▁बर्याच	5807
on	5806
▁म्हणे	5805
दारी	5804
▁निवडणुका	5804
▁अधिकृत	5802
▁काढली	5801
▁टेक	5800
▁अर्धा	5799
▁वर्षीय	5799
▁साहित	5798
▁प्राणी	5797
▁कर्म	5796
▁सारखे	5792
▁प्रामुख्याने	5788
▁प्रदान	5787
▁प्राचीन	5787
▁भाषण	5785
▁मां	5784
प्रकरणी	5782
▁खंड	5782
▁त्यानं	5781
ंबा	5778
▁नाराजी	5777
▁प्रती	5777
▁प्रशासकीय	5776
▁गती	5775
▁ठरवले	5774
▁पाहि	5774
▁टीव्ही	5772
▁बघा	5772
▁तेही	5771
लाच्या	5765
लब	5762
कत	5761
▁मारून	5761
कीत	5759
▁पडतो	5759
▁जायचे	5758
▁तज्ज्ञ	5757
▁निवडणुकी	5757
कांत	5756
▁केल्यावर	5756
हार	5755
▁कांदा	5754
▁जगताप	5754
▁म्हणा	5751
▁सविस्तर	5751
नेही	5747
▁शारीरिक	5745
ॉल	5744
▁रिक्षा	5742
▁सुरूवात	5742
as	5739
▁पाक	5736
माल	5735
▁शंकर	5734
ic	5729
▁बीड	5729
▁मोहीम	5728
▁सत्ताधारी	5728
राची	5723
▁article	5723
वाड	5722
▁गॅ	5720
▁सोहळा	5720
थी	5716
▁बसले	5716
▁नेमके	5715
याची	5714
▁देवा	5714
▁स्वस्त	5714
le	5712
▁घातली	5710
▁पगार	5707
▁घातला	5704
▁पास	5704
म्स	5702
▁जनते	5701
▁k	5699
▁कार्यालय	5697
▁में	5689
लग	5688
▁अाहे	5688
▁तरच	5688
▁परदेशी	5685
र्ण	5684
हित	5682
00	5681
▁सागर	5681
▁कार्यकर्त	5678
▁किशोर	5677
▁शिल्लक	5676
राला	5675
लावर	5671
▁घेतो	5671
▁पहिल्यांदा	5671
▁विचारा	5667
▁क्ष	5665
वतो	5664
▁मागच्या	5663
यर	5660
िक्स	5660
▁आंदोल	5660
▁एवढी	5660
re	5657
▁दोष	5656
साचा	5653
▁भि	5652
नीय	5651
▁दुर	5650
चना	5648
▁सर्वोत्तम	5648
▁शालेय	5645
▁ग्रह	5642
▁होण्या	5641
▁पक्षी	5639
▁माझ्याकडे	5637
▁स्थिर	5636
▁ठोक	5633
▁सामोरे	5629
ळव	5612
▁पालिका	5612
▁अट	5610
▁महत्व	5608
र्ट	5605
ch	5603
▁संकेत	5601
▁एअर	5599
ंदी	5598
▁ग्राहकांना	5598
▁सुट्टी	5598
▁पॉ	5594
▁दिवसांपूर्वी	5589
▁टप्प्यात	5588
▁फेरी	5588
▁आल्याचे	5585
िकी	5584
▁४५	5582
▁सोयी	5581
▁आणली	5580
▁०	5580
गण	5579
ातही	5579
▁वयाच्या	5575
▁सध्याच्या	5575
▁गौरव	5573
▁शेतक	5573
वाल	5569
▁पैश	5568
▁प्रभाग	5566
x	5561
▁अर्थातच	5560
▁उत्पादने	5559
▁वितरण	5556
ूला	5554
▁घु	5552
▁वर्षाच्या	5550
ायचं	5549
▁मारली	5549
▁जाण्यासाठी	5547
भोवती	5546
▁खड	5544
स्टर	5543
▁क्विंटल	5543
श्	5542
▁जोर	5542
▁तरुणी	5541
▁मराठ	5541
▁आहार	5540
साची	5538
▁म्हणाल्या	5538
▁संघटने	5538
▁आठव	5537
लेट	5533
▁ठरली	5533
▁थोड्या	5533
ात्मक	5532
▁घाबर	5530
▁प्रभावी	5529
▁नावाचा	5528
▁वाढले	5527
वण्याची	5526
▁दिग्दर्शक	5526
▁निर्णया	5526
▁एकत्रित	5525
याने	5523
स्त्र	5522
▁बिल	5521
▁अवस्थेत	5519
च्छ	5516
▁२०१४	5516
▁जाण्याची	5515
▁मेट्रो	5512
त्त	5509
रि	5508
▁कायदेशीर	5505
▁पाणीपुरवठा	5503
▁संकट	5502
▁ट्र	5499
▁अत्याचार	5494
▁टाकला	5494
▁उत्कृष्ट	5493
▁काँग्रेसच्या	5493
▁पारंपरिक	5493
▁प्रशांत	5493
▁भाज	5493
कं	5491
▁उत्	5490
वायचा	5488
▁उपाययोजना	5488
▁असतानाही	5486
▁मुदत	5485
▁न्यायालयाच्या	5484
▁टू	5483
▁शेतकर्यांना	5482
ळाची	5481
▁बारीक	5481
▁भात	5478
▁एवढे	5477
▁अडक	5476
▁आश्चर्य	5475
▁ट्रम्प	5474
▁मोहन	5473
▁ठरते	5472
▁तिमाहीत	5469
▁नी	5469
▁माणसं	5469
▁india	5467
निमित्त	5463
▁व्यक्ति	5455
▁योगदान	5451
▁ब्राह्मण	5449
▁समर्थन	5449
▁रुपयांच्या	5447
प्स	5445
▁शेकडो	5445
▁एके	5441
▁डिजिटल	5440
▁युवक	5440
▁अध	5437
▁कात	5437
▁झाडे	5435
क्त	5434
▁देण्या	5432
▁मुर	5430
चाच	5429
सले	5429
▁त्याच्यावर	5429
▁प्रसार	5428
▁शेजारी	5427
▁मनुष्य	5424
▁श्रद्धा	5424
ख्या	5423
▁छाप	5423
▁निर्देश	5423
▁गाड	5421
▁भोग	5415
▁स्वातंत्र	5413
जर	5412
▁पुढाकार	5411
फी	5409
▁वेब	5409
▁शेतात	5406
▁१९८	5405
▁लक्ष्य	5401
डेकर	5398
वायची	5398
▁संस्थेच्या	5396
▁दाट	5392
▁भ्रष्टाचार	5392
थे	5391
ौ	5387
ईल	5386
▁अन्याय	5381
▁मनसे	5381
▁is	5380
▁खोली	5378
णामुळे	5373
▁बाळग	5373
नेच	5372
▁धक्कादायक	5370
▁हमी	5370
▁प्रसाद	5368
▁घेतलं	5367
▁कुठेही	5366
▁थोडक्यात	5364
▁कां	5362
▁उम	5359
▁स्वरूपात	5359
▁बाप	5357
▁याविषयी	5354
▁स्तन	5353
▁यंत्र	5352
▁विष	5346
▁वेळेस	5346
▁८०	5344
▁श्रीमंत	5339
▁निव्वळ	5338
▁शास्त्र	5338
▁संगीता	5337
▁वास्तव	5336
▁वीस	5336
▁बेळगाव	5335
▁29	5333
▁डा	5333
▁प्रसंगी	5333
▁अभ्यासक्रम	5328
▁सामान	5328
▁कुणाला	5327
▁दिल्लीत	5324
▁त्यातच	5322
वावी	5319
▁सर्वांनी	5318
▁दाद	5316
लिक	5313
▁घेताना	5313
▁चौथ्या	5307
▁कृपया	5303
ष्	5300
▁सिटी	5300
▁सुवर्ण	5300
▁दादा	5296
िटी	5295
वरच	5294
▁शत	5294
▁शेतकर	5293
▁सभेत	5292
▁त्यां	5291
▁फ्रान्स	5291
▁अज	5288
▁मर्यादित	5288
▁तुकाराम	5286
▁देशपांडे	5285
सना	5281
ंगे	5280
रीच्या	5279
▁स्थायी	5275
▁उद्दिष्ट	5270
▁वेद	5269
वल	5264
▁हवेत	5260
कांकडून	5259
▁उत्पादक	5258
डर	5257
▁हॉ	5254
▁आकर्षक	5253
▁पाहिलं	5251
▁वाटू	5251
▁गाड्या	5249
▁बँ	5249
▁आवक	5248
▁दुष्काळ	5243
▁यायला	5243
▁लावले	5243
ावेत	5241
▁शिवसेनेचे	5241
चाही	5233
यांना	5233
▁तापमान	5233
▁डोक्यावर	5230
▁सर्	5228
भू	5227
घर	5226
स्थान	5225
▁दिवा	5224
▁बांधून	5224
▁डोळ	5223
▁चर्चेत	5222
▁चिर	5222
साचे	5220
▁पाने	5220
is	5219
▁क्लब	5218
▁प्रमाणपत्र	5216
▁वीर	5212
▁फॅ	5211
▁मूल	5211
▁राज्याचे	5210
▁औ	5206
कांमध्ये	5205
ेंट	5203
▁खरंच	5203
▁दहशतवादी	5203
ळं	5202
▁झाल्यामुळे	5201
▁गुन्ह	5199
▁ठराव	5198
▁सत्कार	5195
▁आत्ता	5194
▁महत्त्वाच्या	5193
▁जनतेला	5191
▁त्याबद्दल	5191
्यांकडे	5190
▁घडत	5189
▁देणाऱ्या	5189
▁दिलेला	5188
▁तीच	5187
▁सर्वांत	5187
▁युरोप	5186
▁वार्षिक	5186
▁सेट	5183
▁नाकार	5182
▁योजने	5181
▁नेत्यांनी	5180
ोट	5177
▁वाक्य	5175
et	5174
▁पडलेल्या	5174
▁साम	5174
▁महामार्ग	5172
विरोधी	5169
पुरी	5168
▁बदली	5168
▁गाणं	5167
▁वाचन	5167
▁कठोर	5166
वलेल्या	5164
▁मुळ	5164
गाच्या	5163
▁पंजाब	5163
▁न्यायालया	5161
▁५००	5156
▁मालमत्ता	5155
▁बोर	5151
▁गुंत	5150
▁सद	5149
▁श्रेणी	5148
▁वाहने	5147
ळाला	5144
करता	5142
ांपासून	5141
▁पवित्र	5141
▁मनोहर	5141
▁विठ्ठल	5141
सेस	5140
▁हेतू	5139
▁भास	5138
▁फसवणूक	5136
स्था	5134
▁शांतता	5133
▁सेंटर	5132
▁कस	5131
▁दिनांक	5131
▁कोंडी	5130
▁डॉलर	5130
▁येणारे	5127
▁दिवसभर	5126
ांड	5123
▁काळ्या	5123
▁राऊत	5122
▁कर्णधार	5121
निंग	5120
वासी	5118
अंतर्गत	5116
▁दृष्टी	5116
▁मान्यवर	5116
र्ज	5115
त्रा	5114
▁असंख्य	5114
▁दिवसा	5114
▁घात	5107
▁घेवून	5107
▁नो	5105
▁यादीत	5105
▁साधन	5103
▁असुन	5100
▁डेटा	5098
▁शकणार	5097
▁ः	5095
▁पाहिजेत	5093
ावि	5089
▁वाढला	5088
▁अंत	5087
▁गेम	5086
▁दलित	5077
▁मालक	5076
▁तुट	5075
▁सांगित	5075
▁उडाली	5074
▁जर्मनी	5074
▁डोक्यात	5074
▁पालखी	5073
▁पावसाने	5071
▁भारताचा	5071
▁७०	5070
▁j	5069
▁लोकांचा	5069
▁संगणक	5068
बो	5066
▁दत्त	5066
▁रायगड	5066
▁गैर	5065
विण्याची	5064
▁कशाला	5063
▁दान	5063
▁दुर्	5063
▁डाव्या	5062
▁अँ	5061
▁अर्	5061
▁पार्क	5061
▁प्रशासना	5061
▁समजले	5059
▁महाराष्ट्राच्या	5058
▁सूत्रांनी	5056
याला	5054
▁क्लिक	5053
▁35	5051
▁निधन	5049
▁विराट	5049
▁कादंबरी	5048
ॅक	5047
▁चळवळी	5044
▁यावी	5042
▁प्रकृती	5041
ण्यावर	5036
▁व्हावा	5036
गृह	5035
▁अश	5034
लाव	5029
▁लातूर	5025
▁सहायक	5021
पदी	5020
राचे	5020
▁राष्ट्रवादीचे	5019
▁लागतील	5018
पास	5017
र्थ	5014
▁शहरी	5010
▁उत्साह	5004
▁गिर	5000
▁एकीकडे	4995
यांनी	4994
▁अडचण	4994
ेक	4991
णकर	4990
▁60	4990
▁ब्र	4990
▁यांनीही	4990
वणार	4989
▁निर	4989
▁पर्व	4987
▁मिनिटे	4985
▁वाटतो	4985
▁समस	4984
▁खालील	4982
▁यापुढे	4982
▁केल्याचा	4981
ंदर	4979
श्या	4978
▁उभ्या	4974
▁मृत	4974
▁गणित	4973
▁गुणवत्ता	4972
▁साय	4970
▁वापरले	4969
▁सोन	4968
▁ग्रामपंचायती	4966
▁हेक्टर	4962
▁नोट	4959
▁एकमे	4958
▁निक	4957
▁फेर	4957
▁जायला	4955
ंचं	4954
शीत	4954
▁पर्रीकर	4952
▁भारताचे	4951
▁धोर	4949
▁विभागीय	4947
वाडा	4945
नाम	4944
▁कार्यवाही	4944
▁पुण्यातील	4944
न्न	4943
▁म्हट	4942
▁भागा	4941
विक	4940
▁सांगू	4940
पूर्व	4939
▁उघडकीस	4939
▁आधारे	4937
▁भिंती	4937
▁पंढरपूर	4936
▁full	4934
देश	4933
▁धन्यवाद	4932
▁विभागातील	4932
▁त्र	4931
डीच्या	4929
विषयक	4927
▁माणस	4926
▁सुविध	4926
▁घोषित	4925
▁याचं	4925
▁वाटेल	4925
▁वृ	4925
▁आपापल्या	4924
▁देह	4921
ंस	4920
▁व्यवस्थे	4920
लर	4911
बद्ध	4908
▁विज	4907
ोरी	4906
ाविषयी	4905
▁सर्वसाधारण	4905
▁मुलाला	4902
▁पालन	4901
am	4897
▁एवढा	4897
▁अस्तित्वात	4896
▁चांगलं	4896
▁मोह	4894
▁आंब	4891
▁मोठ	4891
▁लिंक	4891
▁फेक	4889
▁साप	4889
ाते	4888
▁शुभ	4887
▁न्यायाधीश	4886
▁बुद्धी	4886
▁दोघ	4884
▁सोमवार	4884
तरी	4883
▁मिनिट	4880
योग	4879
▁कोणा	4877
▁यावरून	4877
▁काश्मीर	4876
▁फो	4873
▁उपस्थिती	4872
▁खेड	4869
▁जैन	4869
भे	4867
व्य	4866
▁वकील	4866
▁३२	4863
▁दुख	4862
z	4860
बाज	4859
▁जाणारी	4859
▁निर्यात	4859
कृ	4858
वेत	4858
▁युव	4857
▁हल्ली	4852
▁दिलासा	4850
▁डाउनलोड	4849
ळाचे	4844
▁लोकसंख्या	4841
वते	4840
▁प्रिय	4839
▁रुपयांचे	4838
▁अशक्य	4836
▁क्षम	4836
▁सोडले	4836
▁कपूर	4834
▁वेगवेगळे	4833
किंग	4830
▁संशय	4829
▁रवींद्र	4828
▁दोघेही	4826
▁फंड	4826
▁लागून	4826
देवी	4824
भाग	4823
म्प	4823
▁चालक	4823
▁अपघातात	4822
▁साडे	4822
▁ग्र	4821
▁मराठीत	4820
▁गटात	4819
▁यंत्रणे	4819
▁संताप	4819
▁दृश्य	4815
▁ठेवणे	4811
▁चौधरी	4809
▁दहशतवाद	4809
▁पुर्ण	4809
▁विधी	4806
▁संघटनेचे	4805
ांपर्यंत	4804
▁केरळ	4804
▁यासंदर्भात	4803
▁सेवे	4803
▁देणारा	4800
▁प्रारंभ	4799
▁लु	4799
▁वाळ	4799
▁केंद्रा	4798
▁सहाय्यक	4798
नाव	4794
▁प्रथमच	4793
▁भाविक	4791
▁चल	4790
▁पाप	4790
ऱ्यात	4788
वण	4788
▁जंग	4787
▁वगळता	4785
▁था	4784
▁निवडणुकीच्या	4783
▁उन्हा	4778
▁ऍड	4778
▁तलाव	4778
▁अभ्या	4777
▁असणारी	4776
▁व्यवस्थाप	4774
▁किंमती	4772
▁चव	4772
▁मीडियावर	4771
माची	4770
▁स्थ	4769
▁कराड	4768
▁पक्षनेते	4768
▁रण	4768
▁वातावरणात	4767
▁सोसायटी	4767
▁होताना	4766
सेवा	4763
▁व्यायाम	4763
▁बिघड	4761
व्हा	4760
▁आयुक्ता	4760
▁पथकाने	4759
वाय	4757
वतीने	4755
▁कौशल्य	4754
▁कायद्या	4753
▁गडकरी	4753
▁लुट	4753
w	4752
▁वरच्या	4752
▁माळ	4751
▁होण्यास	4748
आधी	4747
▁अब	4747
स्कर	4744
▁दुकान	4740
▁नसताना	4739
श्री	4738
▁उपक्रमा	4738
▁आणण्यासाठी	4733
▁झु	4733
▁जीएसटी	4730
▁ट्रेन	4730
▁आस	4729
▁चर्चे	4729
▁ठरत	4729
ँड	4727
▁जाणारे	4727
ताच्या	4726
▁मिट	4726
▁त्यापेक्षा	4724
▁प्रदूषण	4724
जि	4722
▁समाविष्ट	4722
▁काढण्यासाठी	4721
▁अस्तित्व	4716
▁बिन	4714
▁नफा	4713
फर	4711
▁ध्येय	4711
▁वक्तव्य	4711
▁परी	4710
▁अली	4708
सार	4707
▁शेतकऱ	4707
▁कोणते	4702
▁घेण्या	4702
ांपेक्षा	4701
▁डोक	4700
▁श्वास	4699
▁मोर	4698
▁जाणारा	4696
▁समाजा	4694
▁बंध	4693
ळाचा	4692
▁जड	4691
▁जाणार्या	4691
▁देणारी	4690
▁नसल्यामुळे	4689
▁महागाई	4689
खु	4687
राई	4687
▁धनंजय	4687
▁वयात	4685
▁माना	4684
ेशी	4682
▁अनेकांना	4681
ट्ट	4680
▁बघता	4679
ुप	4678
▁प्रदर्शित	4677
विण्याचे	4674
▁अभियंता	4674
▁प्रदेशाध्यक्ष	4674
▁रुप	4673
▁हस	4673
▁धर्मा	4671
▁खेळा	4668
▁त्याबाबत	4668
▁परिषदे	4667
▁वास	4666
सात	4664
▁मुख	4663
▁रवी	4663
▁अण्णा	4662
▁पाण्याच्या	4661
▁शकले	4661
▁दिल्याने	4660
▁मनाला	4660
▁ज्याला	4658
▁सुपर	4657
▁सभासद	4655
▁घडवून	4653
▁घरे	4653
करा	4651
▁दोषी	4650
▁सिंधुदुर्ग	4647
फळ	4645
▁वस्त	4645
▁मासिक	4644
▁वर्षांचा	4644
▁घट्ट	4643
▁वृत्ती	4642
▁फळे	4641
वं	4640
▁अभिनेता	4640
▁आयुष	4640
▁बदलून	4638
▁दिसले	4635
▁बँके	4635
▁उद्योजक	4634
▁राजकार	4634
▁शकतील	4632
▁उपस्थितीत	4631
▁ग्रॅम	4631
जण	4630
्यामध्ये	4630
द्ध	4629
द्य	4629
▁आदि	4629
▁पडू	4627
▁देख	4626
▁दरात	4625
▁धमकी	4624
▁१९६	4624
▁वेध	4623
▁त्यांच्याकडून	4622
त्ता	4621
मध्येही	4619
▁निकष	4619
▁तात्काळ	4617
▁अंध	4616
▁घरच्या	4614
▁साधना	4613
ot	4610
▁आरोग	4609
▁पंडित	4609
▁ग्राह	4607
▁लोकांचे	4607
▁केंद्रात	4606
▁माण	4606
▁अक्षरशः	4605
▁खळबळ	4605
▁गम	4604
▁पक्षा	4604
▁प्रार्थना	4604
▁न्यू	4603
▁महादेव	4603
ुरे	4602
▁अनंत	4602
▁सज्ज	4602
यास	4601
व्यात	4601
वाले	4600
▁बिहार	4599
▁परिषदेचे	4596
▁मार्गाने	4594
▁वेळे	4593
▁पूल	4591
▁संघाचे	4588
▁फुटबॉल	4587
▁रात्र	4587
▁विजयी	4587
पक	4586
▁पुण्या	4581
▁मंड	4581
पोटी	4580
▁री	4580
▁लढा	4580
▁वाव	4579
▁टाटा	4578
▁वाढत्या	4578
▁शाळे	4578
ण्याला	4577
▁जमाती	4577
▁वस्ती	4577
▁कृष्णा	4576
▁आढळ	4573
▁आशिया	4572
िकल	4571
▁लोकल	4571
▁व्य	4571
▁नुकताच	4570
काय	4568
▁आग्रह	4567
▁तत्त्व	4566
डकर	4563
त्ते	4560
ाजवळ	4560
▁दिवसांनी	4560
▁तिथून	4558
▁नुसार	4558
▁रामदास	4558
▁भक्ती	4557
▁महाजन	4557
पूर्वक	4556
▁भिज	4556
▁थोडं	4555
▁पोर	4555
▁२०१५	4553
फु	4552
▁होताच	4551
▁असणारा	4550
वाई	4549
▁नयेत	4549
दारा	4547
▁वैभव	4547
▁मैत्रिणी	4545
▁सॉफ्टवेअर	4545
▁मशीन	4543
▁पिका	4540
टाच्या	4535
▁अपवाद	4535
ाराला	4534
▁भविष्य	4534
▁विद्युत	4533
ष्ठ	4532
▁ठेवण्यासाठी	4531
ाराचे	4526
▁अधिकाऱ	4525
▁स्कूल	4525
▁निघाले	4522
▁भूमिके	4521
डो	4519
क्ती	4518
▁कामासाठी	4518
▁प्रेक्ष	4514
▁सुटका	4514
▁शिवसेने	4512
र्व	4511
▁असतांना	4511
▁बाळा	4510
▁रक्ता	4510
िरी	4508
▁पाहण्यासाठी	4508
ंबी	4507
▁पावले	4506
▁आणला	4505
▁पाना	4503
▁दुस	4501
▁प्रयत्ना	4499
▁पथक	4498
▁यशा	4498
ळला	4497
िकेत	4497
▁कॉम	4497
कडं	4495
▁आसपास	4495
ंतून	4494
▁ग्रामपंचायत	4494
हेर	4493
▁वेळोवेळी	4493
▁बोलले	4492
▁अंक	4490
▁शाखा	4490
▁इथल्या	4488
▁छायाचित्र	4488
▁तेथून	4488
om	4486
चि	4484
▁भूमी	4484
▁धडा	4483
▁मंदिरा	4481
तीचा	4480
लांना	4477
पाच्या	4476
▁कोसळ	4475
▁नाच	4475
▁खां	4474
चित	4472
▁२००	4472
▁दिसू	4471
बाब	4470
▁सोहळ्या	4468
▁गोव्यात	4467
▁उग	4466
▁2014	4463
▁बाबत	4462
▁रोप	4461
्रेस	4460
टात	4458
▁वर्षांनी	4458
स्क	4457
च्च	4455
▁रेकॉर्ड	4455
▁टॉम	4454
▁तुझी	4448
▁बोलून	4447
▁व्याख्या	4445
▁निघा	4439
▁ब्रह्म	4439
▁लावण्यात	4438
▁वाटचाल	4437
▁हळू	4437
ेव	4436
▁rs	4435
▁पुस्तकात	4434
▁व्याप	4434
▁साध्य	4434
ऱ्याच्या	4433
▁वैशिष्ट्य	4433
िश	4432
▁रड	4431
▁सरकारकडून	4431
▁बंड	4430
णू	4428
▁रूपये	4428
▁कोरेगाव	4427
▁खोल	4427
ांनाही	4426
▁उत्स	4426
▁जुने	4423
▁ट्रस्ट	4421
▁भरत	4420
▁लक्ष्मण	4420
▁शी	4420
▁जपान	4418
▁दबाव	4418
चित्र	4415
▁संस्थापक	4414
▁किरकोळ	4410
लाची	4409
▁खराब	4409
▁मुद्दे	4408
ra	4406
▁पहिल्यांदाच	4406
▁स्फोट	4406
प्रेमी	4402
ूंच्या	4402
▁प्रसिद्धी	4402
▁महिन्यांत	4401
▁कारणे	4400
▁सगळा	4400
▁यापैकी	4399
▁वाजपेयी	4399
▁स्पर्धे	4399
▁इमारत	4397
▁तसाच	4395
▁नगराध्यक्ष	4394
▁मूलभूत	4392
▁केल्यामुळे	4390
▁मजबूत	4390
▁कोणती	4388
▁मोठय़ा	4388
▁स्वतःचा	4388
▁ग्रामस्थ	4387
▁प्रक्रिये	4387
▁शनिवार	4387
▁दल	4386
▁तूर	4385
▁सुधीर	4384
▁तिकीट	4382
युक्त	4381
▁सरकारचा	4381
▁अल	4380
ंपैकी	4379
▁संघाने	4378
▁घाला	4377
▁तत्काळ	4377
▁जुना	4376
▁लागतं	4375
ब्	4373
क्शन	4372
पाशी	4372
▁कंपनीला	4371
▁मिर	4371
▁रोहित	4371
▁चिक	4370
जु	4369
▁घडले	4368
▁नेट	4367
▁पहायला	4365
▁विचारलं	4365
▁यात्रे	4364
▁मानस	4357
▁विचारला	4357
▁मिरची	4356
▁हजेरी	4354
▁तहसीलदार	4351
▁पत्ता	4351
▁ग्रा	4349
▁टाकली	4349
▁नेता	4349
मार्	4348
▁बॅं	4347
▁सामील	4347
▁पडणार	4346
स्व	4344
ळावर	4340
▁लढाई	4339
▁रिक्त	4338
▁कों	4335
▁बद	4335
मल	4334
▁कृ	4334
▁चौकात	4334
▁प्रकारचा	4331
▁रविवार	4331
▁व्यवसाया	4331
▁मांडली	4329
▁येण्याची	4329
j	4328
लांनी	4328
▁बहिणी	4325
बंदी	4324
▁वर्षां	4322
णास	4320
ट्स	4319
यां	4319
▁नॅशनल	4317
भाऊ	4316
ांतर्गत	4313
▁असल्याचेही	4313
▁प्रामाणिक	4311
▁वसंत	4309
▁कॅमेरा	4306
▁७५	4306
▁लोकप्रतिनिधी	4305
▁कर्तव्य	4304
▁भक्ता	4304
▁संस्कृत	4301
माचे	4300
▁एवढेच	4300
ियम	4299
▁तशीच	4299
▁बोर्ड	4298
▁हालचाली	4298
▁कुल	4297
▁ज्ञानेश्वर	4295
मार्ग	4292
▁तणाव	4292
▁हत्ती	4292
▁मनो	4291
गाने	4290
▁उजव्या	4290
▁जोडी	4289
तः	4288
लत	4288
▁इस	4288
▁फेरीत	4288
▁ओर	4285
▁ज्यांनी	4282
▁मुलीला	4282
▁आवडत	4281
▁पडतात	4281
▁जारी	4280
▁बनले	4280
▁लेखी	4278
ंध	4277
▁स्मृती	4276
▁ठीक	4275
▁माध्यमिक	4273
खर	4272
▁ओळखले	4272
▁सिनेमात	4272
गाचे	4271
▁ट्रेक	4270
▁नसतात	4270
▁राजस्थान	4269
▁सलमान	4269
माना	4268
▁पन्नास	4268
▁शोधून	4268
चाल	4267
▁वाहतुकी	4267
▁विद्यमान	4266
▁गुगल	4265
▁थोर	4263
▁घोड	4262
क्षे	4261
el	4258
▁कडून	4257
▁मुल	4257
▁मुलां	4257
▁सांगितली	4256
तंय	4255
पाला	4255
बंध	4255
▁पक्षात	4254
▁मूल्य	4254
लास	4253
▁तिथल्या	4253
▁अर्पण	4252
▁o	4251
▁कामत	4251
▁३६	4250
▁तिन्ही	4247
▁घेण्यास	4244
▁सतीश	4244
▁गुप्त	4239
▁त्याप्रमाणे	4237
ur	4236
▁बचाव	4236
▁लाट	4236
▁शिज	4235
ल्ली	4232
▁फर	4232
▁अपघाता	4230
▁जिल्हाध्यक्ष	4228
▁आंतर	4225
▁नोटीस	4224
▁प्रादेशिक	4224
▁घडला	4223
▁अक्षय	4221
▁लप	4218
▁मध्यवर्ती	4217
▁इथं	4214
▁वज	4213
▁संस्थे	4213
▁इकडे	4212
▁स्वर	4212
▁अवलंब	4211
▁पळून	4211
▁व्हायरल	4209
▁अक्षर	4208
▁एवढ्या	4208
▁स्मरण	4207
▁अभिन	4206
▁बोलाव	4206
▁व्हिडीओ	4206
▁अमोल	4205
▁आयात	4205
▁इंडियन	4205
▁येणारा	4205
य्या	4203
▁मुंबईच्या	4203
▁तथापि	4202
▁उत्सुकता	4201
il	4199
▁परिवहन	4197
▁हिंद	4196
▁ब्रा	4195
▁रस्त	4195
्हा	4194
▁आईला	4192
▁वास्त	4192
▁मोठं	4191
▁संशयित	4191
▁कुटुंबा	4189
▁वाहून	4189
सान	4188
▁राजे	4188
▁विचारात	4188
▁कार्	4186
छ	4185
▁एकमेकांना	4183
▁पेरणी	4179
▁मोहिमे	4179
▁स्टार	4179
▁खत	4176
▁नेतृत्वाखाली	4176
▁सत्र	4176
▁मैदानावर	4175
▁हॉस्पिटल	4174
▁अभ	4173
▁शेट्टी	4173
▁तुकडे	4172
▁अटी	4171
▁पत	4171
▁संघात	4171
घे	4170
▁दोघांनी	4169
▁पू	4169
▁पुत्र	4168
▁इथ	4167
क्षेत्र	4166
त्ती	4166
▁मार्गदर्शनाखाली	4165
▁अधिकाऱ्यांनी	4164
▁मंगळवार	4163
ण्यापूर्वी	4162
▁वाहना	4161
गाची	4160
▁प्राण्या	4160
▁शाहू	4160
▁चर्च	4159
▁शु	4158
▁०००	4155
▁व्हि	4152
▁मॉडेल	4151
▁रांग	4151
▁स्वतःच	4149
▁आक्षेप	4146
▁लिही	4143
▁गीता	4139
कीय	4138
▁दै	4137
▁जागेवर	4136
os	4133
▁2015	4133
▁32	4133
▁मारा	4133
▁संपादक	4133
▁बँकेच्या	4132
▁संपन्न	4128
ावला	4126
▁अगोदर	4126
▁जुनी	4125
▁सुरूच	4125
▁अजय	4124
▁धो	4121
▁सावरकर	4121
टीने	4120
ूंनी	4120
ूच्या	4119
▁गाणे	4119
▁गावी	4119
▁गप्प	4118
मुळेच	4117
लेस	4116
▁काँग्रेसने	4115
▁परा	4109
▁पै	4108
▁संघाच्या	4108
▁अचूक	4107
▁लंडन	4107
▁संसार	4106
साने	4105
▁वर्गात	4105
▁फिल्म	4104
▁पाठपुरावा	4103
▁शस्त्र	4102
id	4098
संबंधी	4096
▁सरदार	4096
फि	4095
पासुन	4094
लांच्या	4093
ण्यापेक्षा	4092
▁तुझा	4091
▁संस्थेचे	4090
▁वृद्ध	4089
▁९०	4089
▁खाण	4088
▁आजपर्यंत	4087
▁कंपनीचे	4087
▁गल्ली	4087
▁वावर	4084
यच्या	4083
▁दी	4082
मंत्र	4081
्यांसह	4080
▁क्षेत्रा	4077
▁नवरा	4077
▁त्यातही	4074
वट	4073
▁जगभरात	4072
झे	4071
▁विकासासाठी	4069
▁सत्ते	4069
ent	4068
▁टप्पा	4067
▁धान्य	4065
▁वंचित	4065
▁शास्त्रज्ञ	4064
वर्ग	4062
▁घेण्याचे	4061
▁बुधवार	4061
भार	4060
्याच	4059
▁मेंदू	4056
▁सरकारची	4056
▁नार	4055
०००	4053
▁अभिनंदन	4050
▁लांबी	4050
▁देशाला	4049
▁वारसा	4049
▁प्रवीण	4048
▁यू	4048
▁सरकारचे	4048
▁अखिल	4047
▁प्रदर्शन	4047
▁अमेरिके	4046
▁येणारी	4046
▁शब्दात	4045
▁असंही	4042
▁धारण	4042
▁भुजबळ	4041
▁शाह	4040
▁रुग्णालया	4039
▁सर्वेक्षण	4039
▁परमेश्वर	4037
▁राशी	4037
▁सत्तेत	4036
▁काढत	4033
▁स्थितीत	4031
ळणी	4030
▁आजकाल	4030
▁उदय	4030
▁कार्यक्रमाचे	4029
▁ज्यात	4029
▁जन्माला	4027
पाने	4026
▁डिझेल	4022
▁खोलीत	4021
▁सूत्र	4021
तेला	4020
▁वैज्ञानिक	4020
पुर्वी	4019
▁कुणा	4018
▁खात्यात	4017
▁माता	4015
▁राज्यमंत्री	4015
▁70	4014
▁कुठ	4014
▁राही	4014
▁अस्	4013
▁नुकतेच	4012
▁पडेल	4012
धिक	4010
▁बोलू	4010
▁तंत्रज्ञाना	4009
कर्	4007
▁चेन्नई	4007
▁अधिका	4005
▁ठरू	4004
ri	4002
▁एकनाथ	4002
▁यांचं	4001
▁रस्त्याच्या	4001
▁विना	4001
▁तिथेच	4000
▁मायबोली	4000
निक	3999
लाचे	3998
▁असलं	3998
▁नावाची	3998
▁आवडते	3997
▁ठोस	3997
▁बैठकी	3997
ोगा	3995
▁शुक्रवार	3995
▁शहरा	3994
▁बनावट	3993
ऑ	3990
▁आकडेवारी	3990
▁धड	3990
▁भाषे	3990
▁वाचायला	3989
ांस	3988
▁पाठी	3988
▁महाराष्ट्रा	3988
▁शिवसेनेच्या	3988
हीत	3987
सोबतच	3985
▁इंग्रज	3983
टन	3981
▁ली	3981
बाग	3980
▁0	3979
वडी	3978
▁काका	3978
▁जमिनीवर	3977
प्रा	3976
▁पेठ	3976
णाऱ	3975
र्क	3974
▁स्पर्श	3974
▁बिया	3971
▁जुळ	3970
▁अनेकांनी	3969
▁www	3968
▁प्रतिक	3968
ईक	3967
ूने	3967
▁जम्मू	3967
गावकर	3966
▁उमट	3966
▁त्यांच्यात	3966
▁मधल्या	3966
सून	3965
ोजी	3963
▁वनस्पती	3963
▁समजा	3962
▁नोकर	3960
▁उभारणी	3958
▁निविदा	3958
▁रान	3958
▁तिचं	3956
▁मंडळाच्या	3956
▁झालाय	3955
दू	3954
▁अभि	3953
▁थर	3953
▁नाटका	3953
▁रसिक	3953
▁संघटनेच्या	3953
टीच्या	3952
नास	3952
▁अमर	3951
▁व्यक्तीच्या	3951
▁शहराच्या	3951
▁आनंदी	3950
▁चेंडू	3950
▁पक्षाने	3949
क्क	3947
▁दहावी	3947
▁पाण्याचे	3947
▁समजते	3947
डीचा	3946
▁80	3946
टो	3945
▁कच	3943
▁खऱ्या	3943
▁त्वरित	3943
म्ब	3942
▁आराखडा	3942
▁स्पर्ध	3942
शु	3941
▁बदलत	3940
▁करावं	3939
▁मंद	3938
▁मागास	3938
ध्य	3934
ळ्यात	3934
▁खर्चा	3933
▁चला	3933
▁त्यावरून	3933
▁नदीच्या	3933
▁पडते	3932
▁थंडी	3931
▁तिघ	3929
▁सराव	3928
▁दीर्घ	3925
▁सक्ती	3924
▁किंबहुना	3923
▁नावा	3922
कता	3920
▁घडामोडी	3920
▁प्रताप	3920
▁प्रसन्न	3920
▁स्क	3920
ऱ्यांना	3919
▁कंपन	3917
▁खोटे	3917
मंड	3916
▁प्रत	3916
▁गोळ्या	3915
▁जवळजवळ	3914
▁ठेवत	3914
वाट	3912
▁वृत्तपत्र	3912
एन	3910
▁भीमा	3910
▁घातले	3909
▁घालत	3909
▁महत्त्वपूर्ण	3908
▁कायदे	3907
▁दिव	3906
▁नुकतीच	3906
▁देशाचे	3905
वाणी	3904
▁ओरड	3904
▁अभियान	3902
▁उंचा	3902
▁उस	3902
▁ज्यांच्या	3902
▁यंदाच्या	3902
▁भीषण	3901
तेत	3900
र्न	3899
▁भारताची	3898
डाच्या	3895
स्थिती	3895
▁वास्तविक	3894
फो	3893
▁सौंदर्य	3890
▁असायला	3889
वावा	3888
▁वारी	3888
▁१९५	3888
विल्या	3886
▁घरगुती	3886
▁दाखवली	3886
▁अभिमान	3884
▁प्रच	3884
▁खड्डे	3883
▁शैली	3881
▁अक्ष	3880
▁बेट	3880
▁योगेश	3879
▁सिंचन	3879
नर	3878
▁प्रतिपादन	3878
कोट	3877
वताना	3876
▁मुलींना	3875
वाल्या	3872
▁ठाऊक	3870
पार	3869
▁व्यापक	3868
ताने	3865
सत	3865
▁ठाम	3864
▁कण	3863
▁कितीतरी	3863
्यांत	3860
▁छोटी	3860
▁पाहिला	3860
ांक	3857
▁अतुल	3857
▁मिळतील	3856
▁मिश्रण	3856
ूर्	3855
▁उद्योज	3855
▁नृत्य	3855
चंद	3854
ळेकर	3854
▁चुकीचे	3853
▁महिलांनी	3853
▁अमेरिकेच्या	3852
▁उपचारासाठी	3852
▁प्रकाशन	3851
▁दिवसेंदिवस	3850
▁ज्यामुळे	3849
धिकारी	3847
▁घटने	3847
▁निरोप	3847
▁वेदना	3847
▁लोकं	3846
पणी	3845
फार	3845
▁अज्ञात	3845
▁भी	3845
ध्या	3844
वावर	3843
▁जनजागृती	3843
एफ	3840
ुरी	3840
▁वादा	3840
▁बोलता	3839
▁फारसा	3838
▁साधून	3837
ुरू	3836
▁नावावर	3836
सरी	3835
▁देशभरात	3835
माचा	3834
▁अडचणीत	3834
▁डोळ्यात	3833
▁निव	3832
▁क्रमांकावर	3831
▁विवेक	3831
▁आत्मविश्वास	3829
▁बेड	3828
▁लिहा	3828
▁उशिरा	3826
▁क्रमां	3826
बंद	3824
▁पुरावे	3824
▁इतकं	3822
▁उडी	3822
▁इंग्लिश	3820
▁टोक	3819
▁लेखात	3819
▁तारीख	3818
चीत	3816
▁प्रस्थापित	3816
▁पदे	3814
▁राबविण्यात	3814
▁दोघांना	3811
मात	3810
▁आपणास	3810
▁नसलेल्या	3808
▁गाण्या	3807
▁धोकादायक	3807
परी	3806
भव	3806
▁गां	3806
निर्मिती	3805
▁त्यांच्याशी	3803
▁साहित्यिक	3803
पाची	3800
▁फॉर्म	3800
डीचे	3794
▁महत्वाची	3794
जीव	3793
▁कामाचा	3793
टल	3789
▁महाराजांच्या	3789
प्प	3787
▁विहिरी	3785
▁वाड	3784
▁उच्चार	3783
▁खुद्द	3782
▁सगळ्यांना	3780
▁ठेवावे	3778
▁फ्र	3776
मुळं	3775
▁सांगते	3774
▁एक्स	3773
▁पोल	3773
▁लिखाण	3772
▁व्यवसायात	3772
▁१९४	3772
▁पुन	3771
▁गीत	3770
▁स्वभाव	3769
पट्टी	3768
▁त्यांच्यासाठी	3766
▁स्वराज	3766
ेंद्र	3765
▁यात्रा	3765
ल्ल	3763
▁दिसला	3763
▁दोघी	3763
▁नगरसेव	3763
▁हळद	3761
▁परवाना	3760
▁जनतेच्या	3759
ोबा	3758
▁बजाव	3758
▁संकल्प	3758
धान	3757
▁गिरीश	3755
▁शिवसेनेने	3755
▁जलद	3752
▁आवृत्ती	3751
▁करतोय	3751
▁नाट	3751
▁मिसळ	3751
▁चळवळ	3750
त्स	3747
▁टोळी	3747
▁चित्रपटा	3746
▁अस्वस्थ	3745
माग	3742
▁राहावे	3742
▁कुत्र	3739
▁केलाय	3739
खान	3738
▁किल्ल्या	3738
▁टेबल	3738
▁याआधी	3738
▁वैद्य	3738
▁आठवले	3737
▁उभारण्यात	3737
▁गर्भ	3737
▁काळातील	3736
▁टॉ	3736
▁जेथे	3735
▁यावा	3734
▁बंदोबस्त	3733
▁घाई	3732
▁रिझर्व्ह	3731
▁जनरल	3730
▁रम	3730
ट्या	3729
▁एकूणच	3729
▁बसत	3728
‘	3727
कारक	3726
▁अरविंद	3726
▁आगी	3725
▁पावडर	3725
▁मांडले	3725
▁कारणीभूत	3723
ुण	3722
▁बॉलिवूड	3722
▁सक्रिय	3722
▁बल	3721
▁निरीक्षण	3718
▁माफी	3717
▁स्वयंपाक	3717
वण्याचे	3716
▁सावध	3716
गुण	3715
▁माझ्यासाठी	3715
▁सारखी	3714
षी	3713
▁विनामूल्य	3713
▁व्हा	3713
▁उपा	3712
▁जयंती	3712
▁जायचं	3712
▁अनधिकृत	3711
▁कागदपत्रे	3708
▁टॅ	3708
▁अभिनय	3707
▁उपयोगी	3707
▁संता	3707
▁श्र	3706
▁अकरा	3704
भूमी	3703
▁दागिने	3703
नेट	3702
▁अखंड	3701
▁पित	3701
▁मेसेज	3701
धन	3700
▁थक	3700
▁वर्षभर	3697
▁साजरी	3696
सासाठी	3695
▁फलंदाज	3694
▁अमरावती	3692
▁राणी	3692
ताची	3691
▁खेळी	3691
▁ठरवून	3690
ईट	3689
खात	3686
▁करिअर	3686
▁चेक	3686
▁तत्	3685
▁लहानपणी	3685
▁खेळत	3684
▁तपशील	3684
▁मारत	3683
▁जोरावर	3682
सकर	3681
▁पायाभूत	3681
इन	3679
▁महत्वाचा	3678
िनी	3676
▁45	3676
▁घटनेची	3675
▁नेत्या	3675
▁मंदिराच्या	3675
र्ग	3674
▁गणेशोत्सव	3674
▁विमानतळ	3674
चीही	3673
▁शास्त्रीय	3673
रित्या	3671
हत	3671
ुड	3671
▁चालले	3671
▁कोणता	3670
▁मध्यरात्री	3668
▁सोने	3668
व्हे	3667
▁ठरवलं	3667
▁उद्भव	3666
▁करण	3666
▁रक्षण	3665
▁नागरिकांच्या	3663
▁भांडवल	3661
▁मिळालं	3660
▁गुंतवणूकदार	3659
▁फॉर	3658
▁आरती	3657
▁फारसे	3657
ज्	3656
▁होण्याचा	3656
▁निघाला	3655
▁सगळेच	3654
क्ता	3653
▁करणाऱ	3653
▁वर्षापासून	3653
दो	3652
▁re	3651
धारक	3650
स्प	3650
▁मनापासून	3649
▁वेबसाईट	3649
▁समजत	3649
▁गेलेले	3648
▁कळले	3647
▁नावाखाली	3647
▁लाड	3647
▁वॉ	3647
▁कवि	3646
▁धनगर	3646
लिन	3645
चारी	3644
▁आयोगाने	3643
▁वाढेल	3643
▁२०१३	3642
ak	3641
ॅप	3641
▁३३	3641
▁सॅ	3639
▁कार्या	3638
▁परभणी	3638
▁हित	3638
▁de	3636
▁आकर्षण	3636
▁उदाहरणार्थ	3636
▁वाया	3635
▁हॉल	3635
▁जोरात	3634
▁टोल	3634
▁मेहनत	3632
▁इतिहासात	3631
▁फिरत	3631
वरही	3628
▁for	3624
▁बड	3624
त्तर	3623
▁इंधन	3623
ay	3622
▁तरूण	3622
▁मैदा	3622
▁विचित्र	3622
▁संगण	3622
▁दिल्यानंतर	3621
▁बुक	3621
▁निवृत्ती	3620
▁वस	3620
▁सूक्ष्म	3620
▁चांगलीच	3616
▁पावसाळ्यात	3616
▁क्रिया	3615
▁पालघर	3614
▁पक्षाला	3613
▁उपनिरीक्षक	3612
▁मॉ	3612
▁गुन्हेगार	3610
▁बाजारपेठ	3610
▁अधिकाधिक	3609
▁समृद्ध	3609
▁500	3608
▁वसुली	3608
▁कमाई	3607
▁शिस्त	3607
▁सर्वोत्कृष्ट	3605
▁ताबा	3604
▁नोटाबंदी	3603
▁किल्	3602
ळ्याच्या	3601
▁कापूस	3599
▁गेट	3599
▁चक्र	3599
▁जसा	3599
▁कागद	3598
▁मालकी	3598
▁वस्तु	3598
▁आद	3594
▁परम	3594
▁पशु	3594
्यता	3593
▁अपंग	3593
▁जाण्याचा	3593
दन	3592
▁वाटली	3591
▁आमच्याकडे	3590
▁न्याया	3590
▁पंप	3590
▁न्यूज	3589
▁वाढी	3589
ol	3588
▁सुरळीत	3588
▁बां	3587
▁उपोषण	3586
▁अभिया	3585
▁प्रो	3585
ईत	3584
▁चांद	3584
▁रच	3584
▁आपल्याच	3583
▁बापू	3583
क्रम	3581
▁बॅंक	3581
▁सौर	3581
▁हाल	3581
▁धागा	3580
▁सेना	3579
णूक	3578
विलेल्या	3578
▁तांब	3578
▁दत्ता	3578
▁फिर्यादी	3578
भु	3576
▁सीबीआय	3576
▁मांडला	3575
▁निदर्शनास	3574
▁ओळखी	3572
▁गुरुजी	3572
▁त्याच्याकडे	3571
▁संतप्त	3571
▁सदस्यांनी	3571
ब्र	3570
वेळा	3570
▁प्रमोद	3570
▁देशाची	3569
▁अनुभ	3568
▁चक	3568
▁लागवडी	3566
▁हाक	3566
भाई	3565
स्य	3565
▁गौरी	3565
▁मावळ	3564
▁गोविंद	3563
गाचा	3562
▁निवृत्त	3562
▁दिसली	3561
▁लष्करी	3561
▁फस	3560
▁नेटवर्क	3559
शास्त्रा	3558
▁आंदोलनात	3558
▁कुठेतरी	3558
▁ऐवजी	3557
▁नमस्कार	3557
धर	3556
▁दराने	3556
▁वर्षांची	3556
डीवर	3555
मध्येच	3555
▁वर्ण	3555
▁महापालिकेने	3554
▁अल्	3553
▁प्रभू	3553
▁जाणवत	3552
▁लढत	3552
रीत्या	3550
▁दिसेल	3549
▁श्रेय	3549
्यांचं	3546
▁तोंडावर	3545
▁विषयी	3545
▁साधने	3544
▁बंग	3543
▁बैल	3543
▁हवाई	3543
▁साध्या	3541
▁थोड	3539
टींग	3538
▁क्षणी	3538
▁अवैध	3537
▁मरण	3536
▁नसतं	3535
दल	3534
▁चालना	3534
▁मालिकेत	3534
▁सामन्या	3534
▁सू	3534
▁मनावर	3533
▁करूनही	3532
▁भक्त	3532
▁अजुन	3530
▁रकमे	3530
▁किल्ले	3528
▁दाखवले	3528
विता	3527
▁इतकेच	3526
▁डॉक्टरांनी	3526
▁प्रवाह	3526
▁टाय	3525
▁महिलांच्या	3525
▁चांगलाच	3524
▁माझ्यावर	3524
▁स्थळ	3524
▁चप	3523
▁व्हे	3523
चीच	3522
ांबद्दल	3521
ांसोबत	3519
लन	3518
▁वाचना	3518
डीची	3517
▁हसत	3517
▁आशियाई	3516
वाढ	3515
▁चालेल	3515
▁पहिल्याच	3514
▁प्रकर	3514
▁तुझे	3509
▁उद्देशाने	3508
▁टिळक	3508
ाव्यात	3507
▁आजारी	3506
ऱ्याची	3505
▁जयंत	3505
▁शब्दा	3505
▁कुटुंबातील	3504
▁ठराविक	3504
▁पसंती	3504
तीचे	3503
लाचा	3503
ल्याप्रमाणे	3503
▁जाय	3503
▁ट्रे	3503
▁ट्विटर	3503
▁नाक	3502
▁परिवार	3502
▁समजावून	3502
▁अकोला	3501
▁पावसा	3500
▁उठून	3498
▁माणसाच्या	3498
▁st	3497
▁इराण	3497
▁pune	3496
▁संपादन	3496
▁संस्थेने	3496
▁होम	3496
पाचे	3495
▁परवड	3495
▁गत	3494
▁मोकळे	3494
▁वळण	3494
▁पर्यावर	3493
▁सर्वांचे	3492
वलेले	3491
▁स्वराज्य	3490
▁कले	3489
▁कुंड	3489
▁गुंड	3489
▁पूर	3489
▁प्रतिष्ठा	3488
▁साफ	3488
ेंनी	3487
▁वड	3486
▁वर्षं	3485
▁स्मार्टफोन	3484
▁स्तर	3483
▁अर्थव्यवस्थे	3479
▁विचारणा	3477
▁शिखर	3477
▁समीर	3477
कास	3476
वंत	3476
▁बौद्ध	3476
▁टोमॅटो	3475
▁काव्य	3474
▁पार्किंग	3474
▁कोकणात	3472
▁देण्याच्या	3472
▁सैन्य	3472
▁निघालो	3471
ताचे	3470
▁त्यातल्या	3470
▁शत्रू	3470
हाच्या	3469
▁मिळावी	3469
▁प्रतिष्ठान	3468
▁चुका	3466
▁पावसामुळे	3466
वडे	3464
झम	3463
्याकडे	3463
▁ऑफर	3463
▁प्रदेशात	3463
▁विदर्भ	3463
▁सिनेम	3463
▁सेल	3463
लाने	3462
▁शिफारस	3462
▁जहाज	3461
गल	3460
▁शेवट	3459
▁हृदय	3459
▁मंत्रालया	3458
बाद	3457
▁तिसरा	3457
▁पार्	3457
▁समोरच्या	3457
▁तिथं	3456
▁हाताने	3456
▁रूम	3455
▁तर्क	3454
▁देईल	3454
▁विनायक	3454
▁छाती	3453
▁विखे	3453
▁असावेत	3452
▁महाविद्यालयात	3452
वृ	3450
▁अध्यक्षतेखाली	3450
लीस	3449
▁चालली	3449
▁ग्रामस्थांनी	3448
▁जाम	3447
▁निष्कर्ष	3447
▁खायला	3445
▁सुरुवाती	3445
टून	3444
पणाने	3444
▁पैशा	3444
▁मिली	3444
▁महाराजांनी	3443
▁त्रि	3442
▁दाखवत	3442
▁आयटी	3441
▁मंगळ	3441
▁जवळच्या	3440
▁नाते	3440
ation	3439
णाऱया	3439
▁जंगलात	3439
न्सी	3438
▁तेंडुलकर	3437
▁होईपर्यंत	3437
पटू	3436
ारासाठी	3436
▁पह	3436
▁लघु	3436
▁गणेशोत्स	3434
▁पावसाची	3434
▁महिन्याच्या	3434
▁मुद	3434
▁निवडणु	3433
▁सारा	3433
▁आम्हा	3432
▁भारी	3432
▁फी	3430
▁सज	3430
▁हैदराबाद	3430
▁अविनाश	3429
▁शब्दांत	3429
▁सिर	3429
कू	3428
▁पदावर	3428
▁बसली	3428
णुकी	3427
▁करी	3427
▁लष्कर	3427
▁विजया	3427
and	3426
▁प्रथा	3425
▁चालणार	3424
वणी	3423
ान्	3423
▁आल्याची	3423
▁३४	3423
भी	3422
▁निकाला	3422
खालील	3421
क्टर	3420
चो	3418
▁फॉ	3418
▁मंडळा	3418
▁मारुती	3418
▁निवास	3417
▁आवर्जून	3415
▁ऐकू	3415
▁कैद	3414
▁प्राधिकर	3413
▁वीर्य	3413
करांनी	3411
▁सोयाबीन	3410
▁बंगाल	3409
वाना	3408
▁उचलून	3406
▁तोडगा	3406
▁दैनंदिन	3405
▁भूमिकेत	3405
▁मागणीसाठी	3405
▁सखोल	3405
▁कमाल	3404
▁सगळीकडे	3404
लयात	3401
▁असंच	3401
▁खाद्य	3401
ंदे	3400
ऱ्हा	3400
▁संघा	3400
▁on	3399
▁हंगामात	3395
▁अनुसूचित	3394
▁विलास	3394
चने	3393
▁प्रलंबित	3393
▁मनोज	3392
▁हरि	3392
▁हार	3392
▁भाई	3391
यांचा	3390
▁मराठवाडा	3390
▁वर्चस्व	3390
▁लागा	3389
शीर	3388
▁यास	3387
▁बिग	3386
▁th	3385
▁गोळी	3385
▁राजीव	3385
▁चुकीच्या	3384
क्षण	3383
▁पाहिली	3383
▁मोदींनी	3383
▁सल्लागार	3383
th	3380
▁केलंय	3380
▁संवेदनशील	3380
▁वित्त	3379
▁सेने	3379
र्य	3378
▁मिलिंद	3377
▁तिनं	3376
▁भाष्य	3375
▁टंचाई	3374
▁२०१२	3373
▁नेले	3372
करांना	3371
▁अग	3371
▁दहशत	3370
▁समाजाचे	3370
▁ब्लॅक	3366
तल्या	3365
▁कोहली	3363
▁गंगा	3363
▁प्रत्ये	3363
▁मार्गदर्शक	3363
्त	3362
▁ओपन	3360
संग	3359
▁महाविद्यालय	3359
▁वाटे	3357
यांची	3356
▁मू	3355
▁उत्पादना	3353
▁राहतील	3352
▁धुळे	3350
तीला	3348
▁आपोआप	3348
▁धडपड	3348
▁शोधत	3348
▁अवयव	3347
▁बॅग	3347
नु	3346
▁अडथळा	3346
▁कर्मचाऱ	3346
▁राहणे	3346
▁दाब	3344
▁नां	3344
▁पुनर्	3344
▁शांती	3343
▁पालिके	3341
▁वाढू	3341
▁निश्चितच	3340
▁राहण्याची	3340
▁शेव	3340
▁जशी	3339
▁शहरांमध्ये	3339
▁गाळ	3338
▁गुरुवार	3338
▁लिमिटेड	3338
▁तिच्यावर	3337
▁ओळी	3336
▁शेतकर्यांच्या	3336
िरा	3335
▁नेमकी	3335
▁प्रत्येकाला	3335
▁मुलांनी	3335
▁सेव	3334
▁सेक्स	3333
र्द	3330
डेल	3329
▁कुस्ती	3328
▁टक्क	3328
▁कॉफी	3327
▁नाराज	3326
▁शाळेच्या	3326
▁वर्ल्ड	3324
▁परिस	3323
लोक	3321
▁येताना	3321
▁बापट	3320
▁विधानसभेत	3320
▁कळलं	3318
▁जाव	3318
▁दुध	3317
▁सरकारवर	3317
▁रासायनिक	3316
▁त्याचवेळी	3315
▁औषधे	3314
▁कोणीतरी	3314
िक्ष	3313
▁उभं	3313
र्च	3312
▁राखीव	3310
▁कर्मचार	3309
▁निय	3309
▁मंगल	3309
▁२०११	3309
▁कार्यक्रमा	3306
▁कोट्यवधी	3305
▁पुढ	3305
वण्या	3304
▁बाजूस	3303
▁आंदोलना	3301
▁खट	3301
▁तेव्हापासून	3300
▁फड	3300
▁ठेऊन	3299
▁रोजच्या	3299
▁सारखा	3299
▁३७	3298
कृत	3297
▁बंधनकारक	3297
▁विद्यापीठा	3297
▁मिळवण्यासाठी	3295
▁मिळवले	3295
▁संक	3294
▁तीस	3293
▁अप्रतिम	3292
▁नकळत	3292
ाराने	3291
▁गुंतवणुकी	3290
▁चिन्ह	3290
तेसाठी	3289
ेंड	3289
▁एखादे	3289
▁विदेशी	3289
▁शाखे	3289
▁तेवढ	3288
▁पीडित	3288
▁वेगळं	3288
्ज	3286
▁you	3283
▁दुसर	3283
▁भरा	3283
▁भाग्य	3283
▁अर	3282
▁द्यायचे	3282
▁जामीन	3281
▁गर	3280
▁लाज	3279
ऱ्याला	3278
▁चालला	3278
▁ट्विट	3278
▁कृत्रिम	3276
ताचा	3275
▁वसूल	3275
▁गांड	3274
▁होईना	3274
▁कारखाना	3273
▁व्यक्तीने	3273
▁समूह	3273
▁मालिके	3272
▁संग	3272
▁डोळ्या	3271
▁वादग्रस्त	3271
राय	3270
▁राष्ट्रवादीच्या	3269
▁देशाचा	3268
▁बनला	3266
▁आजोबा	3265
▁फ्रेंच	3265
▁बेकायदा	3265
▁बाजी	3264
▁कथ	3263
▁प्रश्नांची	3263
ers	3262
▁बै	3262
▁मिळावा	3262
कालीन	3261
रीज	3261
▁देवता	3261
वरच्या	3259
▁गोरे	3259
▁दिल	3259
▁बोलणे	3259
▁आकडा	3258
▁पोटात	3258
▁व्याज	3257
▁वाचले	3256
▁उड्डाण	3254
▁नियुक्त	3254
▁घराच्या	3253
▁फ्री	3253
▁सर्वप्रथम	3253
▁हाताळ	3253
▁कार्यकर्त्यांना	3252
▁बहुजन	3252
▁जवान	3251
▁निरा	3251
्यानं	3250
▁कुणीही	3250
▁दुकाने	3250
▁नाहीच	3250
▁ग्रंथा	3249
▁सभागृह	3249
काळात	3248
भरा	3248
▁पक्षांनी	3246
▁बनवून	3246
खंड	3245
▁ठेवता	3245
▁साज	3245
▁वापरली	3244
▁गं	3243
▁अपयश	3242
▁थकबाकी	3242
▁अहवालात	3241
▁मासे	3241
▁अद्यापही	3238
▁घेतलेला	3238
वाह	3237
स्थेत	3237
▁ठा	3237
▁काना	3236
▁धरला	3236
▁केव्हा	3235
▁गटा	3235
▁यांच्याकडून	3235
▁टिप	3234
२०	3233
▁मसाला	3233
▁लिह	3233
ंबद्दल	3232
▁नट	3231
▁पंतप्रधानांनी	3231
▁बियाणे	3231
शाला	3230
ोस	3230
▁झाडा	3229
निय	3228
▁चांगलेच	3226
गडा	3225
▁५५	3225
▁मनपा	3224
▁फल	3223
▁करणा	3221
तेच	3217
तेय	3217
▁कॉंग्रेसचे	3217
▁शतकात	3217
▁कामाची	3216
▁बज	3216
▁प्रदीप	3215
▁मुलांची	3215
▁शेवटचा	3215
ण्य	3214
वरे	3214
▁दात	3214
▁असोसिएशन	3213
वित	3212
▁हिरव्या	3212
▁भे	3211
▁सावर	3211
▁एक्	3210
▁गावे	3210
▁विद्यापीठाच्या	3210
भि	3209
▁१९३	3209
चें	3208
▁गुर	3208
▁मुलाखत	3208
▁श्रीराम	3208
▁६५	3208
चालक	3207
हन	3207
▁याठिकाणी	3207
▁टक्क्यांनी	3206
▁वाहत	3206
▁वास्तू	3205
ृत	3204
▁फ़	3204
▁फारशी	3204
▁३००	3204
नें	3202
▁चिम	3202
▁पालिकेच्या	3202
ण्याने	3201
▁नुकत्याच	3201
▁अतिक्रमण	3199
▁पाचशे	3199
▁जॉ	3198
▁पूर्वे	3198
▁वापरू	3198
▁जबरदस्त	3197
▁नाश	3197
▁चित्रे	3195
▁हून	3195
भरात	3194
▁विषयांवर	3192
ध्यक्ष	3191
▁पॉवर	3191
▁मांडणी	3191
▁बुड	3190
▁लोट	3190
▁अब्ज	3188
▁x	3187
▁बांधव	3185
णारं	3184
▁इंद्र	3184
डीने	3182
▁इंच	3182
▁रंगाचा	3182
▁वापरता	3182
बार	3181
▁जगभरातील	3181
▁दुपार	3181
▁अनुकूल	3180
▁नेमका	3180
▁लाखा	3180
▁बसेस	3179
▁नसे	3178
▁मजकूर	3178
▁चवी	3176
एक	3175
▁अमेरिकेतील	3175
▁घेते	3175
▁जरूर	3175
बाबा	3174
▁मार्गी	3174
▁आईने	3172
पूर्वीच	3171
हान	3170
ेड	3170
▁दर्जेदार	3170
ूंचे	3169
दय	3168
ायच्या	3168
केट	3167
▁गुन्हेगारी	3167
▁बर्फ	3167
▁खाऊ	3166
▁राष्ट्राध्यक्ष	3166
st	3163
▁अंधार	3163
▁करण्याबाबत	3163
▁योजनेत	3161
▁सव्वा	3161
24	3160
▁आठवत	3159
▁पुतळा	3159
▁सुध्दा	3159
गडी	3158
▁चोख	3158
▁मुंबईला	3158
▁हाऊस	3157
▁परराष्ट्र	3155
▁कंपनीत	3154
▁मिळाल्या	3154
ज्ञा	3153
▁अधिकार्यांनी	3153
▁शस्त्रक्रिया	3153
साय	3152
▁चांदी	3152
▁मुलीच्या	3152
▁राहणाऱ्या	3151
ांबरोबर	3150
▁फिर्याद	3150
▁महानगर	3149
▁अधिकाऱ्यांना	3148
▁दाखवला	3148
▁निसर्	3148
▁ब्रँड	3148
दिन	3147
▁एटीएम	3147
▁जगभर	3145
▁तावडे	3145
▁प्रश्	3144
▁भाडे	3144
▁स्वयंसेवक	3143
▁महामार्गावर	3140
▁रस्त्यावरील	3140
▁गायी	3138
▁निष्	3138
▁स्पष्टीकरण	3138
डीला	3135
त्री	3135
▁u	3135
ियर	3134
ेशा	3133
▁घ्यायची	3133
▁पोहोचले	3133
▁प्रकारात	3133
▁चम	3130
▁चंद्रा	3129
▁डोके	3129
▁पुरावा	3129
▁रॅ	3129
▁जंगल	3128
▁झाल्याचा	3128
▁फलक	3128
▁विक्रेत	3128
▁शोधा	3128
ag	3127
ap	3127
वायचं	3127
▁अक	3127
▁घ्यायचा	3126
▁स्थित	3126
सव	3124
▁इंजिन	3124
▁द्वारे	3124
▁माणसा	3124
▁शिल्प	3124
▁36	3123
▁प्रदर्श	3123
▁म्हणायचे	3123
▁खुलासा	3122
▁तेज	3122
▁नवर	3122
▁वाटला	3122
ित्	3121
▁अध्यक्षा	3121
▁इंदिरा	3121
वती	3119
▁ब्रिटन	3119
▁शरीरात	3119
▁33	3118
▁करावेत	3118
▁पर्यट	3118
▁साधारणपणे	3117
ion	3115
▁उद्	3115
▁नकोस	3115
▁पराभूत	3115
▁मिळावे	3115
▁कसली	3113
ंपासून	3111
▁मद्य	3111
▁अनुषंगाने	3110
▁प्रभा	3109
▁भूत	3109
ांब	3108
▁काढणे	3108
▁वाटून	3108
▁ढकल	3107
▁नातेवाईक	3107
▁यांच्यातील	3107
ul	3106
कान	3106
टने	3106
पन	3106
▁तिखट	3106
हीन	3105
▁उतार	3104
▁पीठ	3102
▁साखळी	3102
▁उज	3101
▁चित	3101
▁तड	3101
▁लावा	3101
▁सामन	3101
मती	3100
राजे	3100
▁त्वचा	3099
▁प्राध्यापक	3099
▁श्रीकांत	3099
▁कर्मचाऱ्यांना	3097
▁न्यायमूर्ती	3097
▁चमचा	3096
खाल	3095
▁स्वा	3095
पाचा	3093
▁गोंध	3093
▁गुड	3092
▁ऐन	3091
▁गोळीबार	3091
▁घन	3091
▁अहवाला	3090
▁घेतल्यानंतर	3090
▁बेकायदेशीर	3090
▁महावितरण	3090
▁मिळणे	3090
▁पाठवून	3089
▁बॉक्स	3089
▁घरातून	3088
शाच्या	3086
▁भागवत	3086
स्तु	3085
▁पुरेसे	3085
▁बसलो	3085
▁लगेचच	3085
ंती	3084
यांचे	3084
▁कोट	3084
▁200	3083
साळ	3082
▁मतदा	3081
▁महत्त्वाचं	3081
▁कोळ	3079
▁अँड्रॉइड	3078
▁जागेत	3078
ध्ये	3076
▁धावत	3076
▁मास	3076
▁शेतकर्यांनी	3076
जीत	3074
▁अर्जुन	3074
▁फवारणी	3074
▁लागल्याने	3074
▁असल्याच्या	3073
▁श्रम	3073
▁साडेतीन	3073
▁पिढ	3072
▁पुस्तकं	3072
▁भयंकर	3072
▁पहात	3071
▁उस्मानाबाद	3070
लांचे	3069
▁कुठलाही	3069
▁टेस्ट	3069
▁कोर्	3067
▁नफ्यात	3067
▁शेतकऱ्यांची	3067
▁कामावर	3066
▁दिवसांच्या	3066
▁स्वाभिमानी	3066
▁सास	3065
▁उर्फ	3064
▁समन्वय	3063
▁हेड	3063
धर्म	3062
ूण	3062
▁द्यायची	3062
▁माव	3062
कर्ते	3061
▁अभियांत्रिकी	3060
▁जेणेकरून	3060
▁भरपाई	3060
▁व्हॅ	3060
▁चित्रपटाच्या	3059
▁कन्या	3058
▁राठोड	3058
▁विष्णू	3057
▁कोरिया	3056
▁योजनेचा	3056
▁श्रेष्ठ	3056
िये	3055
ाराम	3054
▁गायब	3054
▁गोलंदाज	3054
▁पेर	3054
तीची	3053
दृष्ट्या	3053
▁तरु	3052
▁भ्रष्टाचारा	3051
▁कोप	3050
▁मिळालेली	3050
▁व्यतिरिक्त	3050
तीय	3049
▁टाकत	3049
▁जातीय	3048
▁सामने	3048
▁अफ	3047
वणारे	3046
▁दिग्गज	3046
▁तज्ञ	3045
▁वेळेवर	3045
▁गेल्याने	3044
गरा	3043
झन	3042
मुख	3042
▁प्रधान	3042
▁केळी	3041
▁वैचारिक	3041
▁कहाणी	3040
केत	3039
▁अणु	3039
▁निमित्त	3039
▁लाय	3037
फ्	3036
ॉट	3036
▁अगदीच	3036
▁प्रस्तावित	3036
▁मतदारसंघात	3035
दया	3034
▁कमीत	3034
▁बहुधा	3034
▁मिळवला	3034
▁प्राचार्य	3031
▁परदेशात	3030
▁सर्वा	3030
▁सही	3030
▁होण्याचे	3030
लता	3029
▁सायबर	3029
▁परमेश्व	3028
णक	3027
▁समजू	3027
वलेली	3026
▁भौतिक	3026
लाई	3025
▁बाव	3024
▁संकल्पने	3024
▁आंबे	3023
▁रूपांतर	3023
▁सत्तेवर	3023
▁चंद	3022
▁पाकिस्तानी	3021
▁पेश	3020
▁मैदानात	3020
▁लॅ	3020
ोत	3019
▁उगाच	3019
▁यासह	3019
▁कास	3018
ऱ्यांनी	3017
▁आजचा	3017
▁कुठून	3017
▁भिडे	3017
▁येताच	3017
दायी	3016
▁कौटुंबिक	3016
ंजी	3015
▁अभय	3015
▁म्हणावे	3015
कांकडे	3011
▁गे	3011
▁तरतुदी	3011
▁दक्षिणे	3011
▁पाठवले	3011
▁राजन	3011
▁हानी	3011
डले	3010
र्ती	3010
▁मिळा	3010
▁सदस	3010
▁इच्छुक	3009
▁जादा	3009
▁पक्षाची	3009
▁बसलेल्या	3009
▁संघाला	3009
दादा	3008
▁भिन्न	3008
▁सीसीटीव्ही	3008
▁पुकार	3007
▁टॅटू	3006
▁ठिकठिकाणी	3006
ार्थी	3004
▁अंतर्	3004
▁गोर	3004
▁मुस्लीम	3004
▁कोंब	3003
व्हर	3002
▁बँकेचे	3002
▁घुस	3001
▁दुकानात	3001
▁नाहीं	3001
▁मारले	3001
▁हल्	3001
un	2999
▁गंमत	2999
▁साठा	2999
▁अर्ध्या	2998
▁कॅसिनो	2998
▁हिंदुस्थान	2998
▁कपड	2997
▁चिं	2996
▁साल	2996
लांची	2995
▁कथे	2994
▁कौ	2994
▁कॅन	2993
▁मागितली	2993
▁माहीती	2993
▁रेट	2993
▁आकर्षित	2991
▁आवा	2991
▁खरोखरच	2991
▁वापरला	2990
▁शिवरा	2990
▁कोठडी	2989
दायक	2988
▁बेस्ट	2988
▁२०१०	2988
▁दुहेरी	2987
▁कोर्टात	2986
▁जमिनीत	2986
▁देशांमध्ये	2986
▁आईच्या	2984
▁गैरसमज	2984
▁प्रेमात	2984
▁ब्रेक	2984
▁विश्लेषण	2984
▁वेळीच	2983
▁संघटनेने	2983
us	2981
▁उत्सुक	2981
▁खोत	2980
▁हृद	2980
▁90	2979
▁अल्पवयीन	2979
▁वाटी	2978
▁आंध्र	2977
▁आह	2977
▁वस्त्र	2977
av	2976
▁उत्तीर्ण	2976
▁लाच	2976
ेंद	2975
▁अर्थसंकल्प	2975
▁कनिष्ठ	2975
▁भेद	2975
▁बाप्पा	2974
▁विभागा	2974
प्रति	2972
▁इतरांना	2972
▁सापडले	2971
▁तुमचं	2970
▁सर्वांच्या	2970
▁शपथ	2969
▁कंपन्यांना	2968
▁पांडुरंग	2968
▁महामार्	2968
द्धी	2966
▁कव	2966
▁दुकाना	2966
▁असायची	2965
▁दिगंबर	2965
▁महिन्यांपासून	2965
▁उशीर	2963
▁नं	2963
▁विरोधक	2963
▁शक्यतो	2963
▁समुद्रात	2963
▁आंबा	2962
▁नेहरू	2962
अप	2961
▁केलेलं	2961
▁महापालिकेत	2961
▁रिलायन्स	2961
▁दला	2959
▁तिर	2958
त्याने	2957
ॉक	2957
▁मोकळा	2957
▁कराव	2956
▁प्रवाशांना	2956
▁सातार	2956
चेच	2955
▁कोणालाही	2955
▁दिवे	2955
▁व्यवसा	2955
ेंच्या	2953
im	2952
▁तटबंदी	2952
ment	2951
▁नविन	2951
शिप	2950
▁काढता	2950
▁दया	2950
जना	2949
▁त्याकडे	2949
▁शाळेतील	2949
▁तप	2948
तू	2947
▁तारा	2947
▁नौ	2947
▁घोटाळा	2946
▁नावाचे	2946
▁पेज	2946
▁मल	2946
▁अपमान	2945
▁भागीदारी	2945
▁अवि	2944
▁मित्रा	2944
▁मिरज	2944
▁गोष्टींचा	2943
▁मृत्यु	2943
▁म्हणू	2943
▁स्टेट	2942
▁अण्ण	2941
▁आपत्ती	2941
ंद्र	2939
▁पश्चिमे	2939
▁रुज	2939
▁४२	2939
णीचा	2938
▁be	2938
▁गजानन	2937
▁प्रश्नावर	2937
थर	2936
▁तेव्हाच	2936
▁पकडून	2935
▁स्मारक	2933
▁आर्	2932
▁जागीच	2932
▁तीर्थ	2932
▁परंतू	2932
▁पुरोगामी	2932
धे	2931
▁पुरा	2931
▁लोह	2931
▁नोंदी	2929
▁ऋषी	2928
▁वर्तमान	2927
सद	2925
▁माळी	2925
▁विद्यार्थिनी	2924
▁डब	2923
▁तत्व	2923
▁नेत्यांना	2923
▁प्लॅस्टिक	2923
▁विधेयक	2923
▁सापडला	2923
ल्ले	2921
▁जुगार	2921
▁मधु	2921
▁शर	2921
ोळी	2920
▁बेल	2920
▁उच	2918
▁बांधका	2918
▁मोहिते	2918
ळली	2917
▁घोडे	2917
▁जोपर्यंत	2917
▁आयोज	2916
▁कधीतरी	2916
▁कार्यक्रमाला	2916
▁मेडिकल	2916
▁भिती	2915
▁विलक्षण	2915
ांवरील	2914
▁घेतलेली	2914
▁नकारात्मक	2914
▁मंच	2914
▁सेवेत	2914
जित	2913
▁जॉन	2913
▁रहात	2913
▁वारकरी	2913
हेत	2912
▁अर्थव्यवस्था	2912
सब	2911
▁परंपरे	2911
▁वाहिनी	2911
▁हत्ये	2911
ग्री	2910
▁आनंदा	2910
ईस	2909
▁परिक्ष	2909
▁पुच्ची	2909
▁शिक्षकांना	2909
्टर	2908
▁३८	2908
▁यवतमाळ	2907
▁त्यामुळं	2906
▁पसरली	2906
▁नायक	2904
▁शकला	2902
▁स्वयं	2902
▁पात्रता	2901
▁हर्ष	2901
▁व्यापा	2900
▁हस्त	2900
▁जणांनी	2899
▁रवाना	2899
▁राज्यपाल	2899
▁चेहऱ्यावर	2898
▁तिथ	2898
▁संस्थान	2898
▁समाधी	2898
जन्य	2896
▁कोठे	2896
▁चलन	2895
▁होण्याच्या	2895
▁मिळाल्याने	2894
▁म्हणणं	2894
▁पटकन	2893
▁प्रेक्षकांना	2893
▁माफ	2892
▁छंद	2891
▁पराभ	2891
▁बोली	2890
▁महिलां	2890
▁मुद्दाम	2890
▁कारभ	2888
ab	2887
▁तस	2887
▁नसल्याची	2887
▁वाचक	2887
▁फ्लॅट	2886
▁म्हणते	2886
▁वाई	2886
ly	2885
▁दौ	2885
▁राज्या	2885
▁2013	2884
▁असावं	2884
▁सिने	2884
मधला	2883
▁गृहीत	2883
▁चिनी	2883
▁टेनिस	2883
▁हस्तक्षेप	2883
▁बारामती	2882
णीला	2881
मिक	2881
▁कोटींची	2881
▁देशी	2881
▁नै	2880
▁संकलन	2880
▁34	2879
▁अभाव	2877
ष्य	2876
▁केंद्रित	2876
▁पाळी	2876
▁लिहिली	2876
▁दशलक्ष	2875
▁भडक	2875
मध	2873
ोध	2873
▁गरजे	2873
▁आयपीएल	2872
▁कडा	2871
▁खोड	2871
▁शॉपिंग	2870
▁ठेवू	2869
गृहात	2868
तास	2868
धारी	2868
▁प्रवाश	2868
▁प्रि	2868
्यांतील	2867
▁कामाच्या	2866
ात्र	2864
▁ठाकूर	2864
▁तैनात	2864
लीच्या	2863
ुत	2863
▁बिर	2862
▁कमतरता	2860
▁फाय	2860
▁लिहिलं	2860
▁गेलेली	2859
▁पर्यायी	2859
▁पुतळ्या	2859
▁मनुष	2856
▁लिंग	2856
▁बाह्य	2855
▁चारा	2854
▁विद्यार्थ्यांची	2854
दूर	2853
प्त	2853
▁द्र	2853
▁पुरूष	2853
▁समू	2853
▁रेड	2852
▁साडी	2852
िण	2851
▁निवडणुकीसाठी	2851
▁पें	2851
▁ज्याच्या	2850
▁मानला	2850
▁प्रवासात	2848
कार्य	2847
षण	2847
▁आधीच्या	2847
्यांमुळे	2846
▁मंडळाचे	2846
▁म्हा	2846
गम	2845
▁गडावर	2845
▁गायक	2845
▁वापरत	2845
ंबरोबर	2844
▁आरोपींना	2843
▁झो	2843
▁पुण्याच्या	2842
▁भग	2842
▁लव	2842
▁तूप	2840
▁बोर्	2840
▁सोनवणे	2840
▁अशावेळी	2839
▁गर्	2839
▁येण्या	2839
▁आत्मा	2838
▁खुल्या	2838
▁जाई	2838
वाढी	2837
िओ	2837
▁झालंय	2837
▁देणं	2837
▁मानसिकता	2837
▁परिवर्तन	2836
▁मलाही	2836
▁साधे	2836
▁टाळण्यासाठी	2835
▁ताल	2835
▁त्याशिवाय	2835
▁ढा	2834
▁पोह	2834
▁देवून	2833
▁नसतील	2833
▁शोधण्यासाठी	2833
▁सृष्टी	2833
ळगाव	2832
▁घराबाहेर	2832
▁जन्	2831
▁पदक	2831
▁अव्वल	2830
दम	2829
▁भरले	2829
▁व्यवस्थापक	2829
▁साइट	2829
▁कोटींचा	2828
▁संपत	2828
ांबाबत	2827
▁रामचंद्र	2826
▁विस	2826
.30	2825
्म	2825
▁आवडेल	2825
िला	2824
▁धरले	2824
▁एवढ	2823
▁मुलांसाठी	2823
▁संध्याकाळ	2823
यातील	2821
▁रोखण्यासाठी	2820
ासाठी	2819
▁आवर	2819
▁प्ले	2819
▁यशवंतराव	2819
▁२००८	2817
▁मध्येच	2816
▁खरंतर	2814
▁यासारख्या	2813
▁साधी	2813
▁जगाला	2812
▁जिओ	2812
▁भूक	2812
गीर	2810
▁प्रगत	2810
▁फायदे	2809
▁महोत्सव	2809
▁हंगाम	2809
▁डोळ्यासमोर	2808
▁सोडला	2808
▁निः	2807
▁आत्तापर्यंत	2806
अभावी	2805
निष्ठ	2805
▁घ्यायचे	2805
▁संशयिता	2805
▁हिने	2805
जो	2804
▁भाज्या	2804
प्रकारे	2803
▁खरोखर	2802
▁बँकेत	2802
▁बुद्ध	2802
▁व्यक्तींना	2802
▁sh	2801
▁मंग	2800
▁शर्ट	2800
ज्ञाना	2799
तावर	2798
▁भक्कम	2797
▁महाराष्ट्राचे	2797
तिक	2796
▁जेटली	2794
▁सवयी	2794
▁४८	2794
▁भाजीपाला	2793
▁जेंव्हा	2792
▁बघू	2790
▁विसरून	2790
वानी	2789
▁आगमन	2789
बाह्य	2788
मू	2788
▁जणांचा	2788
णाव	2787
▁देवस्थान	2787
▁नियमितपणे	2787
▁सुलभ	2787
मित	2786
▁ज्ञाना	2786
▁परीक्ष	2786
▁सोडा	2786
काल	2785
स्थितीत	2785
▁ओलांड	2785
▁बेत	2785
▁वेळात	2785
▁हरी	2785
ंभ	2783
य़ात	2783
▁फॅशन	2783
▁ह्यात	2783
भाष	2782
▁दड	2782
▁यशवंत	2780
▁रात्रीच्या	2780
▁सॉ	2780
ष्ठा	2779
▁पुत	2779
▁प्रवृत्ती	2779
▁टप्प	2778
▁अनुवाद	2777
▁धोनी	2777
▁कोणाच्या	2776
▁विश्वा	2776
वणाऱ्या	2775
▁55	2775
▁कर्जा	2775
▁साथी	2774
um	2773
▁इतिहा	2773
▁खाऊन	2773
▁सोम	2772
▁शेड	2771
▁सदस्या	2771
▁शिष्यवृत्ती	2770
20	2769
ro	2769
▁38	2769
▁it	2768
▁छोटा	2768
▁निबंध	2768
▁बसणार	2768
सेल	2767
▁साधा	2767
त्ये	2766
ेन	2766
▁असण्याची	2766
भूत	2764
▁दिवसां	2764
▁ऑपरेशन	2763
▁गेलेला	2763
यावर	2762
▁आलाय	2762
▁पोटनिवड	2762
▁गाई	2761
हाय	2758
▁खरच	2758
तीसाठी	2757
वणारी	2757
▁ट्रान्स	2757
▁वाजेपर्यंत	2757
धिकार	2756
रात	2756
▁कोर्ट	2755
च्छा	2754
▁पाण	2754
▁खात्याने	2753
▁बघितले	2753
▁महाबळेश्वर	2753
▁त्रुटी	2751
स्तान	2750
▁इंटर	2750
▁पातळ	2750
▁प्रोजेक्ट	2750
रील	2749
▁गेल्यानंतर	2749
▁चारही	2749
▁सोनेरी	2749
क्का	2748
▁दुका	2748
▁शकतं	2748
▁समाजाची	2748
▁वर्षभरात	2747
▁हाे	2746
तला	2744
यल	2744
दारांना	2743
ूब	2743
▁गज	2743
▁जागांसाठी	2743
▁ठेकेदार	2743
ut	2742
▁द्राक्ष	2742
▁पिके	2742
▁येण्यासाठी	2742
▁शह	2742
▁उल्लंघन	2741
▁कर्मचा	2741
▁नेमणूक	2741
▁बॉस	2741
स्टी	2740
▁आयोगाच्या	2740
▁विषयक	2740
▁शासनाकडून	2740
▁ठरविले	2739
▁सत्या	2739
▁आदित्य	2738
▁झी	2738
▁भागांत	2738
▁विभागाकडून	2738
▁साठे	2738
▁साहजिकच	2737
▁आल्यास	2736
▁श्रावण	2736
ंत्र	2735
हाचे	2735
▁मंडळाने	2735
▁रहिवासी	2735
▁राहात	2735
वुन	2734
▁इथून	2734
▁शेत	2734
▁त्याग	2733
टेड	2732
▁मतदारसंघ	2732
▁प्रशासनाला	2731
हू	2730
ोंड	2730
▁विरोधकांनी	2730
ंसह	2729
▁जिल्ह्याच्या	2729
▁मशिन	2729
▁क्	2728
▁परीक्षे	2728
▁पसंत	2728
▁सामूहिक	2728
▁धोक्यात	2727
▁बारावी	2726
ात्	2725
▁मतभेद	2725
▁मोर्चे	2725
▁मिस	2724
विण्यास	2723
षे	2723
▁फ्ल	2723
▁शोक	2723
▁कृषि	2721
▁दिनेश	2721
▁वेल	2720
उन	2718
▁नेऊन	2718
▁युद्धा	2718
खोर	2717
टिंग	2717
िले	2717
्ड	2717
▁सरचिटणीस	2717
▁00	2715
रेट	2714
▁घो	2714
▁वैध	2714
ळीचा	2713
▁आवाजात	2713
▁जाळ	2713
▁स्थानावर	2712
▁महापालिके	2711
▁लिहिलेल्या	2711
▁इंद	2709
▁विस्तृत	2709
▁अर्थमंत्री	2708
▁प्रकरणाची	2708
▁शेतकऱ्यांचे	2708
▁अधिवेश	2706
▁अवशेष	2705
▁तरुणांना	2704
▁सनातन	2704
▁महत्वाच्या	2703
▁राजकारणी	2703
गरी	2702
▁टिकून	2701
▁मिशन	2701
विन	2700
▁42	2700
▁अह	2700
▁डिझाइन	2700
▁निर्धार	2700
▁खोद	2699
▁खालच्या	2698
प्रसाद	2697
▁75	2697
बत	2696
ेने	2696
▁अजिंक्य	2696
▁पाठीशी	2696
▁जालना	2695
▁जोडून	2695
▁तोटा	2695
कथा	2694
▁चीनच्या	2694
▁छेड	2694
▁व्यासपीठावर	2694
▁समाजवादी	2694
समवेत	2693
▁ऑर्डर	2693
▁प्रतीक	2693
कीच्या	2692
▁प्रक्रियेत	2692
▁शिवार	2692
▁ऐकले	2691
▁सें	2691
कार्ड	2690
▁दिग्दर्श	2690
▁अलीकडे	2689
▁जिंकून	2689
▁वाढदिवस	2688
▁बांगलादेश	2687
▁शिकत	2687
▁प्रशिक्ष	2686
लीला	2685
▁आमचं	2685
▁खांब	2685
▁भेटायला	2685
▁शीर्ष	2684
▁श्रीमती	2684
एव	2683
▁un	2683
▁मुलांचे	2683
▁अभिनेते	2682
▁दुसरं	2682
▁भावनिक	2682
▁आराम	2681
▁खरीप	2681
णु	2680
ळक	2680
▁धरणे	2680
▁पर्यटक	2680
▁वेड	2680
▁उत्साहात	2679
जात	2678
ऱ्याने	2678
▁मिळताच	2678
▁लाभार्थी	2678
▁सोनिया	2678
▁काँग्रेसला	2677
▁लग	2677
▁४००	2677
▁अने	2676
ंतर्गत	2675
गाला	2674
पेक्षाही	2673
▁ऑल	2672
डत	2671
▁अभिषेक	2670
▁उन्हाळ्यात	2670
▁मेळ	2670
▁असायचा	2669
▁घेणं	2669
कर्त	2668
▁लावत	2668
कडी	2667
▁ऊर्फ	2667
▁प्रस्ता	2667
▁माया	2667
▁मार्क	2667
▁ऐकायला	2666
▁ढोल	2666
▁49	2665
▁कपात	2665
▁गांधीजी	2665
▁दर्जाचे	2665
▁यंत्रण	2664
ant	2663
▁गळ	2663
▁घेतलेले	2663
▁घेतल्याने	2663
ऱ्यावर	2662
▁जर्मन	2661
▁जळ	2661
डु	2660
▁२००९	2660
ऱ्यांच्या	2659
▁मेरी	2659
▁विश्रांती	2659
दीप	2658
▁निवासी	2658
▁बाजारपेठेत	2658
न्ना	2657
मागील	2657
माता	2657
▁इंड	2657
ंबाबत	2656
▁कोठ	2655
▁खाल	2655
▁दृष्टिकोन	2655
▁मुळा	2655
पाय	2654
▁आर्ट	2654
▁दही	2654
▁रिझ	2653
▁सवलत	2653
▁कुठलीही	2652
▁जागृती	2652
▁वृत्ता	2652
▁हक्का	2652
णीस	2651
स्टा	2651
▁कामं	2651
ुती	2650
▁सोपा	2650
कले	2649
▁चेह	2649
▁यांसारख्या	2649
▁पत्रा	2648
चेल	2647
ेकडून	2647
▁बोला	2647
तन	2646
ांसमोर	2646
▁जब	2646
▁डु	2646
▁सर्वजण	2646
त्त्व	2645
▁अहो	2645
▁कंपन्यांनी	2645
▁युनिट	2645
▁विन	2645
ट्टा	2644
▁ch	2644
वलेला	2643
▁कांद्या	2643
▁कैलास	2643
▁अमिताभ	2641
वामुळे	2640
▁48	2640
▁पात	2639
▁माणुस	2639
▁माहितीसाठी	2639
▁सभे	2639
▁आळ	2638
▁प्रकल्पा	2638
▁बँकेने	2638
व्यवस्था	2637
▁मागून	2636
▁विस्त	2636
▁सोल	2636
गडे	2635
▁दरवाज	2635
▁बांधण्यात	2635
▁सांगितला	2635
▁ओबीसी	2634
▁लावावा	2634
▁विजे	2634
▁उदाहरणे	2633
▁कोळी	2632
▁ठरतो	2632
▁न्यायालयीन	2632
▁खड्ड	2631
▁वित	2631
▁ताई	2630
▁दुर्ग	2630
▁संवर्धन	2630
▁बिझनेस	2629
प्रकार	2628
▁बॅक	2628
▁मृ	2628
▁संघाचा	2628
▁समजूत	2628
50	2627
▁दिल्यास	2627
▁स्क्रीन	2627
▁असाही	2626
▁डॉलर्स	2626
▁मुक्ती	2626
त्रे	2625
र्डी	2625
▁प्रेक्षक	2625
▁ऐकत	2623
▁घातक	2623
▁सूट	2623
di	2622
विण्या	2622
▁प्रतिबंध	2622
▁सांगताना	2622
▁सुरेख	2622
▁हुशार	2622
▁राहिलो	2620
▁शिक्षणासाठी	2620
कृती	2619
▁फलंदाजी	2619
ग्रह	2617
▁अंदाजे	2617
क्रांती	2616
▁पावसाचा	2616
▁परीक्षेत	2615
▁प्रव	2615
▁भले	2615
▁सेंद्रिय	2615
▁अनुदा	2614
▁पट्ट	2614
▁पध्दतीने	2612
▁रिंग	2612
जेस	2611
ड्यात	2610
▁योजनेच्या	2609
ष्टा	2608
ियां	2608
▁ठप्प	2607
▁२०००	2607
▁an	2605
▁आश्वास	2605
▁खनिज	2604
▁जायची	2604
▁भूखंड	2604
▁अर्धवट	2603
▁पौ	2603
गृहा	2602
▁इं	2602
▁उतरले	2602
▁पाचव्या	2602
▁स्पर्धेच्या	2602
▁बोलावून	2601
▁म्हणायला	2601
▁रामा	2601
▁सहजपणे	2601
▁ध्यान	2600
▁राहण्यासाठी	2600
णीचे	2599
तम	2599
▁चालते	2599
▁येता	2599
▁आपणच	2598
णामध्ये	2597
▁गोव्या	2597
▁नामदेव	2597
▁तोंडात	2596
▁पाठविण्यात	2595
▁मोग	2595
▁राखून	2595
▁सांगायचे	2595
▁mumbai	2594
▁ठिय्या	2594
▁मीच	2594
▁वातावर	2594
िग	2593
▁पडद्यावर	2593
▁मार्गावरील	2593
▁लवकरात	2592
▁इत	2591
र्ष	2590
▁असायचे	2590
▁ज्योतिष	2590
नीत	2589
▁दुधा	2589
▁अपयशी	2586
▁कॉलनी	2586
▁बजेट	2586
▁बरा	2586
ंका	2585
▁video	2585
▁महिले	2584
▁याप्रसंगी	2584
▁स्वभा	2584
▁१५०	2584
▁धान	2583
▁वाढदिव	2583
▁ह्याची	2583
▁तासात	2582
▁नेतृत्वा	2582
▁राहता	2582
▁वर्षापूर्वी	2582
▁संमेल	2582
▁भट	2581
▁निम	2580
वेळ	2579
ित्या	2578
▁चौघ	2578
▁धाक	2578
▁सारी	2578
पथ	2577
▁युवती	2576
▁घडलेल्या	2575
▁विद्यापीठात	2574
▁2012	2573
कांशी	2571
ोरे	2571
▁अधिवेशन	2571
▁करतांना	2571
डला	2570
▁एकंदरीत	2570
▁जोपास	2570
▁सन्	2570
▁सुरक्षे	2570
डच्या	2569
रेज	2569
ल्ल्या	2569
ुरु	2569
▁बंधू	2569
▁घालण्यात	2568
क्षक	2567
पाणी	2567
भ्र	2567
▁पाहतो	2567
▁मडगाव	2567
टकर	2566
तेवर	2566
▁अत्याधुनिक	2565
▁इच्छित	2565
▁चॅ	2565
▁झळक	2565
▁टँकर	2565
▁प्रसिध्द	2565
▁बिबट	2565
▁आश्रम	2564
▁माध्य	2564
▁समर्थक	2564
▁अर्ध	2563
▁उमेश	2563
▁एक्स्प्रेस	2563
▁राजाराम	2563
▁विज्ञाना	2563
▁समृद्धी	2563
जवळील	2562
▁बसू	2562
ंबर	2561
▁दोघांच्या	2561
▁अंगणवाडी	2560
▁संभाव्य	2560
▁अधिवेशनात	2559
▁पडल्या	2559
लयाच्या	2558
ळले	2558
▁खडक	2558
▁झालेलं	2558
गन	2557
द्धा	2557
त्वा	2556
▁२०१९	2555
▁दिवाळीच्या	2554
▁पृथ्वीराज	2554
पित	2553
▁प्रशिक्षक	2553
▁आध्यात्मिक	2552
▁प्या	2552
▁हल्ले	2552
▁कारा	2551
▁कोर्टाने	2551
▁मॅच	2551
मीन	2550
▁मोहम्मद	2549
ियो	2548
▁अग्निशमन	2547
▁पुरेसा	2547
▁शेअर्स	2547
करीता	2544
▁विभागाला	2544
▁साईट	2544
▁सासू	2543
▁अस्तित्	2542
▁गुलाम	2542
▁मिल	2542
▁जागृत	2541
▁डोंबिवली	2541
▁वाजण्याच्या	2541
▁क्ल	2540
▁अधिकार्यांना	2539
वादा	2538
▁सह्याद्री	2538
मधली	2537
▁कुटुंबी	2537
▁वेबसाइट	2537
द्द	2536
वेअर	2536
▁चिकट	2536
हीर	2535
▁खरेदीसाठी	2535
▁वॉटर	2535
▁पुला	2534
▁वर्तमानपत्र	2534
▁सांगायला	2534
सिक	2533
▁कलाकृती	2533
▁पुरेशी	2533
ध्दी	2532
रिक	2532
▁द्यायचा	2532
▁प्रभारी	2532
▁हद्दीत	2532
▁सिमेंट	2531
▁इतरही	2530
▁तशा	2530
▁नागरिकांची	2530
▁उपास	2529
▁बहीण	2529
च्याच	2528
▁लोण	2528
ठ्या	2527
▁आयुक्तांनी	2527
▁पालकांना	2527
▁प्रकट	2527
▁बनली	2527
▁संघटनांनी	2526
▁कमिटी	2525
▁माधव	2525
डिया	2524
ावरुन	2524
▁एकंदर	2524
▁कापड	2524
▁जनावर	2524
▁जितेंद्र	2523
▁वायू	2523
गुरू	2522
जार	2522
र्डे	2522
हरी	2522
शेत	2521
▁चौरस	2521
▁त्याच्याशी	2521
▁थोरात	2521
▁नारळ	2521
▁यो	2521
▁हेर	2521
▁लक्षण	2520
▁राहि	2519
▁अखेरीस	2518
▁वकि	2518
est	2515
मह	2515
▁एमआयडीसी	2515
▁निर्बंध	2515
्यामुळे	2513
▁योगा	2513
▁वर्षाचा	2513
▁स्टॅ	2513
यू	2512
▁बोलायला	2509
ॅक्स	2508
▁आणण्यात	2508
▁गोव्यातील	2508
▁प्रतिबंधक	2508
▁रह	2508
▁पिण्याच्या	2507
▁मनोरंजन	2507
▁स्टे	2507
▁विकासाच्या	2506
पक्ष	2505
▁स्थानक	2505
▁अवकाश	2504
▁चर	2504
▁तव	2504
▁ढग	2503
▁तृतीय	2503
▁दौरा	2503
▁अधिकच	2502
▁पुढचा	2500
▁बाळाला	2500
▁कक्ष	2499
दर्शन	2498
शात	2498
▁नंद	2498
▁फाउंडेशन	2498
गांव	2497
नामा	2497
▁संपुष्टात	2497
▁हळ	2497
▁गळ्यात	2496
▁पालकांनी	2496
▁मारला	2496
तेमुळे	2495
▁इथेच	2495
▁फटाके	2495
▁केंद्रे	2494
टका	2493
▁ऑटो	2493
▁नसले	2493
वणं	2492
▁देशभरातील	2492
▁द्वि	2492
▁साधारणतः	2492
▁साऱ्या	2491
ुट	2490
▁जगाच्या	2490
▁मिळण्याची	2490
मंदिर	2489
खरे	2488
चेही	2488
▁प्लॅन	2488
फिक	2487
ऱ्याचा	2487
▁यज्ञ	2487
▁युग	2487
ावीत	2486
▁तेव्ह	2486
▁बॅंके	2486
▁लक्षणीय	2486
▁तोडून	2485
▁आजूबाजूला	2484
▁काहीं	2484
▁प्रचलित	2484
▁परिव	2483
▁आजोब	2482
▁आफ्रिके	2482
▁गरजा	2482
▁चंद्रपूर	2482
▁सुप्रीम	2482
▁पुष्कळ	2481
▁स्पष्टपणे	2481
संबंध	2480
ir	2479
चारा	2479
ावरच	2479
▁2019	2479
▁दगडफेक	2478
▁मुक्ता	2478
टाला	2477
िना	2477
्यांमधील	2477
▁नाका	2477
▁वर्षांनंतर	2477
▁स्विकार	2477
दिव	2476
▁रॉ	2476
▁३९	2476
खाना	2475
▁ऋ	2475
▁तपा	2475
▁सामग्री	2475
▁अष्ट	2474
▁गडचिरोली	2474
▁व्हायचे	2474
▁तांदूळ	2473
▁बहुसंख्य	2473
रीचे	2472
▁इस्लाम	2472
▁और	2472
▁धाडस	2472
▁वचन	2472
▁सहसा	2472
▁प्रादुर्भाव	2471
सूर	2470
▁महिन्यांपूर्वी	2470
▁सप	2470
▁परिपूर्ण	2469
▁भाषांतर	2469
▁ठेवी	2468
▁तिसर्या	2468
▁पावसाच्या	2467
▁बीज	2467
▁मोठया	2466
/0	2465
फाय	2465
▁अब्दुल	2465
▁गौतम	2465
▁राष्ट्रा	2465
ग्रा	2464
▁दादर	2464
▁अंब	2463
▁समाजाने	2463
▁अभंग	2461
▁तित	2461
▁कराल	2460
▁भाजपची	2460
लाईन	2459
शिक्ष	2459
▁37	2459
▁कुणीतरी	2459
▁दशकात	2459
स्थे	2458
▁अधि	2458
▁तपकिरी	2458
▁नातेवाई	2458
▁पुनर्वसन	2458
▁कंप	2457
▁संकेतस्थळावर	2457
यो	2456
▁ठरलेल्या	2456
▁स्टील	2456
▁तेवढे	2455
▁वेळेला	2455
▁साच	2455
्यांपैकी	2454
▁आढळतात	2454
▁नळ	2454
▁बनवले	2453
▁समित	2453
▁४१	2453
गळ	2452
लीय	2452
▁केजरीवाल	2452
▁चिड	2452
ॉय	2451
▁दिसणार	2451
▁दिसायला	2451
▁याद	2451
▁सहका	2451
▁वाढून	2450
▁सदैव	2450
▁खुर्ची	2449
▁चाळीस	2449
▁देणगी	2448
▁निर्देशांक	2448
▁एकतर	2447
▁डाळ	2445
▁दुष्काळी	2445
▁फेटा	2445
▁मिसळून	2445
▁व्यासपीठ	2445
▁छळ	2444
▁जाड	2444
▁योगी	2444
▁उमेदवारांना	2443
▁माणसाने	2443
▁वान	2443
▁सुरवातीला	2443
▁पत्रकारांशी	2442
▁सेकंद	2442
चौ	2441
▁बहि	2441
▁वाटतात	2441
▁सरस	2441
खेड	2440
ॉर	2440
▁कबुली	2440
णून	2438
्याचं	2438
▁कॅम्प	2438
▁कॉपी	2438
▁त्यांच्याच	2438
दला	2437
▁कागदपत्र	2437
▁वास्तु	2437
ंजा	2436
▁एरवी	2436
▁देशभर	2436
▁वेस्ट	2436
▁संच	2436
ंमधून	2435
▁अनुक्रमे	2435
मधले	2434
लम	2433
ेचा	2433
▁क्लास	2433
▁नातं	2433
▁पाकिस्तानच्या	2433
▁प्रांता	2433
▁रुग्णांना	2433
▁उष्ण	2432
▁शिक्षणा	2432
▁स्वरुपात	2432
▁देणार्या	2431
▁प्राधिकरण	2431
विध	2430
▁वेगवेगळी	2430
रत	2429
▁चमत्कार	2429
लू	2428
▁गळा	2428
▁ह्याचा	2428
▁टाकण्यात	2427
▁फायद्या	2427
▁सुवर्णपदक	2427
▁केल्याप्रकरणी	2426
▁पठ	2426
▁पक्षप्रमुख	2425
ss	2424
▁गतवर्षी	2424
▁स्थाना	2424
▁लाईव्ह	2423
कासाठी	2422
▁this	2422
▁वाचत	2422
▁४३	2422
▁http	2421
▁सुखा	2421
ऱ्याचे	2420
▁खंत	2420
▁ठेवलं	2420
▁पकडले	2419
▁परिचय	2419
▁ह्यांच्या	2419
▁पडलेला	2418
गीत	2417
बारा	2417
▁अकादमी	2417
▁उपमहापौर	2417
▁शाळांमध्ये	2417
▁हेतूने	2417
▁आघाडीवर	2416
▁आस्था	2416
▁गावांमध्ये	2416
▁नेपाळ	2416
▁सर्वसामान	2416
खाने	2414
▁तेवढ्यात	2414
▁मामा	2414
करे	2413
▁गौर	2413
▁सत	2413
▁पार्श्वभूमी	2412
▁नावं	2411
se	2410
मित्र	2410
▁ओठ	2410
▁गौ	2410
▁फाटा	2410
▁महेंद्र	2410
▁महि	2409
▁रोल	2409
वणारा	2408
▁कम्युनिस्ट	2408
▁ज्वारी	2408
▁नागर	2408
प्रसंगी	2407
▁नसल्याचा	2407
▁म्है	2407
सेट	2406
▁त्याही	2406
▁पडता	2406
▁वडिलांनी	2405
▁गटातील	2404
▁देशांच्या	2404
▁मैदान	2404
ाप	2403
▁निघाली	2403
▁प्रदेशातील	2403
▁बना	2403
▁लाईट	2403
▁सोडण्यात	2402
em	2401
▁पलीकडे	2401
▁बॉम्ब	2401
iv	2400
▁तोही	2400
▁शतक	2400
▁बक्षीस	2399
ोरा	2398
▁इंटरनॅशनल	2398
▁घेणाऱ्या	2398
▁शिवसेनेला	2398
▁स्वाभाविक	2398
रिया	2396
▁दुष्का	2396
▁बदलले	2396
▁होणं	2396
▁रेल्वेच्या	2395
▁वाढवून	2395
चंद्र	2394
ेला	2394
▁स्त्रियांना	2394
cl	2393
▁दुप्पट	2393
▁महाडिक	2393
पदासाठी	2392
▁मुलाखती	2392
मीत	2391
▁मोटार	2391
▁तुम्हांला	2390
▁संगीतकार	2390
शहा	2389
▁गांभीर्याने	2389
▁जनतेने	2389
▁नाहि	2389
▁कुलगुरू	2388
▁खुले	2388
▁सागरी	2388
▁आठवडा	2387
▁किंग	2387
▁छाया	2387
तोड	2386
▁नवनवीन	2385
▁मुलाच्या	2385
▁लाँच	2385
▁सांगणार	2385
पान	2384
रेल	2384
▁दलाच्या	2384
▁दुर्गा	2384
▁शून्य	2384
▁सहाय्याने	2384
र्जी	2383
▁दुकानदार	2383
ढ्या	2382
▁महोत्स	2382
▁लीग	2382
▁वाटायला	2382
▁कल्प	2381
▁झटक	2381
▁पृष्ठ	2381
▁भांडण	2381
▁सोडली	2381
▁गंध	2380
▁परदेश	2380
▁रुंदी	2380
नामुळे	2379
▁विकेट	2378
▁१९२	2378
▁चिंच	2377
▁महानगरपालिके	2377
▁तपासून	2376
▁तरुणाई	2376
▁तोंडी	2376
▁फाऊंडेशन	2376
ड्	2375
▁आपल्यावर	2375
▁मत्स्य	2375
▁मिळवली	2375
▁व्यक्तिगत	2375
शोध	2374
▁एड	2373
▁पांढरा	2373
िस्ट	2372
▁गुलाबी	2372
▁त्वचे	2372
▁पूर्णतः	2372
वाळ	2371
▁झे	2370
▁नांद	2370
▁फोनवर	2370
▁मिनिटात	2370
▁मिश्र	2370
▁संग्रह	2370
▁दिल्याचे	2369
▁मिनी	2368
पल	2367
▁असलेलं	2367
▁हिरवा	2367
▁जोडले	2366
▁लाद	2366
रल	2365
▁पाहणे	2365
▁पेन्शन	2365
खल	2364
दात	2364
ोब	2364
▁एकट	2364
▁कोर्स	2364
▁वेगवान	2364
▁एवढं	2363
▁घालणे	2363
▁पाहात	2363
▁प्रकरणातील	2363
▁बाईक	2363
करांच्या	2362
तार	2362
▁वाहनांची	2362
वाहिनी	2361
▁बनून	2361
▁दीप	2360
▁नैतिक	2360
▁विमाना	2360
▁हातभार	2360
चार्य	2359
रायला	2359
▁साथीदार	2359
▁हेमंत	2358
शाचा	2357
▁कॅन्सर	2357
▁विनोदी	2357
नेत	2356
ष्ण	2356
▁मार्केटिंग	2356
▁युवराज	2356
▁रथ	2356
▁लोकांसाठी	2356
दाराला	2355
▁नजरे	2355
णीची	2354
पदा	2354
▁जावं	2354
▁पदवीधर	2354
▁परवा	2354
▁कोल	2353
▁साक्षी	2353
▁65	2352
पड	2351
ल्याशिवाय	2351
▁अख्	2351
▁पोलिसांकडून	2351
▁सोपी	2351
▁अपक्ष	2350
▁पाठलाग	2350
ate	2349
ंबंधी	2349
चन	2349
▁त्यांनाही	2349
▁पंकजा	2348
▁सव	2348
▁ऑन	2347
▁कुणाच्या	2347
▁भविष	2346
▁मेक	2346
▁लोखंडी	2345
▁वापरण्यात	2345
आड	2344
▁गुंतव	2344
िमा	2343
▁तिघे	2343
▁दरवाढी	2343
▁गावाला	2342
▁देतील	2342
र्या	2341
हाल	2341
▁आधारावर	2341
▁सरस्वती	2341
डं	2340
▁चमक	2340
▁दुर्दैवी	2340
▁पदार्पण	2340
▁शिंग	2340
जली	2338
ेंना	2338
▁एव्ह	2338
▁संपली	2338
▁अंडी	2337
▁आट	2337
▁प्रेक्षकांच्या	2337
▁विषयात	2337
▁सेल्सिअस	2337
▁गाडीत	2336
भाज	2335
▁१९१	2335
ूनही	2333
▁ग्रीन	2333
▁त्यातूनच	2333
▁दारु	2333
▁प्रत्येकाने	2333
▁हाताला	2333
ांवरून	2332
मेट	2331
्हे	2331
▁बुडा	2331
▁लावणे	2331
▁प्रांत	2330
ंदर्भात	2329
▁भवन	2329
तीच	2328
▁अपहरण	2328
▁ठेवतात	2328
▁बॉल	2328
▁शेवटची	2326
ist	2324
सेना	2324
▁आयुष्यभर	2324
▁प्रयत्नशील	2324
▁साखरे	2324
▁तोवर	2323
▁वास्तव्य	2323
पत्रा	2322
पत्रे	2322
श्च	2322
▁रुपयांपर्यंत	2322
▁en	2321
▁पोषक	2321
▁विकार	2321
▁नाद	2320
▁बघित	2320
पदाची	2319
▁पाहुणे	2319
▁बँका	2319
▁पूर्वीच्या	2318
▁बच्चन	2318
▁मळ	2318
▁साक्षीदार	2317
▁निर्णयामुळे	2316
▁मिळविण्यासाठी	2316
▁मिळालेले	2316
▁मुलींच्या	2316
▁लागलेल्या	2316
▁शाश्वत	2316
▁ग्वाही	2315
▁ट्रॅक्टर	2315
▁सफाई	2315
जाव	2314
पाद	2314
▁कंत्राट	2314
▁पुण्य	2314
▁मंदी	2314
▁विसर्जन	2314
▁संकेतस्थळ	2314
▁ओळखला	2313
▁वारा	2313
▁सादरीकरण	2313
▁स्मार	2313
लिटी	2312
▁खिडकी	2312
▁वाचला	2312
▁अधिनियम	2311
▁अवतार	2311
▁ओळखून	2311
▁टें	2311
▁भरण्यासाठी	2311
▁सिग्नल	2311
रीची	2308
▁पारंपारिक	2308
▁43	2307
टेल	2306
वै	2306
▁ईश्वर	2306
▁पर्	2306
▁मनः	2306
तज्ज्ञ	2305
▁४४	2305
▁आळा	2304
▁हौ	2304
टेक	2303
श्व	2303
▁गावकर	2303
▁रेखा	2303
▁वट	2303
▁समितीची	2302
पत्रिका	2301
▁खेळाडूंना	2301
▁मोबदला	2301
▁विकिपीडिया	2300
▁शोष	2300
▁home	2299
▁लक्षणे	2299
▁सन्मानित	2299
काळी	2298
▁तोडफोड	2298
▁बहुमत	2298
.5	2297
▁इस्राएल	2297
▁बदलते	2297
▁मुखर्जी	2297
▁सभागृहा	2297
▁गावाच्या	2296
▁भयानक	2296
▁वस्तुस्थिती	2296
सल	2295
▁काठी	2294
▁प्रत्येकाच्या	2294
▁ड्र	2292
▁दिल्लीतील	2292
▁भाजपचा	2292
▁रख	2292
▁संपला	2292
▁उपस्थिता	2291
▁दमदार	2291
▁चिपळूण	2290
▁हँड	2289
▁नवल	2288
▁पक्षांच्या	2288
▁राज्यभर	2288
▁वापरतात	2288
▁39	2287
▁अप्रत्यक्ष	2287
▁असणं	2287
▁पिव	2287
▁लोणी	2287
िणी	2286
▁पर्यटना	2286
▁दिव्य	2285
▁पूजन	2285
▁शिवा	2285
गट	2284
लगत	2284
▁दुर्दैवाने	2283
▁हम	2283
्यावरून	2282
▁अश्विनी	2282
▁दोनशे	2282
▁प्रस्तुत	2282
▁रेडिओ	2282
▁चं	2281
▁भाषिक	2281
▁शोभा	2281
▁केदार	2280
▁दक्षता	2280
▁बांधले	2279
▁शॉर्ट	2279
▁सरक	2279
्वा	2278
▁वाचताना	2278
▁वारे	2278
▁उपनगर	2276
▁पक्षातील	2276
▁पोषण	2275
▁दाम	2274
▁सुखी	2274
▁नद	2273
ंही	2272
▁पाणीसाठा	2272
▁भीम	2272
मण	2271
▁लाईन	2271
▁शहीद	2271
▁व्यवह	2270
▁व्हाय	2270
▁शिका	2270
▁समारंभ	2270
▁कारखाने	2269
▁डाग	2269
▁पठार	2269
▁टोप	2268
▁चित्रपटाची	2267
▁तुकड	2267
▁सोप्या	2267
बळ	2266
▁अनोळखी	2266
▁अहमदाबाद	2266
▁बाहेरून	2266
▁भूषण	2266
▁शकलो	2266
▁सप्त	2266
▁y	2265
▁एकेक	2265
▁पायरी	2265
इत	2264
कम	2264
हिता	2263
▁रक्ष	2263
▁व्यास	2263
गती	2262
▁कितपत	2262
▁तलावा	2262
▁पाडले	2262
▁भावने	2262
ity	2261
▁फार्म	2261
यं	2260
▁कुटुंबात	2260
▁जगत	2260
▁देखिल	2260
▁राधा	2260
चून	2259
▁कट्टर	2259
▁गव्हा	2259
▁घेउन	2259
▁नेहमीप्रमाणे	2259
▁रौप्य	2259
ंपेक्षा	2258
▁निलंबित	2258
वासाठी	2257
▁पडलेले	2257
किन	2256
▁आल्यामुळे	2256
▁टॅक्सी	2256
दिनी	2255
झिट	2254
▁कचर	2254
▁काहींनी	2254
▁खटला	2254
▁मिळालेला	2254
▁इन्फ	2253
▁खांद्यावर	2253
▁प्रका	2253
घरात	2252
▁काशी	2252
▁कोक	2252
▁निंबाळकर	2252
▁पूरक	2252
▁पक्षाचा	2251
▁पिता	2251
18	2250
▁चरित्र	2250
▁जादू	2250
▁पोहोचला	2250
▁कल्पने	2249
▁चिन्हे	2249
▁झेप	2249
▁पाठवण्यात	2249
▁कामाचे	2248
ित्र	2247
▁आवडला	2247
▁जाण्या	2247
▁भंग	2247
▁आवारात	2246
▁चित्रपटातील	2246
▁नामक	2246
▁पोहो	2246
ल्याचं	2245
▁अहमद	2245
▁दूरध्वनी	2245
▁इंध	2244
▁नगरसेवकांनी	2244
▁महिलेने	2244
जय	2243
दाराने	2243
▁प्रतिभा	2243
▁वाचली	2243
▁विनय	2243
▁44	2242
▁ठेवण्याचा	2242
मास	2240
▁आनंदाने	2240
▁स्वप्ना	2240
हाने	2238
▁अनिवार्य	2238
▁उपायुक्त	2238
▁प्ला	2238
▁छापा	2237
▁पिंप	2237
टली	2236
▁उपांत्य	2236
▁सहाय्य	2236
मुक्ती	2235
▁घडू	2235
▁नगरपालिके	2235
▁लॅपटॉप	2235
ct	2234
सेन	2234
▁क्रे	2234
▁आयोगा	2233
▁वाडा	2233
▁२५०	2233
▁कॅमे	2232
▁तुरुंगात	2232
▁मेहता	2232
▁हज	2232
▁सरकारकडे	2231
▁सरा	2231
रू	2230
▁पूर्तता	2230
अर्स	2229
▁अमृत	2229
▁अमेरिकेचे	2229
▁गुंडा	2229
▁डिझाईन	2229
▁पोलिसांची	2229
▁मार्गे	2229
▁सेंट	2229
हरा	2228
▁आया	2228
▁काढू	2228
▁दैनिक	2228
▁यासंबंधी	2228
▁हिंग	2228
▁खबरदारी	2227
▁बोलणं	2227
ॉस	2226
▁होतोय	2226
घात	2225
▁धाड	2225
▁भेटले	2225
▁म्हणालो	2225
▁सगळ्याच	2225
▁कळते	2224
▁पेमेंट	2224
पाठोपाठ	2223
▁बदलली	2223
▁राहायला	2223
▁सुरवाती	2223
▁चोप	2222
▁एकटे	2221
▁वाटेत	2221
▁सर्व्हे	2221
ah	2220
केल	2220
बरी	2220
ल्फ	2220
▁खाद्यपदार्थ	2220
▁नेत्र	2220
▁सर्वांनाच	2219
▁अमेरिकी	2218
▁उतरून	2218
तीन	2217
ांच	2217
▁एकमेकांच्या	2217
▁तात	2216
▁दगडी	2216
▁पाही	2216
▁याचाच	2216
▁व्यसन	2216
विण्याच्या	2214
▁कायद्यात	2214
▁नेमकं	2214
▁पायी	2214
गुरु	2213
▁कुंभार	2213
▁ताबडतोब	2213
▁पेशी	2213
▁थीम	2212
▁अभ्यासक्रमा	2211
▁जागांवर	2211
▁राहिलेल्या	2211
▁सय्यद	2211
णीय	2210
नेर	2210
▁कॉंग्रेसच्या	2210
▁सिद्धार्थ	2210
▁अाणि	2209
▁संचाल	2208
▁सक	2208
▁वडिलांना	2207
▁शासना	2207
▁काटे	2206
▁सांड	2206
▁पनवेल	2205
▁पुरस्काराने	2205
▁भिंत	2205
▁मिळाल्यानंतर	2205
▁रुग्णालय	2205
्यो	2204
▁आवडतात	2204
▁कोणीच	2204
▁जाण्यास	2204
▁पालिकेने	2204
▁भल्या	2204
▁टॉप	2203
▁दिग्दर्शन	2203
▁बुद्धि	2203
▁मिळणाऱ्या	2203
▁रॅली	2203
▁वंश	2203
वाडे	2202
▁बाण	2202
▁ह्याच	2202
▁मुसळधार	2199
▁लता	2199
लीन	2198
▁भाषणात	2198
▁वॉर्ड	2198
दरा	2197
▁आरक्ष	2197
▁शांतपणे	2197
ण्ट	2196
▁कंपन्यांच्या	2196
▁कृपा	2196
▁चैतन्य	2196
▁दत्तात्रय	2196
माण	2195
▁असल्यानं	2195
▁जमत	2195
▁उपविभागीय	2194
▁कळा	2194
▁परिश्रम	2194
▁ममता	2194
▁वैशिष्ट्ये	2194
संस्था	2193
▁पारितोषिक	2193
▁मोकळ्या	2193
▁तारे	2192
ोळे	2191
▁बाटली	2191
▁new	2190
▁आढळले	2190
▁पदार्था	2190
ेर	2189
▁रस्त्या	2189
▁शेट	2189
ष्ठी	2188
▁ज्योती	2188
पणाचा	2187
▁कमाव	2186
▁घसरण	2186
▁रूपात	2186
माई	2185
फोन	2184
साठ	2184
त्मक	2183
▁सुधारित	2183
99	2182
क्चर	2182
▁आतील	2182
▁गाढ	2182
▁५२	2182
मिनी	2181
▁अंबा	2181
▁करण्यापूर्वी	2181
पर्यंतच्या	2180
▁भाजपाचे	2179
ंपर्यंत	2178
ॅड	2178
▁जवळच	2178
लें	2176
▁हल्लाबोल	2176
▁भागातून	2175
नाय	2174
▁एर	2174
▁जपानी	2174
▁व्रत	2174
वेग	2173
▁रांगेत	2173
▁शाम	2173
▁सामर्थ्य	2173
▁आत्महत्ये	2172
▁दृढ	2172
▁भाकरी	2172
खेरीज	2171
▁आढ	2171
▁कर्ण	2171
▁बहा	2171
▁2011	2170
▁शिवसैनिक	2170
▁सल	2170
डाचे	2169
▁भास्कर	2169
▁संपर्कात	2169
▁आश	2168
▁गुलाब	2168
▁जायचा	2168
▁लिपी	2168
ाज्य	2167
▁गडा	2167
▁नदीत	2167
▁फडक	2167
▁भौगोलिक	2167
▁लोकांमध्ये	2167
मानी	2166
ोष	2166
▁पाठविले	2166
▁म्हणूनही	2166
▁योजनेअंतर्गत	2166
कॉ	2165
मुळ	2165
▁मुक्काम	2165
▁उत्पादनात	2164
▁तळा	2164
▁प्रभाकर	2164
▁दोनच	2163
▁खप	2161
▁त्यातले	2161
▁दाखला	2161
▁बळावर	2161
▁मेघ	2161
▁सौदी	2161
विका	2160
▁ar	2159
▁तुळ	2159
▁होळी	2159
▁कॉमर्स	2158
▁शोषण	2158
▁मुहूर्त	2157
▁सलामी	2157
▁सिंच	2156
दर्शक	2155
सुध्दा	2155
हास	2155
▁औषधी	2155
▁पोहोचली	2155
▁शरीरातील	2155
▁पंचवीस	2154
▁चुकीची	2153
▁महिलांसाठी	2153
▁१०००	2153
▁आघाडीच्या	2152
▁घास	2152
▁चांग	2152
▁अमुक	2151
▁जै	2151
▁छा	2150
पुत्र	2149
▁चित्रपटाचे	2149
▁प्रवेशद्वार	2149
▁सदस्यांना	2149
पुरा	2148
▁ठरतात	2148
▁मॅन	2148
▁वाढीव	2148
व्हल	2147
▁छोट	2147
ज्ञान	2145
▁चाव	2145
▁त्रस्त	2145
▁पोटा	2145
▁फेकून	2145
सागर	2144
कन	2143
टना	2143
▁जसं	2143
▁दुरुस्त	2143
घाट	2142
▁काळापासून	2142
▁गावडे	2142
▁समाजाचा	2142
करणाच्या	2141
▁तामिळनाडू	2141
▁बुरुज	2141
▁बेपत्ता	2141
परिषद	2140
▁पाडून	2140
▁पेस्ट	2140
▁बहर	2140
▁सकल	2140
▁सद्	2140
▁होतेच	2140
म्म	2139
ांविषयी	2139
ावा	2139
▁दाढी	2139
▁मागा	2139
निया	2138
▁दिवसांची	2138
▁निवडक	2138
▁विधानसभे	2137
खोरी	2136
▁दरवाजे	2136
▁सारं	2136
▁कंपनीची	2135
▁आसाम	2134
▁धोक	2134
▁रिका	2134
लना	2133
▁खार	2133
ांहून	2132
▁उमेदवारांनी	2132
▁ठो	2132
▁दास	2132
▁मुलांचा	2132
▁व्यक्तिमत्त्व	2132
▁योजनेंतर्गत	2131
▁विमानत	2131
केच	2130
जू	2130
शिक	2130
▁कोकणातील	2130
▁बंधन	2130
▁हायस्कूल	2130
ताला	2129
▁ओव्हर	2129
▁थो	2129
▁निमंत्रण	2129
▁बाजीराव	2129
▁लाकडी	2129
▁जेल	2128
▁वित्तीय	2128
.2	2127
ातला	2127
▁ब्लॉक	2127
▁मूर्ख	2127
▁यांनाही	2127
▁विनो	2127
▁व्हायची	2126
इस	2125
ट्र	2125
▁उल	2125
▁काजू	2125
▁ठेवायला	2125
▁नॅ	2125
▁पार्ट	2125
▁कोणाची	2124
▁ठेवण्याची	2124
▁तंत्रज्ञानाचा	2124
▁संसदेत	2124
,1	2123
▁न्यु	2123
▁फायदेशीर	2123
▁मास्टर	2123
▁सांगायचं	2123
▁आंदोलनाला	2122
▁उल्लेखनीय	2122
▁माते	2122
▁प्रौढ	2121
देशी	2120
▁उपसा	2120
▁माला	2120
▁टीके	2119
▁थांबा	2119
▁वैताग	2119
▁आशिष	2118
▁पासपोर्ट	2118
▁संमेलन	2118
लेज	2117
▁जाणीवपूर्वक	2117
▁जेमतेम	2117
▁मागित	2117
▁लोकसभे	2117
▁शेळके	2117
▁अधोरेखित	2116
▁त्रा	2116
▁पंतप्रधाना	2115
▁मनाने	2115
प्ती	2114
▁अडथळे	2114
▁नाथ	2114
▁शिर्डी	2114
▁श्याम	2114
नामध्ये	2113
▁अपूर्ण	2113
▁आलंय	2112
▁तुझं	2112
▁वागणूक	2112
▁संस्थांना	2112
▁सुदैवाने	2112
श्वर	2111
▁भाऊसाहेब	2111
ुकी	2110
▁कार्यक्रमाच्या	2110
▁ग्रॅ	2110
▁जतन	2110
▁प्रास्ताविक	2110
▁प्रिया	2110
–	2109
▁लिलाव	2109
▁विक्रीसाठी	2108
नेस	2107
▁नसला	2107
▁निरनिराळ्या	2107
▁शहराध्यक्ष	2107
▁आकडे	2106
▁ताज	2106
▁ब्रिटीश	2106
▁महाविद्यालयीन	2106
▁मांडून	2106
▁अपेक्षे	2105
▁कारणांमुळे	2105
▁यापेक्षा	2105
▁विवेकानंद	2105
अखेर	2104
ग्या	2104
टके	2104
▁जीवनशैली	2104
▁ताव	2104
▁स्क्र	2104
▁हार्दिक	2104
▁आयडी	2103
▁शेखर	2103
▁सूत्रसंचालन	2103
▁हिरो	2103
▁आझाद	2102
▁द्वितीय	2102
▁संस्थांच्या	2102
स्सी	2101
▁झुक	2101
▁अमेरिकेने	2100
▁चिकन	2100
▁रोम	2100
▁विश्	2100
▁स्वाती	2100
▁हॉस्पिटलमध्ये	2100
टि	2099
▁तीनही	2099
▁संबंधिता	2099
▁चाहत	2098
▁ठाण्या	2098
▁व्यवस्थापकीय	2098
ईड	2097
▁300	2097
▁खुश	2097
▁महिन्याला	2097
▁मानली	2097
ांनीही	2096
▁समुदा	2096
▁तिसरी	2095
▁फास	2095
▁हल्ल्या	2095
▁आल	2094
▁आवडी	2093
▁कार्यकर्ता	2093
▁संविधान	2093
▁सिध्द	2093
तक	2092
मानाची	2092
्युर	2092
▁करेन	2092
▁पोत	2092
▁वगळ	2092
▁आपल्यासाठी	2091
दुर्ग	2090
▁खाल्	2090
▁घरातल्या	2090
▁नसता	2090
▁पडल्याने	2090
▁राहिल्या	2090
▁शोभ	2090
▁समागम	2090
▁५१	2090
:	2089
de	2089
▁आफ्र	2089
▁उपग्रह	2089
▁घडल्या	2089
▁चंद्रशेखर	2089
▁फूड	2089
टाने	2088
ंसोबत	2087
▁कर्मचार्यांना	2087
▁नगरसेविका	2087
▁पाण्याने	2087
▁कापून	2086
▁गोठ	2086
▁डान्स	2086
▁सायन्स	2086
ण्यासारखे	2085
▁इयत्ता	2085
▁कारणाने	2085
ऊंड	2084
ोजन	2084
▁अॅप्स	2084
▁कामगारांना	2084
▁निर्या	2084
▁हिंसक	2084
▁टु	2083
▁प्रशासनाकडून	2083
▁काट	2082
▁कंटाळा	2081
▁गावक	2081
▁स्थापने	2081
▁क्ला	2080
▁खडसे	2080
▁चोरट्यांनी	2080
▁आणणे	2079
▁पच	2079
▁मोटर	2079
▁स्पेशल	2079
▁आशीर्वाद	2078
▁बंदर	2078
ce	2077
▁उभ	2077
▁जावा	2077
▁नशि	2077
▁संख्ये	2077
एक्स	2076
▁फरार	2076
▁मंगेश	2076
▁ललित	2075
▁साजरे	2075
दाच्या	2074
ूद	2074
५०	2074
▁मार्फत	2074
▁सोबतच	2074
णुकीत	2073
▁देखभाल	2073
▁प्लॅ	2073
▁ग्लास	2072
▁बाहेरच्या	2072
▁अद	2071
▁फाईल	2071
▁ठेवलेल्या	2070
▁शिक्षकांनी	2070
वर्षी	2069
▁केल	2069
कडा	2068
▁दुर्मिळ	2068
▁प्रवक्ते	2068
▁बदनामी	2068
▁करण्याचं	2067
▁कोठडीत	2067
▁मातृ	2067
▁सगळ्यांनी	2067
▁गुप्ता	2066
▁तारखेला	2066
▁सान	2066
▁टॅक्स	2065
▁समुद्रा	2065
क्षम	2064
दर्श	2064
▁चढून	2064
▁चुर	2064
▁त्यानी	2064
▁परकीय	2064
▁निवडी	2063
▁पत्रात	2063
▁अशाप्रकारे	2062
▁घोटाळ्या	2062
▁ट्रॅक	2062
काठी	2061
▁डाळी	2061
पणाची	2060
पुढारी	2060
वरचा	2060
▁घेणारे	2060
▁बदल्या	2060
▁बोध	2060
▁विद्यार्थ्यांचे	2060
▁सापडली	2060
▁अंत्यसंस्कार	2059
▁शिक्षणाचा	2059
▁आबा	2058
▁ठाण्याचे	2058
▁बर्	2057
▁बोलतो	2057
▁स्टोअर	2057
वण्याच्या	2056
▁टाकी	2056
▁पडलो	2056
▁पावसाचे	2056
▁प्रयत्नात	2056
▁समा	2056
क्की	2055
▁उमेदवारा	2055
▁मुंढे	2055
▁रिपोर्ट	2055
▁चित्रकार	2054
▁प्रतिनिधित्व	2054
▁मिडिया	2054
वृत्ती	2053
▁आहेतच	2053
▁कुठली	2053
▁तितके	2053
▁माणिक	2053
▁सर्रास	2053
पाली	2052
▁जोग	2052
▁दळवी	2052
सुर	2050
▁खता	2050
▁ताज्या	2050
▁सिंगापूर	2050
▁हळु	2050
तान	2049
बाला	2049
र्थी	2049
▁आवडली	2049
▁उलग	2049
▁कंपनीचा	2049
▁नगरपालिका	2049
▁आजची	2048
▁पद्म	2048
▁मित्रांनो	2048
▁श्रीलंके	2048
▁खात्याच्या	2047
▁बाजारातील	2047
▁संग्राम	2047
▁स्वर्ग	2047
▁कुज	2046
▁क्रेडिट	2046
▁पेल	2046
नल	2045
लेख	2045
▁संलग्न	2045
.8	2044
▁एकाही	2044
▁जाब	2044
▁दर्शनासाठी	2044
▁पत्	2044
▁बोलतात	2044
▁आंदोलकांनी	2043
▁भय	2043
▁लावण्यासाठी	2043
शाळेत	2042
▁राण	2042
▁स्ट्र	2042
ॉप	2041
▁क्या	2041
▁ठेवावी	2041
▁धंदा	2041
▁पटवून	2041
▁अटलजी	2040
▁मजूर	2040
व्	2039
शाचे	2039
्यान	2039
वां	2038
▁एकमेकां	2038
▁खर्या	2038
▁बायका	2038
संदर्भातील	2037
▁हल्ल्यात	2037
मार्गे	2036
ूची	2036
▁केलीय	2036
▁कायद्याच्या	2035
▁पूर्	2035
▁मदती	2035
▁कोरडे	2034
▁प्रतिष्ठ	2034
▁स्थगिती	2034
▁हनुमान	2034
पुरात	2033
▁नॉ	2033
▁शिष्य	2033
▁हमीभाव	2033
▁काँ	2032
▁नित्य	2032
▁रस्त्यांवर	2031
▁रिलीज	2031
▁ध्वनी	2030
▁प्रसारमाध्यम	2030
▁मानून	2030
▁मुर्ती	2030
▁वळून	2030
▁हजारे	2030
कोण	2029
जीवन	2029
नाश	2029
▁काहीजण	2029
▁हमखास	2029
कून	2028
▁इम्रान	2028
▁राकेश	2028
▁रावसाहेब	2028
णि	2027
▁पुढची	2027
▁मंत्रिमंडळ	2027
▁महिलेला	2027
▁विमानतळावर	2027
▁विलंब	2027
▁सेवन	2027
▁स्वतःहून	2027
hi	2026
ूळ	2026
▁बुलेट	2026
▁सोपं	2026
▁एकेकाळी	2025
▁घालावे	2025
▁चै	2025
▁परब	2025
▁पोलिसांत	2025
▁भटक	2025
▁हिरवी	2025
▁अफगाणिस्तान	2024
▁धूळ	2024
▁लिखा	2024
▁कार्यशाळा	2023
▁जलसंपदा	2023
▁मध्यंतरी	2023
िड	2022
▁41	2022
▁उपकरण	2022
▁एजन्सी	2022
▁न्यायालय	2022
▁बसतो	2022
टम	2021
पाट	2021
▁करायच्या	2021
▁गी	2021
▁गुणवत्ते	2021
▁चुकीचा	2021
▁फेड	2021
▁यायचे	2021
कडच्या	2020
ग्न	2020
वर्ड	2020
▁दण	2020
▁पोस्टर	2020
▁मोकळी	2020
▁स्टेडियम	2020
▁हिच्या	2020
वरची	2019
▁विकासकाम	2019
▁सै	2019
▁तरंग	2018
▁भरलेल्या	2018
▁मित्रांना	2018
▁ग्रामविकास	2017
▁जाणं	2017
▁दह	2017
▁दीपिका	2017
▁भरली	2017
▁मालमत्ते	2017
▁संभ्रम	2017
▁गृहमंत्री	2016
▁किल्ल्याच्या	2015
▁जवाना	2015
▁स्वार	2015
प्रधान	2014
▁प्रक	2014
▁मॅनेजर	2014
▁स्थलांतर	2014
▁केश	2013
▁बहुतांशी	2013
▁मृत्य	2013
30	2012
▁कॅप	2012
▁सहकार्याने	2012
▁सुप्रिया	2012
▁हव्या	2012
जाने	2011
नानंतर	2011
न्त	2011
पना	2011
फ़	2011
▁अकाऊंट	2011
▁कानावर	2011
▁शौ	2011
▁ज्याने	2010
▁पव	2010
▁le	2009
▁गोपाळ	2009
▁ठेवतो	2009
▁पोळी	2009
▁बुज	2009
▁मावशी	2009
▁साइटवर	2009
▁आरो	2008
▁कायमस्वरूपी	2008
▁पुढं	2008
▁माहेर	2008
▁al	2007
▁खरेच	2007
▁तलवार	2006
▁तारखे	2006
णाऱ्यांना	2005
पने	2005
▁इन्स्टिट्यूट	2005
▁धडे	2005
▁रिसर्च	2005
▁समांतर	2005
भंग	2004
मानाने	2004
ांश	2004
▁नसल्या	2004
▁पत्कर	2004
▁भाड	2004
▁ग्रामपंचाय	2003
▁जीवनातील	2003
▁माघार	2003
माप	2002
साट	2002
▁गिरी	2002
▁धीर	2002
▁प्रबोधन	2002
▁प्रशासनाच्या	2002
▁मुळीच	2002
वाज	2001
▁खाणी	2001
▁त्याहून	2001
▁नु	2001
▁संसदे	2001
▁आजपासून	2000
▁आयुष्यातील	2000
▁गव	2000
▁ठेवल्या	2000
▁शकली	2000
ंकर	1999
अन	1999
हानी	1999
▁तलाठी	1999
▁निवडणू	1999
▁फलटण	1999
▁अनेकजण	1998
▁ग्रे	1998
▁पेन	1998
▁मागण्यांसाठी	1998
ेच्या	1997
▁आतून	1997
▁मीही	1997
▁शशिकांत	1997
▁माश	1996
▁४९	1996
▁अंकुश	1995
▁जाणवते	1995
▁नशीब	1995
▁पूर्वज	1995
▁आशे	1994
▁वाफ	1994
▁साम्राज	1994
▁सोनाली	1994
▁तडा	1993
▁यांच्यासोबत	1993
▁विभागाकडे	1993
ia	1992
▁उदयनराजे	1992
▁कुणालाही	1992
▁बरंच	1992
▁बात	1992
▁२००७	1992
ट्टी	1991
▁देवाला	1991
▁फुकट	1991
▁बॅटरी	1990
▁लूट	1990
▁वॉलपेपर	1990
काव	1989
ताहेत	1989
विणार	1989
▁कांही	1989
▁गरजू	1989
▁घोषणाबाजी	1989
▁चाय	1989
▁झाक	1989
▁विचारत	1989
▁कर्जत	1988
▁डोळा	1988
▁कोथिंबीर	1987
▁बालक	1987
तही	1986
साव	1986
ॅक्ट	1986
▁आणण्याचा	1986
▁कपिल	1986
▁थांबले	1986
▁प्राय	1986
▁स्पर्धेतील	1986
▁तहसील	1985
▁नियोजित	1985
▁सर्च	1984
रक्षक	1983
▁कळेल	1983
त्याला	1982
मेल	1982
्यापासून	1982
▁रब्बी	1982
▁सांगणे	1982
सूत्र	1981
▁पिशवी	1981
▁वयो	1981
▁समितीत	1981
क्रमा	1980
▁आवडतं	1980
▁करील	1980
▁व्यस्त	1980
▁साम्राज्य	1980
दाचा	1979
ल्म	1979
▁किम	1979
▁ख्रि	1979
▁दाभोलकर	1979
▁बैठकीला	1979
▁शिकार	1979
शाली	1978
▁कुटुंबिया	1978
▁दुर्गम	1978
▁युक्तिवाद	1978
▁सर्वांची	1978
▁झोपडपट्टी	1977
▁धावांची	1977
▁नसली	1977
गाल	1976
▁पंचा	1976
▁मनी	1976
▁शिव्या	1976
र्मा	1975
समोरील	1975
स्को	1975
▁वाघा	1975
▁सीट	1975
▁००	1975
▁आज्ञा	1974
▁आव्हा	1974
▁ओळ	1974
▁गोष्टींची	1974
▁पावसात	1974
▁वाढणार	1974
द्रे	1973
सभे	1973
▁आपाप	1973
▁एकमेकांशी	1973
▁कार्यात	1973
▁गहू	1973
▁ठरा	1973
▁ओम	1972
धि	1971
ैर	1971
▁त्याना	1971
▁अशीही	1970
▁सदा	1970
घड	1969
लरी	1969
▁गुल	1969
▁बसाय	1969
पदाच्या	1968
▁गतीने	1968
▁बदलत्या	1968
▁मोटारसायकल	1968
▁वर्षांचे	1968
▁४७	1968
पट्ट	1967
मंद	1967
शाने	1967
▁बालेकि	1967
▁हॉटेलमध्ये	1967
▁अभिवादन	1966
▁जमेल	1966
▁ज्यावेळी	1966
▁पदा	1966
▁महानगरपालिका	1966
▁शेर	1966
▁स्नेह	1966
▁उघडून	1965
▁तुळशी	1965
▁निकम	1965
▁पक्षांना	1965
▁दरवाढ	1964
▁पडताळणी	1964
▁फोडून	1964
▁सम्राट	1964
वण्यास	1963
▁घेतील	1963
▁तुरुंग	1963
▁विठ्ठ	1963
▁अखेरच्या	1962
▁तोफ	1962
▁मलिक	1962
▁गंग	1961
▁गुं	1961
▁बों	1961
▁मतदारसंघा	1961
▁गावच्या	1960
▁गावातून	1960
▁धर्तीवर	1960
▁भावे	1960
▁लाभले	1960
▁शहराला	1960
प्रमाण	1959
र्चा	1959
संख्या	1959
▁अंज	1959
▁जोडप	1959
▁दबा	1959
स्तीत	1958
▁z	1957
▁अदा	1957
▁खंडपीठाने	1957
▁चां	1957
▁विषारी	1957
▁शरण	1957
ac	1956
▁विश्राम	1956
त्वे	1955
स्ट्र	1955
िक्षा	1955
▁जास्तच	1955
▁नसल्यास	1955
▁माणसांना	1955
▁वाणिज्य	1955
▁अरब	1954
▁मंचा	1954
▁शनी	1954
ग्ज	1953
▁नॉन	1953
▁रहिवाश	1953
बाजार	1952
▁चकम	1952
▁चित्रपटसृष्टी	1952
▁झेंडा	1952
▁बसवून	1952
▁मिळण्यासाठी	1952
▁संशोधक	1952
▁९९	1952
मीटर	1951
वानं	1951
▁उपमुख्यमंत्री	1951
▁खोटी	1951
▁गमाव	1951
▁प्रकरणाचा	1951
▁छाव	1950
ुष	1949
▁काठ	1949
▁मधुकर	1949
▁महामंडळ	1949
▁वाढतो	1949
▁घेण्याच्या	1948
▁बिगर	1948
▁लिहिलेले	1948
ांगी	1946
▁तांबे	1946
▁जुन	1945
▁मूखमैथून	1945
्रास	1944
▁ईमेल	1944
▁कौल	1944
▁झपाट्याने	1944
▁भिड	1944
▁शं	1944
▁सुहास	1944
ंनाही	1943
डली	1943
ात्म	1943
▁कंबर	1943
▁कठ	1943
▁बदलला	1943
▁वाघमारे	1943
शाची	1942
▁अग्नि	1942
▁उदार	1942
▁उलाढाल	1942
▁जिंकली	1942
▁भुई	1942
▁मिडी	1942
▁रीतीने	1942
▁आॅ	1940
▁बोगस	1940
▁घटनेनंतर	1939
▁घातलेल्या	1939
▁तरूणी	1939
▁थे	1939
▁नव्ह	1939
▁शरीराला	1939
▁प्रारंभी	1938
नीस	1937
▁पुराण	1937
▁महामंडळाच्या	1937
▁तेवढी	1936
▁पब्लिक	1936
▁मेह	1936
▁याकरिता	1936
▁राहिलेले	1936
▁किंचित	1935
▁९८	1935
अल	1934
बाने	1934
▁अभ्यासक	1934
▁उध	1934
▁कुंभ	1934
▁डॅ	1934
▁मुसलमान	1934
▁वडा	1934
▁साता	1934
▁हिंसाचार	1934
▁अलीकडेच	1933
▁प्रकरणे	1933
▁बंगळूर	1933
यान	1932
ल्क	1932
▁आपणही	1932
▁खाणे	1932
▁तरुणांनी	1932
▁रांगा	1932
▁लिहायला	1932
▁स्वरुप	1932
▁झालेत	1931
▁बेरोजगार	1931
्राम	1930
▁अद्ययावत	1930
▁कबड्डी	1930
▁कशासाठी	1930
▁वसाहती	1930
▁स्वी	1930
▁आर्य	1929
▁एकटी	1929
▁मराठे	1929
▁वैशिष्ट	1929
साम	1928
्यांपासून	1928
▁जातीच्या	1928
▁तुषार	1928
▁भगत	1928
▁भाजपमध्ये	1928
▁आवाजा	1927
▁पहिलं	1927
▁खेच	1926
▁झोन	1926
▁दोघांची	1926
▁नंतरच्या	1926
▁बिल्डर	1926
▁स्नान	1926
▁ऍप	1925
▁चाळ	1925
▁जलयुक्त	1925
▁पुढचे	1925
गाडी	1924
विचार	1924
▁मंत्रालयाने	1924
▁शोधात	1924
दाची	1923
▁google	1923
▁उपोष	1923
▁तिक	1923
▁दुर्घटना	1923
वाड्या	1922
ांमधे	1922
▁गझल	1922
▁मनातील	1922
▁व्यक्तिमत्व	1922
ci	1921
टू	1921
▁आचार्य	1921
▁कमला	1921
▁नेत्यांच्या	1921
▁मनुष्यबळ	1921
▁हालचाल	1921
▁४६	1921
जल	1920
▁अपलोड	1920
▁काहींना	1920
▁जावून	1920
▁रचने	1920
▁लसूण	1920
ंटी	1919
म्य	1919
▁कर्करोग	1919
▁गरिब	1919
▁घोळ	1919
▁महास	1919
▁मुलाने	1919
▁रंगाची	1919
▁जाणकार	1918
▁मुख्यतः	1918
▁राहु	1918
धु	1917
▁खात्यावर	1917
▁बांधणी	1917
▁येथ	1917
ath	1916
▁आणू	1916
▁चीनने	1916
▁झुंज	1916
▁पदासाठी	1916
▁स्थानी	1916
फ्ट	1915
▁निवांत	1915
▁पॅन	1915
▁भांडी	1915
▁स्टेज	1915
▁हसू	1915
ंमधील	1914
▁मोदींच्या	1914
द्वारा	1913
▁अत्यावश्यक	1913
▁बोटी	1913
▁गृ	1912
▁तब	1912
त्वाचा	1911
▁अतिरेक	1911
▁अर्थसंकल्पात	1911
▁खोल्या	1911
▁पदाधिकाऱ	1911
▁महाराष्ट्राचा	1911
▁लाईफ	1911
▁सार्वत्रिक	1911
ang	1910
▁तुमच्याकडे	1910
▁प्रतीक्षा	1910
▁वं	1910
▁७२	1910
काशी	1909
▁गजर	1909
▁दुग्ध	1909
▁युनियन	1909
▁रोष	1909
▁हिंगोली	1909
ृती	1908
▁आणत	1908
▁ताकदी	1908
▁दोनदा	1908
▁साक्ष	1908
ध्	1907
ाविरोधात	1907
ेची	1907
▁एकुण	1907
▁कोपर	1907
▁तर्फे	1907
▁बाकीच्या	1907
▁वर्तु	1907
▁बांधली	1906
▁मध्यप्रदेश	1906
▁पायावर	1905
▁सफर	1905
▁साम्य	1904
▁हिला	1904
▁पाठीवर	1903
▁युर	1903
▁सुक	1903
क्षर	1902
श्य	1902
▁एवढंच	1902
▁माऊली	1902
बड	1901
▁बांधला	1901
▁बांबू	1901
▁कंट्रोल	1900
▁ट्रेंड	1900
▁लागलेली	1900
▁स्वाभिमान	1900
.6	1899
चल	1899
िक्	1899
▁काढलेल्या	1899
▁पवित्रा	1899
संस्थे	1898
▁मुख्याध्यापक	1898
▁वर्षीच्या	1898
चणी	1897
बाच्या	1897
▁किस	1897
▁जवळून	1897
▁पोर्टल	1897
▁रांगोळी	1897
ोत्तर	1896
▁कन	1896
▁प्रेमाने	1896
▁बुध	1896
▁नेहमीच्या	1895
▁पांढरे	1895
▁लय	1895
▁हलक्या	1895
क्षी	1894
छा	1894
▁अप्र	1894
▁एजंट	1894
▁केंद्रावर	1894
▁भावी	1894
▁वाढल्याने	1894
स्वामी	1893
▁दिसतं	1893
▁श्लोक	1893
ऱ्यांची	1892
ातले	1892
▁करताच	1892
▁केंद्राच्या	1892
▁पठाण	1892
▁परता	1892
▁शेजारच्या	1892
▁हट्ट	1892
ग्रस्ता	1891
व्यव	1891
▁अरबी	1891
▁झवणे	1891
▁तितकेच	1891
▁बरी	1891
▁विश्वचषक	1891
▁कोयना	1890
▁ड्राय	1890
▁लागणारी	1890
▁करण्यावर	1889
▁वसई	1889
पाडा	1888
▁कणकवली	1888
▁निरोगी	1888
▁याबाबतची	1888
णेकर	1887
▁उत्स्फूर्त	1887
▁बाजारपेठे	1887
▁भक्ति	1887
▁वडिलांच्या	1887
▁अनुभवी	1886
▁ओला	1886
▁टाईम	1886
▁बूल्ला	1886
▁वाचता	1886
जिक	1885
ार्क	1885
▁52	1885
▁अगर	1885
▁ग्ल	1885
▁जित	1885
▁देशांत	1885
▁नक्षलवाद	1885
▁संविधा	1885
▁५४	1885
▁आवळ	1884
▁मिरवणूक	1884
▁विचारवंत	1884
▁करीन	1883
▁कुण	1883
▁८५	1883
निहाय	1882
▁maharashtra	1882
▁घेतल्यास	1882
▁नित	1882
if	1881
ांतर	1881
▁अन्वेषण	1881
▁कनेक्शन	1881
▁कुशल	1881
▁दस्त	1881
▁प्रतिकार	1881
▁सावंतवाडी	1881
दूत	1880
पाळ	1880
▁चित्रा	1880
▁दंगली	1880
▁दिग्दर्शित	1880
▁प्रतिकूल	1880
लाला	1879
▁प्रकल्पाच्या	1879
ांचाही	1878
▁ठेवावा	1878
▁पारदर्शक	1878
▁मुख्या	1878
▁केक	1877
▁जीवा	1877
▁त्याआधी	1877
▁प्रश्नच	1877
▁घटनेत	1876
▁दुय्यम	1876
▁दुवा	1876
▁पॅकेज	1876
▁राजकुमार	1876
▁पानावर	1875
▁बाटल्या	1875
▁आंदोलने	1874
▁भ्रष्ट	1874
▁ह्यांनी	1874
कावर	1873
गाळ	1873
वो	1873
▁चेअरमन	1873
▁नमुना	1873
▁नियंत्रित	1873
▁लघ	1873
▁स्टोरी	1873
मासाठी	1872
विणाऱ्या	1872
▁आटोप	1872
▁इंद्रा	1872
▁जमले	1872
▁बोनस	1872
▁रसायन	1872
▁लव्ह	1872
▁शास्त्री	1872
▁सत्त	1872
बस	1871
रचना	1871
▁काढण्याचा	1871
▁तयारीत	1871
▁निवेद	1871
▁मूल्या	1871
▁रोपे	1871
▁ट्रॅ	1870
▁रेल	1870
▁सौंदर	1870
▁कालांतराने	1869
▁बघतो	1869
,000	1868
प्रकाश	1868
्याशी	1868
▁एकदिवसीय	1868
▁क्यु	1868
▁निरीक्ष	1868
धना	1867
्यांमधून	1867
▁कं	1867
▁खुला	1867
▁बँकिंग	1867
▁येणं	1867
▁जैव	1866
▁मोती	1866
▁विहीर	1866
पोर्ट	1865
▁रुपांतर	1865
▁लोकसंख्ये	1865
▁साधू	1865
▁हळदी	1865
▁फौज	1864
▁मॅनेजमेंट	1864
ub	1863
कारण	1863
काश	1863
▁गुला	1863
▁बार्	1863
▁भरीव	1863
▁स्म	1863
गंगा	1862
चर्स	1862
झेशन	1862
पुरे	1862
ांती	1862
▁आस्वाद	1862
▁केंद्रातील	1862
▁गोदावरी	1862
▁तेरा	1862
▁नसती	1862
▁आरक्षणाच्या	1861
▁मान्सून	1861
▁कार्यालयातील	1860
▁ड्रेस	1860
▁मानतात	1860
▁रहस्य	1860
▁समाधानकारक	1860
टाचा	1859
▁असें	1859
▁एक्सप्रेस	1859
▁मंदिरे	1859
▁रवि	1859
▁राजकारण्या	1859
नामे	1858
ोत्सव	1858
▁कन्नड	1858
माले	1857
▁खते	1857
▁जॉर्ज	1857
▁पंकज	1857
▁विका	1857
▁व्हायचं	1857
▁सीमेवर	1857
▁ex	1856
▁दुर्घटने	1856
▁पावणे	1856
▁पाहीजे	1856
▁फेसबुकवर	1856
▁हक्	1856
▁पुरे	1855
▁लिंगायत	1855
▁शेतकऱ्यांचा	1855
ब्स	1854
मंडळी	1854
योगी	1854
▁अॅक्ट	1854
▁उपकरणे	1854
▁येई	1854
▁सुनावली	1854
स्तर	1853
▁कृत्य	1853
▁चर्चेचा	1853
▁मिश्रा	1853
▁राज्यांमध्ये	1853
▁लागे	1853
▁होवून	1853
हिर	1852
▁ओत	1852
▁किल्ल्यावर	1852
▁तपासात	1852
▁स्वीकारले	1852
▁कुठला	1851
▁दोघांनाही	1851
▁पोहोचलो	1851
क्झ	1850
पणामुळे	1850
▁कार्यान्वित	1850
▁डेपो	1850
▁ष	1850
▁सुचना	1850
▁400	1849
▁अभिनव	1849
▁तथाकथित	1849
▁थकीत	1849
▁वर्तन	1849
▁51	1848
▁कायद्यानुसार	1848
▁गाठी	1848
▁जास्ती	1848
▁रूपाने	1848
▁लिहिला	1848
▁केर	1847
▁नेण्यात	1847
▁भरला	1847
▁अहि	1846
▁रशियन	1846
▁वांग	1846
▁निध	1845
▁पूजे	1845
▁महिन्यां	1845
▁वादळ	1845
▁५६	1845
ai	1843
ण्याबाबत	1843
▁प्रजाती	1843
▁रहावे	1843
▁मालेगाव	1842
▁तानाजी	1841
▁रेड्डी	1841
▁इलेक्ट्रॉनिक	1839
▁उपासना	1839
▁बाजुला	1839
▁मागविण्यात	1839
▁मानधन	1839
▁संपुर्ण	1839
▁ड्रायव्हर	1838
▁धाग	1838
▁प्लॅटफॉर्म	1838
▁लागणारे	1838
▁विद्यापीठाचे	1838
▁इच्छ	1837
▁पर्स	1837
▁पाहण्याची	1837
▁ब्रिगेड	1837
▁सपा	1837
▁us	1836
▁दुष्ट	1836
▁देवाच्या	1836
▁भरुन	1836
aj	1835
अम	1835
▁di	1835
▁दरी	1835
▁शिफारशी	1835
लये	1834
▁अंधारात	1834
▁कमिशन	1834
▁क्रम	1834
▁जिल्ह्याचे	1834
▁बसलेले	1834
▁भरभरून	1834
▁कधीकधी	1833
▁गरोदर	1833
▁श्रद्धांजली	1833
▁तीव्रता	1832
▁नाजूक	1832
▁अग्नी	1831
▁पीएम	1831
▁उडा	1830
▁चोरट	1830
▁पल	1830
▁बैठका	1830
▁मोबाईलवर	1830
▁व्	1830
विद्या	1829
▁गुरव	1829
▁शेलार	1829
चक्र	1828
टिक	1828
▁दांड	1828
▁दौर	1828
▁नाहीस	1828
▁प्रस	1828
हात	1827
ूनच	1827
▁तेवढा	1827
▁नुसते	1827
▁पुजारी	1827
▁वर्षाची	1827
▁कॉलेजमध्ये	1826
▁जान	1826
शान	1825
श्रम	1825
▁धरली	1825
▁ब्ल	1825
▁वक्त	1825
स्टन	1824
▁आराख	1824
▁पॅरिस	1824
▁गूळ	1823
▁डोकं	1823
▁नियमानुसार	1823
▁पर्यायाने	1823
▁पाणीटंचाई	1823
▁योजनेचे	1823
▁राज्याचा	1823
ताळ	1822
▁पिढीला	1822
▁समजलं	1822
प्रती	1821
▁किनार	1821
▁केल्याबद्दल	1821
▁बजावली	1821
▁हरभरा	1821
▁भंडारा	1820
▁रोमन	1820
िब	1819
▁47	1819
▁राज्यपा	1819
ंतील	1818
▁कोटींच्या	1818
▁निषेधार्थ	1818
▁पाज	1818
त्त्या	1817
▁गोलंदाजी	1817
▁धर्माच्या	1817
▁निलेश	1817
▁शासनाला	1817
▁सर्वाना	1817
नेते	1816
▁कॉन्	1816
▁उघडले	1815
▁ज्याचा	1815
▁नव्हत्या	1815
▁प्रकल्पासाठी	1815
▁राहिलं	1815
▁लष्करा	1815
▁घटनेचा	1814
▁व्हॉट्सअॅप	1814
▁शिक्षकांच्या	1814
▁स्थानकात	1814
▁दिवसापासून	1813
▁पाठोपाठ	1813
▁हवालदार	1813
ive	1812
▁अभिव्यक्ती	1812
▁काटेकोर	1812
▁कोलकाता	1812
▁चाललेल्या	1812
▁नाई	1812
▁मिळविले	1812
▁शार	1812
▁सर्व्हिस	1812
▁काळाच्या	1811
▁बघितलं	1811
स्टार	1810
▁डोंगरा	1810
▁मच्छीमार	1810
▁मजल्यावर	1810
▁राज्यस्तरीय	1810
स्कार	1809
िकाला	1809
▁निराशा	1809
▁रिंगणात	1809
णाबाबत	1808
▁शिकायला	1807
दत्त	1806
▁वध	1806
ण्यातील	1805
▁पर्यटकांना	1804
▁मानतो	1804
▁शेतमाला	1804
.7	1803
▁मध्या	1803
▁लावू	1803
▁सहाव्या	1803
▁जिव्हा	1802
▁झळ	1802
▁तेथेच	1802
▁माझ	1802
सचिव	1801
▁काहीसा	1801
▁खात्याचे	1801
▁गूढ	1801
▁तिच्याकडे	1801
▁बऱ्यापैकी	1801
घळ	1800
▁उर्जा	1800
▁कर्मचाऱ्यांनी	1800
▁ठाण्याच्या	1800
▁लावता	1800
.4	1799
▁अंगी	1799
▁उद्योगपती	1799
▁गोखले	1799
▁प्राध्याप	1799
▁बडो	1799
मात्र	1798
मारी	1798
विणारे	1798
ोत्	1798
▁अयोग्य	1798
▁ऊन	1798
▁विश्वनाथ	1798
▁गावांना	1797
▁मिळणारे	1797
▁46	1796
▁काकडे	1796
▁चाला	1796
▁परतावा	1796
▁मनाची	1796
▁वन्य	1796
▁सीमे	1796
टाची	1795
▁काढा	1795
▁फिरायला	1795
▁लिस्ट	1795
कण	1794
▁56	1794
▁जुन्नर	1794
▁महिन	1794
▁लग्ना	1794
▁स्मिता	1794
10	1793
ik	1793
▁आऊट	1793
▁घडते	1793
▁नक्ष	1793
▁पंचनामा	1793
▁पाठवला	1793
▁मांस	1793
▁येण्यास	1793
लेखन	1792
▁वाशी	1792
▁शर्य	1792
धक	1791
ौर	1791
▁संपाद	1791
▁मुनगंटीवार	1790
ंबे	1789
▁phoneky	1789
▁अच	1789
▁उपसरपंच	1789
▁खिशात	1789
मान्य	1788
्ल	1788
▁07	1788
▁अस्मिता	1788
▁द्वेष	1788
▁माधुरी	1788
▁सर्वांचा	1788
▁कॉम्प्युटर	1787
▁नुकसानी	1787
▁लोकसभेत	1787
पीठ	1786
ावरही	1786
▁उडाला	1786
▁तुम्हा	1786
▁ध्यानात	1786
ोला	1785
▁प्री	1785
▁राज्यभरात	1785
▁वाण	1785
▁साडेचार	1785
▁अविश्वास	1784
▁उद्ध्वस्त	1784
▁एसी	1784
▁तर्	1784
▁त्यांच्यासोबत	1784
श्रे	1783
▁पर्वत	1783
▁स्त्रियां	1783
स्ते	1782
▁अडकून	1782
▁काढण्याची	1782
▁तां	1782
▁चरण	1781
▁पाकिस्तानात	1781
▁बौद्धिक	1781
▁संचालना	1781
▁पैलू	1780
▁प्रत्यय	1780
▁विश्वस्त	1780
▁वेधून	1780
▁संपल्यानंतर	1780
▁सावली	1780
ou	1779
शीच	1779
▁घेईल	1779
▁तासांत	1779
▁रस्त्याने	1779
▁वर्तुळात	1779
▁वेधले	1779
▁शाख	1779
▁सोहळ्यात	1779
्यांपर्यंत	1778
▁उत	1778
▁गोंद	1778
▁सोडत	1778
▁स्टाईल	1778
▁तालुक्याच्या	1777
▁तिजोरी	1777
▁मुलीने	1777
पिंग	1776
▁पुष्प	1776
▁प्रश्नाचे	1776
▁रोहन	1776
जीक	1775
ड्स	1775
▁पटक	1775
▁प्रभावित	1775
एच	1774
बराव	1774
▁ट्रेलर	1774
▁मेन	1774
▁रास्त	1774
▁व्याख्यान	1774
▁आशय	1773
▁ग्रहण	1773
▁राहणारे	1773
ण्याऐवजी	1772
▁मदर	1772
▁लिहिताना	1772
शाळे	1771
▁कन्	1771
▁चीज	1771
▁जिल्हाधिकाऱ	1771
▁जीवना	1771
▁निराश	1771
▁फै	1771
ॅग	1770
▁अभिजित	1770
▁विष्णु	1770
डप	1769
▁आक्रमण	1769
▁आजूबाजूच्या	1769
▁दुःखा	1769
▁मोडून	1769
मता	1768
▁अंबानी	1768
▁इटली	1768
▁क्षीरसागर	1768
▁विकासा	1768
▁चालवत	1767
नावरील	1766
▁हिस्सा	1766
पदाचा	1765
वळा	1765
▁संस्थेत	1765
आम	1764
ुरूप	1764
▁अंत्य	1764
▁कार्यकारिणी	1764
▁कुळ	1764
ंजे	1763
च्	1763
हाची	1763
▁केशव	1763
▁गरजेचं	1763
▁तत्सम	1763
▁तुमच्यासाठी	1763
▁बांधकामे	1763
▁वैशाली	1763
▁अग्र	1762
▁गैरव्यवहार	1762
▁टाकलं	1762
▁त्यावरील	1762
▁बेस	1762
▁वाढती	1762
▁शिवीगाळ	1762
▁संबंधीत	1762
वळे	1761
▁घालण्यासाठी	1760
▁नुसता	1760
▁पडद्या	1760
▁पाटबंधारे	1760
▁पावसाळी	1760
▁मद	1760
▁इंग्रजीत	1759
▁काला	1759
▁दारात	1759
ोंग	1758
▁05	1758
▁क्रा	1758
▁टाकणे	1758
▁मदतीसाठी	1758
कल्प	1757
शन्स	1757
▁अंड	1757
▁54	1756
▁अॅट	1756
▁नक्षत्र	1756
▁पट्टी	1756
▁पदाचा	1756
▁भ्रम	1756
▁म्हशी	1756
▁लस	1756
▁घेतल्याचे	1755
▁मारणे	1755
महा	1754
▁चाचण्या	1754
▁नेहेमी	1754
▁समन्वयक	1754
▁सिनेमे	1754
▁२००६	1754
▁बिकट	1753
▁शिपाई	1753
▁गरिबी	1752
▁निगडित	1752
▁संस्थांनी	1752
मंत्र्यांनी	1751
▁आदींनी	1751
▁काहि	1751
▁जेष्ठ	1751
▁तणा	1751
▁प्रभु	1751
▁माहितीही	1751
▁वर्षातील	1751
▁घंटा	1750
▁चॉकलेट	1750
▁टेम्पो	1750
▁उजवीकडे	1749
▁ग्री	1749
▁पडसाद	1749
▁मंत्रालयात	1749
▁लग्नानंतर	1749
▁लेणी	1749
▁संख्येत	1749
▁अवश्य	1748
▁कुड	1748
▁ठेवलेले	1748
▁तै	1748
▁दौऱ्यावर	1748
▁पाकिस्तानला	1748
▁महत्वपूर्ण	1748
विल	1747
▁वाचकांना	1747
प्रे	1746
ार्धात	1746
▁धम	1746
▁नसावी	1746
▁पुर्वी	1746
▁वरुन	1746
ळ्यातील	1745
▁150	1745
▁उकळ	1745
▁कीड	1745
▁ज्यामध्ये	1745
▁लोकमान्य	1745
द्रा	1744
्राच्या	1744
▁नायडू	1744
लगाव	1743
सृष्टी	1743
▁अनुप्रयोग	1743
▁चमचे	1743
▁नमु	1743
▁फाट	1743
▁राज्यांत	1743
▁समीकरण	1743
▁कक्षा	1742
▁गळफास	1742
▁मोदींना	1742
दारांनी	1741
▁पुरी	1741
▁बांग	1741
▁वाढविण्यासाठी	1741
▁विदेश	1741
▁संगमनेर	1741
▁स्पर्धेचे	1741
ain	1740
▁क्षणात	1740
▁त्यातला	1740
▁पुढारी	1740
▁हातून	1740
एट	1739
चु	1739
▁इंडस्ट्री	1739
▁चित्रपटाचा	1739
▁रंगाचे	1739
▁शीत	1739
▁समता	1739
ारास	1738
▁निष्ठ	1738
▁पाहताना	1738
▁पोक	1738
▁मेळावा	1738
▁रोको	1738
▁सोब	1738
दाद	1737
बोध	1737
▁as	1737
▁नवीनतम	1737
▁फूल	1737
▁मराठवाड्यात	1737
▁कच्च्या	1736
▁तिकिट	1736
▁वाटतंय	1736
▁हातावर	1736
रीला	1735
ोंद	1735
▁by	1735
▁अॅण्ड	1734
▁थेंब	1734
▁मऊ	1734
▁मूक	1734
▁शिक्षणाची	1734
व्यतिरिक्त	1733
▁अफाट	1733
▁अंतराळ	1732
▁त्यापासून	1732
▁महामार्गावरील	1732
▁मोहिम	1732
▁वेळाने	1732
वाही	1731
सर्	1731
▁अपर	1731
▁अस्सल	1731
▁करम	1731
▁भोजन	1731
▁चिमुक	1730
▁झोपा	1730
▁प्रधानमंत्री	1730
▁मजुर	1730
▁नाणे	1729
▁वसंतराव	1729
▁पीएमपी	1728
▁रात्रभर	1728
▁सिम	1728
शिक्षण	1727
शेजारी	1727
▁no	1727
▁मिरव	1727
▁शब्दाचा	1727
बाड	1726
▁टांग	1726
▁प्रतिमे	1726
▁मानत	1726
▁वडिल	1726
रोड	1725
▁ज्याप्रमाणे	1725
ेशन्स	1724
▁अश्	1724
▁बड्या	1724
▁शिष्टमंड	1724
▁53	1723
▁चालूच	1723
▁दाखवा	1723
▁शाखेच्या	1723
▁हरित	1723
्यानंतर	1722
▁काढायला	1722
▁रमा	1722
दारे	1721
पाव	1721
स्थळी	1721
▁अनिकेत	1721
▁टिळ	1721
▁याही	1721
ज्ज	1720
ळीचे	1720
▁जिल्ह्यांत	1720
▁पांग	1720
▁पुरंदर	1720
▁२००५	1720
▁अण	1719
▁आढळते	1719
▁कोंड	1719
▁दंगल	1719
▁मशि	1719
▁सिडको	1719
पलीकडे	1718
इल	1717
▁श्रीनिवास	1717
▁सावित्रीबाई	1717
▁सुर्य	1717
▁किनारपट्टी	1716
▁क्रि	1716
▁ठाकर	1716
▁दौंड	1716
▁पोर्ट	1716
▁प्रत्युत्तर	1716
▁टाकू	1715
▁बला	1715
▁हें	1715
्युअल	1714
▁जाळे	1714
▁देवाने	1714
▁पातळीवरील	1714
▁साला	1714
णीवर	1713
▁अंतः	1713
▁अंधश्रद्धा	1713
▁असंतोष	1713
▁उमेदवारांची	1713
▁कॉर्पोरेट	1713
▁पाहु	1713
▁शाहरुख	1713
कीचा	1712
▁काग	1712
▁निश्च	1712
▁नोटबंदी	1712
▁पायऱ्या	1712
▁प्रदूष	1712
▁प्रश्नचिन्ह	1712
▁वयोगटातील	1712
▁व्यवहारात	1712
▁सुप्रसिद्ध	1712
▁अठरा	1711
▁कराव्यात	1711
▁कुट	1711
▁छत्तीसगड	1711
▁मासेमारी	1711
बन	1710
शाळा	1710
▁ऐका	1710
▁गायन	1710
▁मनातल्या	1710
▁यायची	1710
pt	1709
▁गुळ	1709
▁लिंबू	1709
विताना	1708
▁गोरी	1708
▁बचा	1708
झो	1707
▁अब्	1707
▁कादंब	1707
▁पुण्याला	1707
▁मंत्रालय	1707
▁विझ	1707
▁मतदारसंघातील	1706
▁वह	1706
▁सुरुवातीच्या	1706
▁पहिलाच	1705
▁राफेल	1705
▁राहिलेली	1705
धारकांना	1704
पुरुष	1704
▁नोकरीत	1704
ताप	1703
वरी	1703
स्थानी	1703
▁se	1703
▁कार्यक्षम	1703
▁तुलनेने	1703
▁पाण्यासाठी	1703
▁सिस्टीम	1703
▁स्वि	1703
त्त्वा	1702
▁खंडित	1702
▁मायक्रो	1702
▁सांगितल्या	1702
▁are	1701
▁कोणाचे	1701
▁दृष्टीकोन	1701
▁पाटण	1701
▁मिळणारा	1701
▁शक्ति	1701
▁सहमत	1701
▁करिता	1700
▁लिखित	1700
▁शिक्कामोर्तब	1700
op	1699
्याकडून	1699
▁चाली	1699
▁योजनेतून	1699
▁वण	1699
▁वेगळाच	1698
12	1697
ast	1697
ल्ट	1697
▁06	1697
▁खबर	1697
▁स्टी	1697
ter	1696
पीट	1696
▁आगीत	1696
▁दत्तक	1696
▁बनत	1696
▁लावलेल्या	1696
ig	1695
ल्य	1695
▁अन्या	1695
▁गों	1695
▁नाकारता	1695
▁मिक्स	1695
▁शुभारंभ	1695
▁यापूर्वीच	1694
▁शिरा	1694
आयसी	1693
▁कॉंग्रेसने	1693
▁कोणाचा	1693
कथ	1692
स्वार	1692
▁इच्छि	1692
▁नवं	1692
▁वर्षानंतर	1692
ach	1691
ve	1691
▁आघाडीचे	1691
▁थोडासा	1691
▁बाजूच्या	1691
पदक	1690
▁आत्मसात	1690
▁तत्पर	1690
▁सरकारनं	1690
र्तन	1689
सने	1689
्यांवरील	1689
▁एकादशी	1689
▁कॉग्रेस	1689
▁पिंज	1689
▁बिस्	1689
▁रंगभूमी	1689
बू	1688
भागा	1688
वितात	1688
▁08	1688
▁टोला	1688
▁पंड	1688
▁पार्वती	1688
▁मीरा	1688
▁संकेतस्थ	1688
▁संघाची	1688
▁मनाचा	1687
▁मोहोळ	1687
करणासाठी	1686
बिंदू	1686
लयातील	1686
ाविरुद्ध	1686
▁उत्तरा	1686
▁उत्पन्	1686
▁निघत	1686
▁पत्रे	1686
▁प्रकल्पात	1686
▁महाराष्ट्राला	1686
▁वक्तव्या	1686
▁वापरात	1686
▁शाळांना	1686
तले	1685
▁उगीच	1685
▁उद्यान	1685
▁नही	1685
▁परिधान	1685
टाचे	1684
▁उशिरापर्यंत	1684
▁तुझ	1684
▁पाहुण्या	1684
▁भाषेचा	1684
▁मॉल	1684
ंदन	1683
भेद	1683
सक	1683
्यांसोबत	1683
▁आम्हांला	1683
▁जिंकला	1683
▁मागणीही	1683
▁म्हणले	1683
आप	1682
त्न	1682
नांचा	1682
▁मका	1682
▁सूत्रे	1682
▁जातोय	1681
▁सूर्या	1681
पुरते	1680
राष्ट्र	1680
▁ऊर्जे	1680
▁मर्	1680
▁शरी	1680
विकास	1679
▁तोंडा	1679
▁नील	1679
▁पदाधिकार	1679
▁स्पर्धेसाठी	1679
डिंग	1678
▁जांभ	1678
▁संजीव	1678
क्यात	1677
वाच	1677
▁आमंत्रण	1677
▁उपअधीक्षक	1677
▁दिशाभूल	1677
▁निर्माते	1677
▁बिले	1677
▁सोळा	1677
फ्र	1676
यात्रा	1676
▁उशीरा	1676
▁महिलांचा	1676
▁राधाकृष्ण	1676
▁रेश	1676
ंश	1675
▁दिल्लीच्या	1675
▁ध्वज	1675
▁पटकावले	1675
▁महिलांची	1675
▁सामावून	1675
▁स्वयंसेवी	1675
▁2010	1674
▁तस्करी	1674
▁स्त	1674
लिस	1673
हुन	1673
▁कंटाळून	1673
▁जेवायला	1673
▁झाल	1673
▁त्याठिकाणी	1673
▁धावपळ	1673
▁मंडळात	1673
▁केसाची	1672
▁गणिता	1672
▁गुजराती	1672
▁रविंद्र	1672
▁सुशिक्षित	1672
मोड	1671
▁गुणधर्म	1671
▁जाणवले	1671
▁महापालिकेचे	1671
▁मास्तर	1671
,6	1670
▁उचलला	1670
▁ठेके	1670
▁वर्धा	1670
▁विठ	1670
▁संचार	1670
▁समस्त	1670
▁उर्दू	1669
▁टाईप	1669
▁डावीकडे	1669
▁धंद	1669
सत्ता	1668
▁अतिरेकी	1668
▁डोनाल्ड	1668
▁राहण्याचा	1668
मस	1667
▁इतकंच	1667
▁नाणार	1667
▁बोलावले	1667
▁योगायोग	1667
ळीस	1666
▁me	1666
▁अंजली	1666
▁जनतेची	1666
▁निर्दोष	1666
▁मुंड	1666
▁हिंमत	1666
्रीम	1665
▁आंध	1665
▁बळकट	1665
▁मुस	1665
▁यंत्रा	1665
▁co	1664
▁नवरात्र	1664
▁बंगाली	1664
▁शासनाचे	1664
▁५८	1664
ँट	1663
पणाचे	1663
▁जसज	1663
▁फटाक	1663
▁मुबलक	1663
▁रखड	1663
▁वैदिक	1663
क्षणी	1662
▁दां	1662
▁देशासाठी	1662
▁बाहेरील	1662
▁मिळतं	1662
▁रंगीत	1662
▁शुक्र	1662
▁इज	1661
▁घालाय	1661
▁जिम	1661
वळी	1660
▁अकाउंट	1660
▁जोडीला	1660
▁थिएटर	1660
▁पसरले	1660
▁con	1659
▁उजा	1659
▁कायमच	1659
▁तंबाखू	1659
▁नुस	1659
▁मिनिटांनी	1659
▁रोकड	1659
▁व्यक्तीचे	1659
वीन	1658
▁गटनेते	1658
▁बागेत	1658
▁बोललो	1658
▁श्रीकृष्ण	1658
▁संगम	1658
▁संस्थेची	1658
▁समतोल	1658
▁होई	1658
स्टिक	1657
▁अध्या	1657
▁चालु	1657
▁टक्केवारी	1657
▁६४	1657
रान	1656
िजन	1656
ीय	1656
▁घडून	1656
▁पुलं	1656
ख्	1655
लीच	1655
िए	1655
िफ	1655
▁असोत	1655
▁उत्साहाने	1655
▁बाबू	1655
▁मुळी	1655
धीत	1654
मताने	1654
ळाने	1654
▁अला	1654
▁आखा	1654
▁गोंदिया	1654
▁झाल्यापासून	1654
▁दुखापत	1654
▁दोघा	1654
▁बाजु	1654
▁युगात	1654
ुसार	1653
▁मधुमेह	1653
▁हाही	1653
ip	1652
ळीने	1652
▁प्लेट	1652
ure	1651
▁क्रमांकाआधी	1651
▁न्यूयॉर्क	1651
▁प्लॉट	1651
▁मेळाव	1651
▁रुजू	1651
▁व्यक्तीचा	1651
▁कार्यकर्त्या	1650
▁प्ल	1650
▁तहान	1649
▁दिशेला	1649
▁रुग्णा	1649
▁वाजले	1649
प्ट	1648
विलेले	1648
ोडा	1648
▁आवडले	1648
▁सातत्य	1648
▁हादर	1648
▁हिमा	1648
▁१९०	1648
संग्रह	1647
▁पिऊन	1647
▁मंडप	1647
▁महार	1647
▁मृत्यूनंतर	1647
▁सोन्याचे	1647
▁चित्	1646
▁दलाचे	1646
▁निघालेल्या	1646
▁रस्त्यात	1646
▁विजेते	1646
▁स्पीड	1646
▁माणसांच्या	1645
▁याप्रमाणे	1645
▁लगावला	1645
▁वर्गा	1645
▁शंक	1645
▁हिरे	1645
धात	1644
मळ	1644
▁डेटिंग	1644
▁पिशव्या	1644
▁फॉलो	1644
▁भव	1644
▁महामंड	1644
▁मुळातच	1644
प्ल	1643
शीला	1643
▁गेल्यावर्षी	1643
▁घाम	1643
▁छायाचित्रे	1643
▁संकटात	1643
▁संश	1643
▁स्पेन	1643
मानाचा	1642
▁उचलली	1642
▁दुबई	1642
▁नोबेल	1642
▁पहिलीच	1642
▁सिनेमाच्या	1642
ठ्ठ	1641
शिंग	1641
संघ	1641
▁डोकेदुखी	1641
▁बग	1641
▁माथ	1641
▁मार्क्स	1641
▁युद्धात	1641
▁सेवक	1641
रीन	1640
ऱया	1640
▁am	1640
▁नुसती	1640
▁लालू	1640
▁अती	1639
▁जिल्हाधिकार	1639
▁निश्चितपणे	1639
▁पदाच्या	1639
▁लोकप्रियता	1639
▁होतीच	1639
▁घालू	1638
▁लोकांपर्यंत	1638
ॅश	1637
▁तलाक	1637
▁देशांनी	1637
▁परवान	1637
▁वाढतच	1637
▁सेनेचे	1637
▁हनु	1637
▁०१	1637
वस्ती	1636
ोपचार	1636
▁घरामध्ये	1636
▁घालतात	1636
▁वेगळीच	1636
▁सकाळपासून	1636
▁६००	1636
ंटर	1635
गं	1635
▁भाड्याने	1635
▁भेटून	1635
▁शासनाकडे	1635
▁सिन्हा	1635
ess	1634
शय	1634
ावयास	1634
्रिक	1634
▁खोलवर	1634
▁डिस	1634
▁तांद	1634
▁वडगाव	1634
▁बसलेला	1633
▁वेश	1633
▁साहाय्य	1633
प्पी	1632
शल	1632
▁पार्श्व	1632
▁प्रतिस्पर्धी	1632
▁शिरूर	1632
▁संघातील	1632
▁निवासस्थानी	1631
▁पडलं	1631
▁फेटाळून	1631
▁मनमोहन	1631
▁होवू	1631
करणाचे	1630
न्व	1630
परा	1630
्यासह	1630
▁माणसाची	1630
▁शकाल	1630
▁संकु	1630
▁हृदया	1630
▁९५	1630
कर्ता	1629
▁परीक्षण	1629
▁बरोबरी	1629
ँक	1628
ठीत	1628
्रि	1628
▁दिवसांचा	1628
▁निष्ठा	1628
▁प्रणव	1628
▁लहानपणापासून	1628
▁दारिद्र	1627
▁नेत्यांची	1627
▁लावतात	1627
▁कडू	1626
▁महिन्यांच्या	1626
▁विदर्भात	1626
वेद	1625
▁लाडू	1625
ine	1624
शिर	1624
▁अटके	1624
▁ढि	1624
▁बरेचदा	1624
▁मने	1624
▁मागासवर्गीय	1624
▁सिद्धांत	1624
तेनुसार	1623
थ्या	1623
वारे	1623
ूर्त	1623
▁असेलच	1623
▁उत्पन्ना	1623
▁राहिलेला	1623
▁हॉकी	1623
▁२००४	1623
अॅ	1622
रक	1622
▁काढल्या	1622
▁प्रेमी	1622
▁बोलायचे	1622
▁मांडण्यात	1622
▁यातच	1622
पाठ	1621
▁आरोपही	1621
▁चिंतन	1621
▁मोक	1621
▁शिवाजीनगर	1621
▁स्ने	1621
कांसह	1620
ण्यापासून	1620
स्थळ	1620
▁मराठवाड्यातील	1620
▁वाजून	1620
▁विपरीत	1620
▁नियमावली	1619
▁बागे	1619
▁शिबिरा	1619
▁संभाषण	1619
▁सत्रात	1619
केंद्र	1618
▁करण्यापेक्षा	1618
▁काहीसे	1618
▁त्याविषयी	1618
▁निवडा	1618
▁प्रकल्पाला	1618
▁सई	1618
▁सिंहगड	1618
▁गोल्ड	1617
▁नमुने	1617
▁वारस	1617
साई	1616
▁आफ्रिका	1616
▁चेहर्यावर	1616
▁पाठबळ	1616
▁मदन	1616
▁वरती	1616
वादाचा	1615
▁एन्	1615
▁ठेवण्याचे	1615
▁लढतीत	1615
▁वीजपुरवठा	1615
▁गादी	1614
▁तोल	1614
▁दरमहा	1614
▁बरोबरच	1614
▁वादळी	1614
▁स्रोत	1614
फेक	1613
▁दिव्यांग	1613
▁वर्षांमध्ये	1613
▁शरीफ	1613
में	1612
्रेट	1612
▁निष्पन्न	1612
▁पडलेली	1612
▁मैत्रीण	1612
▁समस्य	1612
▁साळुंखे	1612
▁धरणात	1611
▁मजल	1611
▁शिष	1611
ताव	1610
▁कसरत	1610
▁ज्यो	1610
▁नद्या	1610
▁ब्रे	1610
▁यांच्यासाठी	1610
▁सांगण्या	1610
▁सुधा	1610
ल्हे	1609
▁पृथ्वीवर	1609
▁युरोपियन	1609
▁शस्त्रा	1609
काही	1608
मंडळ	1608
▁2009	1608
▁आकलन	1608
▁चंदन	1608
▁टेक्नॉलॉजी	1608
▁डाऊनलोड	1608
▁दिवसाच्या	1608
▁पॉलिसी	1608
▁भरणे	1608
▁रॉय	1608
▁विद्	1608
▁संदर्भातील	1608
▁आदमी	1607
▁कार्यालयासमोर	1607
▁प्रॉब्लेम	1607
▁फरा	1607
▁मुलाखतीत	1607
▁मोठमो	1607
▁लिंबा	1607
▁व्हायचा	1607
▁संपादित	1607
सीन	1606
▁अनुप	1606
▁इस्रा	1606
▁मनोगत	1606
.3	1605
वर्ष	1605
▁भोर	1605
▁मालिक	1605
▁लं	1605
▁व्यक्तीची	1605
▁स्वतःचं	1605
▁हसन	1605
▁इमारतीच्या	1604
▁बॉडी	1604
रूप	1603
वणूक	1603
▁प्रखर	1603
▁भाजपाच्या	1603
ell	1602
ळ्याचे	1602
▁निभाव	1602
▁भविष्यातील	1602
▁लागणाऱ्या	1602
▁सातव्या	1602
▁सीता	1602
म्या	1601
लिस्ट	1601
▁man	1601
▁अनपेक्षित	1601
▁गडद	1601
▁गैरवापर	1601
▁बदलू	1601
▁वात	1601
▁संस्थेला	1601
▁सद्गुरु	1601
मै	1600
▁कुटुंबाला	1600
▁टीएमसी	1600
▁दसरा	1600
▁मिळायला	1600
▁रुंद	1600
▁सासर	1600
▁अक्षरे	1599
▁जॉब	1599
▁झोड	1599
जेत	1598
▁खर्चात	1598
▁थांबली	1598
▁दुर्लक्षित	1598
▁महादे	1598
काकडे	1597
मिन	1597
ोडी	1597
▁ओस	1597
▁प्रिंट	1597
द्री	1596
▁ठसा	1596
▁निगडी	1596
▁विस्कळीत	1596
▁व्याप्ती	1596
▁कबूल	1595
▁कर्नाटकात	1595
▁ट्राय	1595
▁सरी	1595
▁सर्व्ह	1595
▁अर्जा	1594
▁कुठलेही	1594
▁ब्राह्म	1594
▁वेत	1594
विना	1593
▁ठाण्यातील	1593
▁सेल्फी	1593
केन	1592
नॅ	1592
स्थाना	1592
▁खेळात	1592
▁गीते	1592
▁देवळ	1592
▁शेतत	1592
▁सुटी	1592
ish	1591
▁कॅश	1591
▁दापोली	1591
▁मनोरंज	1591
▁सुतार	1591
▁आकाशात	1590
▁आजचे	1590
▁कुर्	1590
▁गाडगीळ	1590
▁चेतन	1590
▁प्रवर्ग	1590
▁बागा	1590
▁व्यंगचित्र	1590
ांता	1589
▁जल्लोष	1589
▁न्यायालयाचे	1589
▁वार्ता	1589
▁विद्यमाने	1589
पुढील	1588
▁घराची	1588
▁जिंकले	1588
▁मोर्चाच्या	1588
▁सोमनाथ	1588
क्री	1587
▁गुरूवारी	1587
▁चर्चेला	1587
▁पवन	1587
▁वाहनचाल	1587
नान	1586
शः	1586
स्वा	1586
▁उंचीवर	1586
▁एटीएस	1586
▁किर	1586
▁नेहा	1586
▁बॉलीवूड	1586
▁मय	1586
▁विसर्ज	1586
▁सड	1586
▁ख्रिश्चन	1585
▁घरोघरी	1585
▁पावसाळा	1585
करणाचा	1584
गेट	1584
▁अध्यक्षस्थानी	1584
▁आदेशानुसार	1584
▁कारवाया	1584
▁डेस्क	1584
▁निर्णायक	1584
▁भवानी	1584
▁लग्नाच्या	1584
▁संय	1584
all	1583
ेचे	1583
▁इतरत्र	1583
▁कोस	1583
▁संभव	1583
▁संमती	1583
▁सुळे	1583
▁हिम	1583
धारा	1582
बात	1582
भिमुख	1582
▁अपात्र	1582
▁आरक्षणासाठी	1582
▁बोलला	1582
▁शॉ	1582
▁खळ	1581
▁दिवसांमध्ये	1581
▁निर्माता	1581
▁विदर्भातील	1581
▁शाखेचे	1581
▁उगम	1580
▁पोर्तुगीज	1580
▁मधला	1580
▁सांभाळून	1580
बाची	1579
▁01	1579
▁अश्रू	1579
▁काळाची	1579
▁डावल	1579
▁तडजोड	1579
▁वाद्य	1579
आयटी	1578
ल्याला	1578
ियन्स	1578
▁अनेकांच्या	1578
▁घडलं	1578
▁दाबून	1578
▁लाखांचा	1578
▁वाटेवर	1578
▁सुनिल	1578
▁सुशील	1578
कुंड	1577
▁जिद्द	1577
▁महापालिकेतील	1577
▁विकासाचा	1577
▁हेक्टरी	1577
ध्यात	1576
▁पांडे	1576
▁बसेल	1576
▁भजन	1576
▁वर्षानुवर्षे	1576
▁कुटुंबीय	1575
▁ग्लोबल	1575
▁दाव	1575
▁शनि	1575
▁बालाजी	1574
▁भाजपाला	1574
▁मठ	1574
▁याउलट	1574
▁श्रीम	1574
▁स्वरू	1574
▁हाड	1574
ोबत	1573
▁गाठली	1573
▁भटकंती	1573
▁मतं	1573
▁वॉल	1573
ियल	1572
▁कारकिर्दी	1572
▁छगन	1572
▁ठिक	1572
▁तालुकाध्यक्ष	1572
▁नात्याने	1572
▁मालवण	1572
▁रेषा	1572
▁विदर्भा	1572
स्स	1571
ामुळे	1571
▁त्यातली	1571
▁नारा	1571
▁येशू	1571
▁सदाशिव	1571
▁साब	1571
▁सेंट्रल	1571
पातळीवर	1570
्युन	1570
▁खोक	1570
▁पसार	1570
▁सदन	1570
डल	1569
लु	1569
▁अजुनही	1569
▁भाजपाने	1569
▁रस्त्यावरून	1569
▁सत्ताधा	1569
कडुन	1568
▁अनि	1568
▁गव्हर्नर	1568
▁चालतो	1568
▁नसत	1568
▁लेक	1568
▁लोकांशी	1568
ry	1567
डींग	1567
▁रघुनाथ	1567
▁वरचे	1567
▁शिकवण	1567
▁शिल्पा	1567
▁उपलब्धता	1566
▁काश्मिर	1566
▁कॅमेरे	1566
▁दाखवण्यात	1566
ांनुसार	1565
▁गैरसोय	1565
▁टायर	1565
▁शहराचा	1565
▁शासनाचा	1565
▁श्रद्ध	1565
ोटी	1564
▁आयसी	1564
▁उर्	1564
▁कँ	1564
▁दुष्परिणाम	1564
▁मदतीला	1564
▁साने	1564
यचो	1563
▁जीवनाचा	1563
▁ठिकाणे	1563
▁मुद्द्या	1563
▁व्यवसायिक	1563
नांना	1562
्यावरील	1562
▁अध्यादेश	1562
▁फायर	1562
▁योजनेसाठी	1562
▁लिफ्ट	1562
▁सवलती	1562
▁सोनी	1562
▁हिमायतनगर	1562
▁आटोक्यात	1561
▁आध	1561
▁दर्	1561
▁बहुदा	1561
कीची	1560
▁आंदोलनाची	1560
▁निर्मात	1560
▁साधत	1560
दृष्टी	1559
पद्धती	1559
स्तरीय	1559
▁आमिष	1559
▁गर्भवती	1559
▁भागीदार	1559
▁64	1558
▁आठवडे	1558
▁दिशे	1558
▁वसाहत	1558
▁समजला	1558
▁स्तरावरील	1558
ांप्रमाणे	1557
ानु	1557
ान्स	1557
▁कमीच	1557
▁गेम्स	1557
▁जमिनीच्या	1557
▁शिबिर	1557
ंडीत	1556
दुखी	1556
नू	1556
▁डबा	1556
▁ध्यास	1556
▁महाराजांचे	1556
▁हेलिकॉप्टर	1556
▁असतेच	1555
▁जीप	1554
▁परळी	1554
▁एखादं	1553
▁गार्डन	1553
▁ठिबक	1553
▁तिसरे	1553
▁वाटायचं	1553
▁व्यक्तीस	1553
▁साखरेचे	1553
▁हाव	1553
लावा	1552
▁58	1552
▁कसला	1552
▁गृहनिर्माण	1552
▁निवेदनात	1552
qu	1551
ळया	1551
▁किचन	1551
▁देवाची	1551
▁न्ह	1551
▁पदव्युत्तर	1551
▁समारोप	1551
योग्य	1550
र्गत	1550
र्ले	1550
▁धुरा	1550
▁पुस्तका	1550
▁प्रजासत्ताक	1550
▁महापालिक	1550
▁विकासाची	1550
द्दीन	1549
स्पे	1549
▁pro	1549
▁उपदेश	1549
▁क्षणभर	1549
▁दिंडी	1549
▁बुवा	1549
▁विवाहा	1549
▁उपचारा	1548
▁ग्राहकांच्या	1548
▁यामुळेच	1548
▁स्टोअर्स	1548
▁हंगामा	1548
वस्था	1547
▁मॅट	1547
व्याच्या	1546
▁उत्तरं	1546
▁माघारी	1546
▁म्हटल्यावर	1546
▁योजनेची	1546
▁लिहित	1546
▁वन्यजीव	1546
▁स्वीकारली	1546
are	1545
वाहू	1545
▁कुणाची	1545
▁चाट	1545
▁तंत्रज्ञानाच्या	1545
▁माहितीच्या	1545
▁येवून	1545
▁संकलित	1545
▁सगळ्यांच्या	1545
डकी	1544
्रीत	1544
▁निधीतून	1544
▁विद्यार्थ्यांचा	1544
▁विरोधा	1544
पद्ध	1543
▁आमदारांनी	1543
▁कोल्हापुरात	1543
▁गडबड	1543
▁गडी	1543
▁बऱ्याचदा	1543
पीक	1542
▁तत्पूर्वी	1542
▁न्यूझीलंड	1542
▁शेंग	1542
ge	1541
पुरवठा	1541
▁अभियंत	1541
▁आग्रही	1541
▁कंद	1541
▁कलावंता	1541
▁मजुरी	1541
▁हं	1541
चिन्ह	1540
परि	1540
▁delhi	1540
▁एक्स्	1540
▁खेळताना	1540
▁पटत	1540
हाचा	1539
▁बंडखोर	1539
▁राज्याची	1539
▁सरसकट	1539
दाने	1538
▁पग	1538
▁मध्यभागी	1538
▁शूटिंग	1538
▁https	1537
▁उतारा	1537
▁कार्यालये	1537
▁फोडणी	1537
▁मंज	1537
▁संपल्यावर	1537
▁सहवास	1537
▁आरक्षित	1536
▁कौतु	1536
▁तलवारी	1536
▁वाट्याला	1536
▁we	1535
▁गुहा	1535
▁पदर	1535
▁रंगाच्या	1535
▁विक्रमी	1535
▁संस	1535
▁संसदीय	1535
सारख	1534
ुरा	1534
▁चाच	1534
▁स्टुडिओ	1534
▁72	1533
▁85	1533
▁धनादेश	1533
▁रिक्ष	1533
▁वनविभा	1533
▁वाहि	1533
▁होऊनही	1533
pe	1532
ya	1532
▁घेणारा	1532
▁पळत	1532
▁यायचा	1532
▁योज	1532
▁साह	1532
भिषेक	1531
▁अश्लील	1531
▁आवडत्या	1531
▁कर्मचार्यांनी	1531
▁दानवे	1531
▁दिवसाला	1531
▁धोरणे	1531
▁म्हणायचं	1531
▁रेव	1531
▁संपले	1531
क्षेत्रात	1530
मते	1530
▁उक	1530
▁बळक	1530
▁भरलेले	1530
▁महसु	1530
▁मिरच्या	1530
▁यातूनच	1530
ंगाने	1529
हारी	1529
हाला	1529
▁इच्छु	1529
▁डिल	1529
▁भरणा	1529
▁साहाय्याने	1529
▁१८९	1529
.9	1528
▁कार्यालयाच्या	1528
▁ग्	1528
▁झाडावर	1528
▁डोक्याला	1528
▁पोलिसांचा	1528
▁प्राप्ती	1528
▁भेटीला	1528
▁मोर्चात	1528
▁येणा	1528
▁रास्ता	1528
▁वडी	1528
▁वया	1528
▁स्वतंत्रपणे	1528
ब्बर	1527
वायच्या	1527
शास्त्रज्ञ	1527
▁sp	1527
▁कानात	1527
▁खोट्या	1527
▁जणांची	1527
▁जणांच्या	1527
▁ठिका	1527
▁पुरेपूर	1527
▁युवकांना	1527
ांविरुद्ध	1526
▁कर्ना	1526
▁पदांच्या	1526
▁रडत	1526
▁राज्यसभे	1526
▁भावाने	1525
व्हिंग	1524
▁ओढून	1524
▁कॅप्टन	1524
▁त्याचाच	1524
▁थांबला	1524
▁बाजूंनी	1524
▁महाड	1524
पुढ	1523
ार्ज	1523
▁गवत	1523
▁ढे	1523
▁मीना	1523
भूषण	1522
स्थित	1522
ांजली	1522
▁ओबामा	1522
▁तथ्य	1522
▁व्हॉट्स	1522
▁हुकूम	1522
िकाने	1521
▁आयफोन	1521
▁आलेलं	1521
▁प्रेरणादायी	1521
▁वाढवण्यासाठी	1521
▁संवेदना	1521
▁सून	1521
▁स्टॉल	1521
.1	1520
पून	1520
▁गोष्टीचा	1520
▁मंदिराचे	1520
क्के	1519
विकार	1519
▁अंगा	1519
▁काटा	1519
▁प्रांतात	1519
▁फाशी	1519
▁मध्यमवर्गीय	1519
▁माहितीचा	1519
▁मुद्यावर	1519
कीर	1518
▁कीर्तन	1518
▁नव्हतो	1518
▁विजेतेपद	1518
▁सर्वपक्षीय	1518
क्कल	1517
▁आयकर	1517
▁कागदावर	1517
▁दिवंगत	1517
▁पाटी	1517
▁सध्याचे	1517
▁हॉटेल्स	1517
ंभा	1516
टीस	1516
मागून	1516
स्थानात	1516
▁आवडतो	1516
▁बोलणार	1516
▁मूग	1516
▁मोजक्या	1516
इट	1515
▁गोमंत	1515
▁दोघांचे	1515
▁पन्हा	1515
▁मुक्का	1515
▁वर्षाला	1515
नांची	1514
हल	1514
▁ne	1514
▁इंडोनेशिया	1514
▁कार्याध्यक्ष	1514
▁निधीची	1514
▁रणवीर	1514
▁रेस्टॉरंट	1514
▁विद्यापीठातील	1514
▁शंभ	1514
▁इतक्यात	1513
▁खंडणी	1513
▁प्रॉ	1513
▁फौ	1513
▁भवितव्य	1513
▁लाखांची	1513
▁वो	1513
निशी	1512
▁2008	1512
▁काचे	1512
▁झटका	1512
▁थरार	1512
▁मनाच्या	1512
▁म्युच्युअल	1512
▁शेतकर्यांची	1512
ल्यासारखे	1511
वीस	1511
▁ऑलिम्पिक	1511
▁कारणामुळे	1511
▁देशांतर्गत	1511
▁पर्य	1511
ंडक	1510
▁झारखंड	1510
▁मंडळींनी	1510
▁शाखेत	1510
च्छेद	1509
ब्रा	1509
▁आश्रय	1509
▁कसले	1509
▁ज्यु	1509
▁शिक्षणाच्या	1509
sh	1508
दाचे	1508
प्राप्ती	1508
▁कार्यालयावर	1508
▁जीबी	1508
▁टॉवर	1508
▁शत्र	1508
▁सोन्या	1508
पात्र	1507
रेकर	1507
▁कार्बन	1507
▁कुडाळ	1507
▁कोकणी	1507
▁गटाने	1507
▁बॅंकेच्या	1507
▁वार्ताहर	1507
pl	1506
नाही	1506
▁धावून	1506
▁नामवंत	1506
▁भाषेतील	1506
ताल	1505
भाषा	1505
मीर	1505
▁आणण्याची	1505
▁इंजिनी	1505
▁तीही	1505
▁पारा	1505
▁प्रियांका	1505
▁वाडी	1505
▁हां	1505
स्तरावर	1504
ारू	1504
▁कमकुवत	1504
▁खरेतर	1504
▁जखम	1504
▁प्रकल्पाचे	1504
▁सतर्क	1504
▁अपडेट	1503
▁क्रूर	1503
▁रिकाम्या	1503
ंट्स	1502
▁or	1502
▁उमा	1502
▁डबे	1502
▁पूड	1502
▁भाषणे	1502
▁लग्	1502
▁स्वरु	1502
वराव	1501
▁घटस्फोट	1501
▁नागरिकांचा	1501
▁सुबोध	1501
▁99	1500
▁अत	1500
▁ईश्व	1500
▁उपसभापती	1500
▁गेल्याचे	1500
▁पिंग	1500
▁शुद्धी	1500
▁चारचाकी	1499
▁जिवा	1499
▁प्रबळ	1499
▁विरोधकांना	1499
ायी	1498
▁आसन	1498
▁कराव्या	1498
▁निर्णयाला	1498
▁पस	1498
▁लटक	1498
▁संग्रहा	1498
▁सौरभ	1498
age	1497
कांचं	1497
चेस	1497
▁अन्वये	1497
▁अमेरिकेला	1497
▁बार्शी	1497
नार	1496
पुरता	1496
भान	1496
राज्य	1496
▁कालखंड	1496
▁त्यामागे	1496
▁दिनानिमित्त	1496
▁नंदा	1496
▁पुरातन	1496
▁मुंबईकर	1496
▁सांडपाणी	1496
▁सुल	1496
आधीच	1495
धान्य	1495
▁आल्याचा	1495
▁कर्नाटकातील	1495
▁नीरव	1495
▁मुक	1495
▁सुनाव	1495
▁उपवास	1494
▁एकरी	1494
▁ऐकलं	1494
▁कामांसाठी	1494
▁थि	1494
▁धमाल	1494
▁फोंडा	1494
▁मुद्द्यावर	1494
▁विसरू	1494
▁६२	1494
कीन	1493
ृश	1493
ॉक्स	1493
▁कार्यक्रमाची	1493
▁विराजमान	1493
कोप	1492
विस	1492
▁do	1492
▁दणा	1492
▁पणे	1492
▁घटनेच्या	1491
▁व्र	1491
▁इशाराही	1490
▁गावातल्या	1490
▁बबन	1490
▁रसाय	1490
▁शिक्षकांची	1490
▁स्मिथ	1490
▁स्वस्थ	1490
िकाच्या	1489
▁अपार	1489
▁बुर	1489
▁स्पेस	1489
निस	1488
ांविरोधात	1488
▁57	1488
▁कुत्रा	1488
▁गटाच्या	1488
▁गुन्ह्यात	1488
▁जनक	1488
▁तेवढेच	1488
▁निगडीत	1488
▁पार्टनर	1488
▁वर्षभरा	1488
▁विधानसभेच्या	1488
▁सिंध	1488
▁सुटला	1488
बुक	1487
▁आयुर्वेद	1487
▁बसस्थान	1487
▁रंगा	1487
ash	1486
नांच्या	1486
▁उरलेल्या	1486
▁कुठले	1486
▁विद्यापीठाने	1486
टीचे	1485
▁काहीशी	1485
▁नागरिकांचे	1485
▁रणजित	1485
▁वेगवेग	1485
वेन	1484
सिड	1484
▁आनंदात	1484
▁मयत	1484
▁शहरे	1484
▁होळकर	1484
कच	1483
▁आश्चर	1483
▁एको	1483
▁पानसरे	1483
▁पोचले	1483
▁माझ्याशी	1483
ंडर	1482
वतील	1482
ूज	1482
▁उन्	1482
▁जनतेचा	1482
▁मेळाव्यात	1482
▁०२	1482
निश	1481
▁किवा	1481
▁घटनेमुळे	1481
▁ठरलं	1481
▁भिंतीवर	1481
▁भोवती	1481
▁मालिकेतील	1481
▁सिक्	1481
▁सौम्य	1481
भूमीवर	1480
व्यवस्थे	1480
’’	1480
▁अनावश्यक	1480
▁महासंचालक	1480
▁वास्को	1480
▁विचारसरणी	1480
▁स्वीकारला	1480
▁हिरा	1480
मॅट	1479
▁इश	1479
▁गाठले	1479
▁गिफ्ट	1479
▁ज्याची	1479
▁तें	1479
▁पोलिसात	1479
▁भटक्या	1479
गिर	1478
▁कर्मचाऱ्यांच्या	1478
▁चाटणे	1478
▁तंद	1478
▁बसतात	1478
▁वाणी	1478
▁संयम	1478
▁सुखद	1478
▁उत्तरप्रदेश	1477
▁उपभोग	1477
▁निफ्टी	1477
▁पळा	1477
▁महाराष्ट्राची	1477
▁८००	1477
▁एकाने	1476
▁किसान	1476
▁चीनमध्ये	1476
▁दहीहंडी	1476
▁होकार	1476
▁जमिनीची	1475
▁नंदुरबार	1475
▁ब्रॅ	1475
▁मिळविला	1475
▁संबोध	1475
ps	1474
▁अपरिहार्य	1474
▁आव्हाड	1474
▁चौदा	1474
▁जीवघे	1474
▁मुलीचा	1474
▁हिं	1474
संप	1473
▁एकट्या	1473
▁ग्रेट	1473
▁दाणे	1473
▁पूर्वा	1473
▁युनि	1473
भावाने	1472
मानात	1472
मेन	1472
▁कांस्य	1472
▁जानेवारीला	1472
▁डाटा	1472
▁नसावा	1472
▁नीती	1472
▁प्रदीर्घ	1472
▁लागणारा	1472
▁विकून	1472
▁पांढ	1471
▁प्रकल्पग्रस्ता	1471
▁महत्वाचं	1471
▁व्याजदर	1471
▁सूर्यवंशी	1471
▁स्तुती	1471
तराव	1470
ळ्याचा	1470
▁आदींसह	1470
▁चटणी	1470
▁दिपक	1470
▁५३	1470
ुस	1469
▁अधूनमधून	1469
▁उद्गार	1469
▁डावात	1469
▁दिवाळीत	1469
▁बनवण्यासाठी	1469
▁महिंद्रा	1469
▁स्तंभ	1469
ction	1468
राग	1468
लातील	1468
▁जुग	1468
▁शीर्षक	1468
म्मा	1467
▁अभियाना	1467
▁घेव	1467
▁थोडेसे	1467
▁धारणा	1467
▁नवशिक्या	1467
▁नामांकित	1467
▁पाली	1467
▁सर्वांसाठी	1467
ञ	1466
▁औचित्य	1466
▁दिल्यामुळे	1466
▁निर्म	1466
▁विषयां	1466
▁सुब	1466
वाटे	1465
▁उपनि	1465
▁कंटाळ	1465
▁केल्याच्या	1465
▁घोटा	1465
▁झेल	1465
▁टप	1465
▁तट	1465
▁निशा	1465
▁मिनिटांत	1465
▁शेजार	1465
धर्मा	1464
▁ncr	1464
▁आढळतो	1464
▁कामांना	1464
▁चढाई	1464
▁ठामपणे	1464
▁प्रभावीपणे	1464
▁महालक्ष्मी	1464
▁रुपात	1464
▁लिहीत	1464
▁शेवटचे	1464
▁घोडा	1463
▁जळून	1463
▁झालीय	1463
▁प्रमा	1463
▁मुज	1463
▁लांडगे	1463
▁स्वप्ने	1463
लांचा	1462
ॉर्	1462
▁पाडली	1462
▁लिहिता	1462
▁शॉप	1462
▁ह्यावर	1462
ारामुळे	1461
▁घ्यावेत	1461
▁मुकेश	1461
▁मोहरी	1461
▁समजली	1461
ill	1460
ावेळी	1460
▁chennai	1460
▁अमृता	1460
▁कपाशी	1460
▁गवळी	1460
▁गाण्यात	1460
▁चित्रीकरण	1460
▁रिपब्लिकन	1460
स्वर	1459
▁इच्छाशक्ती	1459
▁कलावंत	1459
▁कारागृह	1459
▁कीं	1459
▁पासुन	1459
▁बोग	1459
▁भारतामध्ये	1459
▁श्वान	1459
▁स्मृति	1459
णापासून	1458
िकार	1458
▁कारणावरून	1458
▁खण	1458
▁गळती	1458
▁चॅनेल	1458
▁धरणाच्या	1458
▁नाटकात	1458
▁पोचलो	1458
▁संथ	1458
▁सप्ताह	1458
▁हार्ड	1458
शिव	1457
▁अनेकवेळा	1457
▁आजुबाज	1457
▁क्षेत्रांत	1457
▁परंपर	1457
▁पेड	1457
▁रेल्वेने	1457
▁लाभार्थ	1457
ग्रंथ	1456
दाराच्या	1456
▁कार्तिक	1456
▁चतुर्थी	1456
▁तोर	1456
▁देशांना	1456
▁प्रेमळ	1456
▁बुकिंग	1456
▁भरलेली	1456
▁हास्य	1456
▁५७	1456
▁अत्याचारा	1455
▁उत्साही	1455
▁परिचित	1455
▁महाभार	1455
▁वर्क	1455
▁व्हाईट	1455
▁हुसेन	1455
ud	1454
कों	1454
▁hyderabad	1454
▁आश्र	1454
▁खेळाड	1454
▁बर्यापैकी	1454
▁विचारांची	1454
▁वेळापत्रक	1454
▁स्वाक्षरी	1454
नीज	1453
▁bangalore	1453
▁kolkata	1453
▁कसून	1453
▁गोपीनाथ	1453
▁मोस	1453
end	1452
लेम	1452
वादाच्या	1452
ेंच	1452
▁इमारतीत	1452
▁एकी	1452
▁नुक	1452
▁परवाने	1452
▁सलाम	1452
▁ठरल्या	1451
▁यानिमित्ताने	1451
▁शहरातून	1451
▁सकाळच्या	1451
ांकित	1450
▁मेघा	1450
लिया	1449
सायला	1449
ोत्स	1449
▁कॉर्पोरेशन	1449
▁घटनास्थ	1449
▁धरुन	1449
▁पत्रिका	1449
▁मुलीचे	1449
▁व्यक्तींच्या	1449
कप	1448
कर्त्यांनी	1448
प्रवाह	1448
सेवे	1448
्रम	1448
▁आचार	1448
▁ओलांडून	1448
▁कुठं	1448
▁तितक्याच	1448
▁थांबून	1448
▁शांताराम	1448
▁सायक	1448
डम	1447
पेट	1447
सिस	1447
▁आंग	1447
▁काकू	1447
▁तिस	1447
▁फायनान्स	1447
▁मॅडम	1447
वर्षा	1446
ूचे	1446
▁ahmedabad	1446
▁jaipur	1446
▁नम्र	1446
▁बीसीसीआय	1446
▁मांडत	1446
▁विधेय	1446
▁श्रीनगर	1446
▁सोडविण्यासाठी	1446
शेष	1445
▁chandigarh	1445
▁with	1445
▁कौश	1445
▁जवळचे	1445
▁व्यसना	1445
▁अवतर	1444
▁अहवालानुसार	1444
▁तितका	1444
▁दरा	1444
▁मुलीवर	1444
ical	1443
ांगण	1443
▁अमली	1443
▁ओघ	1443
▁दुखाव	1443
▁पाकिस्तानचे	1443
▁बालपण	1443
▁राष्ट्रवादीने	1443
ंथ	1442
▁उन्हात	1442
▁खोटं	1442
▁त्यालाही	1442
▁ब्रेड	1442
▁युक्ती	1442
▁राहिल्याने	1442
युग	1441
▁घोट	1441
▁जमिनीचा	1441
▁तात्पुर	1441
▁बोलण्यात	1441
▁वाड्या	1441
▁विधिमंड	1441
▁शहराची	1441
▁सांगावे	1441
▁09	1440
▁mar	1440
▁अंडर	1440
▁टॅंकर	1440
▁देण्याबाबत	1440
▁विद्य	1440
टणी	1439
टु	1439
पूजा	1439
▁चुकून	1439
▁नेमक्या	1439
▁पडदा	1439
▁प्रवाशांची	1439
▁मिठाई	1439
शर	1438
▁इजिप्त	1438
▁त्यांत	1438
▁नग	1438
▁बट	1438
▁विश्वात	1438
▁शिवाजीराव	1438
▁सोह	1438
टरी	1437
▁क्षेत्रावर	1437
▁डॉक्टरांच्या	1437
▁बह	1437
▁रागाव	1437
▁सर्जन	1437
साठीच	1436
▁अश्व	1436
▁करवून	1436
▁पुस	1436
▁बुध्	1436
▁विकासाला	1436
▁६६	1436
दिना	1435
▁es	1435
▁up	1435
▁जना	1435
▁बसल्या	1435
▁महापालिकेला	1435
▁रेसिपी	1435
▁रॉयल	1435
ळीची	1434
▁अमे	1434
▁जपून	1434
▁जाण्याचे	1434
▁जॅक	1434
▁ब्राम्हण	1434
▁भरधाव	1434
▁भोसरी	1434
▁cl	1433
▁अलिकडे	1433
▁एव्हाना	1433
▁कृत	1433
▁चौकशीसाठी	1433
▁मारण्याची	1433
▁वापरणे	1433
▁अर्थसंकेत	1432
▁पंचायती	1432
▁भगिनी	1432
▁मृता	1432
▁विचारांचा	1432
ank	1431
up	1431
ऍ	1431
पर्यत	1431
बर्ग	1431
▁झाडांची	1431
▁दाखविले	1431
▁पर्या	1431
▁बेबी	1431
▁मलेशिया	1431
▁माई	1431
▁कोल्हापुर	1430
▁पावती	1430
▁बहाल	1430
▁येईपर्यंत	1430
▁शरीरा	1430
▁श्रीपाद	1430
त्म	1429
बाबतीत	1429
स्पर्	1429
▁त्याद्वारे	1429
▁संघटित	1429
▁हेल्मेट	1429
▁आळंदी	1428
▁नातेवाइ	1428
▁पेट्रोलियम	1428
▁वजा	1428
▁स्त्रियांच्या	1428
▁अयो	1427
▁आणल्या	1427
▁कर्त	1427
▁केव	1427
▁चाकू	1427
▁पवारांनी	1427
▁विट	1427
▁विल्हेवाट	1427
▁आषाढी	1426
▁तासा	1426
▁तितकी	1426
▁नग्न	1426
▁पुनः	1426
▁रस्त्यांची	1426
▁ऐवज	1425
▁चौगुले	1425
▁जनतेचे	1425
▁त्यांनीच	1425
▁मनोर	1425
▁मूर्	1425
▁वाघिणी	1425
ांद्वारे	1424
ातूनच	1424
▁उंबर	1424
▁कुप	1424
▁ठेवलेली	1424
▁बनवला	1424
▁मर्जी	1424
▁लागलेला	1424
▁विश्वासार्ह	1424
कीला	1423
धारे	1423
िशन	1423
▁दिमा	1423
▁मसाले	1423
,4	1422
त्वाची	1422
दोन	1422
▁आका	1422
▁डॉक्टरांना	1422
▁दिसतील	1422
▁प्रेमा	1422
▁मच्छि	1422
▁95	1421
▁केबल	1421
▁निरागस	1421
▁पणन	1421
▁भोई	1421
▁मिळवू	1421
▁लाचलुचपत	1421
▁वाढलेल्या	1421
▁हेमा	1421
▁आचरण	1420
▁आसपासच्या	1420
▁ईशान्य	1420
▁एकता	1420
▁नोव्हेंबरला	1420
▁फिल	1420
▁बिंदू	1420
▁भोप	1420
▁रुपयांनी	1420
रोज	1419
▁कार्यक्रमासाठी	1419
▁ज्यांची	1419
▁फां	1419
▁राजी	1419
▁संबंधी	1419
ंटा	1418
लप	1418
▁अफवा	1418
▁अाहेत	1418
▁ज्यू	1418
▁संघटन	1418
▁सुषमा	1418
▁होण्यापूर्वी	1418
ंवरील	1417
ळेल	1417
▁not	1417
▁कळू	1417
▁मंत्रा	1417
▁याचाही	1417
▁हायवे	1417
त्रेत	1416
सेक	1416
िकर	1416
▁पैशांची	1416
▁फुग	1416
▁हतबल	1416
कृष्ण	1415
▁शतकाच्या	1415
lo	1414
ंविषयी	1414
ातुन	1414
ूरी	1414
▁pr	1414
▁भगवंता	1414
▁मिनिटाला	1414
▁समारंभा	1414
लेंडर	1413
वक	1413
वताल	1413
▁77	1413
▁nov	1413
▁अथक	1413
▁एवढाच	1413
▁देशातल्या	1413
▁सापळा	1413
▁स्थापित	1413
अरी	1412
तेश	1412
फल	1412
विश्	1412
िं	1412
▁अकबर	1412
▁गुंतागुंती	1412
▁नोंदवला	1412
▁पडणे	1412
▁प्रामाणिकपणे	1412
▁मार्गदर्श	1412
▁यांच्याविरोधात	1412
यकुमार	1411
ेंग	1411
▁कच्चा	1411
▁घोष	1411
▁जातीचे	1411
▁नियंत्रणात	1411
▁पेशवे	1411
▁सुत्र	1411
▁सेन्सेक्स	1411
डक्या	1410
लेच	1410
१९	1410
▁राहिल	1410
▁वाहनांच्या	1410
एसआय	1409
णाई	1409
शाळ	1409
▁इंदापूर	1409
▁कंत्राटी	1409
▁कारणास्तव	1409
▁कार्यकर्त्यांची	1409
▁तुकडा	1409
▁दरबार	1409
▁मुख्याध्याप	1409
▁मुदतवाढ	1409
▁संशयास्पद	1409
ग्राम	1408
णारच	1408
▁आक्रम	1408
▁उघडे	1408
▁कंपनीकडून	1408
▁काढण्याचे	1408
▁दृष्ट	1408
▁पाले	1408
▁यम	1408
▁रामायण	1408
वासा	1407
▁आंदोलनाच्या	1407
▁तरू	1407
▁दहि	1407
▁धरणातून	1407
▁निका	1407
▁विण	1407
▁७३	1407
ळके	1406
ायर	1406
▁app	1406
▁अटलबिहारी	1406
▁बाकीचे	1406
▁रतन	1406
▁संध्या	1406
▁सिंधू	1406
णाकडे	1405
रास	1405
सिटी	1405
्युल	1405
▁ऑगस्टला	1405
▁खाण्या	1405
▁दाखवलं	1405
▁परशुराम	1405
माय	1404
राजा	1404
स्या	1404
▁पेशव	1404
▁प्रतिलिटर	1404
▁मातीच्या	1404
▁विद्यालय	1404
▁व्हावं	1404
▁श्रे	1404
▁सारखं	1404
▁आदल्या	1403
▁तण	1403
▁तमाम	1403
▁बँकेला	1403
▁संवर्ध	1403
▁सदाभाऊ	1403
▁बाबर	1402
पाक	1401
▁कोठेही	1401
▁चालून	1401
▁बहिष्कार	1401
▁मुद्र	1401
▁शहाण	1401
पणाच्या	1400
▁अध्यक्षपदी	1400
▁पत्नीला	1400
आरडीए	1399
▁अगोदरच	1399
▁आतल्या	1399
▁उमेदवारांकडून	1399
▁फायनल	1399
▁सुपारी	1399
▁स्फ	1399
क्षि	1398
डाची	1398
▁कोणतीच	1398
▁चित्रण	1398
▁पाकि	1398
▁बुरशी	1398
▁महाविद्यालयातील	1398
▁माह	1398
▁वाढलेली	1398
▁आंदोलनाचा	1397
▁आजच	1397
▁राखी	1397
▁शेता	1397
करणाची	1396
बत्ती	1396
बीज	1396
भावना	1396
ऱ्हाड	1396
ुम	1396
▁ओंकार	1396
▁तेजस्वी	1396
▁बुलडाणा	1396
▁सिगारेट	1396
▁७७	1396
वानंद	1395
वाली	1395
▁उन्हाळी	1395
▁करतानाच	1395
▁क्रिकेटपटू	1395
▁चित्रपटाला	1395
▁जबर	1395
▁नंदी	1395
▁शांततेत	1395
▁समी	1395
▁सुधाकर	1395
टीचा	1394
पदावर	1394
▁नीलेश	1394
▁भन्नाट	1394
▁भूकंप	1394
ंधी	1393
कामध्ये	1393
वधी	1393
्मा	1393
▁किमतीत	1393
▁ध्वनि	1393
▁बनवली	1393
▁मुभा	1393
▁युजर्स	1393
▁विमाने	1393
ेंडे	1392
▁उत्त	1392
▁करवीर	1392
▁पराक्रम	1392
▁फंडा	1392
▁फुलं	1392
▁रोखून	1392
▁व्यवस्थेत	1392
▁५९	1392
पंप	1391
मंत	1391
▁किना	1391
▁तिघांनी	1391
▁दाखले	1391
▁परिवर्त	1391
▁१२०	1391
डीज	1390
मुखी	1390
▁गुजरातमध्ये	1390
▁पद्धतीचा	1390
▁महायुद्ध	1390
▁मूत्र	1390
▁लपून	1390
▁लोकांवर	1390
▁हिस	1390
▁अप्पर	1389
▁ओढा	1389
▁कळवा	1389
▁घरची	1389
▁ट्रेनिंग	1389
▁नाती	1389
▁फेडरेशन	1389
▁रंगत	1389
▁शेतीसाठी	1389
िकेच्या	1388
▁उभारले	1388
▁चौथा	1388
▁डिझेलच्या	1388
▁महिन्यापासून	1388
▁सर्वसाधारणपणे	1388
मार्क	1387
ळामुळे	1387
▁जेम्स	1387
▁दब	1387
▁नेतृत्वाखालील	1387
▁फिटनेस	1387
▁ब्राझील	1387
▁साडेस	1387
our	1386
▁आणखीन	1386
▁निवारण	1386
▁प्रवाहात	1386
▁महिन्यांनी	1386
▁सर्वांगीण	1386
▁सुम	1386
▁स्त्र	1386
डीए	1385
सच्या	1385
ाजा	1385
▁घाण	1385
▁पत्रकारांना	1385
▁बदल्यात	1385
▁संपा	1385
▁आरा	1384
▁खच	1384
▁तटकरे	1384
▁मसा	1384
▁मिनि	1384
▁स्टॉक	1384
▁हार्	1384
og	1383
▁चिखल	1383
▁तेलंग	1383
▁वापरल्या	1383
▁सामंजस्य	1383
रेन	1382
सारखेच	1382
▁250	1382
▁अंद	1382
▁आताच	1382
▁मारहा	1382
▁लिहू	1382
▁सुगंध	1382
▁७८	1382
ind	1381
ण्याकरिता	1381
दर्शी	1381
▁गेल्यास	1381
▁कामी	1380
▁डास	1380
▁त्याऐवजी	1380
▁रुम	1380
कुल	1379
गावात	1379
बॉल	1379
मनी	1379
यम	1379
▁my	1379
▁इंट	1379
▁उग्र	1379
▁कुटूंब	1379
▁केत	1379
▁गूगल	1379
▁ट्री	1379
▁बायो	1379
▁मुलाचा	1379
▁मेथी	1379
▁सीन	1379
▁केसरकर	1378
▁जगणे	1378
▁कमल	1377
▁खाल्ले	1377
▁चेहरे	1377
▁टॉमला	1377
▁मनीषा	1377
▁मुद्	1377
▁रूढ	1377
▁विभागाची	1377
ांज	1376
ार्था	1376
▁ओळखली	1376
▁कुणीच	1376
▁क्रमवारी	1376
▁देईन	1376
▁पुजा	1376
▁वर्गीकरण	1376
▁सापडत	1376
ईज	1375
कीचे	1375
्ला	1375
▁आयआयटी	1375
▁इतरांच्या	1375
▁एज्युकेशन	1375
▁गवस	1375
▁तिवारी	1375
▁बिल्डिंग	1375
▁मातोश्री	1375
▁मोटारी	1375
▁शेवटपर्यंत	1375
▁श्रीदेवी	1375
▁६३	1375
ॅल	1374
▁उल्हासनगर	1374
▁बजाज	1374
▁शीतल	1374
आरटी	1373
डीओ	1373
न्से	1373
भक्त	1373
▁आकाराचे	1373
▁डाॅ	1373
▁थोड्याच	1373
▁द्रव	1373
▁नसलेले	1373
▁बसव	1373
▁बिनविरोध	1373
▁भारतातल्या	1373
▁श्राव	1373
सावा	1372
▁जगातल्या	1372
▁पॉईंट	1372
▁शास्त्रा	1372
बुद्धी	1371
वेज	1371
▁चट	1371
▁चोरून	1371
▁जितके	1371
▁जैविक	1371
▁त्यापूर्वी	1371
▁नवनाथ	1371
▁बॅडमिंटन	1371
कींग	1370
मीच्या	1370
▁आवडता	1370
▁उपजिल्हाधिकारी	1370
▁गांभीर्य	1370
▁जोगळेकर	1370
▁नक्षी	1370
▁रत्न	1370
▁श्रीधर	1370
▁करूनच	1369
▁केळकर	1369
▁खेळला	1369
▁तळेगाव	1369
▁पाऊ	1369
▁प्रतिबिंब	1369
▁सध्याची	1369
▁आजम	1368
▁ऑलिंपिक	1368
▁काठावर	1368
▁जिद्दी	1368
▁नवनिर्माण	1368
▁पत्रकारि	1368
▁वाटेने	1368
काचं	1367
▁जगण्याची	1367
▁झिर	1367
▁डेक्कन	1367
▁धाडसी	1367
दोष	1366
मट	1366
▁अलीकडच्या	1366
▁गात	1366
▁गावांत	1366
▁जिजाऊ	1366
▁तिच्याशी	1366
वाण	1365
▁फाळणी	1365
▁भेड	1365
iz	1364
बला	1364
स्वी	1364
▁online	1364
▁कश	1364
▁काडी	1364
▁टिका	1364
▁दंत	1364
▁दगडा	1364
▁दिलाय	1364
▁वृत्तसंस्था	1364
▁६७	1364
ास	1363
▁आधारीत	1363
▁एकमेकांवर	1363
▁गांधींनी	1363
▁ग्रूप	1363
▁फिट	1363
▁विवा	1363
ue	1362
ऋ	1362
टर्स	1362
तंत्र	1362
धारणा	1362
▁एमएच	1362
▁कायद्याचे	1362
▁गोदा	1362
▁जेवढे	1362
▁दडप	1362
▁दृष्ट्या	1362
▁धागे	1362
▁नृत्या	1362
▁रचला	1362
▁रूग्णालयात	1362
मीळ	1361
ेंडी	1361
▁आठवते	1361
▁नसतानाही	1361
▁पळवून	1361
▁पाकिस्तानने	1361
▁बाळाच्या	1361
▁वेश्या	1361
▁स्वबळावर	1361
▁कपाट	1360
▁गुप्तचर	1360
▁दर्जाच्या	1360
▁द्रव्य	1360
▁बांधलेल्या	1360
▁राज्यघटने	1360
▁स्वप्नात	1360
क्टरी	1359
▁आगार	1359
▁गाळप	1359
▁डिव्हा	1359
▁डिसेंबरला	1359
▁प्रतिक्विंटल	1359
▁मारे	1359
▁समजाव	1359
णेर	1358
त्याच्या	1358
नाक	1358
प्ते	1358
सळ	1358
▁कडेला	1358
▁घेऊनच	1358
▁योजनांचा	1358
▁व्यक्तिरेखा	1358
▁सप्टेंबरला	1358
ण्णा	1357
रंग	1357
▁उचलले	1357
▁काँग्रेसची	1357
▁क्वचित	1357
▁त्याच्याकडून	1357
▁दरम्यानच्या	1357
▁दिनकर	1357
▁पाहिल्यावर	1357
▁येतोय	1357
▁शौचालय	1357
ुला	1356
▁जगन्नाथ	1356
▁तितक्या	1356
▁द्रा	1356
▁शेतीला	1356
▁हाताशी	1356
▁अंतरा	1355
▁पटकथा	1355
▁प्रश्नांना	1355
▁शै	1355
डेड	1354
▁अंगात	1354
▁कंपन्यांचे	1354
▁नजरेत	1354
▁बेरोजगारी	1354
▁रोडवरील	1354
▁हार्ड्कोर	1354
यंत्र	1353
्टन	1353
▁195	1353
▁अवमान	1353
▁उद्ध	1353
▁टोपी	1353
▁पडण्याची	1353
▁प्रेरित	1353
▁भाजून	1353
▁महाविद्यालये	1353
▁सोयीस्कर	1353
▁७४	1353
सेकर	1352
▁उषा	1352
▁चिन	1352
▁झेंड	1352
▁फिरून	1352
▁र्	1352
▁लहरी	1352
▁विथ	1352
▁विधा	1352
▁विवेचन	1352
▁सार्थ	1352
कर्त्यांना	1351
▁इस्रायल	1351
▁कपा	1351
▁खेळायला	1351
▁पणाला	1351
▁प्रीमियम	1351
▁स्त्रोत	1351
esh	1350
दाम	1350
▁गोसावी	1350
▁ढगाळ	1350
▁तत्त्वावर	1350
▁नाला	1350
▁बरेचसे	1350
▁मुलाचे	1350
जाती	1349
तर्फ	1349
▁कोळसा	1349
▁गाभा	1349
▁चोवीस	1349
▁दलिता	1349
ज्य	1348
▁कबीर	1348
▁कलाम	1348
▁भाजपकडून	1348
▁मलाच	1348
▁म्हंट	1348
▁येण्याचा	1348
▁स्त्रीला	1348
▁उत्सा	1347
▁खंडा	1347
▁खाती	1347
▁दृष्टिकोनातून	1347
▁सत्	1347
▁सिस्टिम	1347
ग्रो	1346
▁केसरी	1346
▁झि	1346
▁ठिकाणच्या	1346
▁फ्यु	1346
▁ब्ला	1346
▁समोरच	1346
वलकर	1345
▁tr	1345
▁तरुणाने	1345
▁महासंघा	1345
▁मुख्याधिकारी	1345
ंजन	1344
फुल	1344
▁कार्यक्षेत्र	1344
▁कृष्	1344
▁जामि	1344
▁तन	1344
▁मतमोजणी	1344
▁मादी	1344
▁मुर्	1344
▁रेडी	1344
▁लागण	1344
पदार्थ	1343
स्त्री	1343
▁चार्	1343
▁डहाणू	1343
▁डोंगरावर	1343
▁मोहिमेत	1343
▁शाळेला	1343
▁सनी	1343
▁समलिंगी	1343
▁इम	1342
▁खंबीर	1342
▁खुपच	1342
▁दंग	1342
▁पुणेकर	1342
▁बोलायचं	1342
▁युवकांनी	1342
▁रेशन	1342
▁संस्कृ	1342
▁सिंहा	1342
▁स्टार्ट	1342
▁स्वागता	1342
्रेड	1341
▁वाप	1341
▁७००	1341
पली	1340
▁नियंत्र	1340
▁नेली	1340
80	1339
रीने	1339
▁आगम	1339
▁कलर	1339
▁टाकतात	1339
▁शोधू	1339
कापासून	1338
▁62	1338
▁कर्तृत्व	1338
▁घटनेने	1338
▁झाडं	1338
▁धी	1338
▁बघितला	1338
▁लोका	1338
▁वाढण्याची	1338
60	1337
फॉर्म	1337
▁59	1337
▁अर्धी	1337
▁आरक्षणाचा	1337
▁काल्पनिक	1337
▁झाल्याचं	1337
▁धैर्य	1337
▁मंजु	1337
▁समाचार	1337
▁हेम	1337
▁टाइम्स	1336
▁नितीश	1336
▁ब्रम्ह	1336
▁वडिलां	1336
▁टाकतो	1335
▁परिणामकारक	1335
▁लागलेले	1335
▁स्टार्टअप	1335
अरे	1334
▁भावंड	1334
▁महिलेच्या	1334
▁व्हॉट	1334
▁समाधानी	1334
मध्य	1333
सिं	1333
▁आउट	1333
▁आजूबाज	1333
▁कायद्याची	1333
▁घरीच	1333
▁राष्ट्रकुल	1333
▁वापरतो	1333
इंड	1332
▁इस्पितळात	1332
▁तापमानात	1332
▁बहिण	1332
▁भरारी	1332
▁लिहिलेली	1332
▁वॉर	1332
णाशी	1331
▁कोय	1331
▁ग्रीक	1331
▁ब्राउझ	1331
▁भरलेला	1331
▁मकर	1331
▁महामंडळाचे	1331
▁समाजासाठी	1331
वेकर	1330
▁कायद्याचा	1330
▁चिव	1330
▁जाणव	1330
▁त्यावेळ	1330
▁फडके	1330
▁भल	1330
▁विहिरीत	1330
▁शिवराज	1330
▁होणा	1330
▁उडवून	1329
▁जगण्याचा	1329
▁पाठीमागे	1329
▁फौजदारी	1329
▁राज्यांच्या	1329
▁राहणार्या	1329
▁लोकसेवा	1329
तंच	1328
▁आकारणी	1328
▁गडाच्या	1328
▁चाकण	1328
▁जमाव	1328
▁महावीर	1328
▁६८	1328
नाशक	1327
लाइन	1327
▁खटाव	1327
▁पासवर्ड	1327
▁वाढल्या	1327
▁वेगळेपण	1327
▁शेतीत	1327
ंठ	1326
▁आमच्यासाठी	1326
▁घाबरून	1326
▁डिग्री	1326
▁फर्स्ट	1326
▁बनू	1326
▁मतदारांनी	1326
▁वाचलं	1326
▁हिवाळी	1326
▁उंदीर	1325
▁पैशाची	1325
▁संगणकावर	1325
▁सुटके	1325
ोने	1324
▁कोलम	1324
▁दाभो	1324
▁माझ्यात	1324
▁शेतातील	1324
▁सपोर्ट	1324
▁हव	1324
क्ते	1323
हक	1323
▁तुड	1323
▁पौर्णिमे	1323
▁शाही	1323
बद्दलची	1322
स्के	1322
▁गणवेश	1322
▁दिवसाची	1322
▁मोदक	1322
▁सीआय	1322
▁स्पॉट	1322
▁कुरु	1321
▁क्लि	1321
▁सूचित	1321
▁कष्टा	1320
▁जोडणी	1320
▁प्रश्नांवर	1320
▁प्रोग्राम	1320
▁बोअर	1320
▁मेजर	1320
▁यांत	1320
▁रिअल	1320
▁लोकमत	1320
▁सिद्धी	1320
डाने	1319
पायी	1319
▁अशो	1319
▁इजा	1319
▁खोटा	1319
▁मराठीतील	1319
▁योजनांची	1319
▁२००१	1319
साल	1318
▁असुरक्षित	1318
▁दूरदर्शन	1318
▁धर्माचा	1318
▁प्रश्नाला	1318
▁मार्केटमध्ये	1318
▁संसद	1318
▁९६	1318
त्सव	1317
लयाचे	1317
▁अनन्य	1317
▁आक्षेपार्ह	1317
▁खेळाडूंनी	1317
▁जयश्री	1317
▁दावे	1317
ard	1316
लयाने	1316
▁इतिहासातील	1316
▁खैर	1316
▁ध्ये	1316
▁युक्त	1316
▁वामन	1316
▁स्थायिक	1316
ळ्यावर	1315
▁अवस्थे	1315
▁प्रवृत्त	1315
▁यजमान	1315
▁विचारून	1315
ऊट	1314
पं	1314
ब्रे	1314
म्ह	1314
ूंवर	1314
▁कुठेच	1314
▁दीडशे	1314
▁मकरंद	1314
▁लाभा	1314
▁लोकसभेच्या	1314
▁समर्पित	1314
कांपर्यंत	1313
▁अंगणात	1313
▁औषधा	1313
▁कार्यक्रमास	1313
▁तुम्हीच	1313
▁नेहर	1313
▁पंजाबी	1313
▁सापडलेल्या	1313
▁सीईओ	1313
▁१८८	1313
▁७१	1313
▁आघा	1312
▁पाककृती	1312
▁भांडवली	1312
▁वॉशिंग्टन	1312
▁सेक्टर	1312
▁जावी	1311
▁२००२	1311
ायचो	1310
▁आणलेल्या	1310
▁कॉलेजच्या	1310
▁ठेवणार	1310
▁डेव्हलपमेंट	1310
▁नाबाद	1310
▁विश्वासात	1310
ध्यक्षा	1309
ोह	1309
▁अधिकाऱ्यांच्या	1309
▁धबधब	1309
▁पराव	1309
▁लूक	1309
पीएस	1308
प्रयोग	1308
▁pre	1308
▁करणाऱ्यांना	1308
▁नेला	1308
▁पाठींबा	1308
▁पेशंट	1308
▁बाबांनी	1308
▁लागल्यावर	1308
▁वेगळेच	1308
▁सारंग	1308
बरा	1307
विच	1307
▁आईची	1307
▁उत्तराखंड	1307
▁घालावी	1307
▁चिकित्सा	1307
▁जिव	1307
▁ठेवते	1307
▁धुवून	1307
▁पाहतात	1307
▁प्रत्य	1307
▁भूष	1307
▁मंडळींना	1307
▁व्याया	1307
ताब	1306
महाराष्ट्र	1306
▁आणता	1306
▁कळस	1306
▁मानाने	1306
,3	1305
घाती	1305
▁नांव	1305
▁पट्टा	1305
▁परमेश्वराने	1305
▁प्रत्येकजण	1305
▁भीतीने	1305
▁मनाई	1305
▁मुलाख	1305
▁शिक्षणमंत्री	1305
ळ्याची	1304
ोगी	1304
▁एकदाच	1304
▁ताट	1304
▁तितकाच	1304
▁दीक्षित	1304
▁धर्माचे	1304
▁पोलिसांकडे	1304
▁फ्रेंड	1304
▁सूचने	1304
▁स्ल	1304
▁अभ्यासात	1303
▁जयपूर	1303
▁दुपारच्या	1303
▁धस	1303
▁निर्मित	1303
▁मंत्रालयाच्या	1303
▁श्रीलंका	1303
▁समितीला	1303
▁६१	1303
▁इस्टेट	1302
▁धर्मनिरपेक्ष	1302
▁पॅक	1302
▁येश	1302
कडेच	1301
▁अध्यक्षपद	1301
▁आश्वासने	1301
▁कथित	1301
▁खानापूर	1301
▁जिन	1301
▁तंत्रा	1301
▁दिवसांपूर्वीच	1301
▁वाढता	1301
▁शिकलो	1301
क्षेत	1300
द्योग	1300
▁मात्रा	1300
▁साद	1300
गढ	1299
प्राप्त	1299
वैद्य	1299
शीच्या	1299
▁आणलं	1299
▁आणायला	1299
▁गोळे	1299
▁प्रसारित	1299
▁बातम	1299
▁मनमानी	1299
तीवर	1298
▁तसत	1298
▁त्यालाच	1298
▁देवीच्या	1298
▁धनु	1298
▁शववि	1298
▁सद्य	1298
निम	1297
▁उब	1297
▁राजाने	1297
त्तम	1296
▁गोष्टींवर	1296
▁घेतल्यावर	1296
▁धर्मात	1296
▁पेटंट	1296
▁प्रेयसी	1296
▁बसविण्यात	1296
▁विकासाचे	1296
▁वितर	1296
करून	1295
क्रो	1295
मज	1295
ळावा	1295
▁शहाजी	1295
▁हैराण	1295
q	1294
स्वातंत्र	1294
▁63	1294
▁अंकात	1294
▁गोष्टीची	1294
▁वाचू	1294
▁शेप	1294
▁सार्या	1294
▁स्मशानभूमी	1294
ंवरून	1293
एमसी	1293
पाटी	1293
▁अभिजीत	1293
▁टिकवून	1293
▁दवाखान्यात	1293
▁पांड	1293
▁पायथ्याशी	1293
▁प्रजा	1293
▁विकली	1293
▁हेल्थ	1293
▁२०२	1293
भाडे	1292
लेत	1292
▁काढतात	1292
▁कोल्हे	1292
▁गवता	1292
▁प्लस	1292
अरिंग	1291
हाळ	1291
▁अहंकार	1291
▁आनंदाची	1291
▁पाईप	1291
▁मांजर	1291
▁विश्वजित	1291
▁आणण्याचे	1290
▁कुणाचा	1290
▁खडतर	1290
▁तत्त्वज्ञान	1290
▁दुरा	1290
▁पाठवली	1290
▁पृथ्वीच्या	1290
▁पोहे	1290
▁मुद्रा	1290
▁रिक	1290
▁किं	1289
▁टाळाटाळ	1289
▁बोंड	1289
टाई	1288
▁उत्प	1288
▁क्षमा	1288
▁चिठ्ठी	1288
▁तेजी	1288
▁वायर	1288
▁वितरित	1288
▁विभाजन	1288
▁वैविध्य	1288
नंतरही	1287
ोजना	1287
▁आवाहनही	1287
▁इंटरनेटवर	1287
▁करण्याऐवजी	1287
▁जिल्ह्यातून	1287
▁तात्या	1287
▁भेदभाव	1287
▁मानावे	1287
▁मार्चला	1287
▁लाभला	1287
▁लेण्या	1287
▁श्रीकृष्	1287
▁सावकार	1287
▁सुव्यवस्था	1287
▁८६	1287
बिन	1286
संघा	1286
्यांसमोर	1286
▁उतरला	1286
▁काकडी	1286
▁नाहीय	1286
▁नियमांचे	1286
▁मेट	1286
णाचं	1285
ार्ड	1285
३०	1285
▁कुणाल	1285
▁कॅनडा	1285
▁चौकार	1285
रीचा	1284
्युलर	1284
▁अविभाज्य	1284
▁उज्ज्वल	1284
▁जाणवू	1284
▁तोट	1284
▁मिक्सर	1284
▁यशस्वीपणे	1284
▁वापरुन	1284
▁हद्दीतील	1284
बॉ	1283
▁आपल्यात	1283
▁आहारात	1283
▁ख्रिस	1282
▁नांगर	1282
▁निर्धारित	1282
▁पोलिसांचे	1282
▁यांनीच	1282
▁रजा	1282
चंच	1281
टीन	1281
दीच्या	1281
▁आहेर	1281
▁एकतर्फी	1281
▁टक्क्यांपर्यंत	1281
▁नगरी	1281
▁पेंड	1281
▁मगच	1281
▁मिळणारी	1281
▁राज्याला	1281
▁रूग्ण	1281
कुट	1280
द्याला	1280
ुनच	1280
▁उसळ	1280
▁घेर	1280
▁तीळ	1280
▁त्यांनीही	1280
▁द्रविड	1280
▁धातू	1280
▁पाचवी	1280
▁म्हापसा	1280
▁हळूच	1280
▁ह्याला	1280
टीला	1279
ऱ्यांचा	1279
व्हन	1279
▁ऋण	1279
▁गाजर	1279
▁घुम	1279
▁चोदन	1279
▁बटाटा	1279
▁महिलेचा	1279
▁मुद्देमाल	1279
▁साबळे	1279
▁हृ	1279
वय	1278
▁कारखान्याचे	1278
▁केल्याशिवाय	1278
▁नितांत	1278
▁पोपट	1278
▁समु	1278
▁सेन	1278
लिश	1277
▁खंडपीठा	1277
▁ताक	1277
▁तेवढ्या	1277
▁पक्षांचे	1277
▁पांढऱ्या	1277
विष	1276
स्ट्री	1276
▁अभ्य	1276
▁गोयल	1276
▁दिवसभरात	1276
▁पाहुन	1276
▁भ्र	1276
रोग	1275
▁करे	1275
▁कायद्याने	1275
▁घालण्याचा	1275
▁पुल	1275
▁याबाबतीत	1275
▁राहणारा	1275
ावती	1274
▁घालता	1274
▁थ्री	1274
▁दिसलं	1274
▁पाठवा	1274
▁यंदाही	1274
▁विलासराव	1274
▁शिकवले	1274
▁हिशोब	1274
▁हुतात्मा	1274
थळ	1273
▁अतिवृष्टी	1273
▁अस्वस्थता	1273
▁ओळखल्या	1273
▁देय	1273
▁निळ्या	1273
▁नोकरीच्या	1273
▁शाळेचे	1273
▁०५	1273
मिशन	1272
सारखीच	1272
▁उपवि	1272
▁कारागृहात	1272
▁धवन	1272
▁प्रेस	1272
▁भाविकांनी	1272
▁मुख्यत्वे	1272
ंद्वारे	1271
ऱ्यांचे	1271
ऱ्यातील	1271
▁कार्यशाळे	1271
▁दिल्लीला	1271
▁अमान	1270
▁कमाली	1270
▁क्रमवारीत	1270
▁खेळणी	1270
▁गोविंदा	1270
▁चुलत	1270
▁दादासाहेब	1270
▁पटवर्धन	1270
▁पिक्चर	1270
▁मनसेचे	1270
▁मूड	1270
▁विनाकारण	1270
▁सायंकाळ	1270
येत	1269
▁जुळवून	1269
▁प्याय	1269
▁मारल्या	1269
▁लावण्याचा	1269
णें	1268
▁अमेरिक	1268
▁कामगारांच्या	1268
▁ट्रेड	1268
▁पंख	1268
▁मागवण्यात	1268
▁मुलींची	1268
▁राहण्यास	1268
▁वर्षाचे	1268
▁सग	1268
23	1267
इतकी	1267
खि	1267
गाड	1267
सास	1267
▁पर्वा	1267
▁प्रवर्	1267
▁प्रायोगिक	1267
▁मिळवत	1267
▁गोडी	1266
▁गोरख	1266
▁टाइम	1266
▁थक्क	1266
▁राऊ	1266
▁वायु	1266
▁संप्रदा	1266
▁हडपसर	1266
कील	1265
▁उद्योगात	1265
▁एकटा	1265
▁चौथी	1265
▁तुर्क	1265
▁येथेच	1265
▁शहराचे	1265
▁स्वयंपा	1265
15	1264
लाग	1264
स्मरण	1264
▁तला	1264
▁पद्धतीत	1264
▁मतदारसंघातून	1264
▁मिनिटं	1264
▁वर्धापन	1264
सेव	1263
िटल	1263
▁आवडलं	1263
▁कंटेनर	1263
▁कायद	1263
▁तमिळनाडू	1263
▁तासगाव	1263
▁त्यांच्यातील	1263
▁दामोदर	1263
▁धरू	1263
▁मुंबईः	1263
▁राक्षस	1263
▁वाढीसाठी	1263
ance	1262
▁अनाथ	1262
▁तोंडाला	1262
▁थायलंड	1262
▁प्रभात	1262
▁व्यावहारिक	1262
▁८४	1262
▁अंमलात	1261
▁आरोग्यासाठी	1261
▁काढताना	1261
▁कारवाईत	1261
▁डों	1261
▁परमेश्वरा	1261
▁बाळू	1261
▁विचाराने	1261
▁शिवसेनेची	1261
▁हत्यार	1261
▁paper	1260
▁किसन	1260
▁झाडाला	1260
▁दडपण	1260
▁धरत	1260
▁नितंब	1260
▁पाण्यावर	1260
▁फारसं	1260
▁बदनाम	1260
▁शिकून	1260
आम्ही	1259
इंग	1259
लेय	1259
ानि	1259
ित्य	1259
▁आर्थिकदृष्ट्या	1259
▁कविते	1259
▁जत	1259
▁थेर	1259
▁धना	1259
▁धूर	1259
▁लिहितात	1259
बांधणी	1258
▁अंधेरी	1258
▁अवघे	1258
▁कुंप	1258
▁भिवंडी	1258
▁मारुन	1258
▁हलका	1258
बाल	1257
लेश	1257
▁इच्छितो	1257
▁तिघांना	1257
▁बंगळुरू	1257
▁मनि	1257
▁मुलीची	1257
ड्र	1256
मणी	1256
ेंचा	1256
▁अनुदानित	1256
▁कव्हर	1256
▁तुरळक	1256
▁त्रासदायक	1256
▁बंगला	1256
▁मुद्द	1256
▁मौ	1256
▁लै	1256
▁वर्मा	1256
गीता	1255
▁अर्थशास्त्र	1255
▁उपनगराध्यक्ष	1255
▁तान	1255
▁दृ	1255
▁प्रशस्त	1255
▁मायावती	1255
▁राजापूर	1255
▁लेखिका	1255
▁वेगळ	1255
▁शेतकर्यांचे	1255
त्वाच्या	1254
नाट	1254
राष्ट्रीय	1254
▁अलिबाग	1254
▁असु	1254
▁कल्या	1254
▁जाहिर	1254
▁ब्	1254
▁ब्री	1254
▁महसूलमंत्री	1254
▁शरीरावर	1254
▁पाचारण	1253
▁पॉइंट	1253
▁फण	1253
▁वाजेच्या	1253
काका	1252
पादन	1252
ानगर	1252
▁आत्ताच	1252
▁गौरविण्यात	1252
▁नातेवाईकांनी	1252
▁भाविकांना	1252
▁मंडळाची	1252
▁हिट	1252
िकन	1251
▁एकाला	1251
▁थांबत	1251
▁पानं	1251
▁पोर्तु	1251
▁भागांमध्ये	1251
▁रीत	1251
अस	1250
डका	1250
▁अखेरचा	1250
▁अनुभूती	1250
▁कमांड	1250
▁सर्कल	1250
▁७६	1250
ust	1249
यांसाठी	1249
ुका	1249
▁ph	1249
▁असतोच	1249
▁उपजिल्हा	1249
▁कामही	1249
▁कारवाईचा	1249
▁कोन	1249
▁डेव्हिड	1249
▁तुफान	1249
▁विश	1249
▁सत्तर	1249
▁हिशेब	1249
▁2000	1248
▁आव्हाने	1248
▁खुली	1248
▁टॅबलेट	1248
▁दुर्बल	1248
▁माची	1248
▁नुसत्या	1247
▁मुरु	1247
▁शिलालेख	1247
▁शेतीच्या	1247
▁सच	1247
▁स्थाप	1247
▁हप्ता	1247
▁होणारच	1247
▁question	1246
▁उलगड	1246
▁करो	1246
▁केंद्राचे	1246
▁कॉंग्रेसला	1246
▁क्रिकेटमध्ये	1246
▁क्षु	1246
▁झाडाच्या	1246
▁मैल	1246
संक	1245
▁एमआयएम	1245
▁परिस्थितीचा	1245
▁पुर्व	1245
▁मधली	1245
▁वयाची	1245
▁विकासकामे	1245
▁सदस्यांची	1245
▁सालच्या	1245
▁ह्यांना	1245
लाब	1244
विरोध	1244
▁67	1244
▁कट्ट	1244
▁भूमि	1244
▁मिकी	1244
▁शित	1244
▁सोई	1244
▁हस्ता	1244
बाबतची	1243
▁उघडपणे	1243
▁एकमत	1243
▁नगराध्यक्षा	1243
▁नजरेने	1243
▁नवन	1243
▁निश्चय	1243
▁न्हा	1243
▁भावा	1243
▁मारायला	1243
▁विकी	1243
▁सल्	1243
▁सातवा	1243
ग्रहा	1242
चिंत	1242
▁इराणी	1242
▁क्रॉस	1242
▁खंडोबा	1242
▁घड्या	1242
▁ठोठ	1242
▁रोजग	1242
▁लावण्याची	1242
▁शूट	1242
▁समोरून	1242
▁हैद्राबाद	1242
▁२००३	1242
पूर्	1241
म्मी	1241
▁आं	1241
▁बनते	1241
▁बोलाय	1241
▁राज्ये	1241
▁विक्रेते	1241
ट्	1240
शुद्ध	1240
स्ताना	1240
▁आताच्या	1240
▁आपटे	1240
▁इचलकरंजी	1240
▁उदाहर	1240
▁कुलूप	1240
▁पुस्तकाच्या	1240
▁माणसाचे	1240
▁राहायचे	1240
सौ	1239
▁आकाराच्या	1239
▁किनारी	1239
▁कुंडली	1239
▁कोटींचे	1239
▁टार्गेट	1239
▁तशाच	1239
▁तीनशे	1239
▁ध्या	1239
▁मिळाल्यास	1239
▁राखण्यासाठी	1239
▁लग्नाला	1239
सेने	1238
िलो	1238
▁par	1238
▁इलेक्ट्रिक	1238
▁घडतात	1238
▁पेटी	1238
▁मशी	1238
▁श्	1238
▁स्ट्रा	1238
मां	1237
▁जोमाने	1237
▁पिकांचे	1237
▁पुस्तकाचे	1237
▁बरो	1237
▁मट	1237
▁वाजत	1237
▁व्यक्तींनी	1237
ow	1236
प्रकरण	1236
▁आरोपीला	1236
▁उपक्रमात	1236
▁ग्रामसेवक	1236
▁पुरुषांच्या	1236
▁प्रगल्भ	1236
▁बाहु	1236
▁बॅनर्जी	1236
▁मतदारांना	1236
▁मासळी	1236
▁रेशीम	1236
▁हॅक	1236
कीम	1235
दर्	1235
्रस	1235
▁कॉम्	1235
▁खगोल	1235
▁ख्रिस्ती	1235
▁चेहर	1235
▁भारतातून	1235
▁महिनाभर	1235
▁यथ	1235
▁९७	1235
▁अस्थ	1234
▁आइ	1234
▁टाळता	1234
▁नागपुरात	1234
▁परतले	1234
▁स्थगित	1234
22	1233
ib	1233
▁चित्त	1233
▁जोडलेला	1233
▁नियोजना	1233
▁होर	1233
मराठी	1232
▁03	1232
▁इट	1232
▁कनेक्ट	1232
▁कमालीची	1232
▁करण्याकरिता	1232
▁महारा	1232
▁वाचवण्यासाठी	1232
▁विकले	1232
▁सीपी	1232
▁आकृती	1231
▁आलीय	1231
▁एकवट	1231
▁कारकीर्द	1231
▁किड	1231
▁घाटात	1231
▁दाखविली	1231
▁पिवळ्या	1231
▁स्थानकावर	1231
ore	1230
ईंग	1230
स्म	1230
▁आयोगाचे	1230
▁काढलं	1230
▁पाकिस्ताना	1230
▁वेगात	1230
ck	1229
▁अग्रवाल	1229
▁इंग	1229
▁क्षेत्रामध्ये	1229
▁घरावर	1229
▁निर्णयावर	1229
▁राहत्या	1229
▁संजीवनी	1229
▁सील	1229
ईम	1228
विरुद्धच्या	1228
▁wh	1228
▁अळी	1228
▁काढणी	1228
▁डीएस	1228
▁तिकि	1228
▁दू	1228
▁नाटय़	1228
▁पुलाच्या	1228
▁बटाट	1228
▁रिव्ह	1228
▁लक्षवेधी	1228
▁शाकाहारी	1228
▁शिवसेनेचा	1228
भक्ता	1227
▁अथ	1227
▁गटाचे	1227
▁ज्याचे	1227
▁डब्यात	1227
▁बंधु	1227
▁बडबड	1227
▁म्हटलंय	1227
▁लसी	1227
▁196	1226
▁गंगाधर	1226
▁गावोग	1226
▁जाउन	1226
▁निजाम	1226
▁निसर्गाच्या	1226
▁बाधा	1226
▁माथा	1226
▁मौन	1226
▁रक्तदाब	1226
्राचे	1225
▁कोसळला	1225
▁जानकर	1225
▁जोडीने	1225
▁तक्रारदार	1225
▁देऊनही	1225
▁द्यायचं	1225
▁पदरात	1225
▁भरण्याची	1225
▁मुलभूत	1225
▁रस्त्याचे	1225
▁शिक्षिका	1225
▁संघटनांच्या	1225
▁सिनेमाची	1225
▁सीरिया	1225
▁८८	1225
te	1224
▁जवळील	1224
▁पतंग	1224
▁म्हणावं	1224
▁संस्कृतीचा	1224
ne	1223
िकेट	1223
▁अधिकाऱ्यांची	1223
▁आयु	1223
▁टीप	1223
▁मोट	1223
▁रुपयांना	1223
▁वेबसाईटवर	1223
▁सजावट	1223
वादाने	1222
▁अद्	1222
▁अपील	1222
▁ऑफिसमध्ये	1222
▁कोणत्याच	1222
▁जनावरे	1222
▁पंत	1222
▁परतफेड	1222
▁भारतरत्न	1222
▁महाराजांचा	1222
▁रुग्णांची	1222
ie	1221
णुक	1221
माध्यम	1221
▁अंम	1221
▁आईचे	1221
▁डेव्ह	1221
▁पदरी	1221
▁भोज	1221
▁मधेच	1221
▁रॉड	1221
▁सायकली	1221
जमा	1220
्यांबरोबर	1220
▁68	1220
▁जगणं	1220
▁झपाट	1220
▁दारा	1220
▁नाशिकमध्ये	1220
▁निखिल	1220
▁शिकले	1220
▁सर्व्हर	1220
▁सातबारा	1220
▁सोन्याच्या	1220
क्सी	1219
धीश	1219
मागचा	1219
मेझॉन	1219
▁अखिलेश	1219
▁प्रभागात	1219
▁माणसाचा	1219
▁मातीत	1219
▁लोकांकडून	1219
ver	1218
झ्	1218
▁इनामदार	1218
▁गार्ड	1218
▁छे	1218
▁मंत्र्यांनी	1218
▁महिलांचे	1218
मानुसार	1217
वार्	1217
हीम	1217
▁घोषणे	1217
▁जागत	1217
▁जाळून	1217
▁वाढलेले	1217
▁संगी	1217
▁साधावा	1217
▁सुनीता	1217
▁६९	1217
▁88	1216
▁घालायला	1216
▁समजेल	1216
▁ओझ	1215
▁पदोन्न	1215
▁वां	1215
▁शासनाची	1215
▁स्थलांतरित	1215
बिल	1214
▁अंगण	1214
▁टक्कर	1214
▁मंदिरातील	1214
▁विभागणी	1214
▁संभोग	1214
▁सक्त	1214
▁स्नायू	1214
पंत	1213
ुपी	1213
▁उजनी	1213
▁कोरड	1213
▁खातात	1213
▁दाम्प	1213
▁धों	1213
▁मनोरंजक	1213
▁वर्षासाठी	1213
▁वहिनी	1213
▁शिक्षणाचे	1213
▁१९९९	1213
बाचा	1212
वारा	1212
▁अध्यात्म	1212
▁खाक	1212
▁खिळ	1212
▁चॅट	1212
▁जोखीम	1212
▁थोडीशी	1212
▁नादात	1212
▁निवडणुकीची	1212
▁फोरम	1212
▁मदतीचा	1212
▁महोत्सवात	1212
▁मुलींनी	1212
▁समजताच	1212
ंतू	1211
पिता	1211
▁अबाधित	1211
▁आक	1211
▁मिठा	1211
▁स्वप्नील	1211
▁हलके	1211
ेश्व	1210
▁झुड	1210
▁ठोकून	1210
▁दोघांचा	1210
▁नम	1210
▁बोजा	1210
▁विचारू	1210
▁सांभाळत	1210
▁सुट्ट	1210
ha	1209
▁at	1209
▁अल्पसंख्याक	1209
▁कराः	1209
▁कौन्सिल	1209
▁गेल	1209
▁दिसाय	1209
▁बंदिस्त	1209
▁भै	1209
▁ह्याचे	1209
पॅ	1208
लट	1208
ळवणी	1208
शियन	1208
▁अभयार	1208
▁एफआरपी	1208
▁कोल्हापूरच्या	1208
▁गोकुळ	1208
▁नंदकुमार	1208
▁नसावे	1208
▁फ्रेम	1208
कर्म	1207
▁गाठला	1207
▁जेट	1207
▁दुःखी	1207
▁पुनर्व	1207
▁मुख्यालय	1207
▁व्हॅन	1207
▁साडेपाच	1207
विरुध्द	1206
शेठ	1206
ाव्य	1206
▁अधिसूचना	1206
▁आरंभ	1206
▁घडी	1206
▁डाळिंब	1206
▁सेन्स	1206
▁हस्तगत	1206
पटा	1205
बाहेरील	1205
▁78	1205
▁अत्यल्प	1205
▁आप्पा	1205
▁कांहीं	1205
▁कौर	1205
▁खूश	1205
▁जवानांनी	1205
▁हण	1205
000	1204
art	1204
दाय	1204
ॉड	1204
▁97	1204
▁धारेवर	1204
▁बंदला	1204
▁समाधा	1204
▁साकारली	1204
11	1203
able	1203
▁कारवाईची	1203
▁क्लिप	1203
▁खैरे	1203
▁टूर	1203
▁तुको	1203
▁पथके	1203
▁पिढ्या	1203
▁प्रतिज्ञापत्र	1203
▁यामागे	1203
▁शतकातील	1203
▁९२	1203
स्ति	1202
▁अतिथी	1202
▁चषक	1202
▁जागोजागी	1202
▁पां	1202
▁पाठविला	1202
▁पौर्णिमा	1202
▁प्रॉडक्ट	1202
▁बसमध्ये	1202
▁मायबोलीवर	1202
▁रचून	1202
▁लाखों	1202
▁सरन्यायाधीश	1202
इतका	1201
काट	1201
टेबल	1201
पर्	1201
ोजे	1201
▁कर्तृ	1201
▁कलाकारांना	1201
▁दीर्घकालीन	1201
▁मेगा	1201
▁यावं	1201
▁गमती	1200
▁चारित्र	1200
▁दुब	1200
▁नैवेद्य	1200
▁पराग	1200
▁बेश	1200
ari	1199
भग	1199
िकीकरण	1199
▁गावांतील	1199
▁जाणवलं	1199
▁दिड	1199
▁महत्त्वाकांक्षी	1199
▁मोल	1199
▁रहाणे	1199
▁रिफायनरी	1199
कस	1198
डाचा	1198
नीकरण	1198
प्रिय	1198
स्टीक	1198
▁इंदूर	1198
▁कब	1198
▁तुर	1198
▁निल	1198
▁प्रशास	1198
▁विचारसर	1198
▁विभागाचा	1198
▁सगळ्यांनाच	1198
▁सेनेच्या	1198
▁आपोआपच	1197
▁गोव्याच्या	1197
▁जिक	1197
▁नसल्याचं	1197
▁मक	1197
▁म्हणाल	1197
▁हल्लेखोर	1197
षित	1196
ातली	1196
▁ओक	1196
▁चक्कर	1196
▁नाश्ता	1196
▁प्रज्ञा	1196
▁भुमिका	1196
▁रंगीबेरंगी	1196
दाणे	1195
पाती	1195
िकास	1195
▁अनुचित	1195
▁अरेबिया	1195
▁जखमींना	1195
▁मॅरेथॉन	1195
▁युनायटेड	1195
▁युरोपीय	1195
▁सुखरूप	1195
▁१८५	1195
ऊर्जा	1194
क्कर	1194
खरी	1194
झल	1194
ल्यापासून	1194
▁bh	1194
▁अधिकाऱ्याने	1194
▁बूट	1194
▁सहली	1194
▁सुधारण	1194
अगोदर	1193
ेंची	1193
▁आरडाओर	1193
▁मुल्ला	1193
▁येण्याचे	1193
▁रामदेव	1193
▁सिक	1193
आन	1192
मूल्य	1192
ॉम	1192
▁खटक	1192
▁चिंताजनक	1192
▁निकाली	1192
▁प्रसूती	1192
▁बोलते	1192
▁रोडवर	1192
▁सभो	1192
▁समभाग	1192
गृहे	1191
सकाळ	1191
▁कीटक	1191
▁ठाक	1191
▁याचीही	1191
▁वाचतो	1191
▁विकृत	1191
▁संपवून	1191
बरे	1190
▁02	1190
▁dainik	1190
▁अाप	1190
▁आमिर	1190
▁आरटीओ	1190
▁आवास	1190
▁जामखेड	1190
▁तुम	1190
▁त्यादृष्टीने	1190
▁दिल्यावर	1190
▁पंथ	1190
▁बाबांना	1190
▁सक्रीय	1190
▁सिंगल	1190
▁हिंदुत्व	1190
▁८२	1190
न्ग	1189
साठीही	1189
▁अस्वच्छ	1189
▁कोल्हा	1189
▁जीवित	1189
▁चळवळीत	1188
▁चौकी	1188
▁तालीम	1188
▁धुर	1188
▁भेटला	1188
▁भ्रमण	1188
▁विद्वान	1188
▁०८	1188
कर्णी	1187
▁org	1187
▁आयुक्तांना	1187
▁उतरत	1187
▁नगरविकास	1187
▁वाहनांना	1187
▁विचारपूस	1187
कोल	1186
विश्व	1186
▁तपासणीसाठी	1186
▁बसा	1186
▁हिंड	1186
▁prabhat	1185
▁अजब	1185
▁आपट	1185
▁काढलेले	1185
▁जनहित	1185
▁जागरूक	1185
▁नकाशा	1185
▁प्रवासा	1185
▁फसव	1185
▁सुका	1185
काकडून	1184
लिनी	1184
व्यापी	1184
▁घेणार्या	1184
▁ठरतील	1184
▁डायरेक्ट	1184
▁निदर्शने	1184
▁पॅरा	1184
▁भावाला	1184
▁मल्ल्या	1184
▁याबरोबरच	1184
▁वादात	1184
▁सोन्याची	1184
दाना	1183
राव्या	1183
ल्प	1183
ात्य	1183
▁गोपनीय	1183
▁जाणा	1183
▁पाश्चात्य	1183
▁फर्नांडिस	1183
▁मंगेशकर	1183
▁मागत	1183
▁मुलायम	1183
▁मोसम	1183
▁सांगड	1183
▁स्वायत्त	1183
कामी	1182
विरूद्ध	1182
्वर	1182
▁टाळ्या	1182
▁बटण	1182
▁मधले	1182
▁शिकारी	1182
▁समारंभात	1182
▁९१	1182
पंथी	1181
रुप	1181
▁04	1181
▁आकर्ष	1181
▁झटपट	1181
▁रंजक	1181
▁रात	1181
▁काच	1180
▁रघु	1180
सिद्ध	1179
▁इंडियाच्या	1179
▁सिलिंडर	1179
▁उरलेले	1178
▁देवर	1178
▁नेताजी	1178
▁पाहण्याचा	1178
▁मधुर	1178
▁जिर	1177
▁डेंग्यू	1177
▁ताठ	1177
▁दिनाच्या	1177
▁हुक	1177
निमित्ताने	1176
बीर	1176
मागची	1176
शंकर	1176
▁तेव्हाही	1176
▁दयानंद	1176
▁पूज	1176
▁महापालिकेची	1176
▁वरच	1176
▁शिबीर	1176
बाबू	1175
▁कार्याची	1175
▁क्व	1175
▁गणेशमूर्ती	1175
▁घोर	1175
▁दिप	1175
मरा	1174
स्टे	1174
▁अमलात	1174
▁ईद	1174
▁कारकीर्दी	1174
▁जमीनी	1174
▁डबल	1174
▁पिठ	1174
▁बोलली	1174
▁भेटलो	1174
▁मोर्चाचे	1174
▁विजयकुमार	1174
बुड	1173
यांमध्ये	1173
ियस	1173
▁69	1173
▁गावकरी	1173
▁टक्का	1173
▁परिषदेने	1173
▁रुपयांवर	1173
▁वाहतुक	1173
▁सजीव	1173
▁सिल्	1173
तली	1172
ेवरील	1172
▁जगतात	1172
▁पांढरी	1172
▁पिण्यासाठी	1172
▁बें	1172
▁मेंढ	1172
▁हिंजवडी	1172
/10	1171
▁काँग्रेसमध्ये	1171
▁ग्राहकांची	1171
▁टप्प्यावर	1171
▁साहे	1171
▁१९९०	1171
▁अश्विन	1170
▁कोणतं	1170
▁दूषित	1170
▁नाशिकच्या	1170
▁पॅटर्न	1170
▁बोरा	1170
▁मायक्रोसॉफ्ट	1170
▁वळणावर	1170
▁74	1169
▁झाल्याच्या	1169
▁टाळले	1169
▁नियोज	1169
▁फुलपा	1169
▁मुसलमाना	1169
▁षटकार	1169
▁सोस	1169
गोर	1168
संत	1168
▁काळजीपूर्वक	1168
▁कृतज्ञता	1168
▁घ्यायचं	1168
▁तितकीच	1168
▁त्यानंतरही	1168
▁पीसीबी	1168
▁लाकूड	1168
▁शेतज	1168
▁सांगितलेल्या	1168
▁साहित्यात	1168
▁स्टेशनवर	1168
दाला	1167
वणार्या	1167
▁असलो	1167
▁करतं	1167
▁डॉट	1167
▁भरघोस	1167
▁याचबरोबर	1167
▁शेतीमाला	1167
इज	1166
कोनी	1166
न्सर	1166
संध	1166
▁अगं	1166
▁गोष्टींना	1166
▁घोरपडे	1166
▁नाळ	1166
▁निवडले	1166
▁पाहणार	1166
▁पेच	1166
खून	1165
प्रचार	1165
मानंतर	1165
संग्र	1165
ैर्य	1165
▁उसाचे	1165
▁करतेय	1165
▁जयसिंग	1165
▁त्याच्याच	1165
▁फेब्रुवारीला	1165
▁मनीष	1165
▁मान्यवरांच्या	1165
▁मुलाची	1165
▁मेड	1165
▁हितसंबंध	1165
मक	1164
शार	1164
सिन	1164
▁mo	1164
▁कारणं	1164
▁चार्ट	1164
▁त्यांनाच	1164
▁दलात	1164
▁फुटी	1164
▁येउन	1164
▁रन	1164
▁रुग्	1164
▁स्वरूपाचे	1164
ंगत	1163
गड्या	1163
मच्या	1163
मागचे	1163
▁86	1163
▁अॅपल	1163
▁आयुष्याचा	1163
▁आराखड	1163
▁एलईडी	1163
▁झाकण	1163
▁प्लीज	1163
▁महाविद्यालयाचे	1163
▁मिळवता	1163
▁स्पोर्ट्स	1163
▁ताजे	1162
▁बॉम्बे	1162
▁मांग	1162
▁माप	1162
▁शेतकऱ्याला	1162
▁सभ	1162
पंचा	1161
वादाचे	1161
शिष्ट	1161
िवूड	1161
▁अभिने	1161
▁इंजिनिअरिंग	1161
▁चरबी	1161
▁चौका	1161
▁जेवणाची	1161
▁डावी	1161
▁विध	1161
▁श्रीगण	1161
▁संस्थांचे	1161
▁हिंसा	1161
▁होतंय	1161
कर्ज	1160
▁खूण	1160
▁चढा	1160
▁तुमच्यावर	1160
▁नेण्यासाठी	1160
▁बाबुराव	1160
▁समुद्राच्या	1160
▁०९	1160
ंकन	1159
चिक	1159
▁अग्रलेख	1159
▁नूतन	1159
▁पिण्याचे	1159
▁पॉप	1159
▁प्रश्नही	1159
▁माधवराव	1159
▁लोकां	1159
▁वर्गातील	1159
▁९४	1159
दारांच्या	1158
़ा	1158
ांमध्येही	1158
▁he	1158
▁la	1158
▁काश्मीरमध्ये	1158
▁त्यांच्याबरोबर	1158
▁मंदीर	1158
▁माये	1158
ंटे	1157
▁कर्जाची	1157
▁दिंड	1157
▁निर्मूलन	1157
▁फ्ला	1157
▁मारू	1157
वराज	1156
▁कू	1156
▁घुसखोरी	1156
▁जन्मा	1156
▁तफावत	1156
▁दाखवतात	1156
▁पक्का	1156
▁परिक्षा	1156
▁पुलावर	1156
▁पोरं	1156
▁बिबट्या	1156
▁मुलांमध्ये	1156
आज	1155
किय	1155
च्यु	1155
▁अभिप्रेत	1155
▁खात्यातील	1155
▁ठेवलेला	1155
▁दवा	1155
▁निवि	1155
▁पश्चात	1155
▁रज	1155
▁साप्ताहिक	1155
▁66	1154
▁उमर	1154
▁काढावा	1154
▁टोकाला	1154
▁मजेदार	1154
▁राष्ट्रवादीला	1154
▁विरा	1154
▁शरीराच्या	1154
दिवशी	1153
▁अनिता	1153
▁आयुष्याच्या	1153
▁उचित	1153
▁कुतूहल	1153
▁जाळी	1153
▁नोटिसा	1153
▁प्रकल्पाची	1153
▁बँकांना	1153
▁मज्जा	1153
▁संरक्षक	1153
▁सीडी	1153
ख्य	1152
गारी	1152
घरा	1152
जून	1152
डीसी	1152
प्य	1152
महाराज	1152
▁आयसीसी	1152
▁कोलक	1152
▁प्रण	1152
▁बिघाड	1152
▁माबो	1152
▁लोड	1152
▁व्याघ्र	1152
▁सोडवण्यासाठी	1152
▁हरवून	1152
णाऱ्यांची	1151
स्तंभ	1151
ारीत	1151
▁अभिजात	1151
▁चौकटीत	1151
▁निसर्गा	1151
▁पटली	1151
▁रत्ना	1151
▁लंपास	1151
▁शेण	1151
▁०३	1151
▁८९	1151
पर्यंतचा	1150
मोर	1150
▁मस्	1150
▁म्यानमार	1150
▁होतेय	1150
मर्यादा	1149
▁गावांचा	1149
▁ज्यांचे	1149
▁डेट	1149
▁नाविन्य	1149
▁निपाणी	1149
▁यायचं	1149
परिषदे	1148
विते	1148
▁अवजड	1148
▁कार्यक्षमता	1148
▁किडनी	1148
▁चाळी	1148
▁चित्रकला	1148
▁जाण्याच्या	1148
▁दरातील	1148
▁निर्णयाची	1148
▁मेजवानी	1148
ंय	1147
पीसी	1147
लांवर	1147
ुळ	1147
्रीय	1147
▁अलगद	1147
▁खुल	1147
▁जोख	1147
▁झोपे	1147
▁निमित	1147
▁पारनेर	1147
▁यांचाही	1147
बीआय	1146
▁अभिप्राय	1146
▁उधळ	1146
▁एसएमएस	1146
▁देशांतील	1146
▁पद्धतीनं	1146
▁अंशी	1145
▁आलेत	1145
▁ऑक्सिजन	1145
▁कुटुंबीयांनी	1145
▁चाहते	1145
▁यानुसार	1145
▁लाइफ	1145
स्र	1144
▁अनैतिक	1144
▁अभूतपूर्व	1144
▁आद्य	1144
▁काज	1144
▁घालुन	1144
▁दोघांनीही	1144
▁वरचा	1144
▁वासुदेव	1144
▁सभेला	1144
पूजन	1143
▁2007	1143
▁उडवणे	1143
▁उन्न	1143
▁गणि	1143
▁झड	1143
▁टक्क्यां	1143
▁दागिन	1143
▁पैठण	1143
▁भूमिक	1143
▁याचिकेवर	1143
▁सहमती	1143
▁१८०	1143
त्वावर	1142
मुंबई	1142
लंच	1142
विधी	1142
▁pl	1142
▁गुंफ	1142
▁चिट	1142
▁जबरदस्तीने	1142
▁पालिकेत	1142
▁महासागर	1142
▁मिरवणुकी	1142
▁रश्मी	1142
▁रामनाथ	1142
▁राहण्याचे	1142
गासाठी	1141
टीक	1141
्रॉ	1141
▁all	1141
▁कुटुंबीयांना	1141
▁ठरलेले	1141
▁नोकऱ्या	1141
▁बंधारे	1141
▁भागाला	1141
▁भालेराव	1141
▁भूकं	1141
▁रानडे	1141
▁राहुरी	1141
▁विजापूर	1141
▁सुग	1141
क्य	1140
तुम	1140
ेशाही	1140
्ही	1140
▁आताही	1140
▁जोडला	1140
▁ट्विटरवर	1140
▁निर्मितीसाठी	1140
▁पांडव	1140
▁पावलं	1140
▁बंगालच्या	1140
ळगावकर	1139
▁कर्वे	1139
▁गर्भा	1139
▁दुर्गंधी	1139
▁राज्यभरातील	1139
▁वर्दळ	1139
जनक	1138
ठार	1138
मेन्ट	1138
वासाची	1138
▁आरटी	1138
▁केंद्राने	1138
▁गाडीतून	1138
▁घराचे	1138
▁नौद	1138
▁पडायला	1138
▁ब्लू	1138
▁महायु	1138
▁विटा	1138
▁वैशिष्ट्यपूर्ण	1138
गावी	1137
▁600	1137
▁अनेकांचे	1137
▁इराक	1137
▁क्रांत	1137
▁तलावात	1137
▁निकालात	1137
▁पाचही	1137
▁पुरेशा	1137
▁बायकोला	1137
▁साधक	1137
19	1136
▁कळविले	1136
▁त्याच्यासाठी	1136
▁प्रेमाची	1136
▁रंगली	1136
▁रोहि	1136
▁लॅब	1136
▁लों	1136
▁वरदान	1136
▁व्हॉ	1136
......	1135
ावधी	1135
▁आगर	1135
▁उद्योजकांना	1135
▁जगदीश	1135
▁जवळचा	1135
▁मोडीत	1135
▁रास	1135
▁वाकड	1135
▁विधाना	1135
दृष्ट	1134
न्यू	1134
प्रो	1134
राणी	1134
▁latest	1134
▁जनसंपर्क	1134
▁धोरणात्मक	1134
▁नजीकच्या	1134
▁बसलेली	1134
▁भारतीयांना	1134
▁म्हात	1134
▁रिस	1134
▁गोगटे	1133
▁चित्रपटातून	1133
▁तंत्रज्ञ	1133
▁बडे	1133
▁ब्रिज	1133
▁मिळकत	1133
शैली	1132
▁73	1132
▁अरूण	1132
▁करि	1132
▁कायमचा	1132
▁काळो	1132
▁कोटा	1132
▁देवाचे	1132
▁नीति	1132
▁बसायला	1132
▁संमत	1132
▁सांगीतले	1132
▁स्वार्थ	1132
▁८७	1132
ल्याबद्दल	1131
्वल	1131
▁उध्वस्त	1131
▁एकात्मिक	1131
▁कार्यकाळ	1131
▁गृहस्थ	1131
▁घुसून	1131
▁नगरसेवकांना	1131
▁पार्थ	1131
▁संबोधित	1131
▁सूची	1131
▁हत्याकांड	1131
17	1130
र्ता	1130
▁अलंकार	1130
▁आठवी	1130
▁औंध	1130
▁नव्व	1130
▁पर्याया	1130
▁पली	1130
▁भरण्यात	1130
▁लाडक्या	1130
▁वेढ	1130
▁हाताच्या	1130
चय	1129
माते	1129
▁आंघोळ	1129
▁कामांची	1129
▁कृपे	1129
▁चालतात	1129
▁प्रयत्नांना	1129
▁व्हायरस	1129
ंह	1128
घाई	1128
माळ	1128
शत	1128
सीसी	1128
▁अस्थिर	1128
▁आलेख	1128
▁कमीतकमी	1128
▁चेन	1128
▁टेक्	1128
▁तमिळ	1128
▁दळणवळ	1128
▁प्रशिक्षित	1128
▁रिकामी	1128
▁शत्रु	1128
▁साठवून	1128
डीस	1127
▁mah	1127
▁केंद्रांवर	1127
▁झट	1127
▁पिर	1127
▁बॉम्बस्फोट	1127
▁मणि	1127
▁याबाबतचा	1127
आणि	1126
बाचे	1126
▁क्षेत्रीय	1126
▁डोळ्यांत	1126
▁पडतील	1126
▁प्यायला	1126
▁प्रकाशात	1126
▁साक्षात	1126
▁हौस	1126
कोर	1125
छाड	1125
▁कारणासाठी	1125
▁कीर्ती	1125
▁गणरा	1125
▁पक्के	1125
▁प्रॅक्ट	1125
▁फसवणुकी	1125
▁महाराजांना	1125
▁रस्त्याची	1125
▁शाई	1125
▁संरक्षित	1125
फट	1124
्याबद्दल	1124
▁ऑफिसर	1124
▁खंडपीठ	1124
▁गोंड	1124
▁निवडला	1124
▁सॅमसंग	1124
▁स्वतःसाठी	1124
जाम	1123
डके	1123
मानंद	1123
▁जोडीदार	1123
▁बारकाईने	1123
▁राजाला	1123
▁विव	1123
▁सामान्यतः	1123
▁सेवानिवृत्त	1123
ens	1122
खळ	1122
माश	1122
▁अखत्या	1122
▁असणा	1122
▁उड्या	1122
▁कर्नल	1122
▁गोष्टीत	1122
▁टिप्स	1122
▁पिकांची	1122
▁सिन्नर	1122
▁हिमाचल	1122
गामी	1121
▁share	1121
▁अद्भुत	1121
▁आणा	1121
▁कॉर्नर	1121
▁चिका	1121
▁पूर्ववत	1121
▁बोले	1121
▁विभ	1121
▁श्वेता	1121
▁सुरक्षेच्या	1121
झार	1120
▁can	1120
▁त्याकाळी	1120
▁दर्जाची	1120
▁दीर्घकाळ	1120
▁धुक	1120
▁प्रतिष्ठित	1120
▁बनवू	1120
▁मथ	1120
▁मिठी	1120
▁विहार	1120
बिया	1119
▁अर्चना	1119
▁अस्पृश्य	1119
▁उडीद	1119
▁गावचे	1119
▁ठेवायचे	1119
▁धारदार	1119
▁लॉटरी	1119
▁वाहू	1119
▁सुभे	1119
▁सुरेंद्र	1119
केश	1118
शास्त्रीय	1118
▁तटस्थ	1118
▁सेलिब्रिटी	1118
▁सोडलं	1118
▁अभ्यासा	1117
▁एम्	1117
▁कोसळले	1117
▁टॅग	1117
▁ठपका	1117
▁ड्रॉ	1117
▁दुम	1117
▁प्रतिसा	1117
▁वारक	1117
▁सद्गुरू	1117
▁स्फुर	1117
गावा	1116
भारत	1116
संगत	1116
स्तो	1116
स्पी	1116
ोषित	1116
▁गझ	1116
▁नॅप	1116
▁पहावयास	1116
▁लग्नात	1116
▁सर्वसामान्यांना	1116
डगाव	1115
धीन	1115
पूर्ती	1115
सट	1115
सारखाच	1115
्यांवरून	1115
▁उलटून	1115
▁करणारं	1115
▁खडे	1115
▁जयललिता	1115
▁जाणिव	1115
▁देवळा	1115
▁पाटणकर	1115
▁पेटवून	1115
▁मेहन	1115
ary	1114
ख्यात	1114
ग्ध	1114
▁84	1114
▁आग्रहा	1114
▁कुच	1114
उतार	1113
चित्रे	1113
पुरती	1113
रेटर	1113
ल्यांना	1113
ोसिस	1113
▁अपेक्ष	1113
▁चाहूल	1113
▁प्रसंगा	1113
▁भूसंपादन	1113
▁रंगात	1113
कांपासून	1112
निधी	1112
विलेली	1112
▁अडकलेल्या	1112
▁इंज	1112
▁उघड्यावर	1112
▁घड्याळ	1112
▁फोल	1112
▁मृत्युमुखी	1112
▁शाळेची	1112
काळा	1111
्यून	1111
्विक	1111
▁ऑर्	1111
▁कथानक	1111
▁नापास	1111
▁नामकरण	1111
▁पाहिल्या	1111
▁भरात	1111
▁मुका	1111
▁वगळून	1111
▁वही	1111
▁विजेत्या	1111
▁विरार	1111
▁शिवारात	1111
मार्ट	1110
ियत	1110
▁अडवून	1110
▁ऑब्जेक्ट	1110
▁खुणा	1110
▁जगता	1110
▁ठाकरेंनी	1110
▁दर्शवली	1110
▁प्रकारा	1110
▁बाबींचा	1110
▁मोलाची	1110
▁राजपूत	1110
▁शैलीत	1110
▁१५००	1110
झड	1109
नच्या	1109
भोर	1109
वरचे	1109
सैनिक	1109
ांनंतर	1109
▁अनुकरण	1109
▁एनर्जी	1109
▁घेणारी	1109
▁छाननी	1109
▁लॉग	1109
▁शानदार	1109
▁शेतकऱ्यांसाठी	1109
▁हसून	1109
स्की	1108
▁असाव्यात	1108
▁आरोपींनी	1108
▁इथले	1108
▁खिश	1108
▁गुहे	1108
▁जवाहरलाल	1108
▁दोघं	1108
▁नराध	1108
▁पदाधिकाऱ्यांनी	1108
▁परीक्षेच्या	1108
▁फेरीवाल्या	1108
▁माणसांची	1108
▁विचारांचे	1108
▁सोसायटीच्या	1108
▁स्टाफ	1108
▁अडकले	1107
▁कॉन्फरन्स	1107
▁गटविकास	1107
▁टॅट	1107
▁भाषेच्या	1107
▁मुंबईचे	1107
▁युन	1107
▁लढाऊ	1107
▁शुभम	1107
▁स्टँड	1107
द्रव्य	1106
शिया	1106
▁जवळीक	1106
▁धरा	1106
▁पोलि	1106
▁बांधिलकी	1106
▁भांड्यात	1106
▁भूमिपूजन	1106
▁याच्यावर	1106
▁विजेत	1106
▁समजल्या	1106
▁हवेली	1106
पातळी	1105
र्के	1105
लेखा	1105
▁उदरनिर्	1105
▁ओल्या	1105
▁याद्वारे	1105
▁राणा	1105
▁सामा	1105
▁सुटले	1105
▁इंडी	1104
▁एकाकी	1104
▁कोणताच	1104
▁चिखली	1104
▁तेलाच्या	1104
▁दुरूस्ती	1104
▁धू	1104
▁प्रख्यात	1104
▁बँकांनी	1104
▁ब्रॉड	1104
▁मनसोक्त	1104
,7	1103
कासह	1103
बॅक	1103
मॅ	1103
विणारा	1103
▁उष्णता	1103
▁टॉमने	1103
▁ठरविण्यात	1103
▁बिनधास्त	1103
▁वाढीस	1103
▁व्यथा	1103
▁अवधी	1102
▁कपाळावर	1102
▁बोक	1102
▁यादरम्यान	1102
मुली	1101
वापर	1101
िकरण	1101
्युब	1101
▁98	1101
▁आकड	1101
▁जोडली	1101
▁पक्की	1101
▁लोखंडे	1101
▁वेळच्या	1101
▁सदस्यांच्या	1101
▁सराफ	1101
▁सहानुभूती	1101
▁०७	1101
सित	1100
▁चौकशीत	1100
▁जणांवर	1100
▁झळा	1100
▁झालीच	1100
▁डोळ्यांनी	1100
▁वंदना	1100
▁सँड	1100
▁हिटलर	1100
ऱ्यांवर	1099
ल्डर	1099
संब	1099
▁घरं	1099
▁मनु	1099
▁मूठ	1099
▁मेण	1099
▁यालाच	1099
▁सेनापती	1099
लाम	1098
९९	1098
▁गजब	1098
▁गुढीपाड	1098
▁दिसणारे	1098
▁पॅनेल	1098
▁महाराजांची	1098
▁मौल्यवान	1098
▁यानी	1098
▁रजिस्टर	1098
▁रहदारी	1098
▁व्याजा	1098
▁शुक्रा	1098
मुद्र	1097
▁ओले	1097
▁दरोडेखोर	1097
▁प्रात्यक्षिक	1097
▁भेटीत	1097
▁सावित्री	1097
देवता	1096
ांबरोबरच	1096
ूर्ती	1096
▁अपय	1096
▁ओसा	1096
▁क्षेत्राला	1096
▁चिमुर	1096
▁तिमाही	1096
▁दशक	1096
▁नागपुर	1096
▁बघताना	1096
▁माथे	1096
▁संप्रे	1096
▁स्वप्	1096
int	1095
पेठ	1095
ारकर	1095
्रेन	1095
▁आमच्यावर	1095
▁कळणार	1095
▁कार्यपद्धती	1095
▁गेल्यामुळे	1095
▁झाकून	1095
▁मिळवणे	1095
▁रेटिंग	1095
▁शेतीचे	1095
▁समर्	1095
▁साडेसात	1095
ूचा	1094
▁87	1094
▁आदित्यनाथ	1094
▁ऑक्टोबरला	1094
▁कौशल	1094
▁जख	1094
▁डेफिनेशन	1094
▁तूट	1094
▁फ्लिपकार्ट	1094
▁वाचनात	1094
▁संसर्ग	1094
ण्याज	1093
पेच	1093
ुख	1093
▁आरोग्याच्या	1093
▁खोट	1093
▁बाधित	1093
▁मस्ती	1093
▁वर्षांसाठी	1093
केश्वर	1092
मधलं	1092
▁sc	1092
▁कांदे	1092
▁कोणालाच	1092
▁चेंडूत	1092
▁पिकांना	1092
▁पुढीलप्रमाणे	1092
▁रेषे	1092
▁लायब्र	1092
ite	1091
घातक	1091
चायला	1091
▁उत्पन्नात	1091
▁कंपन्यांची	1091
▁खड्डा	1091
▁चॅलेंज	1091
▁जिरे	1091
▁ताजी	1091
▁नसाय	1091
▁मोलाचे	1091
▁म्युझिक	1091
▁लखनौ	1091
▁विचारवंता	1091
13	1090
क्षमता	1090
बांधव	1090
▁एकत्रितपणे	1090
▁एशिया	1090
▁कळून	1090
▁चौकातील	1090
▁नियामक	1090
▁नेटवर्किंग	1090
▁पदाची	1090
▁बॅंकेत	1090
▁सपाट	1090
▁सुनि	1090
▁dis	1089
▁गावठी	1089
▁त्यावेळेस	1089
▁देवगड	1089
▁धबधबा	1089
▁पाळण्यात	1089
▁वांगी	1089
▁सूरज	1089
▁स्वयंचलित	1089
क्षेत्रा	1088
▁im	1088
▁गगन	1088
▁घरासमोर	1088
▁डिस्क	1088
▁तहसिल	1088
▁दुजोरा	1088
▁मस	1088
▁वुड	1088
▁वृद्धी	1088
▁हया	1088
ult	1087
द्दी	1087
मने	1087
▁अध्ययन	1087
▁आयुष्याची	1087
▁एल्गार	1087
▁जबाबदा	1087
▁धक्क	1087
▁बघितली	1087
▁बालकल्याण	1087
▁शब्	1087
डीतून	1086
तूनच	1086
▁इंगळे	1086
▁एकांक	1086
▁कुसुमाग्रज	1086
▁खजिना	1086
▁त्यादिवशी	1086
▁बनतो	1086
▁राजवटी	1086
▁लागणे	1086
▁वर्षातून	1086
▁स्वतःवर	1086
od	1085
स्तव	1085
्ण	1085
▁आर्मी	1085
▁कत्तल	1085
▁कर्क	1085
▁जबाब	1085
▁डेअरी	1085
▁ढासळ	1085
▁निर्णयाचा	1085
▁निशाणा	1085
▁पद्मश्री	1085
▁पोचली	1085
▁लाइव्ह	1085
▁वडिलांचे	1085
▁सुधारण्यासाठी	1085
ंगल	1084
ंत्री	1084
त्याचा	1084
देकर	1084
ॉर्ड	1084
▁ag	1084
▁इंग्लंडच्या	1084
▁तपासा	1084
▁दगडू	1084
▁फ्लो	1084
▁बसते	1084
▁मित्रांनी	1084
▁शौर्य	1084
▁०४	1084
खानी	1083
व्याची	1083
ोले	1083
▁आईवड	1083
▁झलक	1083
▁पाठक	1083
▁पुराव	1083
▁पुरुषोत्तम	1083
▁प्रवाशांच्या	1083
▁मल्	1083
▁मुंबईमध्ये	1083
▁लहानपणा	1083
▁वर्षाव	1083
▁समोरासमोर	1083
▁सशक्त	1083
14	1082
ous	1082
घल	1082
ड्याची	1082
ढं	1082
त्वाचे	1082
विनायक	1082
ाजिक	1082
▁आपुलकी	1082
▁आव्हानात्मक	1082
▁गृहित	1082
▁जुलैला	1082
▁डोळ्यांसमोर	1082
▁थकवा	1082
▁दिल्याबद्दल	1082
▁दैवत	1082
▁निर्ण	1082
▁नोटाबंदीच्या	1082
▁फेस्टिव्हल	1082
▁बॅनर	1082
▁मोक्ष	1082
▁अर्जु	1081
▁कांचन	1081
▁ढो	1081
▁दस	1081
▁दाखवू	1081
▁नाटके	1081
▁नानासाहेब	1081
▁पक्षांची	1081
▁परिषदेला	1081
▁पैल	1081
▁फर्निचर	1081
▁बसण्याची	1081
▁संमेलनाचे	1081
▁८३	1081
इड	1080
ग्रहण	1080
प्रमाणात	1080
्यापर्यंत	1080
▁अग्निशामक	1080
▁गोव	1080
▁तुंब	1080
▁न्यायालयाचा	1080
▁योजनेला	1080
▁रामेश्वर	1080
▁वीजनिर्मिती	1080
▁व्याधी	1080
▁शहरासह	1080
जींनी	1079
▁कार्याचा	1079
▁झालाच	1079
▁तहकूब	1079
▁दिवसीय	1079
▁वरुण	1079
▁सांगायची	1079
▁हिंदीत	1079
नेशन	1078
मूर्ती	1078
लेन	1078
ष्मा	1078
▁your	1078
▁आणतात	1078
▁ओतून	1078
▁घालण्याची	1078
▁चैत्र	1078
▁बसवले	1078
▁महिन्यांचा	1078
oo	1077
वाचून	1077
षिक	1077
▁औपचारिक	1077
▁छत्र	1077
▁मल्हार	1077
▁मोटर्स	1077
▁वेंगु	1077
पीठा	1076
यरोग	1076
संमेल	1076
▁800	1076
▁कॅलिफोर्निया	1076
▁चार्ज	1076
▁पाणलोट	1076
▁बेशुद्ध	1076
▁मानलं	1076
▁शांता	1076
▁शिल्पकार	1076
▁हिंसाचारा	1076
16	1075
िकेचे	1075
▁गृहिणी	1075
▁पत्रकारिता	1075
▁पुनरावृत्ती	1075
▁माड	1075
▁विधवा	1075
▁शैलेश	1075
▁संमेलनात	1075
गुडे	1074
र्ला	1074
▁एखाद	1074
▁कलाकारांनी	1074
▁कळतं	1074
▁काँग्रेसचा	1074
▁गति	1074
▁जीर्ण	1074
▁जीवनावर	1074
▁झोपड	1074
▁निरनिरा	1074
▁पन	1074
▁फाई	1074
▁लीला	1074
▁सोसाय	1074
▁सौदा	1074
▁स्थापत्य	1074
▁आईचा	1073
▁उख	1073
▁क्वि	1073
▁तिथेही	1073
▁दूरसंचार	1073
▁प्रशंसा	1073
▁भगवा	1073
▁भुक	1073
▁मित्राला	1073
▁शोधणे	1073
▁सुरेखा	1073
वाटप	1072
वृद्ध	1072
▁आॅगस्ट	1072
▁इंडस्ट्रीज	1072
▁डिस्	1072
▁देण	1072
▁नार्वेकर	1072
▁प्लान	1072
▁संपून	1072
▁सभ्य	1072
ण्याकडे	1071
संगीत	1071
▁अधिकार्यांच्या	1071
▁छिंद	1071
▁छेद	1071
▁त्वरीत	1071
▁दहावीच्या	1071
▁द्	1071
▁नदीवर	1071
▁पंढ	1071
▁फवार	1071
aw	1070
▁that	1070
▁अज्ञान	1070
▁अडवाणी	1070
▁आत्मविश्	1070
▁कॉम्प	1070
▁कोसळून	1070
▁पेडणे	1070
▁प्रकर्षाने	1070
▁बेन	1070
▁मिथुन	1070
▁यासारखे	1070
▁विखुर	1070
▁सविता	1070
▁सावधान	1070
▁हेतु	1070
वादाची	1069
▁आजतागायत	1069
▁आदिल	1069
▁उद्देशून	1069
▁चित्रं	1069
▁जोति	1069
▁टिप्पणी	1069
▁फ्रे	1069
▁भूम	1069
▁वक्तव	1069
▁वृद्धा	1069
▁स्वावल	1069
▁हुर	1069
oc	1068
मोहन	1068
संस्थ	1068
▁अभिमानाने	1068
▁खेळू	1068
▁ग्रामस्थांना	1068
▁जगाचा	1068
▁डांबरी	1068
▁लेह	1068
वेष	1067
श्वास	1067
▁breaking	1067
▁अवनी	1067
▁आल्यापासून	1067
▁गायिका	1067
▁झेंडे	1067
▁तपशीलवार	1067
▁प्रार	1067
▁फरकाने	1067
▁बुडवून	1067
▁भाजपवर	1067
▁भीक	1067
▁मंदिराचा	1067
▁राधिका	1067
▁शिवलिंग	1067
ड्याचे	1066
दीत	1066
ब्ल	1066
लाद	1066
वासिया	1066
िनि	1066
▁अल्ला	1066
▁असामान्य	1066
▁आकाशवाणी	1066
▁आदींचा	1066
▁उमटले	1066
▁काऊ	1066
▁कायमचे	1066
▁चॅम्पियन	1066
▁नाईट	1066
▁नोक	1066
▁पीडि	1066
▁प्रता	1066
▁प्रमोशन	1066
▁मंत्रिमंडळात	1066
▁राजर्षी	1066
धिकाऱ	1065
▁76	1065
▁आरोपपत्र	1065
▁गांधींच्या	1065
▁चढवला	1065
▁दिवसाचे	1065
▁पिकांच्या	1065
▁लंकेश	1065
▁हृदयविक	1065
यात्रे	1064
▁क्वचितच	1064
▁जां	1064
▁टक्क्यांवर	1064
▁निवडू	1064
▁फटक	1064
▁लावलेले	1064
▁विचारांच्या	1064
▁९३	1064
पीए	1063
प्ले	1063
ोग्रॅम	1063
▁उधाण	1063
▁कुटुंबाची	1063
▁खालाव	1063
▁परवडणारे	1063
▁पार्टीचे	1063
▁फॅन	1063
▁मग्न	1063
▁मुलांवर	1063
▁निज	1062
▁निरिक्ष	1062
▁फायबर	1062
▁रॉक	1062
▁वंशज	1062
गू	1061
पंच	1061
संपन्न	1061
▁94	1061
▁अण्णासाहेब	1061
▁उत्पादनांची	1061
▁पाणीपट्टी	1061
▁युध्द	1061
▁रहायला	1061
▁राबवण्यात	1061
▁विवाहित	1061
ण्	1060
▁धूम	1060
▁नोंदविला	1060
▁परतीच्या	1060
▁पिस्तूल	1060
▁मल्टी	1060
▁रिया	1060
ial	1059
▁अवांतर	1059
▁ऐनवेळी	1059
▁जाळ्यात	1059
▁टाकावे	1059
▁तिरु	1059
▁तृप्ती	1059
▁मॉडे	1059
▁येथेही	1059
▁लावल्या	1059
▁हिल	1059
▁१९८०	1059
जोड	1058
विर	1058
्युनि	1058
▁अज्ञा	1058
▁निळा	1058
▁पदाधिकार्यांनी	1058
▁बनवण्यात	1058
▁माकड	1058
▁येवला	1058
▁शक्तिशाली	1058
धित	1057
शाल	1057
ोम	1057
▁अग्रेसर	1057
▁असायचं	1057
▁अस्त	1057
▁ऋतू	1057
▁गिर्यारो	1057
▁चालणाऱ्या	1057
▁टेलिव्ह	1057
▁नातू	1057
▁नोंदणीकृत	1057
▁पाद	1057
▁युरो	1057
▁संयोजक	1057
▁स्तोत्र	1057
ंकी	1056
हिंद	1056
▁उपाशी	1056
▁गणपतीची	1056
▁चोप्रा	1056
▁टप्प्यातील	1056
▁दाऊद	1056
▁धमक	1056
▁निर्णयाचे	1056
▁बॅंकेने	1056
▁सरो	1056
बाळ	1055
मानं	1055
▁क्यू	1055
▁नसलेली	1055
▁भिंग	1055
▁मंडल	1055
▁विसर्ग	1055
▁श्रोत	1055
नस	1054
▁per	1054
▁काशिनाथ	1054
▁निवडणुकांमध्ये	1054
▁पाते	1054
▁पायात	1054
▁मुक्तता	1054
▁लोकसंख्येच्या	1054
▁व्हिसा	1054
▁सोडणार	1054
कराव	1053
ांगणात	1053
ृत्व	1053
▁खोळ	1053
▁छोटासा	1053
▁टपाल	1053
▁दिसतोय	1053
▁पंढर	1053
▁भुयारी	1053
▁विळ	1053
▁सर्दी	1053
▁साळ	1053
▁सुशो	1053
▁स्मित	1053
▁हायकोर्ट	1053
एसटी	1052
ितांना	1052
▁आंध्रप्रदेश	1052
▁कॅबिनेट	1052
▁केळ	1052
▁चष्मा	1052
▁जेजुरी	1052
▁ठेवायचा	1052
▁भागामध्ये	1052
▁भेटवस्तू	1052
▁वसति	1052
▁शस्त्रक्रिये	1052
पणात	1051
ल्लू	1051
सभेत	1051
▁आपल्यासमोर	1051
▁खुनाचा	1051
▁गटार	1051
▁चीनला	1051
▁ठेवायची	1051
▁मूल्यमापन	1051
माव	1050
यश	1050
▁एकाचवेळी	1050
▁कर्जे	1050
▁कहा	1050
▁ठरावीक	1050
▁निर्मला	1050
▁मारण्याचा	1050
▁वाळवंट	1050
,2	1049
वटा	1049
▁ko	1049
▁इंग्रजांनी	1049
▁ऑडिट	1049
▁क्रॉ	1049
▁खरेदीदार	1049
▁देवीची	1049
▁पहि	1049
▁बेदम	1049
▁भाषांत	1049
▁शाल	1049
▁हार्ट	1049
ईकर	1048
पर्य	1048
ावीस	1048
▁आठवड्यातून	1048
▁इंजिनिअर	1048
▁कर्मचार्यांच्या	1048
▁कुकर	1048
▁कौतुकास्पद	1048
▁चिरंजीव	1048
▁तूच	1048
▁तेजीत	1048
▁पत्रकारांनी	1048
▁परिचार	1048
▁बेमुदत	1048
▁वसतिगृह	1048
▁सुरक्षितता	1048
बळी	1047
ळस	1047
▁अर्थव्यव	1047
▁आश्चर्यकारक	1047
▁औरंगजे	1047
▁गुजरातच्या	1047
▁जमे	1047
▁पिवळा	1047
▁प्रसा	1047
▁मर्यादे	1047
केच्या	1046
▁एखाद्याला	1046
▁कामानिमित्त	1046
▁कालच्या	1046
▁घराला	1046
▁रावते	1046
▁शशांक	1046
▁सवालही	1046
खेडा	1045
▁अाता	1045
▁आकांक्षा	1045
▁आम्ह	1045
▁जन्मठे	1045
▁मण	1045
▁मध्यस्थी	1045
▁मृतदे	1045
▁लग्नाची	1045
दंडा	1044
ल्पा	1044
▁अहिल्या	1044
▁काढतो	1044
▁खाम	1044
▁चॅनल	1044
▁छोटय़ा	1044
▁देखरेख	1044
▁द्यावेत	1044
▁नदीचे	1044
▁नाणी	1044
▁पत्नीने	1044
▁भाविकांची	1044
▁मदतीची	1044
▁मराठवाड	1044
▁८१	1044
ोगे	1043
▁आठव्या	1043
▁काढणार	1043
▁काढुन	1043
▁कोरे	1043
▁ग्रंथात	1043
▁जगू	1043
▁डायरी	1043
▁दोन्हीही	1043
▁प्रयोगशाळा	1043
▁बर्याचदा	1043
▁बसस्थानक	1043
▁बोलणी	1043
▁भासत	1043
▁मधुमे	1043
▁मिलिमीटर	1043
▁सगळ्यांची	1043
खो	1042
च्य	1042
णित	1042
▁अहं	1042
▁घाडगे	1042
▁तृती	1042
▁दाखवतो	1042
▁दिना	1042
▁दुखा	1042
▁प्रस्तावाला	1042
▁भैरव	1042
▁लुक	1042
▁वृत्तपत्रा	1042
ight	1041
ंत्रा	1041
्युटी	1041
▁जमावाने	1041
▁दिल्याची	1041
▁मंदार	1041
▁लष्कराच्या	1041
▁वाटचाली	1041
▁संपूर्णपणे	1041
▁सुव्यवस्थे	1041
▁हातातील	1041
साठा	1040
▁so	1040
▁करावीत	1040
▁कसाब	1040
▁केलेत	1040
▁जयघोष	1040
▁जिल्ह्यांमध्ये	1040
▁जीवावर	1040
▁डिसोझा	1040
▁निर्वास	1040
▁पशुसंवर्धन	1040
▁प्रग	1040
▁भूजल	1040
▁महासंघाचे	1040
▁शुगर	1040
मेळ	1039
सकट	1039
▁facebook	1039
▁इथेही	1039
▁किराणा	1039
▁कुणाचे	1039
▁खेचून	1039
▁गुजरातमधील	1039
▁चटकन	1039
▁दैवी	1039
▁फ्रेश	1039
▁बैठ	1039
▁भरावा	1039
▁वनडे	1039
▁वागत	1039
▁हाकल	1039
पीएससी	1038
मदार	1038
▁अधिक्षक	1038
▁करावयाची	1038
▁कोतकर	1038
▁खिचडी	1038
▁तमाशा	1038
▁निराधार	1038
▁फोटोग्राफी	1038
▁मगर	1038
▁यांच्यासमोर	1038
▁रंगमंचा	1038
▁लावण्याचे	1038
▁लिहिल्या	1038
▁वांद्रे	1038
चंही	1037
दून	1037
न्द	1037
लेशन	1037
▁अकाली	1037
▁असेन	1037
▁आणणार	1037
▁घनदाट	1037
▁माझ्याकडून	1037
▁मालकीच्या	1037
▁यार्ड	1037
▁रेस	1037
▁विचारांना	1037
गडाच्या	1036
जोर	1036
ट्टे	1036
फाड	1036
बडे	1036
बद	1036
्रीक	1036
▁whatsapp	1036
▁कर्मचाऱ्यांची	1036
▁कारणांनी	1036
▁कोश	1036
▁घोषण	1036
▁पिच	1036
▁बॅंका	1036
▁रिटेल	1036
▁लपवून	1036
▁संरक्ष	1036
▁सीएस	1036
▁स्पर्धक	1036
गरे	1035
ग्स	1035
▁120	1035
▁कलिंग	1035
▁ज्यांचा	1035
▁तिन	1035
▁प्रवेशासाठी	1035
▁महापुरुष	1035
▁विधाने	1035
▁शारदा	1035
ण्याआधी	1034
्वि	1034
▁आमंत्रित	1034
▁गुढी	1034
▁चर्चिल	1034
▁छापून	1034
▁नजरेस	1034
▁राजाच्या	1034
▁संस्कृतीत	1034
he	1033
ics	1033
दत	1033
▁अनावरण	1033
▁अवा	1033
▁आणीबाणी	1033
▁आप्	1033
▁धन्य	1033
▁पत्रव्यवहार	1033
▁परतून	1033
▁मशा	1033
▁मिमी	1033
▁वाटायचे	1033
▁सप्ता	1033
▁हिंदुत्ववादी	1033
▁हिंदुस्थानी	1033
ph	1032
स्फो	1032
िंक	1032
▁आरबीआय	1032
▁कल्पक	1032
▁पाला	1032
▁बांधलेले	1032
▁मनसेच्या	1032
▁महाभारत	1032
▁युनिव्हर्सिटी	1032
करणी	1031
प्राय	1031
्तानं	1031
▁ऋतु	1031
▁गोष्टीला	1031
▁निकट	1031
▁सुरूवातीला	1031
▁स्थळी	1031
वटी	1030
वाखाली	1030
▁आगे	1030
▁इतिहासा	1030
▁एकेरी	1030
▁कढी	1030
▁गतिमान	1030
▁घाव	1030
▁टिव्ही	1030
▁मल्ल	1030
▁मिळवा	1030
▁रक्षक	1030
▁लढाईत	1030
गडावर	1029
▁आधारभूत	1029
▁किनाऱ्यावर	1029
▁कोणकोण	1029
▁ग्राह्य	1029
▁नरेश	1029
▁निवडणुकांच्या	1029
▁मोठमोठ्या	1029
▁शेतमज	1029
▁सुने	1029
,	1028
25	1028
केला	1028
गंड	1028
▁इतकाच	1028
▁उघडी	1028
▁उन्हाळा	1028
▁कामांचा	1028
▁जावई	1028
▁तिथी	1028
▁पनीर	1028
▁बॅंकेचे	1028
▁महामंडळाने	1028
▁रुग्णालयातील	1028
▁समोरील	1028
▁सुसंगत	1028
ड्याला	1027
नांचे	1027
बाबदार	1027
लीचा	1027
ोळा	1027
▁1000	1027
▁ro	1027
▁एनडीए	1027
▁नक्षलवादी	1027
▁बने	1027
▁बाळंत	1027
▁सरांनी	1027
▁सीबीआयने	1027
▁१९९८	1027
कर्त्या	1026
मधुन	1026
ोदा	1026
▁ओळखत	1026
▁किंमतीत	1026
▁टेलि	1026
▁देऊळ	1026
▁नियंत्रणासाठी	1026
▁निसट	1026
▁प्लेअर	1026
▁विषाणू	1026
▁सरकत	1026
▁सशस्त्र	1026
्यांबाबत	1025
▁काकासाहेब	1025
▁तह	1025
▁रक्तदान	1025
▁रेंज	1025
▁वसु	1025
▁वस्तूंची	1025
▁हाफ	1025
पाड	1024
बॅ	1024
िकेला	1024
ुक्त	1024
▁कामास	1024
▁घराचा	1024
▁निराकरण	1024
▁पाश्च	1024
▁पोलिसांवर	1024
▁बरखास्त	1024
▁बाळगून	1024
▁भोपाळ	1024
▁महर्षी	1024
▁शंकरराव	1024
tic	1023
दरी	1023
▁घनकचरा	1023
▁त्याबरोबर	1023
▁दुः	1023
▁दुधाचे	1023
▁नास्तिक	1023
▁नुसतं	1023
▁प्रायव्हेट	1023
▁भावात	1023
▁हव्यात	1023
▁हॉट	1023
ug	1022
निर	1022
▁उत्पादकांना	1022
▁जेवणात	1022
▁धंदे	1022
▁प्रयत्	1022
▁प्रॉपर्टी	1022
▁फुटेज	1022
▁बनसोडे	1022
▁शुभ्र	1022
▁सुरक्षेसाठी	1022
40	1021
हम	1021
ॉग	1021
▁आजाराने	1021
▁आविष्कार	1021
▁कडी	1021
▁जागेची	1021
▁टाकण्यासाठी	1021
▁पारदर्शकता	1021
▁बसने	1021
▁बोस	1021
▁विवे	1021
▁सर्वकाही	1021
▁सह्या	1021
च्छे	1020
▁नातव	1020
▁निघतो	1020
▁पध्दती	1020
▁पार्शवी	1020
▁फळी	1020
▁बृह	1020
▁शेजारील	1020
▁स्वे	1020
दिवे	1019
मोल	1019
हाण	1019
२७	1019
▁कासव	1019
▁ठाव	1019
▁दिसणारा	1019
▁फुल्ल	1019
▁शेतमाल	1019
▁समलैंगिक	1019
▁साह्याने	1019
इतके	1018
दुर्	1018
म्र	1018
वंशी	1018
शब्द	1018
▁em	1018
▁उद्योगांना	1018
▁एमएम	1018
▁कारखान्यांनी	1018
▁कोसळली	1018
▁ट्रॅफिक	1018
▁माहेरी	1018
▁लॉन्च	1018
▁शशी	1018
कती	1017
च्ची	1017
भवन	1017
व्र्ह	1017
ुजी	1017
▁अपघाताची	1017
▁अरुंद	1017
▁कोपरगाव	1017
▁खटले	1017
▁गंगे	1017
▁गोपाल	1017
▁जाल	1017
▁ट्रान्	1017
▁नैराश्य	1017
▁मराठीच्या	1017
विलेला	1016
ारायण	1016
्य़	1016
▁अंघोळ	1016
▁अनेकांची	1016
▁अवध	1016
▁आयडिया	1016
▁उभारण्यासाठी	1016
▁कॅमेर	1016
▁जीवनाच्या	1016
▁फास्ट	1016
▁बेसिक	1016
▁राज्यसभेत	1016
प्रक्रिया	1015
सायकल	1015
▁अटल	1015
▁उत्पादकता	1015
▁उरले	1015
▁करावयाचे	1015
▁चाललेली	1015
▁चेंबर	1015
▁देशातून	1015
▁रुग्णाला	1015
▁विविधता	1015
लातून	1014
विक्री	1014
्यांनाही	1014
्रीया	1014
▁अनिश्चित	1014
▁उचला	1014
▁कोरीव	1014
▁खाडे	1014
▁जीवनस	1014
▁नोंदवून	1014
▁भावनेने	1014
▁लावलेला	1014
▁विमानात	1014
▁शेतीची	1014
orn	1013
आपल्या	1013
शनल	1013
्युटर	1013
▁res	1013
▁अणू	1013
▁अफलातून	1013
▁अमृ	1013
▁आमदारांना	1013
▁एकटाच	1013
▁एज	1013
▁जूनला	1013
▁ज्ञात	1013
▁तरुणाला	1013
▁दृश	1013
▁पडल्यावर	1013
▁प्रदर्शनात	1013
▁बाबांच्या	1013
▁वावरत	1013
▁संक्षिप्त	1013
▁सेमी	1013
डील	1012
प्शन	1012
▁अकरावी	1012
▁अनुष्का	1012
▁आहेः	1012
▁उरला	1012
▁केरळमध्ये	1012
▁गायत्री	1012
▁झाल्याशिवाय	1012
▁पंढरी	1012
▁पावला	1012
▁रुळ	1012
▁लॉक	1012
▁सूचक	1012
▁स्वयंसेव	1012
▁स्वाद	1012
▁१२५	1012
मिंग	1011
सम्राट	1011
▁अग्रगण्य	1011
▁आतमध्ये	1011
▁ट्यूब	1011
▁थांबवून	1011
▁निवेदना	1011
▁पदभार	1011
▁पोळ	1011
▁प्रदक्षिणा	1011
▁प्राप्तिकर	1011
▁बटर	1011
▁यांसह	1011
▁सेक	1011
चाट	1010
भो	1010
▁83	1010
▁आंबट	1010
▁उपमा	1010
▁खटल्या	1010
▁तेवढीच	1010
▁देखावा	1010
▁पाहणाऱ्या	1010
▁पोकळ	1010
▁प्रहार	1010
▁विभागामार्फत	1010
▁उगाचच	1009
▁गोळ	1009
▁जंगली	1009
▁मील	1009
▁मुहूर्तावर	1009
▁लेखणी	1009
▁शूर	1009
▁सरकारमध्ये	1009
आपण	1008
पर्यंतचे	1008
प्रदर्शन	1008
स्ड	1008
िक्ट	1008
▁अंकांनी	1008
▁आंदोलक	1008
▁प्रथि	1008
▁प्रशासक	1008
▁बोंडअ	1008
▁मित्राच्या	1008
▁रंगभूमीवर	1008
▁रित	1008
▁लोणावळा	1008
▁साख	1008
▁स्ट्रॉ	1008
कांड	1007
वेळे	1007
ेश्वरी	1007
▁कुणालाच	1007
▁गाडीच्या	1007
▁ट्रॉ	1007
▁त्यांच्यासमोर	1007
▁बदलण्याची	1007
▁मतदानाचा	1007
▁म्हणणार	1007
▁रडू	1007
▁संगोपन	1007
▁संस्थेचा	1007
▁सारेच	1007
▁हब	1007
▁अनुभवा	1006
▁पडल्यास	1006
▁मानांकित	1006
▁यापूर्वीही	1006
▁राबविली	1006
▁विचारही	1006
▁वेडा	1006
▁वेडे	1006
▁साहसी	1006
र्भ	1005
▁comment	1005
▁आतुर	1005
▁कारकिर्दीत	1005
▁तुटून	1005
▁थाट	1005
▁पोचला	1005
▁माओवाद	1005
▁वादातून	1005
▁सुप	1005
ice	1004
ण्यामुळे	1004
स्थाने	1004
▁आश्	1004
▁ऑफीस	1004
▁गोव्याचे	1004
▁जागेचा	1004
▁नसणे	1004
▁फौजदार	1004
▁ब्लॉगवर	1004
▁मुंबईतल्या	1004
▁यासोबतच	1004
▁वॉच	1004
▁समजतो	1004
▁सुपूर्द	1004
करू	1003
खत	1003
च्चार	1003
पला	1003
▁करदात	1003
▁गणना	1003
▁गिळ	1003
▁निधनानंतर	1003
▁पहाट	1003
▁पाटेकर	1003
▁पाथर्डी	1003
▁बरोबरीने	1003
▁मातीचा	1003
▁मृत्यूची	1003
▁विषयाला	1003
▁हर्षवर्धन	1003
काप	1002
प्रेम	1002
लीची	1002
व्याचे	1002
▁अनिरुद्ध	1002
▁दुचाकीवरून	1002
▁भागावर	1002
▁मुकुंद	1002
▁लेखकाने	1002
▁वागा	1002
▁सूत्रधार	1002
▁हॉलमध्ये	1002
जवळच्या	1001
▁ईतर	1001
▁कमळ	1001
▁पोप	1001
▁लोंढे	1001
▁व्यक्तींची	1001
▁सणा	1001
पिक	1000
बेर	1000
शास्त्री	1000
▁अनुराधा	1000
▁अवगत	1000
▁उघडली	1000
▁कसोटीत	1000
▁खिल्ली	1000
▁परीक्षेसाठी	1000
▁बिहारी	1000
▁भंडारी	1000
▁यांच्यामध्ये	1000
▁योजनेतील	1000
कापर्यंत	999
त्यात	999
प्रत	999
रामध्ये	999
र्टी	999
शीलता	999
▁इकॉन	999
▁उडून	999
▁कालखंडात	999
▁कोंढ	999
▁दोर	999
▁नसलेला	999
▁पही	999
▁भारतासाठी	999
▁वाहिन	999
▁समित्या	999
▁सीसी	999
▁सुधारणे	999
प्रश्न	998
सिल	998
्टा	998
▁इतरांनी	998
▁कक्षेत	998
▁दाल	998
▁द्यावं	998
▁परिपत्रक	998
▁माफिया	998
▁वापरावे	998
▁विसरले	998
पुरवठ	997
यार	997
वासाने	997
शीही	997
संख	997
▁इस्लामी	997
▁उठाव	997
▁ओघात	997
▁खाल्ली	997
▁तालुक्यांत	997
▁पात्रा	997
▁पुनरावलोकने	997
▁वाजे	997
भक्ती	996
विणार्या	996
▁कुमारस्वामी	996
▁कोपऱ्यात	996
▁घटकांना	996
▁प्रचारात	996
▁मिळाल्यावर	996
▁वाईन	996
द्वार	995
लकर	995
वसु	995
▁अयशस्वी	995
▁अविस्मरणीय	995
▁आन	995
▁कोथ	995
▁खाज	995
▁ठेका	995
▁दाखविण्यात	995
▁फांद्या	995
▁फिरकी	995
▁विक्र	995
▁वेगळ्याच	995
▁सांगलीत	995
भराच्या	994
संधी	994
▁कमालीचा	994
▁गाळे	994
▁घुले	994
▁जमिनीचे	994
▁परीक्षेचा	994
▁पानी	994
▁बोललं	994
▁महामंडळा	994
▁लावलेली	994
▁समग्र	994
▁इको	993
▁उभय	993
▁काया	993
▁घ्याल	993
▁नोकरदार	993
▁प्रवासाला	993
▁होतच	993
ual	992
यांवर	992
्यातल्या	992
▁बेडरूम	992
▁मं	992
▁म्हणायची	992
▁रावण	992
▁रोह	992
▁लोकसहभाग	992
▁शरीराची	992
▁सजग	992
▁सुसज्ज	992
१०	991
▁po	991
▁अर्थी	991
▁कमानी	991
▁टेकडी	991
▁दिलेलं	991
▁धर्माची	991
▁नॉर्मल	991
▁परप्र	991
▁प्रकारामुळे	991
▁मोजणी	991
▁यावेत	991
▁राहतं	991
▁वर्गाला	991
▁षटकांत	991
गतिक	990
सरकार	990
▁82	990
▁खर्चाच्या	990
▁गर्भपात	990
▁तेवढाच	990
▁द्वार	990
▁धुमाकूळ	990
▁नफ	990
▁पाहणं	990
▁भरकट	990
▁मेगाव	990
▁रंगे	990
▁शान	990
▁सॉरी	990
आता	989
ारामध्ये	989
▁इसवी	989
▁उजवी	989
▁कालच	989
▁ग्रंथालय	989
▁घातलेला	989
▁चतुर्थ	989
▁दिवसातून	989
▁नावाज	989
▁मुलींचे	989
▁रेखाट	989
▁लाखांच्या	989
▁विली	989
▁शाप	989
▁स्वार्था	989
िकाचे	988
्टे	988
▁केडगाव	988
▁प्रत्येकाची	988
▁सबंध	988
कांसमोर	987
िको	987
▁अंबरनाथ	987
▁आचारसंहिता	987
▁ओझे	987
▁कमरे	987
▁छत्री	987
▁धात	987
▁फळं	987
्हाला	986
▁2005	986
▁उलगडा	986
▁घातलेली	986
▁घातल्या	986
▁तासांच्या	986
▁त्याकरिता	986
▁पतंगराव	986
▁परिच	986
▁लागण्याची	986
▁शिकवणी	986
▁शिवसेनेत	986
act	985
बूत	985
्मय	985
▁खजिन	985
▁गरजेनुसार	985
▁तळे	985
▁तेथ	985
▁थर्मा	985
▁निवडणुक	985
▁पांघर	985
▁पालिकेचे	985
▁भांडणे	985
▁मनपाच्या	985
▁लावतो	985
स्पद	984
▁comm	984
▁धावांवर	984
▁नियतकालिक	984
▁प्रक्षेपण	984
▁मनाचे	984
▁मानांकन	984
▁लगत	984
▁लागवडीसाठी	984
▁व्यंकट	984
▁हिरवे	984
क्रमण	983
खला	983
वर्गी	983
ेंज	983
▁खिडकीतून	983
▁गोडसे	983
▁ज्ञानेश्वरी	983
▁दरीत	983
▁निरंजन	983
▁पचन	983
▁पाश्चिम	983
▁भरभरा	983
▁मतांनी	983
▁शिंप	983
▁हद्द	983
▁हेदेखील	983
मानता	982
▁इमेल	982
▁कार्यभार	982
▁कालवा	982
▁केव्हाही	982
▁गणपतीच्या	982
▁गाजत	982
▁तेलंगणा	982
▁म्हणावा	982
▁यांच्यासारख्या	982
▁रें	982
▁विजेच्या	982
▁समकालीन	982
तीर्थ	981
नों	981
्यातच	981
▁आच	981
▁तिथले	981
▁नगरपरिषदे	981
▁निचरा	981
▁पसरलेल्या	981
▁प्रल्हाद	981
▁भुरळ	981
▁लक्ष्मीकांत	981
▁विरोधकांच्या	981
▁शम	981
▁संशया	981
▁साफसफाई	981
▁सूत	981
ence	980
वेश	980
▁उजाळा	980
▁उमेदवारांच्या	980
▁खाडी	980
▁चारशे	980
▁जॅकेट	980
▁पटकाव	980
▁पाऊण	980
▁फार्	980
▁शुध्द	980
▁शेवगाव	980
▁सत्तेच्या	980
▁सांगवी	980
लँड	979
▁ऐकली	979
▁गाडीला	979
▁जातीचा	979
▁दाखविला	979
▁बुद्धा	979
▁भरम	979
▁वर्गणी	979
▁विल्य	979
▁शहरामध्ये	979
▁सदानंद	979
▁समितीमध्ये	979
▁सामु	979
▁आखली	978
▁गुजरा	978
▁ग्ला	978
▁जीभ	978
▁ठेवण्यास	978
▁दरोडा	978
▁पाळत	978
▁फिरवून	978
▁सरकारतर्फे	978
ण्ण	977
वर्धन	977
्युट	977
▁अंबाजोगाई	977
▁आदींची	977
▁इच्छे	977
▁उठला	977
▁ऑप्शन	977
▁कुटुंबियांना	977
▁नकाश	977
▁नागेश	977
▁नाटककार	977
▁निधना	977
▁बनवा	977
▁मोडक	977
▁येइल	977
▁संस्कृतीचे	977
▁हक्काचे	977
निर्	976
ांकी	976
ोग्राफी	976
▁अजूनच	976
▁आखणी	976
▁कंदील	976
▁जगप्रसिद्ध	976
▁दुधाला	976
▁पसरला	976
▁पुरस्कृत	976
▁फॅमिली	976
▁भिक्ष	976
▁शेंगा	976
▁श्रीमंती	976
▁सदस्यत्व	976
▁सिनेमाचा	976
▁हद्दपार	976
आई	975
▁2006	975
▁आब	975
▁करूया	975
▁केअर	975
▁खातो	975
▁टाकण्याचा	975
▁नेतृ	975
▁पूनम	975
▁प्राज	975
▁सातपुते	975
▁हरिश्चंद्र	975
▁७९	975
क्टी	974
णीव	974
लीक	974
स्क्र	974
स्फोट	974
▁टाकल्या	974
▁टेबलावर	974
▁बुडून	974
▁रफी	974
▁लिहिणे	974
▁सर्प	974
नव	973
नांनी	973
नेल	973
ोजक	973
▁अनोख्या	973
▁उल्हास	973
▁एकापेक्षा	973
▁खुंट	973
▁गणपत	973
▁जितका	973
▁टर्म	973
▁पायाला	973
▁पालकांच्या	973
▁प्रफुल्ल	973
▁मर्याद	973
▁महिन्यातील	973
▁माम	973
▁मुलीशी	973
▁विम	973
▁स्पोर्ट	973
▁उद्घाटना	972
▁जणी	972
▁टंक	972
▁तासभर	972
▁पाठ्यपुस्त	972
▁विल	972
,9	971
per	971
ंक्स	971
ंतु	971
नाशी	971
न्सन	971
शेती	971
ोय	971
▁कवितेत	971
▁कारखान्याच्या	971
▁छपाई	971
▁ठाण	971
▁परांजपे	971
▁बटाटे	971
▁मंडई	971
▁रेल्वेचे	971
▁लिहितो	971
▁सिरीज	971
न्ह	970
न्हे	970
संख्ये	970
▁असह्य	970
▁कागल	970
▁डोल	970
▁पकडण्यात	970
▁पाडला	970
▁बीच	970
▁रां	970
▁रुच	970
▁शेवा	970
▁हंगामातील	970
▁हिवा	970
ans	969
अॅप	969
ण्यांची	969
विणारी	969
सुख	969
▁करारा	969
▁क्षेपणास्त्र	969
▁खोर	969
▁गव्ह	969
▁पद्धतीचे	969
▁फ्लू	969
▁मोबद	969
▁वाहतुकीसाठी	969
90	968
शो	968
▁कात्रज	968
▁कोच	968
▁छोटीशी	968
▁जगण्यासाठी	968
▁झाडांना	968
▁ट्रा	968
▁ध्व	968
▁पुनरु	968
▁पुलाचे	968
▁भाजीपा	968
▁भानु	968
▁मंत्रिमंडळाच्या	968
▁शिखरावर	968
▁संयोज	968
▁स्पॅ	968
कांमुळे	967
कॉन	967
शिष्ठ	967
▁आईवडि	967
▁एलि	967
▁जडण	967
▁जलाश	967
▁मिलियन	967
▁विकासात	967
▁सुरुवातीलाच	967
त्यावर	966
मतीने	966
सें	966
▁कायमची	966
▁घटनेचे	966
▁जाणवतो	966
▁दिसणारी	966
▁दोघांमध्ये	966
▁प्रक्रियेला	966
▁फुलांची	966
▁मंदिराची	966
▁लाभली	966
▁स्लाई	966
डीक	965
पदे	965
रक्ष	965
संस्कृती	965
्यांबद्दल	965
▁ab	965
▁इंटरेस्ट	965
▁कथेत	965
▁पाहावे	965
▁बंधने	965
▁बागल	965
▁मनातून	965
▁मित्राने	965
▁राहणं	965
▁लागल्याचे	965
▁हौशी	965
ale	964
कडचे	964
करणा	964
लीप	964
विल्यानंतर	964
▁194	964
▁act	964
[...]
