▁के	3777390
▁।	3566370
▁है	2852275
▁में	2815832
▁,	2518124
▁की	2278326
▁.	1991641
▁से	1740694
▁को	1719098
▁और	1587757
▁का	1383479
▁हैं	1060563
▁पर	1043351
▁ने	990272
▁कि	852105
▁-	837186
▁भी	830733
▁एक	707204
▁लिए	640554
▁नहीं	614075
▁कर	589673
▁इस	566242
▁ही	554264
▁तो	510136
▁हो	497821
▁यह	418586
▁किया	410964
▁था	406548
▁करने	383810
▁साथ	351608
▁गया	348474
▁)	329077
▁(	324548
▁अपने	307772
▁कहा	274715
▁जो	257413
▁बाद	256204
▁आप	243170
▁रहे	238492
▁दिया	236571
▁तक	232001
ों	231640
▁रहा	221052
▁थी	220679
▁कुछ	213883
▁हुए	208879
▁वह	208440
▁थे	203992
▁जा	203669
▁लेकिन	194997
▁या	194542
▁रही	190559
▁'	179854
▁कोई	178680
▁न	171675
▁अपनी	171098
▁ये	170946
▁किसी	170679
▁करते	169534
▁होने	166230
▁गई	166021
▁अब	164538
▁पहले	163428
▁उन्होंने	153263
▁	152803
▁बात	151828
▁वाले	151628
▁हम	148333
▁जब	146988
▁जाता	146132
▁होता	146126
▁भारत	145717
▁तरह	144225
▁सरकार	144015
▁लोगों	142642
▁बहुत	141989
▁मैं	141833
▁समय	141472
▁व	139820
▁?	139329
▁इसके	138164
▁गए	135941
ता	134855
▁दी	133315
▁आज	131538
▁सकते	131134
▁हुआ	128535
▁:	127626
▁फिर	126054
▁वे	125552
▁क्या	124430
▁दिन	123874
▁रूप	123426
▁कई	123237
▁बार	122972
▁उनके	122235
▁करना	122213
▁काम	122031
▁सभी	119915
▁दो	119788
▁सकता	118958
▁‘	117482
▁द्वारा	116978
▁देश	114895
▁आ	112912
▁इन	112799
▁आपको	110827
ना	110519
▁लोग	110280
▁साल	109101
▁पुलिस	108626
▁"	108568
▁उस	106936
▁वो	106577
▁उन्हें	106485
▁होगा	105888
▁हुई	105876
▁लेकर	105381
▁नाम	104171
▁/	102193
▁सिंह	101533
▁उसके	100650
▁सबसे	100631
▁कम	100343
▁जाने	100334
’	97995
▁!	97736
▁उसे	96905
▁हर	96224
▁करें	95645
▁होती	94425
▁घर	94388
न	94124
▁एवं	93808
ने	92578
▁अगर	91667
▁चाहिए	90546
▁फिल्म	90076
▁जी	89915
▁बताया	89395
▁तथा	88149
▁करता	86585
▁लिया	86568
▁पास	86231
▁कारण	83839
▁ले	83567
▁उनकी	82823
म	82725
ो	82693
▁ऐसे	81997
▁दोनों	80974
ः	80455
▁वाली	80019
▁दिल्ली	79220
क	79202
▁अपना	78140
▁मुझे	77857
▁बीच	77673
▁ऐसा	76502
▁जैसे	75831
▁अधिक	75583
कर	75020
स	74959
▁बारे	74136
▁ज्यादा	73960
▁शुरू	73878
▁दे	73501
▁भारतीय	72874
ल	71933
▁प्रदेश	70392
ियों	69829
ते	69797
▁दौरान	69580
▁यहां	69361
▁1	69233
s	67393
▁देने	67253
▁आपके	67168
▁लगा	67023
▁कभी	66441
▁अन्य	66355
▁जाती	66199
▁मे	66120
▁कांग्रेस	65992
ें	64767
▁पार्टी	64403
▁क्षेत्र	64355
▁इसे	64274
▁2	63684
▁ए	63634
▁मेरे	63277
▁अलग	63113
▁राज्य	62269
▁ओर	62056
▁सब	61774
▁होते	61702
▁मोदी	61003
▁इससे	60978
ली	60875
▁हमारे	60465
▁जीवन	60130
▁काफी	60005
▁क्योंकि	59785
▁तीन	59692
ं	59524
▁जानकारी	59018
▁चुनाव	58976
र	58961
ब	58778
ती	58236
▁मामले	57654
▁तब	57407
▁इसी	57218
▁वर्ष	57213
▁उसकी	56757
▁बना	56543
▁10	55925
▁नई	55720
▁ब	55707
ए	55640
▁सी	55609
▁सामने	55345
▁सकती	55334
▁इसलिए	55145
ई	54880
▁होगी	54509
नी	54490
▁पूरी	54392
▁टीम	54352
▁शामिल	54210
▁पानी	53885
▁जाएगा	53576
▁3	53302
▁अभी	52952
▁पूर्व	52915
▁जाते	52769
▁यदि	52768
a	52652
▁मैंने	52456
▁उन	52341
▁किए	52309
ला	51845
द	51808
▁आने	51748
▁कुमार	51734
िया	51658
▁आगे	51584
▁बड़ी	51272
▁%	51106
ज	50983
▁ना	50810
▁–	50804
▁श्री	50752
▁कार्य	50724
▁खिलाफ	50416
प	50363
▁अनुसार	50349
रा	50321
▁5	50078
ह	49976
▁उनका	49923
▁विकास	49675
▁बनाने	49388
▁जारी	49323
▁प्रति	49297
▁रंग	49019
▁आई	48711
▁“	48691
▁इसका	48578
या	48523
▁प्रकार	48427
▁पता	48232
▁वहीं	48208
▁इसमें	48157
री	47958
▁वाला	47934
त	47648
▁मिल	47639
ओं	47566
▁बड़े	47453
▁महिला	47246
▁दूसरे	47237
सी	46804
▁बन	46202
▁भाजपा	46198
▁प्राप्त	46160
▁मन	45969
▁करके	45915
▁मेरी	45800
▁उसने	45561
▁दुनिया	45481
▁मंत्री	45437
▁करती	45310
▁बाहर	45012
y	45001
▁2018	44774
▁व्यक्ति	44727
▁जिस	44673
▁करोड़	44608
▁प्रधानमंत्री	44459
▁क	44418
▁आदि	43895
▁कैसे	43788
जी	43715
पुर	43572
▁4	43485
ले	43414
▁परिवार	43355
▁लिये	43182
▁समाज	43163
▁उत्तर	42952
▁जिसमें	42935
▁हूँ	42912
▁हूं	42845
▁कंपनी	42628
▁पिछले	42287
▁जहां	42171
▁रुपये	42138
ू	42116
ित	42063
▁दें	41887
▁अ	41837
ट	41743
▁जाए	41698
▁दूर	41683
▁म	41674
वा	41647
▁योजना	41645
▁बता	41569
▁दिनों	41406
▁मुख्यमंत्री	41201
▁मीडिया	41196
▁अलावा	41178
▁हमें	41094
▁पूरा	41050
▁लाख	41025
▁बड़ा	40796
के	40711
▁केवल	40553
▁वजह	40464
▁वीडियो	40345
▁देते	40276
▁ऐसी	40122
▁जगह	40082
▁आया	40045
श	39982
िंग	39943
▁दिए	39929
▁गांव	39835
▁उसका	39794
▁बंद	39723
▁सिर्फ	39578
▁रात	39568
▁प	39552
ि	39523
▁खुद	39482
▁चल	39480
य	39460
er	39443
▁इस्तेमाल	39271
▁अच्छा	39250
▁हाथ	39220
▁चार	39206
का	39203
▁गयी	39179
▁अध्यक्ष	39176
ड़	39140
मा	39048
▁बच्चों	38970
एं	38832
▁in	38805
▁a	38459
▁s	38436
▁जबकि	38373
▁12	38244
▁ध्यान	38175
▁राम	38094
...	37926
िक	37915
▁जाना	37391
▁यही	37355
▁वहां	37322
व	37157
▁करीब	37132
▁विभाग	37116
▁जांच	37055
ग	36778
▁6	36775
▁भर	36746
▁रह	36724
▁कार्यक्रम	36705
i	36700
▁होना	36684
▁20	36589
▁मुख्य	36493
▁ली	36350
▁ज	36246
▁जिससे	36154
▁मदद	36134
ज़	36064
▁रहने	36062
▁15	36050
▁तैयार	36012
▁नही	35937
▁नेता	35845
▁देख	35815
▁शिक्षा	35743
▁चाहते	35726
ु	35699
▁जिसके	35672
▁बस	35659
▁जनता	35656
फ	35566
▁स	35552
▁;	35517
▁क्यों	35379
▁पहली	35269
▁बिना	35166
▁उपयोग	34862
▁देखा	34728
▁द	34722
ing	34706
▁रुपए	34698
▁हालांकि	34670
▁करेंगे	34590
▁स्थान	34579
▁आपकी	34573
▁आम	34295
▁लेने	34171
▁लगे	34055
गा	34050
▁ल	34020
▁इसकी	33930
▁शरीर	33921
ड	33895
▁सही	33884
▁बिजली	33822
o	33572
▁शहर	33548
▁मिला	33540
▁तरफ	33468
▁बैंक	33448
▁राष्ट्रीय	33292
▁hindi	33196
▁कहना	33074
▁नजर	33055
▁लगता	33051
e	32996
▁वि	32966
▁दर्ज	32924
▁जिला	32840
b	32761
▁कहते	32749
▁कोर्ट	32708
▁पांच	32643
कों	32506
इ	32466
▁पाकिस्तान	32407
▁स्थित	32280
▁मांग	32277
0	32218
▁नए	32217
▁तुम	32161
टी	32156
▁धर्म	32081
▁स्थिति	32055
▁आधार	32012
▁ह	31999
▁पी	31950
▁मंदिर	31943
▁पिता	31836
▁पूरे	31826
3	31744
c	31695
▁ई	31666
▁र	31636
▁विशेष	31595
▁राज	31481
▁मेरा	31473
▁11	31463
▁बल्कि	31359
▁”	31359
▁लगभग	31349
▁तहत	31290
4	31228
की	31141
▁त	31094
▁निर्माण	31042
▁अच्छी	30983
▁खान	30982
▁अधिकारी	30953
▁आए	30952
▁घटना	30908
▁सुबह	30828
▁आरोप	30732
▁यादव	30728
▁l	30713
▁#	30662
▁मौत	30640
▁news	30638
▁विश्व	30520
गी	30516
▁शादी	30487
▁सा	30431
▁m	30423
ओ	30378
▁जिले	30350
p	30310
▁गांधी	30274
▁]	30164
▁यहाँ	30157
▁बी	30135
d	30126
▁कोशिश	29998
▁गये	29996
▁च	29989
▁[	29943
▁मुताबिक	29939
▁लगी	29926
▁संख्या	29917
▁18	29862
ियां	29860
▁ठीक	29849
▁8	29815
▁सुरक्षा	29782
▁बच्चे	29767
▁7	29752
▁देखने	29552
▁तौर	29547
▁जिसे	29510
ै	29463
▁c	29443
▁डॉ	29431
▁खेल	29426
े	29395
▁भाई	29366
▁स्कूल	29353
▁सेवा	29310
t	29260
▁देता	29237
▁लग	29174
▁केंद्र	29166
▁मिली	29155
m	29150
सा	29150
▁ग	29137
च	29125
▁होंगे	29110
▁सवाल	29091
▁स्तर	29071
▁d	29039
▁परीक्षा	28999
▁चला	28972
▁हमारी	28861
्स	28847
रे	28799
▁रखा	28799
2	28765
▁प्रमुख	28698
▁लाभ	28634
▁महीने	28626
an	28559
▁विभिन्न	28545
▁हजार	28513
▁यात्रा	28406
़	28349
▁कहीं	28329
▁ऊपर	28315
▁भाग	27948
▁b	27911
▁फोन	27825
h	27689
1	27659
▁रिपोर्ट	27603
▁बजे	27598
▁लाल	27577
▁थीं	27523
नों	27463
▁इ	27461
▁कै	27395
▁पीछे	27388
र्स	27366
▁दूसरी	27336
▁समस्या	27191
▁कार	27157
▁रहते	27110
▁बे	27056
▁जाएगी	27050
r	26988
▁कह	26968
▁महिलाओं	26940
▁चुके	26930
से	26926
▁उसी	26852
▁विचार	26821
▁समझ	26742
▁व्यवस्था	26700
▁नगर	26651
▁बिहार	26534
al	26522
▁करे	26482
▁बढ़	26422
▁माध्यम	26397
▁रखने	26377
▁स्क्रीन	26373
▁पद	26370
▁किस	26327
▁बनाया	26318
▁t	26278
वी	26268
es	26215
6	26159
▁हाल	26112
▁उपलब्ध	26070
▁पा	26024
▁भगवान	25965
▁सरकारी	25925
▁प्रदान	25911
▁पत्र	25867
ar	25815
▁प्रतिशत	25803
▁मैच	25741
▁पत्नी	25729
▁9	25725
▁इतना	25723
▁शर्मा	25717
▁नीचे	25659
▁p	25651
▁हिंदी	25645
▁प्रयोग	25619
बी	25557
▁बैठक	25544
पी	25458
k	25407
▁हमेशा	25354
▁g	25340
▁आपका	25339
▁माना	25324
▁प्र	25317
▁जल	25315
ड़ी	25261
▁सु	25215
▁फ	25214
▁मै	25186
▁कु	25178
▁इंडिया	25175
▁*	25130
▁लिखा	25127
▁बीजेपी	25050
▁होकर	25045
▁रहता	24897
▁स्वास्थ्य	24872
8	24851
▁लगातार	24851
▁कुल	24844
▁भाषा	24792
▁30	24751
▁सके	24675
▁एस	24648
▁f	24614
f	24573
9	24511
▁बाजार	24507
ed	24403
▁जीत	24377
▁देना	24352
ड़ा	24349
u	24314
ख	24296
▁उ	24295
▁ओ	24269
▁उच्च	24251
▁16	24216
▁मौजूद	24193
7	24175
▁कहानी	24163
▁महत्वपूर्ण	24111
▁विधानसभा	24109
डी	24056
▁पसंद	24047
▁’	24032
”	23970
▁चुकी	23925
▁ट	23888
▁याद	23886
▁14	23881
▁प्रदर्शन	23830
▁जवाब	23743
▁पहुंच	23721
▁चर्चा	23720
दा	23694
▁सूचना	23665
▁the	23659
ार	23626
▁मिलने	23598
▁मुंबई	23578
▁मु	23527
ति	23505
▁चीन	23493
▁टी	23489
▁लें	23488
▁ख	23482
▁जन	23446
▁...	23445
▁चलते	23390
▁जन्म	23377
▁आवेदन	23370
▁हत्या	23355
▁हे	23319
ण	23309
g	23293
▁जरूरत	23287
▁जान	23287
मी	23219
▁देर	23219
▁राहुल	23212
▁संबंध	23197
▁किये	23127
ँ	23100
▁r	23089
5	23044
▁मौके	22922
▁to	22868
▁सहित	22862
▁सं	22830
▁मां	22829
को	22807
▁विरोध	22764
▁प्रयास	22699
▁छोटे	22660
▁पोस्ट	22596
▁पति	22545
▁डी	22533
▁कौन	22401
l	22394
▁25	22364
▁अमेरिका	22364
▁छ	22339
▁नया	22329
▁बने	22313
▁आता	22301
▁मामला	22289
▁13	22229
▁उससे	22186
▁चुका	22175
▁ड	22138
▁लगाया	22134
▁खबर	22066
्	22065
▁बेहतर	22020
v	22012
▁सेना	21981
▁पहचान	21934
▁अस्पताल	21933
▁राशि	21889
▁ताकि	21879
in	21867
▁आदेश	21850
▁भ	21841
▁दिल	21807
▁बाल	21779
▁n	21769
▁वालों	21752
▁k	21687
▁वक्त	21659
▁देखते	21574
▁छोड़	21557
▁अंदर	21395
▁50	21376
▁h	21359
जा	21340
▁श	21328
▁17	21297
▁2017	21272
ंग	21261
▁हमने	21254
्र	21174
▁v	21114
▁लड़की	21106
▁आते	21102
▁उम्र	21081
िका	21072
▁रख	21038
लों	21013
▁पूजा	21000
फ़	20995
▁अधिकारियों	20958
▁सर	20952
▁19	20908
बा	20878
▁सो	20862
▁आयोजित	20857
▁प्यार	20836
▁दर	20822
▁अवसर	20803
n	20766
▁ऑफ	20763
▁अच्छे	20733
▁रन	20713
▁जानते	20698
आ	20683
▁बा	20679
▁कल	20611
▁विषय	20588
▁देशों	20555
▁राजनीति	20532
▁वही	20526
▁धन	20417
▁मोबाइल	20335
▁कमी	20298
▁कानून	20285
▁नि	20280
▁ला	20275
▁प्रेम	20270
▁शायद	20268
▁साफ	20258
▁बोर्ड	20199
▁पड़ा	20193
▁बि	20190
▁वापस	20129
▁सोच	20106
▁मध्य	20105
▁उप	20087
▁सारे	20086
्य	20019
▁राष्ट्रपति	20013
▁आर्थिक	19986
▁आदमी	19980
▁मा	19975
▁नंबर	19925
▁शाम	19881
टा	19850
▁हिस्सा	19845
▁वैसे	19841
or	19786
▁पड़	19752
▁सेक्स	19712
▁रहती	19704
▁धीरे	19679
▁आयोग	19597
आई	19585
▁आर	19508
▁पैसे	19492
▁शेयर	19479
रो	19457
▁सामाजिक	19420
▁भर्ती	19399
दी	19377
▁बयान	19341
▁घंटे	19327
▁यानी	19230
▁प्रक्रिया	19202
▁फीसदी	19194
▁हासिल	19188
▁जैसी	19175
वे	19151
▁खास	19137
▁e	19124
it	19117
दार	19115
▁तय	19072
▁कीमत	19037
▁दिखाई	19034
▁किसानों	19020
यों	19013
▁शक्ति	18950
▁दोस्तों	18932
▁फैसला	18932
▁लेते	18912
▁मिले	18908
en	18881
हा	18878
▁तरीके	18852
▁हिन्दी	18809
▁सि	18790
▁बेहद	18777
▁राजनीतिक	18748
▁माँ	18744
▁संघ	18728
▁=	18701
▁बनाए	18680
▁‘‘	18625
स्	18550
▁तेल	18540
स्ट	18534
▁मगर	18505
ये	18504
▁ग्राम	18472
▁कश्मीर	18458
▁पूर्ण	18452
▁खाने	18424
▁ज्ञान	18408
▁तेज	18380
▁माता	18379
▁शुरुआत	18326
am	18317
▁वी	18308
▁कार्रवाई	18299
▁शब्द	18293
▁राजस्थान	18251
▁बनी	18232
▁मिनट	18225
▁सोशल	18170
▁आपने	18149
▁रोक	18119
▁घोषणा	18111
▁24	18107
ल्स	18101
▁शो	18058
▁जल्द	18055
▁इतिहास	18045
▁पेश	18027
अ	18016
at	17972
▁छात्र	17972
▁दल	17971
▁पहुंचे	17971
▁जैसा	17970
▁राजा	17903
िस	17875
ान	17858
▁प्रभाव	17836
▁j	17806
▁आती	17802
▁नरेंद्र	17795
ड़े	17787
▁वेबसाइट	17773
थ	17715
▁उनसे	17698
▁जे	17692
▁युवा	17691
▁सीमा	17674
▁लगाने	17633
▁21	17630
▁जेल	17626
▁जरूरी	17614
▁आयोजन	17607
▁थाना	17589
ानी	17583
▁एम	17561
▁पाया	17560
▁ऑनलाइन	17547
▁अधिकार	17533
ी	17531
▁अगले	17528
▁of	17527
मे	17515
▁गिरफ्तार	17515
▁पैदा	17481
▁पहला	17455
▁मान	17435
▁कदम	17434
▁बेटी	17430
▁100	17387
▁w	17366
▁पक्ष	17336
▁टेस्ट	17332
▁हों	17319
▁सामान्य	17313
▁क्रिकेट	17304
▁जुड़े	17292
▁and	17290
ौ	17288
▁वर्ग	17272
▁सम्मान	17267
▁रेलवे	17256
▁भारी	17239
▁कार्ड	17230
▁अगस्त	17223
▁भूमिका	17202
▁चाहता	17184
▁अंतिम	17122
▁उम्मीद	17104
▁शिकायत	17087
▁अभियान	17070
▁सड़क	17042
▁समिति	17023
▁नौकरी	17009
▁एन	17006
▁जमा	16997
▁लोक	16988
▁मार	16981
ाते	16945
▁व्यापार	16942
▁करेगा	16928
▁बॉलीवुड	16879
▁योग	16877
▁राष्ट्र	16844
▁विधायक	16819
▁खत्म	16804
▁देवी	16795
र्	16775
▁स्वयं	16758
▁देती	16733
▁सदस्य	16730
ad	16690
▁विश्वास	16673
▁सात	16673
▁गलत	16671
▁ध	16670
▁सोमवार	16665
▁जिसका	16664
▁पड़ता	16655
▁बनने	16632
▁मिलता	16630
▁दिशा	16619
▁लागू	16559
वि	16547
▁समर्थन	16543
ध	16537
▁संगठन	16519
▁हेतु	16499
▁आग	16491
▁भाव	16488
▁किसान	16452
▁आवश्यकता	16422
▁तभी	16421
▁दक्षिण	16413
on	16403
▁com	16397
▁फोटो	16382
▁जाकर	16351
▁प्रकाश	16338
▁शिव	16337
▁प्रशासन	16332
as	16260
▁जिन	16210
▁पे	16185
▁राय	16185
▁सिर	16180
▁बावजूद	16179
▁स्थानीय	16160
▁नेताओं	16158
िन	16156
▁डाउनलोड	16154
▁शुक्रवार	16089
▁कराने	16075
म्	16028
▁चाहे	16022
▁गुजरात	16013
▁बातें	16008
▁निर्देश	15999
लो	15984
▁प्रवेश	15973
▁न्यायालय	15964
क्स	15929
▁रहेगा	15915
▁हमारा	15906
▁बदल	15876
पा	15851
▁दर्द	15814
▁जुलाई	15735
▁दिवस	15727
▁संबंधित	15684
▁छोटी	15680
▁जाएंगे	15665
▁बल	15654
▁जून	15646
ाव	15643
▁मो	15617
▁सौ	15597
▁अर्थ	15581
▁पार	15530
▁बुधवार	15520
▁सह	15502
मान	15459
▁मात्रा	15433
▁पीएम	15419
▁कराया	15410
▁पंजाब	15391
▁वर्तमान	15382
वर	15373
▁रे	15368
▁मि	15349
वीं	15335
▁0	15326
▁गु	15316
रों	15311
▁पुत्र	15295
न्	15289
▁अनुभव	15276
▁फ़	15271
▁मंगलवार	15262
कार	15259
▁इतनी	15255
▁उसमें	15246
▁मिलेगा	15187
▁लखनऊ	15173
▁सुप्रीम	15165
टर	15147
िल	15129
00	15124
एँ	15103
▁स्थापित	15082
▁22	15069
▁खर्च	15066
▁प्रभावित	15066
▁अंत	15061
▁सफल	15060
ic	15058
▁2016	15052
▁केंद्रीय	15052
▁देखकर	15020
▁मार्च	14992
▁काल	14968
उ	14967
▁शनिवार	14956
▁भविष्य	14949
जे	14929
▁मानव	14919
▁दूसरा	14881
▁आसान	14872
▁सचिव	14871
▁बदलाव	14864
▁जमीन	14856
▁सहयोग	14849
▁जरूर	14841
भ	14836
▁देकर	14823
▁मंत्रालय	14810
▁मनुष्य	14807
▁मतलब	14791
▁प्रत्येक	14790
▁महसूस	14754
▁सत्ता	14740
:	14735
le	14731
▁सारी	14703
▁आरोपी	14692
▁रिकॉर्ड	14691
▁गंभीर	14690
▁डाल	14672
ंस	14628
▁मई	14605
▁लो	14602
▁बै	14599
क्	14581
▁निर्णय	14561
▁नुकसान	14532
▁साहित्य	14528
▁लेना	14509
▁माह	14500
ियाँ	14476
▁कॉलेज	14473
▁चले	14473
▁असर	14467
▁देव	14460
▁खाना	14444
▁वरिष्ठ	14433
▁on	14428
▁कपूर	14423
▁नदी	14409
▁रविवार	14397
एम	14394
एल	14393
लि	14389
▁साबित	14331
▁आवश्यक	14327
नि	14316
िव	14307
▁रि	14305
▁मजबूत	14295
▁संयुक्त	14295
▁सफलता	14285
▁आय	14273
is	14263
▁छात्रों	14261
पर	14243
▁इनके	14223
▁सच	14205
▁दरअसल	14202
▁तेजी	14190
ा	14188
▁जिसकी	14181
▁डा	14171
▁गो	14156
▁उनको	14149
▁राज्यों	14134
▁बेटे	14109
▁निकल	14050
डा	14039
▁कला	14039
▁23	14037
▁क्षेत्रों	14034
▁उठा	14019
▁अदालत	14013
▁शाह	14012
▁स्पष्ट	13999
▁निजी	13998
▁मूल	13994
▁विकल्प	13994
▁बाबा	13980
▁टीवी	13968
▁ऊर्जा	13959
▁आसानी	13955
▁विजय	13940
▁for	13938
▁पाने	13929
▁परिणाम	13922
▁निवासी	13906
▁रखते	13900
▁प्रसाद	13893
▁दूध	13874
▁य	13868
▁आये	13860
सर	13818
ोर	13818
▁सुविधा	13816
▁जहाँ	13799
▁रो	13792
▁जाति	13778
ेंगे	13770
▁छह	13757
▁जल्दी	13719
▁गुरु	13712
▁मत	13702
▁स्वीकार	13702
▁सुधार	13688
▁अप	13676
▁दस	13664
▁गीत	13650
वें	13649
दे	13607
आर	13596
▁समेत	13596
▁डिग्री	13583
▁अनेक	13573
एस	13570
▁अप्रैल	13566
▁जु	13552
▁डि	13548
▁पेट	13534
▁सामना	13534
▁इलाज	13533
ल्	13528
x	13527
▁भीतर	13524
▁कविता	13521
वार	13520
▁सहायता	13518
पन	13512
▁घ	13497
▁28	13487
▁खा	13477
▁लोकसभा	13429
et	13417
ch	13410
▁मुश्किल	13379
ेश	13377
▁40	13377
िय	13371
re	13357
▁रक्षा	13332
▁अक्टूबर	13331
▁सूची	13316
ां	13314
▁नौ	13308
टे	13305
▁आनंद	13303
▁पि	13303
▁परमेश्वर	13281
▁कार्यालय	13280
▁नीति	13238
▁i	13234
▁मौसम	13204
हर	13189
▁अक्सर	13187
▁कंपनियों	13187
▁विश्वविद्यालय	13177
▁महा	13164
▁विज्ञान	13138
▁वृद्धि	13136
▁मार्ग	13124
ay	13120
ही	13115
▁>	13115
▁’’	13107
▁भोजन	13103
ra	13086
▁हरियाणा	13084
▁हु	13084
ठ	13082
▁अतिरिक्त	13078
▁पैसा	13078
▁बताते	13075
▁बारिश	13074
▁क्षमता	13062
▁करनी	13061
▁बातचीत	13039
▁सप्ताह	13027
▁वहाँ	13021
▁मौका	13013
ot	13002
▁नेतृत्व	12997
w	12994
▁कही	12989
▁26	12982
▁समाचार	12965
▁प्रश्न	12921
▁थ	12910
▁सुख	12909
▁समान	12902
▁संस्कृति	12858
z	12841
▁नवंबर	12839
वाद	12832
ेंट	12823
▁अंक	12820
▁जनवरी	12816
▁विदेशी	12815
न्द	12805
▁सितंबर	12802
▁यू	12798
ुल	12792
▁तैयारी	12778
▁रोग	12777
▁पु	12775
▁जाये	12770
▁पूछा	12734
▁बु	12733
▁दिख	12732
▁पुरुष	12725
▁युद्ध	12725
▁घायल	12714
वादी	12701
▁रिकॉर्डर	12690
▁लंड	12678
▁लक्ष्य	12670
▁मुस्लिम	12665
▁ऐ	12659
▁परेशान	12653
▁सांसद	12653
▁कृषि	12629
▁दौर	12629
▁जरिए	12612
▁भेज	12612
▁सेवन	12611
▁खोज	12609
ak	12607
▁विदेश	12600
▁प्रधान	12590
▁सलमान	12585
▁फिल्मों	12580
गर	12579
▁चेहरे	12560
▁यूपी	12560
▁जायेगा	12551
▁खुश	12548
▁हार	12548
▁दावा	12547
▁तमाम	12542
▁आंदोलन	12532
▁बर	12522
▁गा	12517
▁पै	12499
गे	12481
▁सभा	12468
▁बिल	12461
▁विवाद	12417
जन	12409
▁डे	12407
▁खराब	12402
▁थोड़ा	12399
शन	12394
▁गिर	12391
▁उम्मीदवार	12389
▁वर्षों	12376
▁ग्रामीण	12372
▁करा	12339
▁कप	12336
▁युवक	12336
▁ज़	12333
▁वा	12332
▁बैठे	12323
ूर	12299
▁सजा	12291
▁तस्वीर	12268
▁फल	12252
▁शब्दों	12251
▁इलाके	12244
el	12234
ियो	12231
▁इनमें	12220
▁बढ़ा	12210
▁तुलना	12195
▁रखें	12191
▁समारोह	12188
▁मॉडल	12187
ाती	12172
▁स्टेशन	12160
▁मिलती	12155
▁शासन	12146
▁पंचायत	12145
ष	12141
▁खड़े	12114
▁27	12100
▁डर	12100
▁गुरुवार	12069
▁कट	12060
▁बोल	12060
▁इतने	12055
▁ch	12052
▁योगी	12044
शा	12041
▁more	12037
०	12035
▁राजधानी	12028
▁निवेश	12003
▁विकेट	11991
▁प्रस्ताव	11965
▁इन्हें	11961
▁डॉलर	11957
▁कृष्ण	11933
▁खिलाड़ी	11924
▁अध्ययन	11909
ंद	11908
▁पहुंचा	11878
▁रखना	11869
▁एंड	11864
▁चाहती	11860
▁बढ़ाने	11858
ॉ	11833
ेशन	11828
▁चूत	11821
▁मूल्य	11815
▁जोर	11810
▁खरीद	11795
▁अथवा	11785
▁ट्रेन	11784
हे	11780
▁क्लिक	11773
om	11763
▁आठ	11727
ur	11716
▁हमला	11698
▁पाए	11684
▁संभव	11670
▁सीएम	11669
छ	11667
▁महान	11658
▁समूह	11646
▁अनु	11639
▁री	11637
▁पत्रकार	11631
▁जिंदगी	11625
▁हा	11609
कि	11585
▁वन	11585
▁लि	11580
खा	11572
ढ़	11569
▁कर्मचारियों	11560
▁मुक्त	11551
▁कितना	11547
▁लेख	11546
▁लोगो	11546
▁चयन	11543
ोल	11535
il	11534
ण्ड	11533
▁रू	11506
▁31	11496
▁रेल	11494
▁परन्तु	11492
▁समाप्त	11477
▁रोड	11476
▁देंगे	11465
्रा	11463
▁संगीत	11461
बे	11450
▁re	11441
▁आधारित	11437
▁दर्शन	11430
ाज	11426
▁बाकी	11417
यर	11397
शी	11366
▁मंच	11365
ers	11358
▁शराब	11357
▁चली	11348
▁विवाह	11346
▁खड़ा	11336
वान	11329
▁गति	11329
▁अन	11319
गढ़	11313
▁स्	11308
▁जिन्हें	11304
▁अचानक	11301
लाल	11300
▁पुरस्कार	11287
करण	11284
▁प्रथम	11278
▁पटना	11277
▁सत्य	11277
▁सै	11275
▁पुराने	11263
▁खूब	11255
पाल	11248
सन	11248
▁संघर्ष	11248
▁एल	11227
▁परिवर्तन	11204
id	11168
▁_	11168
▁आवाज	11163
▁फैसले	11163
▁बनाकर	11159
▁बनाई	11153
▁read	11151
▁करो	11150
▁प्रचार	11143
ri	11122
▁गैर	11122
▁is	11113
▁शांति	11113
▁उत्पादन	11107
▁बहन	11097
▁प्रकाशित	11093
▁सुरक्षित	11088
▁करेगी	11063
▁उसको	11060
▁मिलकर	11046
▁सम	11037
▁हि	11036
▁मामलों	11029
▁कहने	11019
▁जि	11005
▁देखें	11004
▁खो	10982
▁सीट	10958
▁+	10956
▁वोट	10952
ूल	10936
▁मात्र	10931
फा	10928
▁पश्चिम	10927
▁केन्द्र	10926
,000	10912
▁हवा	10911
▁अमेरिकी	10905
▁मैदान	10900
▁पदों	10893
▁वित्त	10890
▁सीधे	10876
्ट	10875
▁लाइन	10862
▁घोषित	10839
▁शानदार	10836
▁जुड़ी	10828
▁तू	10828
▁आकर	10817
▁पेट्रोल	10813
▁कंप्यूटर	10812
मेंट	10811
▁इच्छा	10804
िये	10799
▁उदाहरण	10796
▁संस्था	10775
▁दा	10770
▁जय	10768
बल	10761
▁भूल	10759
्यू	10758
▁स्त्री	10754
▁राहत	10752
चा	10749
▁पढ़ें	10734
▁रखी	10730
ंट	10713
▁डॉक्टर	10705
▁मना	10697
▁फेसबुक	10688
मन	10687
▁भूमि	10671
▁दोस्त	10670
▁सालों	10658
▁संजय	10636
▁झ	10629
▁मुद्रा	10624
▁चिंता	10601
▁अरब	10597
▁रोजगार	10594
▁निगम	10592
▁तुरंत	10586
▁सूर्य	10586
▁फायदा	10580
▁हाथों	10572
▁निकाल	10570
▁संभावना	10565
▁शिक्षक	10556
▁ब्लॉग	10554
▁सामग्री	10549
▁थोड़ी	10544
▁जम्मू	10536
मो	10497
and	10496
▁बजट	10496
▁टिकट	10495
▁बीमारी	10490
▁लाने	10480
▁छत्तीसगढ़	10472
▁उद्देश्य	10466
▁लिख	10464
मु	10461
▁रहें	10458
▁स्वागत	10440
ोज	10427
▁लगाए	10425
▁रु	10423
▁साहब	10418
st	10415
▁हालत	10414
▁हिन्दू	10412
▁2014	10407
▁मह	10406
▁प्रो	10402
▁हमले	10400
ंगी	10389
ची	10389
▁चलने	10389
▁आखिर	10382
▁ढ	10377
▁प्रस्तुत	10372
▁सुंदर	10372
▁भुगतान	10346
▁स्थापना	10338
▁सुना	10328
▁29	10312
▁चरण	10311
▁अमित	10308
▁रोज	10305
▁त्वचा	10297
▁o	10290
▁विस्तार	10286
▁पकड़	10271
▁उनमें	10270
▁रिलीज	10270
▁पड़े	10256
▁2015	10246
▁धार्मिक	10239
लें	10234
▁मर	10216
▁बैठ	10215
▁st	10209
इन	10206
▁संस्थान	10201
▁भीड़	10200
ab	10199
▁अली	10196
सि	10192
कारी	10182
▁सुन	10181
▁अनुमति	10176
▁चलता	10170
▁मुलाकात	10159
▁फिलहाल	10155
▁नज़र	10137
▁उपस्थित	10135
▁अंग्रेजी	10132
▁सामान	10121
▁मृत्यु	10119
▁भले	10098
▁बो	10086
▁सिस्टम	10082
▁ता	10067
▁रहना	10066
▁पड़ी	10065
में	10064
j	10058
▁स्वामी	10049
▁विकसित	10047
▁महाराष्ट्र	10045
▁इंटरनेट	10038
▁संपर्क	10038
▁एक्स	10037
▁धारा	9998
ोन	9994
▁सलाह	9985
▁करवा	9983
तर	9980
डे	9968
▁कब	9964
ंड	9961
▁बातों	9958
un	9956
▁महत्व	9952
▁अपराध	9949
ारी	9946
▁दृष्टि	9940
न्स	9934
▁मिलेगी	9934
▁मुकाबले	9928
झ	9927
▁बचा	9924
▁भ्रष्टाचार	9920
▁लंबे	9920
▁खाते	9917
▁कर्मचारी	9915
▁भेजा	9901
▁व्यवहार	9885
नाथ	9879
▁गंगा	9862
▁इनकी	9850
▁नोट	9849
्री	9831
▁शिकार	9829
▁सहायक	9817
▁कितने	9810
▁मुद्दे	9809
▁कप्तान	9800
▁रचना	9795
▁नव	9792
▁बोला	9791
▁परिषद	9780
▁गोल	9740
यी	9733
मि	9730
▁भा	9723
▁लगती	9715
▁पैर	9714
ut	9705
ंगे	9687
▁गृह	9687
▁शव	9682
▁जिन्होंने	9670
▁फरवरी	9670
▁भवन	9662
▁नियम	9658
di	9654
▁संविधान	9654
▁पटेल	9653
▁मुंह	9647
पे	9643
▁निर्धारित	9634
▁रास्ते	9631
▁इंग्लैंड	9612
ah	9598
नो	9591
▁घरेलू	9591
▁दिसंबर	9589
▁उपाय	9587
▁रहेंगे	9581
▁दबाव	9576
▁रस	9571
राम	9565
▁u	9557
जर	9551
▁मीटर	9547
▁sh	9537
▁रा	9513
ंक	9512
▁60	9510
▁पढ़	9503
यू	9494
▁वाहन	9490
▁समाधान	9484
▁पहुंची	9483
▁खुशी	9477
▁परेशानी	9476
प्र	9471
▁बोली	9463
▁केस	9454
▁इंसान	9453
th	9451
▁बंगाल	9438
▁रखे	9434
▁स्मार्टफोन	9434
▁न्यूज़	9430
▁अंतर्गत	9426
▁बालों	9426
▁चैनल	9420
▁सदस्यों	9416
▁तनाव	9414
▁कोड	9409
▁सत्र	9408
▁निश्चित	9407
▁कक्षा	9406
▁सुनवाई	9406
▁आसपास	9398
▁संसद	9394
▁अवधि	9385
▁नियंत्रण	9380
▁कितनी	9379
▁रहेगी	9376
▁बनाना	9371
▁सार्वजनिक	9371
▁ऊ	9359
▁लड़कियों	9350
▁गुप्ता	9339
पूर्ण	9330
क़	9323
▁पल	9322
डर	9306
ारा	9288
▁माल	9287
▁दिखा	9279
▁प्रबंधन	9279
▁उद्योग	9276
▁न्याय	9275
▁सुनिश्चित	9258
▁इं	9250
▁सीरीज	9234
▁याचिका	9233
▁एच	9227
▁गुणवत्ता	9227
▁चौधरी	9224
▁विराट	9221
▁हां	9221
▁मिलाकर	9204
▁तुम्हारे	9198
▁बोले	9197
▁तीनों	9185
▁शुभ	9185
▁सकें	9185
▁सम्मेलन	9177
▁पालन	9176
▁अहम	9167
▁वास्तव	9165
▁विद्यालय	9164
▁बिल्कुल	9153
▁अल	9136
▁जाय	9134
यां	9130
त्	9126
▁सफाई	9124
▁जिनमें	9119
▁पढ़ाई	9112
▁लेखक	9110
ात	9107
▁समुदाय	9103
▁फूल	9101
▁गाँव	9080
▁गाड़ी	9075
▁पीसी	9073
▁कोहली	9072
▁लिंक	9064
तियों	9062
▁कमरे	9055
एफ	9053
▁प्रसिद्ध	9051
▁कड़ी	9045
▁अंतरराष्ट्रीय	9032
▁ऑफिस	9016
▁देगा	9010
ेल	9000
▁35	8997
▁सारा	8996
▁काले	8995
ताओं	8992
▁वै	8983
▁हिंदू	8971
▁गरीब	8970
▁ईश्वर	8966
▁शोध	8960
▁फ़िल्म	8956
चर	8955
▁कवि	8939
वाल	8937
▁ग्रुप	8921
▁उत्पाद	8920
us	8913
▁थाने	8900
▁लॉन्च	8889
▁छोटा	8888
▁दवा	8865
▁शीर्ष	8859
▁तलाश	8857
▁मेहनत	8851
▁संदेश	8851
गत	8848
▁जयपुर	8845
हि	8842
▁जैन	8839
▁up	8831
▁चु	8828
▁चीनी	8824
▁समस्याओं	8822
▁स्टार	8819
hi	8807
▁ओवर	8804
▁हरा	8804
▁उचित	8801
▁दलित	8799
गंज	8795
▁हिसाब	8787
20	8785
▁दम	8783
▁केजरीवाल	8782
▁सीबीआई	8781
▁दु	8775
▁शा	8766
▁लगने	8753
▁गैस	8750
▁अतः	8747
▁छूट	8746
▁सोने	8746
्या	8741
ag	8737
▁बढ़ती	8731
▁किलोमीटर	8730
▁कपड़े	8722
▁क्र	8712
▁ट्वीट	8712
os	8708
▁ठ	8708
▁अंतर	8706
▁गर्म	8700
▁देखना	8696
▁क़	8688
▁आकार	8687
यें	8684
इल	8666
▁केरल	8666
.2	8654
▁मनाया	8653
िर	8652
▁प्रणाली	8651
▁कार्यकर्ताओं	8648
▁अस	8642
ate	8641
▁परियोजना	8636
▁सूत्रों	8631
▁चौ	8630
यन	8625
▁तीसरे	8625
▁खाली	8620
▁ज़्यादा	8616
▁सर्व	8616
▁मानना	8612
▁हाई	8601
▁पीने	8594
▁चुनौती	8590
▁ज्यादातर	8584
▁जिनके	8569
▁अंग	8567
▁रोकने	8556
▁पढ़े	8555
▁आत्मा	8541
▁दिये	8538
▁न्यूज	8535
▁y	8520
▁प्रशिक्षण	8519
▁होनी	8518
▁कथा	8517
▁मानते	8513
ation	8505
▁तोड़	8503
▁2019	8500
▁पाई	8486
वां	8485
▁मुख	8482
ment	8478
▁किताब	8477
ap	8476
.5	8469
म्ब	8465
स्त	8461
▁चाय	8447
▁तस्वीरें	8442
▁योगदान	8438
▁प्रकृति	8433
▁वित्तीय	8424
▁कार्यों	8422
▁गोली	8418
हार	8394
ऊ	8390
ौर	8390
▁चि	8376
▁मुफ्त	8375
▁कर्नाटक	8374
▁रास्ता	8372
▁कारोबार	8369
▁पड़ेगा	8362
▁होटल	8362
▁दान	8357
▁बच	8357
▁आना	8355
▁हालात	8353
▁नेशनल	8349
ion	8345
▁संबंधी	8334
▁एड	8329
कु	8327
▁एयर	8327
एन	8325
▁युवाओं	8324
▁आस	8310
▁बजाय	8304
▁जनरल	8299
▁जाएं	8297
▁लड़ाई	8296
▁हिंसा	8294
▁उत्तराखंड	8291
▁भू	8285
▁बाइक	8282
▁प्राकृतिक	8279
um	8278
गु	8272
▁मिलते	8270
▁तरीका	8268
▁स्थल	8267
ent	8266
▁बिग	8266
▁नीतीश	8265
▁कमजोर	8264
▁पाते	8257
▁स्वतंत्रता	8243
▁शुल्क	8238
लिंग	8236
▁मित्र	8234
दर	8228
▁विधि	8220
▁तुम्हें	8219
▁हुये	8210
▁लौट	8206
▁किरदार	8199
▁मशीन	8196
▁कहां	8191
गो	8189
▁वर्षीय	8187
▁सपा	8187
▁औ	8184
.8	8180
▁लगते	8180
▁चोरी	8179
घ	8176
▁माहौल	8171
वल	8169
▁पारी	8166
▁कैमरा	8162
▁बचाने	8161
▁समीक्षा	8160
▁हल	8158
▁बढ़ने	8150
ुर	8145
▁वजन	8143
▁दिमाग	8140
▁व्यक्त	8135
▁सू	8135
▁जानने	8126
▁जिम्मेदारी	8126
▁एजेंसी	8122
▁कैंसर	8122
▁बताने	8122
▁आशा	8121
▁विरोधी	8119
▁बच्चा	8115
ूं	8114
▁पुरानी	8113
श्	8108
▁लोकप्रिय	8096
▁नियमित	8091
▁जितना	8087
सिंह	8083
▁de	8083
▁संकेत	8082
द्	8079
▁अटल	8078
▁जिसने	8076
▁आखिरी	8070
▁आराम	8063
▁टैक्स	8050
वन	8049
▁इनका	8048
▁कल्याण	8044
▁hai	8039
▁सन्	8038
▁दोपहर	8036
हन	8035
▁मी	8031
em	7996
▁आउट	7994
▁श्रेणी	7993
▁अशोक	7990
▁उत्पन्न	7988
▁उधर	7986
▁लेता	7979
▁विशाल	7979
▁ऐप	7978
▁महिलाएं	7971
▁संपत्ति	7968
न्द्र	7966
▁खून	7966
▁लागत	7961
ol	7956
▁माने	7954
▁मान्यता	7953
▁फै	7944
▁वर्मा	7944
▁सुपर	7944
▁पावर	7935
▁चीज	7934
▁मेडिकल	7926
▁डीजल	7922
im	7914
▁उपचार	7911
▁ब्र	7911
▁नागरिक	7906
▁शहरों	7905
▁विद्युत	7902
र्म	7893
▁वर्	7893
▁नेपाल	7890
▁कार्यकर्ता	7883
▁जगत	7878
▁इंतजार	7877
▁प्रतियोगिता	7875
▁विमान	7872
▁मेल	7867
▁32	7862
िट	7848
प्	7847
▁पीड़ित	7846
▁साइट	7844
िता	7841
▁चिकित्सा	7835
▁अखिलेश	7831
▁लगाकर	7831
▁भरा	7827
▁पेड़	7826
▁be	7824
▁सीटों	7818
▁प्रेस	7809
▁दूरी	7806
▁आवास	7799
▁मध्यप्रदेश	7799
चे	7796
▁नरेन्द्र	7794
▁आइ	7793
देव	7791
ai	7787
▁पढ़ने	7787
▁पुस्तक	7787
▁बीते	7781
▁मानसिक	7781
▁चंद्र	7779
ियन	7772
▁प्रभारी	7768
▁स्वस्थ	7757
▁पर्यावरण	7752
.6	7748
▁आधुनिक	7747
▁गईं	7745
▁संत	7745
फी	7741
▁किन्तु	7739
▁by	7738
▁पृथ्वी	7734
▁उठ	7732
▁हाँ	7722
▁खोल	7716
▁दुकान	7711
▁नामक	7701
लक	7695
▁मारे	7695
▁गाने	7693
▁वायरल	7693
▁जोड़	7672
▁ताजा	7666
▁ख़	7663
िक्स	7645
▁चा	7642
▁प्रभु	7640
▁भोपाल	7640
▁कर्म	7637
▁पो	7637
▁मतदान	7627
▁मंत्र	7625
▁काट	7623
पो	7615
▁निदेशक	7611
▁th	7607
▁कॉ	7604
▁गौरतलब	7594
▁80	7588
▁मौजूदा	7586
▁खूबसूरत	7585
▁रै	7584
▁घरों	7583
▁झा	7583
▁दलों	7583
िश	7582
▁an	7581
▁प्राचीन	7579
.4	7564
▁साथी	7562
▁परि	7559
▁चुनावों	7558
▁डाला	7553
सु	7550
▁परीक्षण	7550
▁बेहतरीन	7548
▁झारखंड	7538
▁गुण	7534
▁दिखाया	7534
▁बुरा	7534
▁मालिक	7530
▁चित्र	7527
ir	7525
▁भावना	7519
बर	7513
्रे	7507
▁स्कूलों	7504
▁गाय	7497
▁अवैध	7486
▁आयु	7485
▁सक्षम	7483
वाला	7470
▁टै	7469
▁चारों	7455
▁सवार	7455
▁अपील	7452
▁काला	7443
▁तिवारी	7441
ant	7434
▁you	7433
▁आजकल	7433
णी	7431
▁एक्ट	7429
▁समझा	7421
दि	7416
▁करियर	7412
▁सपना	7412
▁मुझसे	7408
▁लड़के	7402
▁2013	7401
▁कमाई	7393
▁योग्य	7389
▁उतार	7386
▁पर्व	7386
▁संबोधित	7381
▁हटा	7379
राज	7378
▁जमकर	7378
मत	7377
▁कहता	7376
▁गणेश	7370
▁70	7366
▁नयी	7366
▁उतर	7365
▁ताकत	7364
▁नी	7359
▁ग्रहण	7333
▁जीएसटी	7331
▁उठाया	7326
▁इंटर	7323
▁वेतन	7320
▁चू	7312
▁ऐतिहासिक	7309
▁फ्री	7306
▁दीपक	7297
▁एफ	7291
▁ke	7284
▁सन	7280
–	7279
▁मकान	7272
▁हिस्से	7269
▁india	7265
▁खिला	7262
▁ऑ	7253
▁यानि	7247
▁चोट	7239
▁अभिनेता	7234
▁परिजनों	7229
▁लूट	7229
▁छोड़कर	7228
र्ट	7225
.7	7223
▁फा	7217
ोक	7205
▁शि	7198
▁वेब	7197
▁आंखों	7187
ज़ा	7180
▁मिश्रा	7179
▁पहुँच	7177
▁सिटी	7177
▁व्रत	7172
▁लिखी	7171
▁अर	7166
दान	7165
▁विज्ञापन	7160
▁वैज्ञानिक	7160
िए	7158
क्ट	7156
▁शारीरिक	7147
▁उपकरण	7138
▁अनिल	7136
▁इंडियन	7135
▁अमर	7133
▁सम्मानित	7133
▁कोलकाता	7128
▁किशोर	7124
ंज	7123
ल्ड	7123
ैंड	7123
▁उम्मीदवारों	7123
▁वीर	7119
▁कां	7117
▁तिथि	7114
▁आरक्षण	7112
▁गूगल	7106
▁se	7102
▁सम्	7092
ेट	7089
▁दिल्लीः	7088
▁फाइनल	7079
▁सक्रिय	7075
▁बिक्री	7069
ly	7067
न्न	7062
▁नये	7055
▁सोचा	7052
▁हाउस	7052
▁बधाई	7042
▁यूनिवर्सिटी	7042
▁डेटा	7035
▁सिद्ध	7033
ूस	7032
▁पर्याप्त	7024
▁लालू	7024
▁समझने	7021
ul	7013
वाले	7007
▁इसीलिए	7004
▁प्रतिक्रिया	7001
▁शुरु	6999
▁यौन	6994
▁बाढ़	6990
▁संकट	6987
▁home	6985
▁योजनाओं	6984
▁200	6981
▁युग	6980
▁स्ट	6972
▁चाहिये	6968
▁छवि	6967
▁लाखों	6967
नें	6965
ग्	6960
बाद	6957
▁तकनीक	6954
▁प्रमाण	6948
▁वार्ता	6935
ाय	6924
▁मंडल	6924
▁हजारों	6924
▁खु	6923
▁al	6922
▁अजय	6919
▁महाराज	6907
▁होम	6904
▁बहु	6893
▁नींद	6885
▁अति	6884
▁कहाँ	6884
▁बच्ची	6876
▁संसार	6874
▁व्यापक	6871
▁प्रवक्ता	6870
▁लगाई	6869
▁फि	6865
▁बह	6864
▁मोहम्मद	6852
▁मशहूर	6850
▁परंतु	6843
▁रखता	6839
▁संग्रह	6839
▁न्यू	6838
ून	6835
▁स्व	6835
▁तारीख	6828
▁इलाहाबाद	6827
▁भरोसा	6827
▁वर्ण	6824
▁पेज	6819
av	6817
▁रेखा	6817
▁video	6815
▁पहुंचने	6812
▁जीव	6808
▁रहीं	6808
iv	6805
▁सेट	6805
पति	6803
▁विपक्ष	6803
▁x	6795
खे	6787
.9	6781
▁जिसमे	6780
▁ठाकुर	6778
ारे	6774
▁परिसर	6772
▁खेती	6769
▁अव	6765
▁ढंग	6749
▁गठबंधन	6746
▁मिट्टी	6746
▁एशिया	6741
▁500	6740
▁अभिनेत्री	6739
▁रक्त	6739
▁टॉम	6738
▁me	6729
▁खड़ी	6729
▁खतरा	6727
▁रूपये	6727
▁am	6725
▁प्लान	6720
जीत	6713
▁आजादी	6709
▁गर्मी	6704
स्थ	6703
▁रुप	6702
ity	6693
▁चढ़	6692
▁बचपन	6686
▁जवान	6684
सों	6683
▁कहती	6683
▁मिशन	6672
▁इसको	6669
▁जग	6663
▁पत्रकारों	6663
लय	6662
▁हफ्ते	6662
▁ट्र	6660
ya	6659
▁45	6659
▁रोल	6657
ूक	6655
▁आदर्श	6655
▁रैली	6653
▁स्वरूप	6653
्ह	6643
▁बैंकों	6640
▁बाप	6636
▁डिजिटल	6631
▁रूस	6630
नगर	6628
▁जुड़	6623
▁बुरी	6620
▁हवाई	6620
▁बराबर	6619
▁चौहान	6615
▁छा	6610
ist	6606
▁यूनिट	6605
▁कठिन	6604
ड़ों	6603
ia	6600
▁गिरावट	6594
▁सका	6587
इस	6586
▁अवश्य	6585
▁टूट	6585
▁कल्पना	6581
▁चलाने	6578
▁बदलने	6578
▁पाठ	6577
ील	6576
ूँ	6572
▁तकनीकी	6572
ोग	6571
▁हृदय	6570
▁समाजवादी	6566
काल	6564
▁खुलासा	6563
▁शूटिंग	6559
ro	6558
▁कराई	6558
▁लंबी	6557
▁लिखे	6554
▁साझा	6553
▁शख्स	6552
्यों	6550
▁किनारे	6549
▁स्मार्ट	6545
मर	6544
▁लक्ष्मी	6544
▁अकाउंट	6543
र्ड	6540
▁स्थानों	6531
▁पहल	6530
▁रिकॉर्डिंग	6528
▁खुले	6525
▁बू	6519
▁पत्थर	6518
▁पीठ	6511
▁भरी	6503
▁लड़	6500
▁टे	6496
▁सुझाव	6494
▁जिम्मेदार	6491
.3	6488
ेंस	6480
▁इलाकों	6479
▁खबरें	6477
म्प	6476
▁निर्भर	6474
▁निर्माता	6471
▁बरामद	6471
▁दूसरों	6469
▁ट्रंप	6466
▁बढ़ावा	6463
▁देखे	6460
▁खिलाड़ियों	6457
▁बनाये	6454
▁शांत	6451
▁जिलों	6450
ik	6449
त्व	6445
▁बेटा	6445
▁धो	6442
▁अखबार	6440
▁शिक्षकों	6437
▁धन्यवाद	6436
▁रवि	6436
▁नेटवर्क	6431
▁अग्रवाल	6430
▁आगामी	6430
▁दास	6422
▁कॉल	6418
▁हादसे	6415
▁बैठा	6411
▁हित	6411
▁गलती	6410
▁दाम	6409
▁क्रम	6402
▁पदक	6401
▁आतंकी	6397
▁दौरे	6393
▁कमा	6386
▁टाइम	6385
▁रानी	6381
▁वाजपेयी	6381
▁वितरण	6378
▁व्यक्तिगत	6371
▁दौड़	6370
▁गेंद	6367
▁बदले	6362
लता	6361
▁आरोपियों	6361
▁निक	6358
▁तर	6354
▁लिस्ट	6348
▁लिमिटेड	6346
▁बॉक्स	6345
▁लिखने	6344
किंग	6343
▁app	6342
▁संरक्षण	6340
स्टर	6337
▁इधर	6333
▁दशक	6333
ंत	6332
फे	6319
▁ग्राहकों	6319
▁सकेंगे	6311
▁एक्सप्रेस	6309
▁जै	6309
णा	6306
▁us	6306
▁लीटर	6301
.1	6300
ari	6294
▁दि	6293
दारी	6291
▁अकेले	6278
▁खरीदने	6275
▁फसल	6273
▁नीला	6271
▁ar	6269
▁पाता	6264
▁जानता	6261
▁कथित	6259
▁मूर्ति	6257
▁सीख	6257
लाई	6253
▁मजबूर	6250
▁पवित्र	6243
▁संस्करण	6239
▁जंगल	6238
▁पूछताछ	6234
म्स	6233
▁बनाते	6224
▁लेंगे	6224
प्स	6221
▁संस्कार	6220
कल	6218
▁टिप्पणी	6218
▁उल्लेख	6215
▁कार्यवाही	6212
▁प्राथमिक	6210
▁वास्तविक	6208
▁गि	6207
▁रिश्ते	6203
▁no	6201
ियम	6198
▁दुर्घटना	6197
ढ	6196
▁आपूर्ति	6196
▁सेल	6191
वाने	6190
▁अधिकांश	6190
▁धरती	6189
if	6186
▁कमेटी	6185
▁सुनकर	6185
▁विचारों	6183
हो	6182
▁गठन	6182
▁प्रियंका	6182
▁मंगल	6182
▁गले	6175
▁सम्बन्ध	6173
▁मैने	6170
▁खाद्य	6164
▁le	6163
▁भाषण	6159
▁हद	6152
खी	6148
▁चुनावी	6147
▁भाभी	6147
▁सरल	6146
▁पूछ	6143
▁सेक्टर	6142
▁नोटबंदी	6141
▁चीजों	6134
▁आधिकारिक	6133
▁घटनाओं	6130
▁सेंटर	6130
▁आलोचना	6129
▁जीतने	6129
▁बांध	6124
▁विवरण	6121
▁करार	6116
ॅ	6115
▁हाईकोर्ट	6114
▁पुनः	6113
▁कर्ज	6112
▁संदर्भ	6112
▁सकारात्मक	6107
▁मुक्ति	6099
ंगा	6098
▁आमतौर	6097
▁क्रिया	6097
▁प्रतिमा	6097
▁राज्यपाल	6090
▁फॉर्म	6087
▁मुद्दों	6087
▁ka	6085
▁जाहिर	6073
▁record	6071
▁भरे	6071
हम	6069
▁सर्वश्रेष्ठ	6068
▁अम	6064
▁ki	6061
द्र	6060
▁चुन	6057
▁मौ	6053
धी	6048
▁अर्थव्यवस्था	6046
▁ऋण	6046
op	6045
▁un	6044
/	6038
▁तत्व	6037
▁टॉप	6035
50	6030
sh	6028
लियों	6026
▁ट्विटर	6021
▁सॉफ्टवेयर	6021
दों	6020
▁उत्पादों	6020
ac	6018
▁वर्ल्ड	6014
▁हिमाचल	6014
▁स्वतंत्र	6007
▁सुनने	6006
वाली	6002
▁असम	6001
▁निधन	6000
ियर	5998
▁लै	5996
▁लेती	5990
ठा	5988
▁प्रोजेक्ट	5985
▁सां	5985
लेट	5984
▁सिनेमा	5980
र्क	5979
▁विशिष्ट	5977
▁अर्थात	5976
▁प्रदूषण	5971
,2018	5968
▁पार्क	5968
,1	5963
▁मेड़ीसिन	5960
ांत	5955
▁लु	5955
▁डॉकटर	5954
▁समस्त	5954
▁मनोज	5953
▁आबादी	5952
▁अनुमान	5949
▁संचालन	5949
▁with	5946
▁यात्रियों	5944
▁33	5943
▁ग्रह	5942
▁देखी	5942
▁रोहित	5941
▁स्तन	5939
▁राजीव	5937
वाई	5934
▁निशाना	5933
▁दोष	5930
▁लाया	5926
▁निर्	5925
▁समुद्र	5924
▁आदित्यनाथ	5923
▁खुल	5923
▁google	5920
▁डिजाइन	5920
▁गांवों	5918
ेंद्र	5915
▁काली	5912
एच	5907
▁खेलने	5906
▁पुरुषों	5906
▁प्रा	5901
त्र	5895
▁सबको	5895
▁बल्लेबाज	5890
ee	5889
▁अध्यक्षता	5888
▁निकलने	5887
▁आवाज़	5886
▁चै	5886
▁वस्तु	5886
▁औसत	5882
▁नियुक्ति	5874
▁सफेद	5873
िम	5872
▁चिकित्सक	5871
नर	5865
▁जापान	5865
िटी	5863
▁वापसी	5862
▁पुल	5860
▁बलात्कार	5860
▁प्रार्थना	5858
▁www	5857
▁एसपी	5852
▁तैनात	5851
ct	5850
▁सांस्कृतिक	5849
▁दर्शकों	5847
▁36	5846
नीय	5844
▁नियमों	5843
▁दैनिक	5842
ल्ला	5839
▁चेक	5839
▁ग्रामीणों	5835
▁हनुमान	5834
▁नोटिस	5833
▁इस्लाम	5832
▁जला	5829
ड़ने	5828
▁ऑस्ट्रेलिया	5828
▁वातावरण	5828
▁आत्म	5827
▁रणनीति	5826
रिया	5823
▁लोकतंत्र	5817
▁राजेश	5816
तन	5811
▁नारायण	5800
▁पाल	5793
▁व्यवसाय	5790
तों	5789
▁आधा	5786
ter	5784
धि	5784
▁सुनील	5783
▁उठाने	5779
▁ap	5775
▁मार्केट	5774
▁वैश्विक	5774
▁उड़	5773
▁34	5772
ast	5771
▁तुम्हारी	5767
▁अरविंद	5766
▁सर्	5766
▁बिहारी	5765
पट	5763
भी	5758
तो	5756
▁कीमतों	5756
▁प्राप्ति	5756
▁bh	5754
▁प्रोग्राम	5750
▁चेहरा	5748
▁आएगा	5746
▁विरुद्ध	5746
▁बहस	5744
▁पंडित	5742
▁संगठनों	5741
▁90	5740
▁कौशल	5739
▁प्रताप	5738
▁सेहत	5738
वानी	5734
▁संकल्प	5733
pl	5729
ुक	5728
▁राह	5728
क्ष	5723
▁post	5714
कारों	5713
▁2012	5710
▁मुख्यालय	5708
▁गौ	5702
▁तंत्र	5702
▁होंगी	5701
▁मालूम	5699
▁अफ्रीका	5698
▁उतना	5698
▁भरपूर	5695
▁जिनका	5691
यत	5690
▁विधान	5690
▁पोल	5685
se	5678
चार	5677
▁दोषी	5673
▁बचाव	5672
▁it	5668
▁क्लब	5662
▁हैः	5661
▁निकट	5660
ain	5659
▁लगाते	5657
क्टर	5656
▁डालकर	5656
जि	5655
▁कनेक्शन	5650
▁प्रौद्योगिकी	5649
गल	5647
ट्स	5645
▁पत्रिका	5643
▁विष्णु	5640
000	5639
▁एकदम	5639
तम	5637
▁असली	5637
▁कोरिया	5637
बो	5634
स्ता	5634
ियत	5632
▁अन्दर	5632
▁निकले	5629
्टी	5628
▁निकाला	5627
ार्	5625
▁तापमान	5624
▁मोहन	5621
▁सागर	5620
▁सड़कों	5618
▁प्रेरणा	5617
▁प्रेरित	5610
एंगे	5607
▁अभ्यास	5604
इयों	5599
▁सुनाई	5596
पत्र	5595
▁एक्ट्रेस	5594
▁हैदराबाद	5589
था	5586
▁बेच	5586
▁बीज	5585
▁उद्घाटन	5583
▁co	5582
▁सीमित	5582
▁कहे	5581
▁चौक	5581
▁खाता	5576
ुन	5572
▁नष्ट	5570
▁कान	5567
▁नर	5566
▁संवाद	5566
▁पात्र	5565
▁स्वर्ण	5564
▁कानूनी	5563
▁फिल्में	5563
▁जायेगी	5562
▁करवाया	5558
▁ची	5556
▁तार	5551
▁नाग	5551
ूप	5549
▁दोबारा	5549
▁किलो	5547
▁आपसे	5542
▁सफर	5540
ंप	5535
▁परम	5533
ूद	5531
▁2011	5530
▁लाइव	5528
▁क्लास	5526
▁वायु	5526
्टर	5518
न्त	5517
est	5516
▁लाइफ	5516
▁जिनकी	5515
▁screen	5514
▁बां	5507
▁महज	5506
▁खबरों	5504
ुओं	5503
▁शैली	5502
▁दुख	5501
▁निर्वाचन	5500
▁पड़ती	5500
▁अधिनियम	5498
▁स्प	5495
बू	5492
▁अक्षय	5480
▁सबके	5479
पु	5478
▁खेत	5476
जु	5475
▁१	5471
▁अनुसंधान	5465
▁केन्द्रीय	5463
▁चम्मच	5459
▁पदार्थ	5459
▁जरिये	5455
▁चक्र	5448
्त	5444
हीन	5434
▁अंतर्राष्ट्रीय	5433
▁नमक	5431
सो	5427
▁download	5427
▁बद	5427
दास	5426
▁दू	5424
▁kar	5419
▁धमकी	5419
▁सीधा	5416
▁बचने	5405
▁जड़	5403
▁२	5402
धा	5400
▁ममता	5399
▁बढ़ते	5398
▁तत्काल	5396
▁पुष्टि	5394
▁खेले	5388
▁चुदाई	5387
▁मारने	5387
▁एशियाई	5384
▁कौ	5382
▁मुझ	5380
▁जानी	5375
▁ओपन	5370
▁घाट	5366
▁अहमद	5364
▁भु	5361
▁तर्क	5354
▁मंजूरी	5352
▁पाकिस्तानी	5350
▁बताई	5350
बि	5349
are	5348
▁मैचों	5347
▁दृश्य	5341
▁बिलकुल	5340
▁घु	5339
निक	5335
▁नै	5328
हरी	5327
ूम	5327
▁पापा	5326
ie	5324
ैन	5324
▁योग्यता	5321
▁वार्ड	5319
▁ब्रह्म	5317
ip	5308
▁उपाध्यक्ष	5308
▁अगली	5307
▁कृपया	5307
▁ब्लैक	5305
▁पर्यटन	5304
सम	5301
▁लॉ	5299
▁एंटी	5298
भर	5297
र्ज	5296
▁गतिविधियों	5296
ैर	5294
▁तरंग	5294
▁बनकर	5294
▁निकालने	5293
▁रखकर	5293
▁मुसलमानों	5292
▁साइ	5290
▁शपथ	5289
ath	5287
▁चालक	5287
ure	5281
▁कस	5280
▁मास्टर	5280
▁सुर	5279
ps	5278
▁कोच	5275
▁आशंका	5274
▁मुद्दा	5274
ish	5270
▁गुजर	5263
▁भरने	5261
▁विटामिन	5257
क्शन	5255
▁बच्चन	5253
▁सुन्दर	5253
लर	5252
▁as	5252
▁अंदाज	5251
▁अदा	5250
▁सिन्हा	5250
▁पाएंगे	5248
ष्ट	5247
एगा	5245
भा	5245
▁निभा	5242
▁उक्त	5241
▁जुड़ा	5240
कता	5239
▁चीजें	5239
▁पशु	5239
▁बनता	5236
▁लंदन	5235
िकल	5232
ेंड	5229
▁जोड़ी	5228
▁बीमा	5226
▁देगी	5225
ंडी	5223
ाज़	5223
▁वकील	5223
▁जितनी	5221
▁ऐलान	5219
▁हथियार	5218
टने	5216
▁प्रतीक	5213
▁स्कोर	5210
ोप	5206
▁बढ़कर	5206
▁अर्जुन	5200
▁विद्या	5200
▁जीता	5197
▁प्रिय	5195
नाम	5194
▁शहरी	5191
▁अंजाम	5188
▁आयी	5185
▁देह	5182
▁शेर	5182
▁भक्ति	5180
▁अनिवार्य	5173
▁रेड	5172
▁अनुमानित	5171
▁बसपा	5171
▁डांस	5170
▁ऑटो	5166
▁ब्रिटेन	5166
▁पश्चिमी	5164
▁प्रगति	5163
▁श्रीलंका	5163
▁परमाणु	5162
▁दिवाली	5161
्रो	5159
्ड	5155
▁फर्जी	5154
िज	5153
लग	5152
▁हटाने	5150
▁इंच	5149
▁जायेंगे	5149
▁लिंग	5148
ब्	5147
▁खे	5141
▁सपने	5140
▁संतोष	5139
▁कानपुर	5138
▁प्रकट	5138
▁37	5132
.0	5129
ne	5128
▁पढ़ा	5128
▁जाओ	5126
▁संपादक	5124
▁घूम	5122
▁pr	5120
निंग	5119
▁परिवारों	5119
▁खेलों	5117
▁बिजनेस	5117
गार	5114
▁एकता	5114
▁महीनों	5111
ce	5110
▁शनि	5110
▁तथ्य	5109
▁शेष	5101
▁ऑफ़	5097
▁पॉ	5096
ांग	5095
▁पाप	5092
▁प्रत्याशी	5092
▁असल	5089
▁तलाक	5088
▁अरुण	5087
▁आहार	5086
▁गौर	5084
▁परंपरा	5083
हित	5082
▁प्रतिदिन	5082
▁रोजाना	5081
▁डाटा	5076
▁संचालित	5076
▁android	5075
▁बटन	5073
▁संबंधों	5069
▁चुना	5068
▁नियुक्त	5067
▁बढ	5067
▁अल्लाह	5058
▁मुकदमा	5057
▁अमिताभ	5054
▁चेतावनी	5052
▁पत्रकारिता	5049
▁संग	5046
▁आकाश	5041
▁इत्यादि	5040
▁दिखाने	5040
▁जिक्र	5038
▁अर्	5037
क्र	5034
ash	5029
खों	5027
▁सर्विस	5027
सू	5026
▁जोशी	5026
▁सहारा	5025
▁टा	5023
वारी	5020
▁दिला	5020
▁इंजन	5015
लिया	5014
▁सौंप	5012
▁ट्रक	5010
▁फ्रांस	5009
▁शहीद	5009
▁new	5007
▁चाह	5005
फर	5004
▁महात्मा	5002
▁सेवाओं	4999
्यूट	4997
▁ति	4993
▁यहीं	4993
10	4992
▁गेम	4991
▁नाटक	4991
▁2009	4989
▁व्यक्तियों	4989
लू	4987
▁कलाकार	4987
्रेस	4986
लब	4985
देश	4983
▁गौरव	4983
▁इसलिये	4982
▁मध्यम	4982
▁this	4981
▁48	4980
▁जगहों	4980
▁cam	4979
▁लेखन	4978
▁आतंकवाद	4977
▁स्वर	4977
▁प्रभावी	4973
ve	4968
ाजी	4968
▁पेपर	4967
▁प्रतिभा	4964
▁चक्कर	4963
▁संचार	4960
▁आत्महत्या	4959
▁वनडे	4959
▁चम	4956
ृ	4955
▁उत्साह	4955
▁ब्राह्मण	4955
▁वाहनों	4955
रण	4953
▁राव	4953
वीर	4952
▁पूर्वी	4945
▁अज	4941
▁व्यापारी	4941
▁विस्तृत	4940
▁कन्या	4937
▁चेन्नई	4936
▁व्यस्त	4936
टन	4929
ंच	4924
▁परिवहन	4924
▁अद्भुत	4922
▁न्यायाधीश	4921
▁जेटली	4918
शिप	4916
▁लुक	4916
▁लगेगा	4915
▁शै	4914
भाव	4913
ोट	4910
▁सक	4908
▁ईरान	4903
age	4902
▁बुद्धि	4902
▁आइए	4901
▁आदत	4900
▁सितम्बर	4899
▁नागरिकों	4897
▁साफ़	4897
▁अयोध्या	4895
▁स्टोर	4894
▁दाखिल	4893
▁विपरीत	4893
▁उपयोगी	4892
▁शुद्ध	4891
▁all	4889
▁त्याग	4889
निया	4887
▁बीमार	4887
▁अधिकतर	4886
▁बदला	4886
▁pm	4882
▁शंकर	4880
▁शे	4878
▁प्रतिबंध	4877
▁प्राइवेट	4875
धन	4874
ष्	4874
▁स्टेट	4874
▁खंड	4872
▁भारती	4871
▁ex	4868
▁जस्टिस	4867
इट	4858
▁पूंजी	4858
▁मुँह	4858
▁हमे	4857
▁your	4853
▁निर्देशक	4852
▁विद्यार्थियों	4852
▁लौ	4851
▁ग़	4849
ction	4846
▁पंच	4846
▁ब्लॉक	4845
▁अवस्था	4844
ोड	4841
▁दिनांक	4838
▁फैला	4836
▁लोन	4836
ौल	4835
▁आँखों	4834
▁उन्होने	4834
▁जाम	4834
▁अनुकूल	4831
▁अपडेट	4829
▁ट्रे	4829
▁विश्लेषण	4828
सं	4826
▁रुक	4825
याँ	4822
▁यात्री	4821
▁चलती	4816
▁किरण	4813
▁फंड	4812
▁मॉ	4810
▁वृ	4808
हान	4806
▁प्रदर्शित	4805
रि	4802
ॉन	4801
▁भोजपुरी	4798
▁सत	4796
▁भक्त	4789
▁गिरफ्तारी	4788
▁इंदौर	4787
▁यहोवा	4787
▁यु	4787
▁देखिए	4786
▁हरी	4782
▁क्षेत्रीय	4781
▁बोलने	4780
▁संशोधन	4777
▁होली	4777
▁प्रे	4775
▁स्वभाव	4775
▁खतरनाक	4770
▁मिश्र	4765
ात्मक	4764
▁मुकाबला	4763
▁सांस	4763
▁बाज	4761
▁मैन	4761
▁धु	4760
▁विक	4760
थी	4759
▁समक्ष	4757
टो	4756
▁विषयों	4748
▁ब्रिटिश	4742
▁रिजल्ट	4740
▁बढ़ता	4738
▁बुला	4738
▁मुसलमान	4737
▁मानी	4736
▁मारपीट	4736
▁बुलाया	4734
▁कारणों	4732
▁छात्रा	4732
लने	4729
▁जनपद	4729
▁फरार	4726
▁सदा	4725
▁en	4723
▁सार	4723
▁फर	4721
▁मचा	4721
▁अभि	4718
▁बनाता	4718
▁छू	4715
▁साधारण	4714
▁राकेश	4711
बार	4708
▁मोह	4706
▁नो	4705
पुरा	4704
▁सूरज	4704
▁गेट	4701
▁अध	4700
▁ग्राहक	4696
▁पूजन	4696
▁तमिलनाडु	4692
मित	4690
▁धारण	4689
▁सहमति	4688
मिक	4684
▁परिचय	4681
▁डालने	4680
▁कपिल	4676
▁पेंशन	4675
▁पिछली	4673
▁कैसा	4672
▁अस्तित्व	4667
▁बांग्लादेश	4667
▁लाइट	4667
▁सचिन	4667
ine	4664
▁स्मृति	4664
▁धोनी	4661
▁con	4659
▁समझौता	4658
टना	4657
▁स्वच्छ	4657
ow	4654
▁उपभोक्ताओं	4654
▁आदिवासी	4653
▁नेहरू	4653
▁अतिथि	4652
▁फ़ोन	4651
▁सुविधाओं	4649
▁युवती	4647
▁यूरोप	4644
▁पाठक	4640
▁38	4636
▁blog	4634
▁पुराना	4634
▁at	4633
▁di	4633
ंदा	4630
मल	4629
▁उन्हीं	4628
▁भिन्न	4628
वास	4625
▁कैमरे	4624
▁गोवा	4623
▁दबा	4623
▁z	4621
▁पीढ़ी	4618
▁वार	4617
▁वक़्त	4616
▁लड़ने	4612
▁इंटरव्यू	4611
▁मनोरंजन	4611
art	4606
▁रिसर्च	4606
▁सीजन	4606
▁बाग	4603
▁मस्जिद	4603
▁ब्रा	4601
▁गोल्ड	4598
able	4595
़ा	4594
ॉल	4594
र्ग	4593
▁mo	4593
▁श्रीमती	4592
अप	4588
▁2010	4585
▁गुना	4584
▁बीमारियों	4583
हट	4582
कर्ता	4581
▁निर्मित	4580
▁हार्दिक	4579
pt	4577
▁जन्मदिन	4577
▁कृपा	4574
ha	4573
धार	4573
▁रोज़	4572
▁75	4571
▁टू	4571
▁डाय	4571
▁कब्जा	4570
▁बुक	4570
▁दीपिका	4569
्व	4567
▁बम	4567
ढ़ी	4566
▁कैबिनेट	4565
▁प्ले	4564
▁ऑडियो	4563
▁सहज	4562
▁शोषण	4559
▁तेरे	4556
▁भूख	4554
▁लव	4553
▁तीसरी	4552
बाजी	4549
▁भय	4547
▁वाराणसी	4547
▁कार्यक्रमों	4545
▁सख्त	4543
▁अत्यंत	4542
▁फाइल	4542
▁जानना	4540
▁शक	4540
▁अमीर	4539
▁दुःख	4535
▁पाठ्यक्रम	4533
▁गरम	4532
▁रेप	4532
▁or	4531
▁कमर	4530
▁चंद	4528
▁जताई	4528
▁जियो	4526
▁प्रतिनिधि	4524
▁सकी	4524
▁बढ़ोतरी	4522
▁करवाने	4521
▁वर्णन	4520
▁शिविर	4518
▁डायरेक्टर	4516
▁साम	4515
▁गाना	4514
▁चीज़	4513
▁उल	4512
▁pro	4511
▁ब्रांड	4509
▁संसाधन	4509
▁बॉस	4507
▁दुर्गा	4502
▁आकर्षित	4501
▁फो	4501
▁रावत	4501
राने	4500
▁शिवराज	4500
▁टक्कर	4499
▁निरंतर	4499
▁प्रावधान	4498
▁सोनिया	4498
▁सर्वाधिक	4495
▁पं	4494
▁नवम्बर	4493
▁बज	4493
▁शाहरुख	4493
▁समझते	4493
▁आपस	4492
▁गायब	4492
▁रायपुर	4491
▁अनुवाद	4486
▁बाहरी	4484
इड	4483
ूत	4482
▁चरित्र	4482
िकी	4477
▁तट	4476
▁मुलायम	4471
▁प्रारंभ	4470
▁हैरान	4470
▁द्वार	4469
त्ति	4468
मै	4466
▁55	4466
▁अपेक्षा	4466
▁खींच	4465
▁इन्	4463
▁कंपनियां	4463
▁न्यूनतम	4460
▁देवता	4457
▁समर्पित	4457
▁लगाना	4456
▁संस्कृत	4456
▁सीटें	4456
▁शिखर	4455
▁सहयोगी	4455
▁अनुरोध	4450
▁घट	4449
▁तु	4449
लिन	4448
▁मारा	4448
▁सें	4444
▁छुट्टी	4443
▁अश्लील	4442
▁nm	4438
▁फे	4438
▁आतंकियों	4436
▁खारिज	4436
▁शीघ्र	4432
▁सर्वे	4432
▁300	4429
▁यूजर्स	4429
▁फायदे	4428
▁उल्लेखनीय	4427
▁डिवाइस	4425
ig	4424
त्मक	4424
▁प्रसन्न	4422
▁अधीक्षक	4420
▁गुस्सा	4419
▁बेचने	4418
▁रकम	4416
▁रवाना	4412
▁कालेज	4406
▁चन्द्र	4406
▁जानें	4406
▁तीसरा	4405
▁शाखा	4404
▁श्रृंखला	4404
▁शी	4402
ड़ियों	4401
▁चे	4399
▁झूठ	4393
▁वॉ	4393
▁लड़का	4392
द्ध	4390
वत	4390
▁सच्चाई	4389
▁दिवसीय	4387
ib	4385
▁राजनैतिक	4385
▁व्यक्तित्व	4384
▁चावल	4383
▁आचार्य	4381
▁उपन्यास	4380
▁रांची	4379
▁दिक्कत	4378
▁खर	4367
मय	4366
▁टूर्नामेंट	4363
▁लिखित	4363
▁मांगी	4362
▁जरुरत	4361
▁सकेगा	4361
▁पड़ने	4360
▁ब्याज	4360
▁रोटी	4358
▁गीता	4357
▁ne	4356
तियां	4355
▁छोड़ने	4355
▁पाउडर	4355
िला	4354
▁उपभोक्ता	4354
▁दाल	4351
▁डाले	4348
▁कट्टर	4345
▁जितने	4345
▁सरदार	4345
▁ज़रूरत	4342
▁ग्र	4341
▁निशान	4340
▁150	4338
▁चुप	4336
▁आएगी	4335
▁इस्तीफा	4335
▁मू	4334
ang	4333
▁राज्यसभा	4333
lo	4331
▁मोर्चा	4329
▁किमी	4328
▁दौरा	4328
▁मुह	4328
▁195	4327
30	4326
▁अधिकतम	4324
▁लाइ	4323
▁अरे	4320
वाड़ा	4319
न्ट	4318
▁ज्योति	4318
▁नाराज	4317
माल	4316
▁दिखने	4316
ou	4315
▁राजस्व	4314
▁एप	4313
▁डेढ़	4306
▁आरंभ	4304
▁सिविल	4304
▁उत्सव	4302
▁मजा	4300
▁स्टेडियम	4299
▁पार्टनर	4298
▁विधायकों	4297
▁article	4296
▁दिलाने	4295
▁रूम	4294
▁rgb	4293
▁उर्फ	4293
▁कायम	4293
▁विपक्षी	4292
▁हक	4290
ग्र	4283
क्ति	4280
▁निकला	4280
पूर्वक	4278
▁आरएसएस	4277
▁कोर्स	4277
▁अजीब	4276
▁तुम्हारा	4276
दारों	4274
▁आईटी	4271
▁अंडर	4270
ach	4268
▁hsl	4268
▁sam	4267
▁परा	4263
▁पृष्ठ	4263
▁अह	4262
▁चालू	4261
▁free	4259
▁man	4259
▁संतृप्ति	4259
▁भौतिक	4258
▁रद्द	4256
▁दायर	4255
▁दैर्ध्य	4252
▁हल्कापन	4252
ढ़ा	4250
ब्र	4250
▁ट्रांस	4245
▁बिल्ली	4245
▁अभाव	4240
▁अभिनय	4232
▁तारीफ	4232
▁दीवार	4232
▁महासचिव	4231
उन	4227
बु	4227
▁आगरा	4227
▁आएंगे	4226
यो	4225
▁जोखिम	4225
▁सर्वोच्च	4225
रु	4223
▁हेड	4223
योग	4222
▁स्नान	4221
▁जीबी	4220
▁निम्न	4219
▁माइक्रो	4218
मार	4216
▁जरुर	4216
▁बड़	4216
▁हैक्साडेसीमल	4213
▁सोना	4211
ंध	4210
▁टो	4210
जो	4209
▁ऑपरेशन	4209
▁बनना	4209
▁गोपाल	4208
▁फीचर	4207
▁संपन्न	4207
▁समा	4205
od	4203
▁चौथे	4201
▁तीर्थ	4201
ck	4200
टेड	4199
▁इंडस्ट्री	4199
▁इमरान	4199
▁स्वाद	4199
▁पैरों	4198
▁पूछे	4196
▁औद्योगिक	4194
▁जर्मनी	4193
▁सैकड़ों	4192
शि	4191
▁जवानों	4190
▁किंतु	4189
▁गै	4188
▁पाक	4188
▁आमंत्रित	4187
▁जरुरी	4187
ेश्वर	4185
▁बोलते	4182
▁सुरेश	4182
▁रिजर्व	4179
▁धूप	4176
▁फु	4175
▁तत्कालीन	4171
▁not	4167
▁लहर	4166
ार्थ	4165
ंदर	4163
▁बाबू	4162
▁42	4160
▁मायावती	4160
▁यकीन	4160
▁पहुंचाने	4159
▁बचे	4157
▁कोर	4156
▁आश्रम	4154
▁देखता	4154
▁शरण	4153
’’	4152
▁कहकर	4152
▁थाम	4149
▁बाधा	4149
▁रुख	4144
▁श्रम	4143
▁द्वितीय	4142
▁मुकेश	4141
▁डो	4140
▁इंटरनेशनल	4139
▁निगरानी	4139
▁स्रोत	4139
▁जोड़ने	4138
ind	4134
▁खासकर	4134
▁अधिसूचना	4133
▁देखो	4132
▁नारी	4132
og	4131
udio	4131
ss	4128
▁2008	4127
▁मिलना	4127
▁निरीक्षण	4125
de	4122
▁बैक	4122
▁शुरुआती	4122
▁चीफ	4119
▁मात	4118
स्ती	4117
▁साढ़े	4117
▁हस्ताक्षर	4116
▁शर्त	4115
▁राजकुमार	4114
▁त्रि	4113
na	4112
▁आमिर	4112
▁स्पेशल	4112
▁खुला	4110
▁सीता	4109
▁उपस्थिति	4106
all	4105
▁आरोपों	4104
▁अट	4103
▁दिनेश	4099
त्त	4098
▁प्रबंध	4098
▁छि	4096
▁खेला	4095
▁विजेता	4092
ge	4091
▁औरत	4089
▁कं	4089
हु	4087
▁इनकार	4087
▁प्रेमी	4087
मैन	4086
▁रोशनी	4086
▁खोलने	4084
म्म	4083
द्द	4081
▁घोटाले	4081
▁पाना	4080
▁मल	4079
▁par	4078
▁तुलसी	4078
▁बनती	4077
▁अनुसूचित	4073
▁मित्रों	4072
▁आतंकवादी	4071
▁छात्राओं	4070
▁आग्रह	4069
▁पर्वत	4068
▁रुचि	4066
▁निवास	4065
▁ज्योतिष	4064
गांव	4063
मैं	4063
▁जाया	4063
▁भला	4059
▁शुरूआत	4059
▁भि	4057
▁मंड	4057
▁शिशु	4057
▁सम्पूर्ण	4056
धर	4055
▁44	4055
ज्ञ	4054
▁आईपीएल	4054
▁पहन	4054
▁रखती	4053
ug	4052
▁अपर	4052
▁जहाज	4052
▁करोड़ों	4051
ियल	4050
ुआ	4050
▁विवेक	4049
▁गोरखपुर	4048
▁भेजने	4048
▁नोएडा	4047
99	4045
▁अधीन	4045
▁भोग	4044
▁सूत्र	4042
▁जरा	4039
▁खि	4037
▁रेट	4037
▁प्रोफेसर	4036
ard	4035
▁लक्षण	4035
▁विशेषज्ञ	4035
▁विद्यार्थी	4034
▁वेद	4034
▁देहरादून	4030
▁इंजीनियरिंग	4029
▁विंडोज	4029
़ी	4026
▁शु	4026
▁सब्जी	4026
▁हीरो	4026
इज	4025
▁कंट्रोल	4025
▁जीते	4025
▁can	4024
पि	4023
▁कार्यकाल	4023
▁देखभाल	4023
▁एकमात्र	4022
▁सिख	4022
टिंग	4021
▁बॉडी	4021
ूरी	4019
▁गहरा	4019
▁आजाद	4018
▁स्वच्छता	4018
▁कमल	4015
▁रावण	4015
▁सदन	4014
▁झेल	4013
▁क्षण	4012
▁बढ़ी	4012
जों	4010
▁स्टोरी	4010
▁जानिए	4009
▁प्राण	4009
▁हॉ	4008
▁मरीज	4006
▁मिलेंगे	4006
▁फार्म	4005
▁पाती	4004
▁फायदेमंद	4004
तः	4003
▁मरने	4003
▁मधु	4002
▁परम्परा	4000
शे	3999
me	3998
▁शोर	3996
▁विनोद	3995
▁हड़ताल	3993
▁कामयाब	3992
▁मं	3992
▁छत	3991
रेट	3990
▁65	3989
▁01	3988
▁तुमने	3988
▁श्रद्धा	3988
▁बैटरी	3987
qu	3986
▁क्रांति	3985
▁ऑफर	3984
▁हंस	3984
▁ad	3983
▁अभिषेक	3983
▁सैन्य	3983
▁ख़बर	3982
▁डु	3982
▁निर्यात	3982
▁आश्चर्य	3981
▁ते	3981
▁सोनी	3981
हल	3980
▁रमेश	3980
end	3979
▁पाँच	3979
▁मिर्च	3978
▁समझौते	3973
्म	3970
हरा	3968
▁मजदूर	3967
ज़ी	3963
▁tr	3963
▁रनों	3963
ive	3957
लाने	3955
▁ऋषि	3954
▁ag	3953
▁भाषाओं	3953
▁मम्मी	3949
▁मज़ा	3948
▁लीग	3948
षा	3947
▁जज	3947
शील	3946
▁जिलाधिकारी	3946
▁फर्क	3945
▁मानने	3945
▁इंदिरा	3943
▁लड़कियां	3943
▁संस्थानों	3943
▁सवालों	3943
ख़	3942
▁ज़रूरी	3941
▁हिम्मत	3939
▁सैनिक	3938
▁चाल	3937
▁व्यापारियों	3937
▁उल्लंघन	3936
▁परिस्थितियों	3935
▁श्रीवास्तव	3935
▁नामांकन	3934
दन	3933
दल	3932
▁प्रकरण	3932
▁पब्लिक	3931
▁ज्ञापन	3930
ऐ	3929
▁इकाई	3926
▁गहरी	3926
▁दिलचस्प	3925
▁वर्षा	3925
ight	3922
▁आस्था	3922
▁वादा	3919
▁प्रकाशन	3918
▁रिश्ता	3918
▁प्रशासनिक	3917
▁बारी	3915
▁दलितों	3914
▁बालक	3911
▁सोचने	3911
▁चमक	3910
▁हिस्सों	3909
▁अंश	3908
▁जाल	3906
▁ईमेल	3904
▁जयंती	3901
ana	3897
फ्	3893
▁ph	3893
▁05	3892
▁दृष्टिकोण	3892
▁डीएम	3889
▁sc	3886
▁previous	3885
▁sp	3885
▁झटका	3883
▁वार्षिक	3883
▁हिरासत	3883
ूंगा	3881
▁बढ़त	3880
▁हरकत	3879
▁रेडियो	3878
▁पार्टियों	3877
▁वर	3876
▁गी	3873
▁नकारात्मक	3872
▁राजद	3871
▁अत्यधिक	3870
▁श्रेष्ठ	3869
▁कोतवाली	3868
ance	3867
▁चूंकि	3867
▁दीपावली	3867
▁नृत्य	3867
▁अंतरिक्ष	3865
▁काव्य	3865
▁मृत	3865
▁सिद्धांत	3865
▁स्पीड	3865
सल	3864
▁इन्हीं	3863
▁पह	3863
▁प्रसार	3863
▁३	3863
▁मृतक	3862
▁हरि	3861
▁39	3860
▁संरचना	3860
वाह	3858
▁भट्ट	3858
▁साधना	3858
▁पुन	3857
▁मरीजों	3857
▁ज़रूर	3856
▁use	3855
▁गौतम	3855
▁आयुक्त	3854
▁करण	3852
▁सोचते	3851
▁मस	3850
▁live	3849
▁चोपड़ा	3847
▁यून	3845
ंदी	3844
▁फेंक	3844
▁मच	3844
काने	3842
▁गढ़	3842
▁नवीनतम	3842
▁चढ़ा	3838
▁विडियो	3836
▁एसोसिएशन	3835
न्ना	3832
▁उठाए	3831
▁चार्ज	3831
▁sex	3830
▁उच्चतम	3829
ौली	3827
▁गुर	3826
▁गांड	3822
▁उत्तरी	3815
▁नवीन	3814
▁निः	3814
▁छु	3812
▁किन	3809
▁फुट	3809
दु	3808
▁प्लास्टिक	3808
▁2000	3806
गें	3805
बाज	3803
▁पुर	3801
्यु	3800
▁we	3798
▁ब्लड	3798
▁do	3797
▁पथ	3797
▁जागरण	3796
▁ko	3795
▁64	3789
▁ड्राइवर	3789
▁कलेक्टर	3784
▁क्यू	3783
▁पौ	3783
▁माफी	3783
aj	3780
▁पदाधिकारी	3780
oo	3779
▁51	3778
▁मार्	3776
▁आधे	3775
▁47	3772
बद्ध	3770
▁खतरे	3770
▁साधन	3768
▁पुणे	3767
▁जीवित	3765
वाया	3764
▁मस्तिष्क	3764
ाये	3763
▁आह	3763
▁ढेर	3763
▁लिखते	3762
लाइन	3761
▁तालाब	3761
▁आव	3759
▁शब्दकोश	3759
ill	3757
सान	3757
pe	3754
▁दत्त	3754
▁स्वर्ग	3753
हत	3752
▁कटौती	3752
▁हट	3751
▁बहुमत	3750
▁फैशन	3748
▁पट	3747
▁वचन	3747
▁http	3746
▁हैंः	3746
▁खैर	3745
▁संसदीय	3743
▁46	3742
▁आर्य	3742
▁एक्	3739
▁अक्ष	3737
▁एसटी	3737
टक	3736
तु	3736
▁गिरा	3736
▁जीने	3736
▁next	3735
,4	3733
▁43	3733
▁गोद	3733
▁सिर्फ़	3732
▁जोड़ा	3729
▁पीड़िता	3729
चि	3727
र्न	3726
ैल	3725
▁मेकअप	3725
▁अफसर	3724
te	3722
ry	3720
▁अल्	3720
▁अं	3717
▁बतौर	3717
▁सेवाएं	3716
▁घी	3715
▁पकड़ा	3714
▁लापरवाही	3714
▁उपयुक्त	3713
्रेट	3711
▁रूट	3711
▁हाइ	3710
▁शुक्ल	3707
▁तत्वों	3706
▁अफगानिस्तान	3705
▁फी	3704
घर	3703
ाराम	3702
▁उत्तम	3700
▁बेस्ट	3699
▁एयरपोर्ट	3696
▁कष्ट	3696
▁जमानत	3696
▁भाग्य	3696
▁मैसेज	3694
▁सस्ता	3694
▁शौचालय	3693
▁तिल	3692
▁फीस	3691
▁बेल	3691
‘	3690
▁चेयरमैन	3689
ub	3688
▁कर्	3688
▁नाथ	3687
▁सामूहिक	3687
▁सैनिकों	3687
ans	3686
ess	3686
▁अना	3685
▁बल्लेबाजी	3685
▁स्तरीय	3682
▁लघु	3675
▁मेट्रो	3674
नेट	3673
▁website	3671
▁दया	3671
▁एक्टर	3669
cl	3665
▁मकसद	3665
पत	3664
▁बीत	3662
हू	3661
▁दोस्ती	3661
िप	3659
ंब	3656
▁ब्यूरो	3656
▁मनीष	3655
▁वारदात	3655
ore	3654
▁उभर	3654
▁टाइम्स	3653
▁वॉलपेपर	3653
▁सुभाष	3653
▁क्रोध	3649
▁चंडीगढ़	3649
▁जाग	3649
दो	3648
▁व्याख्या	3648
ud	3645
▁गत	3645
▁आंकड़ों	3644
▁उड़ा	3643
▁क्रेडिट	3643
▁तहसील	3642
लु	3640
▁आशीर्वाद	3640
▁पवन	3640
▁भार	3639
ci	3638
▁शहद	3638
डि	3636
धान	3636
▁सुनते	3636
कट	3635
▁जंग	3635
▁दीप	3635
▁यश	3635
▁सबूत	3635
▁ख्याल	3633
▁छुटकारा	3632
▁चलाया	3631
▁ताज	3631
▁बारह	3631
ठी	3630
▁गर्व	3629
▁घाटी	3628
▁भेंट	3627
▁डाक	3625
कृत	3621
▁बीस	3621
नु	3620
▁41	3619
▁अभ	3618
▁पोषण	3618
ँग	3617
▁मनाने	3616
▁सरकारों	3616
▁आं	3615
▁गरीबी	3612
▁संवाददाता	3611
▁अमरीका	3610
▁भेजे	3610
up	3608
▁कॉम	3608
▁एकल	3607
▁दोनो	3606
▁समझना	3604
,3	3603
▁पू	3603
▁lo	3602
▁आकर्षक	3602
▁गाँधी	3602
▁49	3601
▁पान	3599
▁लांच	3599
▁प्रत्यक्ष	3598
्यून	3597
▁रोगों	3597
▁साजिश	3597
▁आँ	3596
▁चुने	3595
▁जबरदस्त	3595
▁कुत्ते	3593
▁मिलियन	3593
80	3591
▁पश्चात	3591
▁आन्दोलन	3588
▁नशे	3585
ल्ली	3584
▁कार्	3582
कीय	3581
▁वृक्ष	3581
▁दर्जन	3580
▁साथियों	3580
▁अकबर	3579
▁ख़ास	3578
▁पहाड़	3577
ंडा	3570
▁भावनाओं	3569
ver	3568
▁400	3568
आइ	3563
▁साइकिल	3562
▁आपसी	3561
ावत	3560
▁इंजीनियर	3560
▁1000	3559
▁कैसी	3559
▁मिश्रण	3559
▁अपमान	3558
▁अर्थात्	3558
▁फैल	3555
▁कमेंट	3554
▁रूपए	3554
क्त	3553
▁दावे	3552
▁फिट	3551
▁कीजिए	3550
▁नियंत्रित	3550
ज्	3548
▁दुष्कर्म	3548
▁पैमाने	3547
ड़िया	3546
▁कौर	3544
▁घंटों	3544
▁विचारधारा	3544
▁अफसरों	3543
▁शास्त्र	3543
▁भूत	3542
▁pre	3541
▁बिक	3541
▁साक्षात्कार	3539
▁त्योहार	3538
▁बोझ	3538
,6	3536
तिया	3536
सिक	3534
▁पार्ट	3533
▁राजपूत	3533
लै	3531
दीप	3529
▁comp	3528
▁चर	3527
▁गरीबों	3526
▁लीजिए	3526
▁श्याम	3526
▁यूं	3525
▁सदी	3525
▁बनते	3521
र्द	3520
स्क	3520
▁aap	3520
▁how	3520
▁आंकड़े	3516
▁फांसी	3516
▁बैठकर	3516
▁टन	3515
▁टॉ	3515
▁विशेषता	3511
▁माला	3510
▁अधिकारों	3509
▁पहुँचा	3509
▁कवर	3508
▁बुद्ध	3507
▁अनुरूप	3505
▁व्य	3505
▁श्रीनगर	3505
▁मुखिया	3503
▁ठोस	3501
▁फाइ	3501
▁डाली	3500
▁पृष्ठभूमि	3500
▁टेक्नोलॉजी	3499
▁ढा	3499
ice	3498
▁मोड़	3495
▁राग	3495
▁रात्रि	3492
▁वस्तुओं	3492
▁पोस्टर	3490
वासी	3489
▁विधेयक	3489
▁रोगी	3487
▁तन	3486
▁बाई	3485
▁हुसैन	3485
▁शतक	3483
▁टाटा	3481
थे	3480
▁अज्ञात	3480
▁प्रोटीन	3479
▁बॉ	3478
▁गेंदबाज	3477
▁पेशेवर	3477
▁from	3475
▁मनमोहन	3475
▁ऑल	3474
▁किस्म	3474
▁थोड़े	3474
▁छाया	3472
▁काटने	3469
▁ग्रीन	3469
▁लाइसेंस	3468
▁प्रयासों	3467
▁आसमान	3465
▁अग्नि	3464
धिकारी	3460
▁कठोर	3459
▁मुहैया	3459
▁चोर	3457
▁196	3456
▁फैंस	3456
▁कराए	3455
▁बैग	3455
▁भव्य	3455
▁हंगामा	3455
▁bhaskar	3453
▁गंभीरता	3453
▁बताए	3453
▁दीदी	3452
हाल	3451
▁मंत्रियों	3451
कम	3450
जार	3450
ानों	3450
▁बैंकिंग	3449
▁खी	3448
▁सिंचाई	3448
▁भगत	3447
▁दरवाजे	3444
▁लायक	3444
q	3439
केट	3439
▁रिकार्ड	3439
▁शिवसेना	3439
ick	3438
▁उतनी	3438
▁गर्भ	3438
▁संस्थाओं	3437
▁पौधे	3436
ide	3435
▁जिसको	3432
▁52	3431
▁खुली	3430
▁पढ	3430
िनी	3428
▁pl	3428
▁त्यौहार	3427
▁सऊदी	3427
▁मासूम	3426
▁यूजर	3425
▁मेले	3424
▁कम्पनी	3421
शु	3417
ell	3416
▁नेट	3416
▁मोटर	3416
▁शताब्दी	3415
▁आध्यात्मिक	3414
▁एससी	3414
▁युक्त	3414
▁हज़ार	3412
▁कहें	3411
▁पड़ोसी	3411
▁दोहरा	3409
▁फ्र	3409
▁indian	3407
▁उदयपुर	3405
▁अहमदाबाद	3404
▁परियोजनाओं	3404
▁मंडी	3404
▁पारिवारिक	3402
▁रहस्य	3402
ज्ज	3401
न्या	3401
▁कबीर	3401
▁कोलिन्स	3400
▁दफ्तर	3400
▁वैसा	3398
बीर	3397
▁latest	3397
▁कमाल	3397
▁महेंद्र	3397
▁माध्यमिक	3396
ठे	3395
रत	3394
▁गुप्त	3393
▁जम	3390
▁जॉन	3389
▁56	3388
▁72	3388
▁जुट	3388
▁सद	3388
▁कीमतें	3387
▁online	3386
▁रिश्तों	3386
पुरी	3385
▁इच्छुक	3385
▁sk	3381
▁सम्बंधित	3378
▁टेबल	3376
▁बनर्जी	3375
▁राजकीय	3375
फ़ा	3374
▁आपदा	3373
फ़ी	3370
▁अन्	3370
▁जिंदा	3367
डिया	3366
▁देशभर	3366
▁विमर्श	3365
▁कृ	3364
▁facebook	3363
▁कलाकारों	3362
▁अन्त	3361
▁ग्रे	3361
त्री	3360
▁po	3360
▁कार्यरत	3359
▁फॉर	3359
प्त	3357
▁अवतार	3357
▁नवा	3357
24	3356
ेंगी	3355
▁नौकर	3354
▁पिछ	3354
▁जाएँ	3353
झा	3352
ोगे	3351
▁प्रवृत्ति	3351
▁दिग्गज	3350
▁हॉट	3350
▁आयात	3349
▁तेरी	3349
ies	3347
▁पंक्ति	3345
▁कर्मियों	3344
▁क्	3344
▁माइ	3344
▁लगाएं	3344
▁सर्च	3344
▁पोर्टल	3342
मानी	3341
▁बुनियादी	3339
▁हवाले	3339
ैया	3338
har	3337
र्च	3337
▁सीनियर	3337
▁54	3336
▁उसमे	3335
▁बौ	3335
▁भग	3334
▁dainik	3333
▁मेला	3332
▁कलर	3331
ff	3330
▁जूझ	3330
▁ट्रैक	3330
▁वैज्ञानिकों	3330
aw	3329
▁बिमारियों	3329
▁अभिव्यक्ति	3328
▁नाक	3328
न्ध	3327
▁हुईं	3326
▁डॉक्टरों	3325
बै	3323
▁ट्रेनिंग	3323
लीन	3321
▁मछली	3318
▁सभ्यता	3318
▁दायरे	3317
vi	3314
▁हल्का	3314
▁प्री	3313
▁लंबा	3311
ंकी	3310
▁आलू	3310
▁हिंदुस्तान	3309
शाह	3308
▁off	3308
▁आश्वासन	3303
धिक	3302
▁उन्हे	3295
▁साउथ	3295
▁मानो	3293
▁ऑन	3292
▁पारित	3292
▁प्रारम्भ	3292
ावर	3291
कालीन	3290
चक	3290
ूट	3290
▁मुखर्जी	3290
▁बैठी	3287
▁कैंप	3286
सार	3285
▁आकर्षण	3285
▁गे	3284
▁तरीकों	3284
▁मानें	3284
▁लेवल	3283
▁संतान	3283
▁सिफारिश	3283
वर्	3282
▁प्राथमिकता	3281
▁अपराधी	3280
▁महंगाई	3279
▁शोक	3279
▁संदिग्ध	3279
▁कोने	3277
▁प्रखंड	3277
▁फंस	3277
▁आलोक	3276
▁बढ़िया	3275
▁नीतियों	3274
▁राजनाथ	3274
▁दिसम्बर	3273
▁वंचित	3272
ue	3270
अल	3270
▁नजदीक	3270
▁एक्शन	3269
षी	3268
▁धातु	3268
▁निकाली	3268
▁सेक्सी	3268
र्त	3267
▁रोका	3267
▁स्थिर	3267
▁https	3264
▁खिताब	3264
▁महाविद्यालय	3262
▁बाज़ार	3261
▁स्वाभाविक	3261
▁गर	3260
ane	3259
▁रहकर	3258
ise	3253
▁श्रीकृष्ण	3253
ूब	3251
▁are	3251
▁जागरूकता	3250
▁प्रांत	3250
चन	3249
▁घूमने	3248
▁बहादुर	3248
लैंड	3247
▁महल	3245
▁समस्याएं	3245
▁स्वीकृति	3244
▁बताना	3243
▁रफ्तार	3243
पक	3242
▁विभागों	3242
्हा	3241
▁now	3240
▁पक	3240
▁जादू	3239
▁तौ	3239
वाय	3235
▁महेश	3235
ारों	3234
iz	3233
▁सुविधाएं	3233
▁निपटने	3232
र्व	3231
▁उत्कृष्ट	3231
▁सूरत	3231
ank	3230
त्ता	3230
▁स्थायी	3230
▁एसिड	3229
▁ज़ोर	3229
▁चो	3227
▁भारतीयों	3226
▁उन्	3225
▁रणवीर	3225
▁कामना	3223
▁ड्यूटी	3223
▁दही	3223
्यो	3222
▁हर्ष	3220
▁whatsapp	3218
▁टि	3217
▁काफ़ी	3216
18	3215
▁दरवाजा	3214
▁रिक	3214
घा	3213
व्य	3213
▁2007	3213
▁चांदी	3213
स्प	3209
▁कच्चे	3208
▁पहना	3208
म्बर	3207
▁स्टैंड	3207
▁स्टे	3206
▁रत्न	3201
▁शौक	3200
▁सदर	3199
▁बिता	3198
▁जोधपुर	3197
▁सीखने	3197
▁अन्ना	3196
▁युवकों	3196
ृत	3195
▁स्क	3195
11	3194
▁उम	3191
▁बर्फ	3191
▁आधी	3190
▁दंड	3187
▁स्टाफ	3186
▁बढ़ाया	3185
▁लिहाज	3185
तान	3184
ोरी	3184
▁अंकों	3184
ल्ल	3182
▁min	3181
▁रिलायंस	3180
ल्म	3179
▁पीड़ा	3179
▁पन	3178
▁प्राधिकरण	3178
▁wh	3176
▁मजाक	3176
▁वाई	3176
▁एहसास	3174
pur	3172
मारी	3172
यु	3169
▁ओलंपिक	3169
▁मानक	3168
▁उर्दू	3167
▁चलेगा	3167
▁क्योकि	3166
▁मास	3166
▁सरस्वती	3166
▁09	3164
▁शरीफ	3163
लम	3161
▁ती	3161
क्का	3158
▁अपराधियों	3158
▁एसी	3158
▁सहमत	3158
▁आल	3155
ord	3154
स्तान	3154
▁घड़ी	3153
▁झील	3153
▁मन्दिर	3153
एक	3151
▁त्रिपाठी	3150
esh	3149
▁चिल्ला	3148
▁निकली	3148
▁पदार्थों	3148
▁वाद	3148
▁सौंदर्य	3148
▁मैनेजर	3147
▁दशा	3145
ढा	3144
▁cont	3143
ंटी	3142
▁comments	3142
▁कैद	3142
▁जात	3142
हरे	3141
▁भूकंप	3140
▁गेहूं	3139
▁लकड़ी	3138
▁शास्त्री	3138
▁बहाने	3137
▁रुपया	3137
▁res	3136
▁केंद्रित	3136
माया	3132
▁पांडेय	3130
▁संपूर्ण	3130
▁४	3129
▁खेलते	3128
▁फुटबॉल	3127
▁बन्द	3127
▁गिरने	3126
▁घुस	3126
वेयर	3125
▁मुस्	3123
▁हरे	3123
▁निर्देशन	3122
▁अखिल	3121
▁अनुष्का	3121
▁जाँच	3121
▁फुल	3121
▁जनसंख्या	3120
12	3119
▁गुरू	3119
▁वंश	3119
▁कब्जे	3118
▁ट्रेलर	3118
▁दर्जा	3117
गन	3116
▁सिम	3116
our	3114
▁ab	3112
▁कराना	3112
▁संहिता	3112
वालों	3109
▁प्लेट	3109
▁धार	3108
▁स्टील	3107
▁अवगत	3106
▁विशेषज्ञों	3105
▁एका	3103
▁समर्थक	3101
▁हमसे	3101
ail	3100
▁q	3098
▁जाएंगी	3094
▁प्रशंसा	3094
▁हेल्थ	3094
करा	3091
▁times	3091
▁उपकरणों	3090
▁एंड्रॉयड	3090
▁धवन	3090
▁मेरठ	3087
▁मतदाता	3086
▁पसंदीदा	3085
▁व्यावसायिक	3085
टल	3084
▁07	3084
▁देरी	3083
▁यातायात	3083
▁सुनी	3079
लेस	3078
▁रोशन	3078
one	3077
▁बुजुर्ग	3077
लीय	3075
्यता	3075
ial	3074
बान	3074
▁प्रतिनिधित्व	3074
▁शुक्ला	3074
▁करेंगी	3072
▁ज्ञात	3072
▁best	3071
▁ro	3071
▁top	3071
▁डूब	3071
▁स्नातक	3071
▁कक्ष	3069
▁शक्तिशाली	3068
▁गणित	3067
▁धूम	3066
▁ट्रेड	3065
▁जूनियर	3062
▁माल्या	3061
▁ऊंचाई	3060
▁06	3059
▁टाइप	3059
▁वस्त्र	3059
▁उड़ान	3058
▁यज्ञ	3054
▁शुक्र	3054
न्दा	3050
▁02	3050
▁खोला	3049
▁click	3048
▁hindustan	3048
▁दरों	3048
▁दस्तावेज	3048
▁श्र	3048
पल	3047
▁उपर	3047
▁गैंग	3047
▁देवताओं	3047
▁अत्याचार	3045
▁चेतना	3044
▁शेख	3044
▁मनोहर	3040
कारा	3039
▁इन्होंने	3038
▁बरकरार	3038
▁अंज	3037
▁आंध्र	3036
चल	3035
▁ठहर	3035
▁सब्सिडी	3035
▁वर्क	3033
▁इंद्र	3031
▁नतीजे	3030
भूमि	3027
▁exam	3026
▁निर	3026
▁मिस	3025
▁194	3024
▁पहने	3024
▁अपलोड	3023
▁बादल	3023
▁भागीदारी	3023
▁स्टॉक	3023
▁68	3022
▁प्रारूप	3021
▁मज	3021
▁चलिए	3020
▁चलो	3020
▁डेस्क	3020
▁निफ्टी	3020
▁हिट	3019
ांस	3018
▁jo	3017
▁डेट	3017
▁सॉ	3017
▁स्किन	3017
▁youtube	3016
▁यूरोपीय	3016
बन	3013
▁देनी	3013
▁उद्	3012
▁परिचित	3011
▁पुष्प	3011
च्छ	3010
▁शर्म	3009
▁story	3008
▁काबू	3008
▁क्ला	3008
▁पहाड़ी	3006
uk	3005
ांक	3003
▁झु	3003
▁बौद्ध	3003
तक	3002
▁नारियल	3002
राय	3001
▁लू	3001
सह	3000
▁गुलाब	3000
▁सर्वेक्षण	2999
मंडल	2998
▁आंतरिक	2998
▁घंटा	2998
▁मूल्यों	2998
▁पंजीकरण	2995
ary	2994
▁यमुना	2994
▁संवेदनशील	2994
▁इलेक्ट्रिक	2990
▁पेस्ट	2988
▁स्कीम	2988
▁हादसा	2988
▁प्रतिष्ठित	2987
▁बचत	2985
▁मासिक	2984
▁माया	2983
▁अन्यथा	2982
▁आनन्द	2982
▁जटिल	2982
▁dis	2981
▁आखिरकार	2981
▁काशी	2980
▁ओम	2979
▁घटनाएं	2977
▁आंख	2976
▁कुंडली	2976
▁मोर	2976
▁लाश	2976
▁तै	2975
चंद	2972
▁सिलसिला	2972
▁ईंटरनल	2971
▁डॉट	2970
▁कारोबारी	2969
▁बाय	2969
▁जानकर	2967
▁दादा	2967
▁मजबूती	2967
▁उठाकर	2966
▁कामकाज	2966
▁पक्षों	2966
मीन	2965
▁जॉब	2965
▁कामों	2964
▁भक्तों	2964
श्वर	2963
▁नाबालिग	2963
▁टेक	2962
▁बेसिक	2962
60	2960
▁एज	2959
▁संक्रमण	2957
▁हानि	2957
▁अवार्ड	2956
▁डालें	2956
▁सपोर्ट	2956
▁डील	2954
▁उत्पीड़न	2953
▁भास्कर	2953
▁लड़कों	2953
अर	2952
▁टिक	2952
लां	2951
▁मुठभेड़	2951
▁यीशु	2951
▁वास्तु	2950
एक्स	2949
▁mp	2948
▁पेशकश	2948
▁इंस्टाग्राम	2947
▁उपयोगकर्ता	2947
ब्स	2946
▁बिर	2944
▁संभाल	2944
▁कहानियों	2943
▁फूड	2943
▁बाँ	2943
▁समर्थकों	2943
वाना	2942
▁बदमाशों	2942
▁कोट	2941
ताल	2939
▁ध्वनि	2938
▁बुरे	2938
▁कैश	2937
▁गर्भवती	2937
▁त्र	2937
▁08	2936
▁जातियों	2936
▁टिप्स	2936
▁मनी	2934
▁वीं	2934
▁द्वीप	2932
▁संस्थापक	2932
ृति	2930
▁लम्बे	2930
▁इंकार	2929
▁53	2928
▁उदय	2927
▁बर्बाद	2926
कोट	2925
▁गली	2925
▁नायक	2925
▁पोस्टमार्टम	2925
▁सबका	2925
▁आंटी	2924
▁समीप	2924
▁पागल	2923
▁मनो	2923
▁भैया	2921
▁विस्फोट	2921
ग़	2920
▁जानवरों	2920
▁हल्के	2919
▁mar	2918
▁दुर्भाग्य	2918
▁समलैंगिक	2918
▁निय	2916
▁चाचा	2914
▁जानवर	2914
▁जातक	2913
जरी	2912
▁एलईडी	2912
ोस	2911
यल	2910
▁क्रमशः	2910
▁sa	2909
सीसी	2908
▁जोड़े	2908
▁मोड	2908
▁श्रद्धांजलि	2908
▁प्रवाह	2906
▁बैठने	2906
▁धरना	2904
▁सुशील	2903
▁अपहरण	2902
▁बिस्तर	2902
▁मीटिंग	2901
▁120	2900
▁क्ल	2896
▁जाट	2896
▁mobile	2894
▁घेर	2894
▁शिक्षण	2893
▁पैकेज	2891
▁मानता	2891
स्टा	2890
▁मंग	2890
▁शह	2890
▁तरफ़	2889
▁ठंडा	2888
▁नक्षत्र	2888
▁आईं	2887
▁आपत्ति	2887
▁पंप	2887
▁भटक	2887
प्पा	2886
▁पुरूष	2886
▁स्टूडियो	2885
धे	2884
▁पिटाई	2884
▁जागरूक	2883
▁स्टाइल	2883
▁पांडे	2882
ध्य	2881
▁तस्वीरों	2880
▁संदीप	2880
▁देन	2879
िफ	2877
▁रोचक	2876
ल्ले	2875
▁चपेट	2875
▁संदेह	2874
गण	2871
▁दायित्व	2871
चना	2870
▁इमारत	2870
ical	2869
▁कैलाश	2869
मुख	2868
▁स्वा	2867
▁पारंपरिक	2866
▁सृजन	2866
▁सेंसर	2866
▁2006	2865
▁आतंकवादियों	2865
▁जेब	2865
40	2862
port	2862
▁सस्ते	2862
ैं	2860
▁my	2859
▁ख़त्म	2859
▁सम्पन्न	2859
ड्	2858
▁आभार	2856
▁शान	2856
िड	2855
▁प्लांट	2855
▁03	2854
▁aur	2853
▁नतीजा	2852
▁प्रिंट	2852
▁ओडिशा	2851
▁मंदिरों	2851
▁वरना	2851
▁ड्राइव	2850
▁पीट	2850
▁अकेला	2848
मेट	2847
ॉक	2847
▁कुर	2847
▁जुर्माना	2846
▁दीजिए	2846
▁पाये	2846
▁कमाने	2845
▁शत्रु	2845
▁day	2844
▁57	2843
▁सौभाग्य	2843
▁99	2842
▁गुल	2842
,7	2840
▁मजदूरों	2840
▁चाहें	2838
▁नम्बर	2838
▁बिगड़	2838
▁आइये	2836
▁पढ़ते	2836
▁ब्रेक	2836
▁यूनियन	2836
▁विद्यालयों	2836
▁जिनसे	2834
▁ष	2834
▁५	2832
ुप	2831
ेक	2831
स्ट्री	2827
मिया	2826
▁अन्न	2826
▁गहराई	2826
▁सृष्टि	2826
▁कविताओं	2825
▁पहुंचकर	2825
▁पैनल	2825
▁तुझे	2824
▁बगैर	2824
▁सब्	2824
▁आह्वान	2823
▁नु	2823
▁एंड्रॉइड	2822
▁मल्टी	2822
किल	2821
▁टीचर	2821
▁टीमों	2821
▁शैक्षिक	2820
▁सस्ती	2820
शक्ति	2819
▁उजागर	2818
▁उपाध्याय	2818
▁झलक	2817
.30	2816
▁अहसास	2816
▁पड	2816
▁cl	2815
▁पकड़े	2815
▁बोर	2814
▁मद्देनजर	2814
▁रथ	2814
▁लीला	2814
ata	2813
▁बुखार	2813
ens	2812
▁समृद्धि	2812
तिक	2810
▁पैदल	2810
▁प्रसारण	2810
▁इनसे	2809
▁घबरा	2809
िस्ट	2808
▁पंकज	2808
▁वाह	2808
▁कॉपी	2807
▁रामदेव	2806
▁share	2805
▁प्रोडक्ट	2805
घाट	2804
▁im	2803
▁पुण्य	2803
▁सूक्ष्म	2803
▁सावधानी	2802
▁साम्राज्य	2800
आप	2799
शनल	2798
्यूशन	2798
▁प्ला	2798
▁लिखना	2798
▁अनाज	2797
न्ड	2796
लेन	2795
▁दुसरे	2795
▁गठित	2794
▁यूट्यूब	2794
▁एंट्री	2791
▁निकाय	2791
▁नाकाम	2790
▁लीजिये	2790
▁नज़	2789
▁कूद	2788
▁सोनम	2788
बंद	2787
▁दुखी	2786
ॉय	2785
▁चिप	2785
▁किराए	2784
▁गणना	2784
▁समृद्ध	2784
धारी	2783
▁पहनने	2783
▁वाकई	2782
षण	2780
▁साहस	2780
▁खरी	2777
▁गोयल	2777
▁चरणों	2776
▁ट्रैफिक	2776
,2	2775
▁अन्तर्गत	2775
▁पाठकों	2775
▁बहू	2775
▁कुर्सी	2774
▁अफ	2773
▁शरद	2773
क्षा	2772
▁दुर्ग	2772
▁महाभारत	2772
▁बनाएं	2769
इंग	2767
▁मूल्यांकन	2767
श्र	2766
▁कार्तिक	2766
▁यंत्र	2766
चारी	2765
▁197	2765
▁बताता	2765
▁रौ	2764
वाइ	2763
फ्ट	2761
▁छीन	2759
▁फीसद	2759
▁आरती	2758
▁हलचल	2756
▁बताती	2755
ड़क	2754
▁कनाडा	2754
▁कृष्णा	2754
▁बजा	2754
▁नाव	2753
▁महोत्सव	2752
▁आर्	2751
▁ग्वालियर	2751
▁तूफान	2751
▁बर्तन	2751
▁असफल	2750
▁मायने	2750
▁मारकर	2750
फल	2749
▁hd	2749
▁सीधी	2748
▁हॉल	2748
▁एटीएम	2747
▁comm	2746
▁मील	2746
▁मानवीय	2745
ome	2744
▁दिखता	2744
▁हल्दी	2744
ren	2743
यक	2743
▁तेलंगाना	2743
▁खनन	2742
▁लिखकर	2742
▁तोड़ने	2741
▁एव	2739
▁बीसीसीआई	2737
ma	2736
▁रसोई	2736
▁साड़ी	2736
▁अनंत	2735
▁चरम	2735
▁सदैव	2735
▁नारे	2733
▁may	2732
▁rs	2732
सला	2731
25	2730
▁निम्नलिखित	2730
ंकर	2729
▁कड़ा	2729
▁मद	2729
▁धोखा	2728
▁आज्ञा	2727
बत	2726
▁पीछा	2726
▁मांस	2726
▁आशीष	2725
रिक	2723
ाने	2723
▁he	2723
▁छठ	2723
▁रेस	2723
han	2722
▁चौकी	2721
▁विरासत	2721
▁सप्लाई	2721
int	2720
▁प्रबंधक	2720
▁windows	2719
▁account	2718
▁कुमारी	2718
▁गुड	2718
ric	2716
▁छाप	2715
▁टुकड़े	2715
▁प्रदीप	2715
ैक्ट	2714
▁तेजस्वी	2714
▁दुश्मन	2714
▁प्रतिष्ठा	2714
▁रियल	2714
▁उठे	2713
ोली	2712
▁web	2711
▁आत्मविश्वास	2711
▁मस्त	2711
▁लेन	2711
▁उठता	2710
▁गुणों	2710
▁भेदभाव	2710
▁अंग्रेजों	2709
▁ढाई	2709
▁छेड़छाड़	2708
▁बरस	2708
▁परे	2707
पाई	2706
▁कांड	2706
▁बलों	2706
▁बाजारों	2706
टेक	2705
▁लम्बी	2705
▁शुभकामनाएं	2705
▁छोड़ा	2704
▁तिमाही	2704
लिए	2703
▁बिंदु	2703
▁घटा	2702
▁प्रोत्साहित	2701
ंतर	2698
▁फूलों	2698
▁62	2697
▁गेंदों	2697
▁ट्यूब	2697
▁कन	2696
▁ठंड	2696
▁लेट	2696
वासियों	2695
▁नकली	2695
बंदी	2694
▁परमात्मा	2694
▁पायलट	2694
▁रिया	2694
▁अर्चना	2693
▁डै	2693
पने	2691
▁पड़ेगी	2691
▁दाग	2690
▁get	2688
▁प्रस्तावित	2687
▁वैदिक	2687
▁प्रचलित	2686
▁संभावित	2686
▁अग	2685
▁नींबू	2684
▁आयकर	2683
▁बंधन	2683
लिस्ट	2682
▁ज़िन्दगी	2682
▁तेरा	2682
▁hot	2681
▁कार्यकारी	2681
▁ज़िंदगी	2681
▁विविध	2681
▁उठाते	2679
▁किराया	2679
द्धि	2678
▁ईमानदारी	2678
ace	2677
श्त	2675
▁वें	2675
▁श्रीदेवी	2675
जल	2674
▁मस्ती	2674
▁58	2673
▁जमाने	2673
bi	2672
▁सेंट्रल	2672
ition	2671
▁सलाहकार	2671
लत	2669
▁ग्रंथ	2668
▁जोकि	2668
▁नक्सलियों	2668
▁पहुंचाया	2668
▁शीर्षक	2668
न्त्र	2667
सब	2667
▁सैमसंग	2667
▁एकजुट	2666
▁फ़ाइल	2666
ated	2664
श्री	2664
he	2662
▁ज़मीन	2662
▁फॉ	2661
▁सास	2661
▁पालिका	2660
▁वेस्टइंडीज	2659
gb	2658
▁गुफा	2658
▁जताया	2657
▁जोरदार	2657
▁राणा	2656
आउट	2655
युक्त	2655
▁नाइट	2655
▁सेकंड	2655
▁आर्ट	2654
▁पर्दे	2654
▁लीक	2654
▁आओ	2653
▁दिखे	2653
भारत	2652
▁pradesh	2652
▁डोनाल्ड	2652
कर्मी	2651
/0	2650
किन	2649
▁भाइयों	2649
▁मांगने	2649
▁अभ्यर्थियों	2648
▁प्रशांत	2647
▁सीईओ	2647
▁सनी	2645
▁पैसों	2644
फि	2642
बों	2642
▁00	2642
▁लाए	2642
▁ग्लोबल	2641
▁ac	2640
▁गं	2639
▁हाथी	2639
माला	2638
▁क्रिकेटर	2638
▁प्लस	2638
▁बढ़ाकर	2637
ms	2636
टिक	2636
▁झुक	2636
▁रणबीर	2635
▁राजेंद्र	2635
▁ललित	2632
वेल	2631
▁डबल	2631
▁विभाजन	2631
चित	2628
दम	2628
:00	2627
▁इनको	2627
▁बहरहाल	2627
क्सी	2626
धिकार	2626
▁पद्धति	2626
▁आला	2625
▁ऊंची	2625
▁रंगों	2625
शान	2624
▁धान	2623
लेज	2621
▁कम्प्यूटर	2619
▁पूछने	2619
▁मथुरा	2619
▁सेन	2619
▁पदाधिकारियों	2618
▁मांगा	2618
▁व्यायाम	2617
▁धारणा	2616
▁सहारे	2616
15	2615
▁अकादमी	2615
▁फॉलो	2614
▁मानवता	2614
▁इन्द्र	2613
▁जानती	2613
▁रिटर्न	2613
▁लक्ष्मण	2613
▁लैपटॉप	2613
▁बेटियों	2612
सेज	2611
▁श्रीराम	2611
▁करूंगा	2610
▁वायरस	2610
▁उपलब्धि	2609
▁स्त्रियों	2609
▁भेद	2608
▁हिन्दुस्तान	2608
▁१०	2608
▁रूसी	2607
िके	2605
▁ईसाई	2605
▁पुत्री	2605
▁हसन	2605
▁साइंस	2604
ंडे	2603
▁अर्पित	2603
▁पकड़ने	2603
▁बिन	2603
▁मोटी	2603
▁गायक	2602
▁पत्ते	2602
▁सीन	2602
जनों	2601
▁आफ	2601
▁करवाई	2601
▁हालाँकि	2601
▁छिपा	2600
▁निचे	2600
▁प्रायः	2600
▁अंबानी	2599
▁गीतों	2599
ल्लाह	2598
३	2598
▁अल्पसंख्यक	2597
▁धाम	2597
▁कुशल	2596
▁शून्य	2596
▁सावधान	2596
▁पड़ते	2595
▁मधुर	2595
▁सोन	2594
▁इला	2593
▁तले	2593
भि	2592
▁इशारा	2590
▁रघु	2590
लिक	2589
▁निश्चय	2589
▁बंध	2589
▁मानसिकता	2589
▁प्याज	2588
▁वाणी	2588
▁per	2587
▁डेस्कटॉप	2587
▁पहलुओं	2587
▁प्रारंभिक	2587
▁विक्रम	2587
▁संजीव	2587
▁सिपाही	2587
▁आक्रमण	2586
▁सेव	2586
▁होश	2586
▁गुस्से	2585
▁प्रतीत	2585
्ल	2584
▁अफ़	2584
▁मानसून	2584
िब	2582
▁एपी	2582
▁जब्त	2582
▁तल	2582
▁महंगा	2582
ous	2581
▁खूबसूरती	2581
▁समापन	2581
▁बनेगा	2580
19	2579
ax	2579
▁अजमेर	2579
▁जापानी	2579
▁मैनेजमेंट	2579
▁जमी	2578
▁description	2577
▁बग	2577
▁ताल	2576
▁परिजन	2576
▁संसाधनों	2575
▁अद	2574
▁फीट	2574
▁लाना	2574
▁राजे	2573
▁सदस्यता	2571
▁सिक	2571
▁फेल	2570
ite	2569
ूँगा	2568
▁इसने	2568
▁प्रातः	2568
स्त्र	2566
▁बदलते	2566
▁बोध	2566
▁साइड	2566
▁प्रथा	2565
▁फ़ा	2565
17	2564
रल	2564
▁04	2564
▁250	2563
ोगी	2562
▁मदर	2561
▁शिमला	2561
▁स्वराज	2561
▁दर्शक	2560
▁सीरिया	2559
ूड	2558
▁कपड़ा	2558
▁निंदा	2557
▁प्रसंग	2557
ॉट	2556
▁चर्च	2556
▁निर्माताओं	2556
▁59	2555
▁अश	2555
सले	2554
▁आंकड़ा	2554
▁आंखें	2553
▁नहर	2553
▁नदियों	2552
▁खेतों	2551
▁ब्रह्मा	2551
▁काय	2550
▁हॉकी	2550
▁2005	2549
▁परत	2548
▁बस्ती	2548
▁सालाना	2548
▁कीजिये	2547
▁क्रीम	2547
▁चैनलों	2547
▁नाते	2546
▁कुलदीप	2545
▁डाक्टर	2544
▁संतुष्ट	2543
▁एफआईआर	2542
▁किले	2542
▁नॉ	2542
▁मौजूदगी	2542
▁नीम	2540
लन	2539
▁te	2538
▁सौर	2538
▁निराश	2537
▁फ़िर	2535
▁jobs	2534
▁अध्यापक	2534
▁पर्स	2534
▁bank	2533
▁सांसदों	2533
▁अब्दुल	2532
▁ससुराल	2532
णु	2530
▁दिलीप	2530
▁लिहाजा	2530
▁शाहिद	2530
ंगल	2529
▁85	2529
▁ड्रेस	2529
▁संतुलन	2529
िकाओं	2528
पित	2527
▁ब्लाक	2527
▁मसीह	2526
ence	2525
▁कर्तव्य	2525
▁डिस्प्ले	2525
दायक	2524
▁इंतजाम	2524
▁इमाम	2524
▁राधा	2524
▁ईद	2523
▁बनाती	2523
ांति	2522
▁ट्रै	2522
▁स्ट्र	2522
▁em	2521
▁फायरिंग	2521
▁फ्लैट	2521
▁अनुदान	2520
▁बहनों	2520
▁असह	2519
▁तकरीबन	2519
▁नवाज	2519
▁नील	2518
▁किंग	2517
14	2516
▁चलना	2516
▁जनजाति	2516
ust	2515
▁आयुर्वेद	2515
▁क्ष	2515
▁साहू	2515
▁सिलसिले	2515
ायी	2514
▁सटीक	2514
▁act	2513
▁सराहना	2513
▁करत	2512
▁फाउंडेशन	2512
▁गर्	2511
▁पैक	2511
सेस	2509
▁पहलू	2509
वेज	2508
▁कमीशन	2508
▁गेंदबाजी	2508
▁दृढ़	2508
▁इजाजत	2507
▁राखी	2507
▁किताबें	2506
,0	2505
टकर	2505
▁तकलीफ	2505
▁वसूली	2504
▁हकीकत	2504
act	2502
▁जलवायु	2502
▁मुम्बई	2502
▁सौदा	2502
▁स्म	2502
▁मूवी	2500
ual	2499
▁करीबी	2498
▁माँग	2498
▁नाराजगी	2497
कन	2496
▁ट्रा	2494
▁भजन	2494
डो	2493
▁गहरे	2493
▁पैन	2493
▁धूल	2492
▁मतदाताओं	2492
ष्टि	2491
▁bl	2491
▁मेन	2491
▁हस्तक्षेप	2491
मंत्री	2489
▁गुट	2489
▁घायलों	2489
▁राशन	2489
बाग	2486
▁play	2486
▁अमरीकी	2486
तरा	2485
▁बरसात	2485
ws	2484
▁ऑप्शन	2484
वात	2483
▁नाश	2482
▁मामूली	2481
▁राजन	2480
तें	2479
राई	2479
▁गुलाम	2479
▁सहन	2479
वै	2477
▁यद्यपि	2476
▁विवादित	2476
▁दिखाते	2475
▁गारंटी	2473
▁ढूंढ	2473
लिस	2472
▁झटके	2472
▁दौ	2472
▁सतह	2471
जनक	2470
▁pol	2470
▁जूते	2470
▁दवाओं	2469
▁मारी	2469
▁आलम	2467
▁इक	2466
▁तेज़	2466
▁हितों	2466
ेंट्स	2465
▁उपचुनाव	2464
ोज़	2463
▁एचडी	2463
▁जानकार	2463
▁दुकानों	2462
▁बर्	2462
▁भरत	2462
▁नीरज	2461
▁मेहता	2461
▁सम्मिलित	2460
▁साह	2460
न्नी	2459
▁result	2458
▁गौरी	2458
▁आर्मी	2457
▁उठाना	2457
▁बालिका	2457
ult	2456
दाय	2456
▁भागों	2456
▁गेम्स	2455
▁सर्दी	2455
▁साझेदारी	2455
▁delhi	2454
▁mein	2454
▁उपरोक्त	2454
▁एरिया	2454
▁करी	2454
▁मार्गदर्शन	2454
वो	2453
▁बहा	2453
▁सिद्धार्थ	2452
▁स्थलों	2452
ांड	2451
▁संयोजक	2451
▁गर्दन	2450
▁जोश	2450
▁67	2449
▁निदेशालय	2449
▁व्	2449
ani	2448
▁लेटेस्ट	2448
▁link	2447
▁रैम	2447
,8	2444
▁193	2444
▁ड्र	2443
हों	2442
▁general	2442
▁भ्रष्ट	2442
▁संवेदना	2442
ंदे	2440
▁किस्मत	2440
ज़र	2439
▁खेली	2439
▁fi	2437
▁डिस्क	2437
▁पाकर	2437
▁भीम	2437
▁मलिक	2437
यह	2436
▁time	2436
▁अंदाजा	2436
▁ख़ुद	2435
▁चूस	2435
▁समुद्री	2435
▁परामर्श	2434
▁तलवार	2433
भु	2432
▁राफेल	2432
▁अंकित	2431
▁उपहार	2430
▁दरें	2430
▁शासक	2430
▁फायर	2428
▁विदेशों	2428
▁आरम्भ	2427
ेड	2426
▁fl	2426
▁आपराधिक	2426
▁लोकप्रियता	2426
▁सूजन	2426
▁कोटा	2425
▁जुटा	2424
▁लौटने	2424
ect	2423
▁कमजोरी	2422
▁मानवाधिकार	2421
reen	2420
▁चर्चित	2420
▁चांद	2420
▁पार्वती	2420
▁परेशानियों	2418
▁63	2417
▁प्रस्तुति	2417
मीटर	2414
वेट	2414
▁धीमी	2412
▁su	2411
▁जिलाध्यक्ष	2411
▁रमन	2411
इयां	2410
▁भोज	2408
▁हिला	2408
▁थक	2407
▁बताये	2407
कला	2406
▁पूर्णिमा	2405
▁सोल	2405
▁भेजी	2404
▁सुषमा	2403
▁about	2402
▁दरबार	2402
▁निशाने	2402
▁उग्र	2401
▁कोल	2400
▁मर्द	2400
,5	2399
र्य	2399
▁बैनर	2399
▁गंग	2398
▁हिन्दु	2398
▁हुयी	2398
फ़े	2397
▁आतंक	2397
▁कामयाबी	2397
▁विधा	2397
▁बूथ	2396
▁सील	2396
▁क्लीन	2395
स्ट्र	2393
▁आरबीआई	2393
वरी	2392
ौदा	2391
▁थोडा	2391
▁आईएस	2389
पीसी	2388
▁media	2388
▁पीना	2388
▁सीपी	2388
▁सियासी	2387
▁सांप्रदायिक	2386
▁photo	2385
▁आगमन	2385
▁फंसे	2385
▁यथार्थ	2384
▁रैंकिंग	2384
▁शैक्षणिक	2384
▁अवधारणा	2383
▁एक्सचेंज	2383
▁so	2382
▁कण	2382
यान	2381
रू	2381
▁सचमुच	2381
▁सूचित	2381
▁क्राइम	2380
▁अमृत	2379
▁काउंसिल	2379
▁विकल्पों	2379
पिंग	2378
▁ट्रेडिंग	2378
▁दर्श	2378
▁फ्रंट	2377
▁des	2376
▁अधि	2376
▁ट्रस्ट	2376
▁सद्	2376
डीओ	2375
▁कथन	2374
▁कागज	2374
▁बनारस	2374
▁मुसीबत	2374
▁सेंट	2373
▁सौंपा	2373
गुरु	2372
हियों	2371
▁इकट्ठा	2371
▁मार्क	2371
▁गला	2370
▁सार्थक	2370
ory	2369
▁अगला	2368
▁लगाये	2368
खंड	2367
▁भगवान्	2367
▁अमल	2366
लाम	2365
▁सांप	2364
▁form	2363
▁पीस	2363
▁भंग	2363
led	2362
▁एम्	2362
▁दक्षिणी	2362
▁इंस्पेक्टर	2361
▁जोन	2361
▁दूंगा	2361
▁ख़ुशी	2360
▁हराया	2358
बली	2357
र्थ	2356
वाड़ी	2356
▁रोम	2356
▁लाई	2356
मला	2355
▁बूब्स	2355
ics	2354
▁परीक्षाओं	2353
▁श्रेय	2353
▁इंड	2352
▁रॉ	2352
▁सेल्फी	2352
▁निगाह	2351
▁पार्षद	2351
▁बीवी	2351
▁बगल	2350
▁पेमेंट	2349
ऑ	2348
▁महीना	2348
▁विष	2348
▁डालते	2347
▁निकाले	2347
▁अतीत	2346
▁केंद्रों	2345
▁शूट	2345
कुल	2344
ाना	2344
▁खां	2343
▁ब्लू	2343
▁95	2342
▁अल्प	2342
▁सुहा	2341
ैट	2340
▁जश्न	2340
▁शीत	2338
▁कंप	2337
शास्त्र	2336
▁पत्रों	2336
▁बुध	2335
ack	2334
▁मांगे	2332
▁लेनी	2332
▁खिड़की	2331
▁परिस्थिति	2331
▁चयनित	2330
▁टोक	2330
▁निष्	2330
▁एसडीएम	2329
apt	2328
▁एग्जाम	2328
▁निकालकर	2328
▁बदन	2328
जान	2327
ates	2326
▁search	2326
▁शुभारंभ	2326
▁हॉस्पिटल	2325
▁bjp	2324
▁पैटर्न	2324
विंग	2323
▁जू	2323
▁पाचन	2323
,9	2322
kh	2322
▁आईडी	2322
ोरियल	2321
▁sw	2321
▁ईसा	2321
▁चौथी	2321
▁सूट	2321
स्ते	2320
▁वास	2320
▁one	2319
▁चलकर	2319
ज़न	2318
▁मांगों	2318
▁राजेन्द्र	2318
एसपी	2317
विक	2317
▁अवि	2317
▁ऊँ	2317
▁वाइ	2317
▁स्टूडेंट्स	2317
▁उठी	2316
ंसा	2315
चार्य	2315
▁चूर्ण	2315
▁ब्ला	2315
▁कपड़ों	2313
द्दीन	2312
▁गार्ड	2312
▁प्या	2312
▁रिलीज़	2312
गम	2309
ान्	2309
▁दीक्षित	2309
▁साधु	2309
▁बकाया	2308
▁अनुराग	2307
लाइट	2306
▁पचास	2306
▁पहि	2306
▁योजनाएं	2306
ase	2305
▁na	2305
▁आँखें	2305
▁रॉय	2305
▁डू	2304
▁माय	2304
बन्ध	2303
▁एकड़	2303
▁ड्ढ	2302
▁कैम	2301
▁वर्गों	2301
▁इटली	2300
▁न्यायमूर्ति	2300
▁नरेश	2299
▁निवेशकों	2299
▁मेडल	2299
▁व्यय	2299
▁card	2298
▁वहीँ	2298
▁उन्नत	2297
▁निराशा	2297
▁क्षमा	2295
▁kh	2294
▁मंजिल	2294
छा	2293
▁नामों	2293
▁नोटिफिकेशन	2293
▁लहसुन	2293
▁लाकर	2293
▁लौटा	2293
▁सूबे	2293
भाग	2292
वों	2292
▁दश	2292
▁हिमालय	2292
▁खुलकर	2291
▁मिड	2291
▁वास्तविकता	2291
▁समग्र	2291
▁बेकार	2290
वाट	2289
▁चोद	2289
▁बजाए	2289
▁सिंगापुर	2289
▁हवाला	2289
ye	2288
ँगा	2288
▁न्यायिक	2288
▁पंजाबी	2288
▁संयोग	2288
▁iphone	2287
पात	2286
▁गवाह	2286
▁बकवास	2286
▁अक्तूबर	2285
▁दुबई	2284
▁mot	2283
▁कांग्रेसी	2283
▁मोटे	2282
▁सेकेंड	2281
▁रजत	2279
▁एजेंसियों	2278
▁आसन	2277
इये	2276
▁फसलों	2276
▁रिश्तेदार	2276
▁सच्चा	2276
▁add	2275
▁part	2275
▁एनडीए	2275
ट्	2274
तीय	2274
▁उद	2273
डीए	2272
▁हमलों	2272
▁माफ	2271
▁शेयरों	2271
▁73	2270
▁अवकाश	2270
▁पलट	2270
▁सबकुछ	2270
ोंग	2269
▁पत	2269
▁दुआ	2268
▁बोल्ड	2268
विन	2267
▁मदन	2267
23	2266
कर्मियों	2266
▁gu	2266
▁दुर्	2265
oc	2264
साइ	2264
▁भ्रमण	2264
▁मनु	2264
▁रिस	2264
▁फोटोग्राफी	2263
▁that	2262
▁भीषण	2262
▁मीरा	2262
▁business	2261
▁पट्टी	2261
▁सुल्तान	2261
ph	2260
▁चैट	2260
bo	2259
कत	2259
▁बदमाश	2259
▁श्रद्धालुओं	2259
▁स्मरण	2259
जू	2258
▁साई	2257
▁लड़ा	2256
▁बुराई	2255
▁एप्लिकेशन	2254
▁टूर	2254
▁मिट	2254
▁विवादों	2254
ala	2253
▁कंधे	2253
▁देखिये	2253
▁मंत्रिमंडल	2253
▁शान्ति	2253
ष्ठ	2252
▁2004	2252
▁टूल	2251
▁दादी	2250
▁माननीय	2248
दू	2247
▁अला	2246
▁आईसी	2246
▁काग	2246
▁निचले	2246
▁जर	2245
▁सुपरस्टार	2245
▁अनुपात	2244
▁पिताजी	2243
▁आँख	2242
▁निधि	2242
लियां	2241
वाड़	2241
शाला	2240
16	2239
▁इवेंट	2239
▁अग्रणी	2238
▁नमस्कार	2238
▁पें	2238
▁गाइड	2237
▁नैतिक	2237
▁प्रतीक्षा	2237
फिक	2236
स्टी	2236
▁बेड	2235
▁संवैधानिक	2235
इश	2234
क्षण	2234
▁66	2234
▁स्टोरेज	2234
▁स्पर्श	2234
▁1.5	2233
▁सीरियल	2233
नीत	2232
▁गहन	2232
▁चैन	2232
▁भांति	2232
▁दबंग	2231
▁चलाते	2230
▁फाइबर	2230
▁भागने	2230
शल	2229
▁गिरोह	2229
▁निर्देशित	2229
▁रेंज	2229
मेल	2228
▁क्व	2228
▁प्रमोशन	2228
▁ख़ा	2226
▁तह	2226
▁हौ	2226
▁वरुण	2225
▁सशक्त	2225
▁edit	2224
द्य	2223
▁जूस	2223
▁ऊपरी	2222
▁गुम	2222
▁रजिस्ट्रेशन	2221
▁बोतल	2220
▁उत्साहित	2219
ram	2217
ैक	2217
▁निर्धारण	2217
▁apps	2216
▁अनुच्छेद	2216
▁चार्ट	2216
▁जीतकर	2216
▁न्यूजीलैंड	2215
▁महिमा	2215
न्दर	2214
▁धक्का	2214
▁बाइनरी	2214
▁मिसाइल	2214
मता	2213
५	2212
▁पर्यटकों	2211
ंटा	2210
ल्फ	2210
▁ass	2210
▁छी	2209
▁समानता	2209
शाही	2208
स्को	2208
▁आदित्य	2208
▁सवा	2208
▁जबलपुर	2207
▁दब	2207
▁पोषक	2207
▁रिक्	2207
▁सोचता	2207
नल	2206
▁मॉड	2205
▁शोभा	2204
▁तम	2203
▁पाण्डेय	2202
ert	2201
▁एमपी	2201
▁जैक	2201
▁इज	2200
▁छापेमारी	2200
▁नार	2200
▁मोती	2200
साई	2199
▁69	2199
▁qu	2199
▁खाया	2199
▁तुर्की	2199
ंती	2198
इंट	2198
ग्रस्त	2198
लेशन	2198
▁जनक	2198
▁जर्मन	2198
▁वैकल्पिक	2198
▁हथियारों	2198
▁प्रिया	2197
ound	2196
▁मुर्	2196
▁यथा	2196
क्ता	2195
▁पौधों	2195
▁फेस	2195
▁भ्रम	2195
▁tra	2194
▁प्रभावशाली	2194
▁सिखा	2194
▁ईंधन	2192
▁दिव्य	2192
▁फेर	2192
वादियों	2191
▁दशकों	2191
▁सिरे	2191
रीन	2190
▁प्रश्नों	2190
▁राशिफल	2190
ेंसी	2189
ोगा	2189
मुखी	2188
▁जिम	2188
डिंग	2187
▁अग्रिम	2187
▁ख्वा	2187
▁टमाटर	2187
▁सुर्खियों	2187
माने	2186
▁फार	2186
ali	2185
लाव	2185
▁इंतज़ार	2185
▁एसएसपी	2185
▁बाघ	2185
▁चिंतन	2184
▁निभाने	2184
▁पासपोर्ट	2184
▁पक्षी	2183
▁विध	2183
▁रचनात्मक	2182
▁उदार	2181
▁तर्ज	2181
▁नारा	2181
▁लापता	2181
▁लाभकारी	2180
▁आवंटन	2179
▁टीन	2179
▁मुर	2179
▁चिंतित	2178
▁बुलंद	2178
▁बेशक	2178
▁ऋतु	2177
▁पंजीकृत	2177
▁vir	2176
आन	2175
यार	2175
▁ऐश्वर्या	2174
▁कार्यशाला	2174
▁टेनिस	2174
▁सूखे	2174
टीसी	2173
नान	2172
▁अफवाह	2172
▁फ्ल	2172
ake	2171
▁दुबे	2171
▁निभाई	2171
▁विनाश	2171
ूला	2170
▁डिप्टी	2170
▁पढ़कर	2170
▁राजू	2170
▁लेगा	2170
▁हरिद्वार	2170
▁गिलास	2169
▁जुटे	2169
▁पढ़ना	2169
▁लोड	2169
▁सतीश	2169
▁reg	2168
▁मालिश	2168
सेन	2167
▁गिरी	2167
▁जॉ	2166
▁व्यास	2166
▁सरपंच	2166
▁हराकर	2166
▁comment	2165
लना	2164
▁ब्ल	2164
▁सर्जरी	2164
स्म	2163
▁जस	2163
▁देसी	2163
▁पूर्ति	2163
▁प्रोत्साहन	2163
▁महादेव	2163
▁होंठ	2163
▁बिछ	2162
▁मूड	2162
▁हार्ट	2162
▁pri	2161
▁सल	2161
▁सेंसेक्स	2161
▁राजमार्ग	2160
▁इम	2159
▁आलिया	2158
▁ट्रेनों	2158
▁फीचर्स	2158
▁सूख	2158
आईसी	2157
▁कहला	2157
▁रिपोर्ट्स	2157
▁ठहरा	2156
▁समझे	2155
▁71	2154
▁कहानियां	2154
▁खरीदा	2154
▁बढ़े	2154
▁मजदूरी	2154
▁शैतान	2154
लेश	2153
▁अमृतसर	2153
▁समूहों	2152
az	2149
▁टाइगर	2149
▁बादशाह	2149
▁लाभदायक	2149
▁वाक	2149
▁सबकी	2149
▁mi	2148
क्षित	2147
▁गाली	2147
▁चंद्रमा	2147
▁मिठाई	2147
▁समझता	2147
▁हज	2147
▁sec	2145
▁गठ	2145
▁बसे	2145
ल्डर	2144
▁uttar	2144
▁कारगर	2144
▁गंदगी	2144
▁पोर्न	2144
▁व्या	2144
▁खाई	2143
▁चूक	2143
▁अंततः	2142
▁आदिवासियों	2142
▁फूट	2142
▁मछ	2140
▁pdf	2139
▁विफल	2139
▁प्रॉ	2138
खर	2137
फ़्	2137
▁निःशुल्क	2136
डब्ल्यू	2135
▁गज	2135
▁आज़ादी	2134
▁मजेदार	2134
▁साइबर	2134
▁जहर	2133
▁सीसीटीवी	2132
▁अस्पतालों	2130
▁मौलिक	2130
▁किम	2129
▁सपनों	2129
▁टिप्पण	2128
▁कूट	2127
▁देवर	2127
▁नम	2127
▁पेयजल	2127
▁विविधता	2127
▁संचालक	2127
ड्स	2126
▁computer	2126
▁कारक	2126
ved	2125
▁कॉलोनी	2125
▁खातों	2125
▁फरीदाबाद	2125
▁ताज़ा	2124
▁व्यंग्य	2124
▁गिनती	2123
▁देखेंगे	2123
▁विनय	2123
▁सिगरेट	2123
▁हॉलीवुड	2123
त्य	2122
▁अखबारों	2122
▁एह	2122
▁कस्बे	2122
▁तप	2122
▁hain	2121
▁अख	2121
प्प	2120
ायें	2120
▁रहिए	2120
▁साहित्यिक	2120
▁इनकम	2119
▁फलों	2118
ke	2117
▁आचार	2117
▁खातिर	2117
▁इजाफा	2116
ान्त	2115
▁फू	2115
शिया	2114
▁2002	2114
▁आकलन	2114
▁बेर	2114
▁परिवर्तित	2113
▁फिल्मी	2113
▁ब्रज	2113
ट्र	2112
▁मेगा	2112
▁यार	2112
पू	2111
▁कोयला	2111
▁भागवत	2111
▁महंगी	2111
ूह	2110
▁दीजिये	2109
▁यूँ	2109
ंका	2108
▁खोले	2108
▁ज़ि	2108
mi	2107
ावली	2107
▁निष्कर्ष	2107
उस	2106
धक	2106
ार्ड	2106
▁चमत्कार	2106
▁ब्रेकिंग	2106
:30	2105
न्तर	2105
▁सच्चे	2105
वारा	2104
▁धी	2104
▁फंसा	2104
▁आलेख	2103
▁स्वार्थ	2103
▁छुपा	2102
▁मूर्ख	2100
▁health	2099
▁today	2099
▁will	2099
▁एम्स	2099
▁घोटाला	2099
▁एजेंट	2098
▁लोकतांत्रिक	2098
▁la	2097
▁कमान	2097
▁सच्ची	2097
▁हल्की	2097
▁६	2096
ors	2095
per	2095
▁कलम	2095
der	2094
▁इंस्टीट्यूट	2094
▁सदियों	2094
▁84	2093
▁चित्त	2093
▁पुकार	2092
▁high	2091
▁phone	2091
▁उतरे	2091
▁एल्	2091
▁78	2090
▁id	2090
13	2089
▁सेवक	2089
ep	2088
▁आर्टिकल	2088
▁वाक्य	2088
▁उभ	2086
▁फैलाने	2086
ड़ो	2085
▁page	2085
▁set	2083
▁शर्ट	2083
▁aut	2082
▁करीना	2082
▁तमिल	2082
▁परिभाषा	2081
▁संज्ञा	2079
िग	2078
▁किशन	2077
शीलता	2075
▁बरेली	2075
सिल	2074
▁वेस्ट	2074
arn	2073
▁अभिय	2073
▁डाॅ	2073
▁साध	2073
▁बनवा	2072
▁सेठ	2072
▁हाइड	2072
▁चिन्ह	2071
▁तड़	2071
oj	2070
हारी	2070
▁vs	2070
▁महत्त्वपूर्ण	2069
:0	2068
दायी	2068
पीएस	2068
▁pub	2068
▁जना	2067
▁पढ़ी	2067
▁रंजन	2067
▁वीर्य	2067
▁अगुवाई	2066
▁अन्तर	2066
ग्रह	2065
▁आंसू	2065
▁उठकर	2065
▁गल	2065
▁टकरा	2065
cy	2064
हद	2064
▁77	2064
▁अंग्रेज़ी	2064
▁स्टी	2064
▁नशा	2063
▁रिश्वत	2063
▁first	2062
बाई	2061
▁एप्लीकेशन	2060
▁पर्	2060
▁प्रसारित	2060
▁प्रीमियम	2060
▁कैरियर	2058
▁पैरा	2058
▁मेघ	2058
▁लगीं	2058
▁शत	2057
▁सबक	2057
22	2056
▁ग्रहों	2056
▁अक	2054
▁मददगार	2054
▁लता	2054
▁किलोग्राम	2053
▁दुनियाभर	2053
▁लैस	2053
▁पुनर्	2052
les	2051
▁भड़	2051
भू	2050
▁क्षति	2050
▁पाइप	2050
▁रिक्त	2050
▁लेखकों	2049
▁ग़ज़ल	2048
▁तहरीर	2048
▁सोचना	2048
▁अनूप	2047
▁थोक	2047
▁शॉपिंग	2047
▁जिन्दगी	2046
▁रवी	2046
▁साइन	2046
मार्क	2045
▁उमर	2045
▁प्रजा	2045
▁world	2044
▁टच	2044
▁बॉल	2044
▁मसले	2044
▁उपवास	2043
ंथ	2042
▁videos	2042
▁बडे	2042
▁मधुमेह	2042
ऊंगा	2041
नामा	2041
▁अपनाने	2041
▁साधा	2041
▁स्थितियों	2041
ta	2040
▁पुरे	2040
▁ट्रांसफर	2039
▁दवाई	2039
▁इंडोनेशिया	2038
▁माफिया	2038
ख्त	2037
▁प्रत्याशियों	2037
▁स्पेस	2037
▁आचरण	2036
▁किताबों	2035
▁यो	2035
ond	2034
चौ	2034
▁फिटनेस	2034
▁वृद्ध	2033
टेबल	2032
▁अदरक	2032
▁कहानियाँ	2032
▁ठहराया	2031
▁डां	2031
▁निहित	2031
▁पार्	2031
▁बिल्डिंग	2031
▁स्वचालित	2031
दय	2030
१	2030
२	2030
▁धैर्य	2030
▁विद्वान	2030
▁शशि	2030
कै	2029
▁खिल	2029
पथ	2028
शिक	2028
▁76	2028
▁sup	2028
▁गड़बड़ी	2028
▁नायडू	2028
▁बेंगलुरु	2028
▁अनशन	2027
▁बसा	2026
▁समझाया	2026
▁अनुबंध	2025
▁अनुशासन	2025
▁छापा	2025
▁बच्चो	2025
▁बैन	2025
प्शन	2024
▁इमेज	2024
▁नेहा	2024
खण्ड	2023
▁उमेश	2023
▁पंत	2023
▁पॉलिसी	2023
▁भयानक	2023
केल	2022
▁किडनी	2022
डल	2021
▁कुंभ	2021
▁हथ	2020
▁go	2019
▁ब्रॉड	2019
▁शुगर	2018
▁सीओ	2018
▁तृतीय	2017
ber	2016
चाई	2016
▁खुफिया	2016
▁हीरा	2016
डिय	2015
▁सम्बन्धित	2015
ज़े	2014
डू	2014
▁पशुओं	2014
▁उद्यम	2013
▁भरोसे	2013
सक	2012
▁उठने	2012
▁गेल	2012
▁विप	2011
90	2010
रेन	2010
▁74	2009
▁कराते	2009
▁कोमल	2009
▁ग्रा	2009
▁निलंबित	2009
▁क्यूंकि	2008
ook	2007
▁कॉन्फ्रेंस	2007
बानी	2006
लिटी	2006
▁चंदन	2006
▁नितिन	2006
▁भूषण	2006
▁विज	2006
▁वितरित	2006
co	2005
▁जहा	2005
▁नेत्र	2005
नाई	2004
▁असिस्टेंट	2004
▁जिनको	2004
▁भावुक	2004
▁समझाने	2004
▁जगदीश	2003
▁इलेक्ट्रॉनिक	2001
ट्ट	2000
▁बेस	2000
▁हवै	2000
प्ति	1999
स्य	1999
▁अनू	1999
▁प्रेशर	1999
▁रीति	1999
▁br	1998
▁तीस	1998
▁साँ	1997
▁2003	1996
▁दीन	1996
▁संभवतः	1996
भव	1995
मती	1995
्वा	1995
▁अर्जित	1995
▁निकलते	1995
▁निवारण	1995
▁पुराण	1995
ग्रा	1994
टाई	1993
▁दहेज	1993
▁मैक	1993
न्दन	1992
▁प्रतिरोध	1992
▁म्यू	1992
▁स्नेह	1992
सेल	1991
▁जाऊ	1991
▁दस्तावेजों	1991
▁क्वार्टर	1990
▁स्वि	1990
न्दी	1989
▁पहु	1989
▁शौ	1988
िरी	1987
▁कर्मी	1987
▁प्रवीण	1986
▁म्यूजिक	1986
▁रजिस्टर	1986
▁रामायण	1986
▁सुल	1986
▁स्कूली	1986
सेट	1984
स्टिक	1984
ावि	1983
▁अनुभवी	1983
▁किसने	1983
▁चुपचाप	1983
▁जप	1983
▁नोटों	1983
▁सावन	1983
वर्ती	1982
▁जलन	1982
▁पर्सनल	1982
▁हिल	1982
▁पासवर्ड	1981
▁फोर्स	1981
▁सम्पर्क	1981
हां	1980
▁स्वीकृत	1980
▁गाड़ियों	1979
▁सुखद	1979
▁बेंच	1978
कालिक	1977
स्तु	1977
▁तंग	1977
▁बेन	1977
ple	1976
▁ग्रेड	1976
▁दुल्हन	1976
▁book	1975
▁कम्प	1975
▁फ़ी	1975
▁विभागीय	1975
नामी	1974
ार्थियों	1974
▁पुरी	1974
▁भे	1974
भाई	1973
▁अंसारी	1973
▁टाइ	1973
▁त्वरित	1973
▁उज्जैन	1971
▁जुटी	1971
▁पका	1971
▁पिछड़े	1971
▁खपत	1970
▁गर्मियों	1970
▁निर्मल	1970
ेत	1969
्रोल	1969
▁चलाई	1969
▁दिलाया	1969
▁मकर	1969
▁ग्	1968
▁जौहर	1968
▁बीकानेर	1968
▁आस्ट्रेलिया	1967
▁कू	1967
▁कॉन्	1967
▁प्रयोगशाला	1967
▁मरम्मत	1967
▁मातृ	1967
▁टेलीविजन	1966
▁मोटा	1966
▁डीसी	1965
▁रहो	1965
red	1964
७	1964
▁कंस	1964
▁तथ्यों	1964
▁प्रवर्तन	1964
▁recruitment	1963
▁ऑफिसर	1963
▁छाती	1963
▁प्रबल	1963
▁मौर्य	1963
▁स्वादिष्ट	1963
▁कारों	1962
▁फ्लाइट	1962
▁वाम	1962
▁वोटर	1962
ame	1961
लान	1961
▁singh	1961
ंजी	1960
▁पायी	1960
▁gov	1958
▁बताओ	1958
ंश	1957
▁गम	1957
▁जबरन	1957
▁तिलक	1957
▁वसूल	1957
क्की	1956
यर्स	1956
▁medicine	1956
▁अलर्ट	1956
▁छो	1956
▁trans	1955
▁अश्व	1955
▁विरूद्ध	1955
▁शाही	1955
▁तारा	1954
▁थकान	1954
मेर	1952
ाई	1952
ियंस	1952
▁इस्लामी	1952
▁डेब्यू	1952
▁नाना	1951
▁प्लेटफार्म	1951
▁अधिग्रहण	1950
▁अध्याय	1950
▁छूने	1949
▁निका	1949
▁सुमन	1949
▁but	1948
▁औपचारिक	1948
▁मेष	1948
▁मुजफ्फरनगर	1947
▁घास	1946
.25	1945
ग्राम	1945
▁गाजियाबाद	1945
▁पड़ताल	1945
▁बुकिंग	1945
▁2.5	1944
▁खोजने	1944
▁गतिविधि	1944
▁कैप्टन	1943
▁ताना	1943
काई	1942
▁जरूरतों	1942
▁दिखाए	1942
bs	1941
▁pat	1941
▁पोर्ट	1941
▁सैफ	1941
▁दस्त	1940
▁हिस्सेदारी	1940
ys	1939
▁उद्योगों	1939
▁गुड़	1939
▁हनी	1939
▁हानिकारक	1939
बस	1938
▁ओबामा	1938
▁चीख	1938
▁छेद	1938
▁महानगर	1938
▁लौटे	1938
▁शिक्षित	1938
▁सिद्धू	1938
क्ल	1937
▁spe	1937
▁रेत	1937
▁विनिमय	1937
▁गुलाबी	1936
करी	1935
बाल	1935
▁रच	1935
ल्लू	1934
▁नागपुर	1934
▁रिज	1934
▁सेमीफाइनल	1934
बोध	1933
▁इश	1933
▁बराबरी	1933
▁पेट्रोलियम	1932
▁प्रेमिका	1932
त्तर	1931
ध्यक्ष	1931
फाई	1931
▁दिखती	1931
▁व्हाइट	1931
▁सकेगी	1931
ass	1930
▁xxx	1929
▁साहित्यकार	1929
▁स्वी	1929
ेन	1928
▁कड़े	1928
▁कॉमर्स	1928
▁राजनेता	1928
▁विशेषकर	1928
▁email	1927
▁आरोपित	1927
▁किशोरी	1927
कू	1926
जित	1926
▁खाद	1926
▁गवर्नर	1926
▁तुम्हे	1926
▁नस	1926
▁मसाला	1926
▁अतिक्रमण	1925
▁लेखा	1925
िवेश	1924
▁कोशिकाओं	1924
▁बसों	1924
▁हेयर	1924
क़ी	1923
▁एनर्जी	1923
▁खरीदी	1923
▁तिर	1923
▁तैयारियों	1923
▁बंदूक	1923
पण	1921
▁अंडे	1921
▁शायरी	1921
▁सौंपी	1921
28	1920
▁एकादशी	1920
▁कहेंगे	1920
▁तीव्र	1920
▁बलि	1920
▁सप्त	1920
ade	1919
र्ण	1919
▁डब्ल्यू	1919
▁निष्पक्ष	1919
▁संध्या	1919
▁शासकीय	1918
▁सरकारें	1918
▁हिंदुओं	1918
और	1917
▁अन्याय	1917
▁ऊंचा	1917
▁चारा	1917
▁चुनौतियों	1917
▁डेविड	1917
▁लैंड	1917
ings	1916
▁ind	1916
▁स्टा	1915
गि	1914
▁cent	1914
▁अभ्यर्थी	1914
▁पाएगा	1914
▁सम्म	1914
ft	1913
ँसी	1913
ख्	1913
▁दीं	1913
आरसी	1912
हाली	1912
▁जदयू	1912
▁पेन	1912
21	1911
क्रम	1911
▁विहार	1911
इए	1910
▁नक्सली	1910
▁मनुष्यों	1910
▁बिलासपुर	1909
हीं	1908
सीन	1907
▁दिग्विजय	1907
▁नर्मदा	1907
▁वार्	1907
लोक	1906
▁आवश्यकताओं	1906
▁डेव	1906
▁तथाकथित	1906
▁ब्रिज	1906
नाल	1905
▁600	1905
▁नाच	1905
▁मक	1905
▁रसायन	1905
नेस	1904
बरा	1904
▁खरीदारी	1904
▁सूचकांक	1904
▁आडवाणी	1903
▁खन्ना	1903
▁चुनने	1903
▁निकलता	1903
▁पौराणिक	1903
म्भ	1902
▁किसे	1902
▁सीखा	1902
▁हिन्दुओं	1902
▁अड्डे	1900
तरी	1899
▁मानकर	1899
▁शॉट	1899
▁ं	1898
▁देखती	1898
▁सम्भव	1898
▁सवर्ण	1898
▁औरतों	1897
▁दलाल	1897
▁tv	1896
▁वाय	1896
▁साक्षी	1896
▁सौदे	1896
▁हैरानी	1896
▁उपायों	1895
▁एक्टिंग	1895
▁गुज	1895
▁न्यूयॉर्क	1895
ोंक	1894
▁कुं	1894
▁नियामक	1894
▁मेड	1894
▁कैच	1893
▁खासतौर	1893
▁सुनाया	1893
▁सुरेंद्र	1893
▁सोते	1893
सुर	1892
▁इंग्लिश	1892
▁कुशवाहा	1892
▁भंडार	1892
▁व्यर्थ	1892
▁अनुप्रयोग	1891
▁स्पोर्ट्स	1891
भे	1890
▁जोड़कर	1890
▁मोटरसाइकिल	1890
▁रोने	1890
57	1889
▁सुधारने	1889
▁हू	1889
ung	1888
▁data	1888
▁उपज	1887
▁नफरत	1887
▁साहिब	1887
▁खेलना	1886
▁बदौलत	1885
डक	1884
▁प्रतिबंधित	1884
▁स्पर्धा	1884
▁price	1882
▁चौथा	1882
ru	1881
▁डिज़ाइन	1881
स्टे	1880
▁सोनू	1880
नू	1879
▁अजीत	1878
▁भ्र	1878
▁रासायनिक	1878
▁हंसी	1878
ौन	1877
▁अस्	1877
▁देशी	1877
▁software	1876
▁कों	1876
▁पीले	1876
▁प्रसन्नता	1876
▁राइट	1876
भूत	1874
▁english	1874
▁दांत	1874
▁मुआवजा	1874
ong	1873
▁एनसीआर	1873
▁रेड्डी	1873
▁समन्वय	1872
27	1871
काय	1871
▁अवॉर्ड	1871
▁उत्	1871
▁org	1870
▁site	1870
▁ऑयल	1870
▁वरदान	1870
प्रीत	1869
मुक्त	1869
▁रोगियों	1869
▁सीने	1869
शंकर	1868
▁twitter	1868
▁लीड	1868
its	1867
▁एनसी	1867
▁किर	1867
▁प्रजात	1867
▁लह	1867
▁वाट	1867
ेंग	1866
▁98	1866
▁वाटर	1866
▁सज	1866
स्थित	1865
▁अक्षर	1865
▁ईमानदार	1865
▁कॉलेजों	1865
▁बहुजन	1865
▁रज	1865
▁सम्राट	1865
▁धोखाधड़ी	1864
▁प्राणी	1863
▁मराठी	1862
ich	1861
▁अमन	1861
▁उन्नति	1861
▁दबाने	1861
ht	1860
▁आईएएस	1860
▁मुन्ना	1860
दित	1859
▁अधिवक्ता	1859
▁मुहम्मद	1859
▁शिष्य	1859
▁कस्टम	1858
मनी	1857
▁गण	1857
▁चैंपियन	1857
▁फोकस	1857
▁मुना	1857
बिल	1856
▁परवाह	1856
जिट	1855
▁प्राय	1855
▁if	1854
▁दीर्घ	1854
▁नकल	1854
ट्टा	1853
▁प्लेटफॉर्म	1853
▁धम	1852
▁प्यारे	1852
▁शक्तियों	1852
खु	1851
▁चिह्न	1851
▁पुस्तकों	1851
▁मुनि	1851
ुम	1850
४	1849
▁ba	1848
▁उतरने	1848
▁घटनास्थल	1848
▁त्रिपुरा	1848
▁पहुंचते	1848
ंटर	1847
रान	1847
.10	1846
▁गुदा	1845
▁बताएं	1845
▁अपनाया	1844
▁कोष	1844
▁दिलचस्पी	1844
▁वसा	1844
▁विंडो	1844
थल	1843
पास	1843
▁उतारा	1843
▁निर्देशों	1843
▁बचना	1843
ग्स	1842
▁फील्ड	1842
हमी	1841
▁चिर	1841
▁तैयारियां	1841
▁मुजफ्फरपुर	1841
बैक	1840
▁मला	1840
▁लोकल	1840
ंडर	1839
▁नीरव	1839
नस	1838
म्बा	1838
▁एजुकेशन	1838
▁डेंगू	1838
▁ताला	1838
▁चाट	1837
▁मतभेद	1837
ट्रिक	1836
ठन	1836
सना	1836
▁अय	1836
▁जीना	1836
▁big	1835
▁बट	1835
▁रहित	1835
▁सोम	1835
▁हिंद	1835
▁गाया	1834
▁चलन	1834
▁जह	1834
▁ट्रैक्टर	1833
▁ग्यारह	1832
▁बेरोजगार	1832
▁मीना	1832
▁main	1831
▁महावीर	1831
मेन	1830
▁निपट	1830
जात	1829
णीय	1829
▁sch	1829
▁बुर	1829
▁मुहिम	1829
▁मेहमान	1829
▁शॉर्ट	1829
tic	1828
टि	1828
▁प्रतिनिधियों	1828
▁question	1827
▁उपदेश	1827
▁महामंत्री	1827
▁रिहा	1827
▁रॉयल	1827
शर	1826
▁एकत्रित	1826
▁नींव	1826
▁मग	1826
▁वाणिज्य	1826
मू	1825
▁गिल	1825
▁द्विवेदी	1825
▁वर्षो	1825
ात्रि	1824
▁पूर	1824
old	1823
गाह	1823
▁august	1823
▁खट	1823
▁यूपीए	1823
▁सुने	1823
get	1822
तिथि	1822
▁अवध	1821
▁बढ़ेगा	1821
▁बाला	1821
▁सेल्सियस	1821
▁अंधेरे	1820
▁चूसने	1820
▁तुमसे	1820
▁निवेदन	1820
▁रहीम	1820
णि	1819
ित्य	1819
▁रूचि	1819
माना	1818
▁tw	1818
लिम	1817
▁दर्जनों	1817
रूप	1816
▁गोलियां	1816
▁डिक	1816
▁मिसाल	1816
.00	1815
▁ent	1815
▁पहा	1815
▁बेरोजगारी	1815
▁मश	1815
▁मिनी	1815
▁उलट	1814
ti	1813
वर्ड	1813
▁हेम	1812
▁धर	1811
दीन	1810
मिन	1810
▁नंद	1810
डोर	1809
द्दा	1808
▁बडी	1808
▁बौद्धिक	1808
▁any	1807
▁जाप	1807
▁नकदी	1807
▁पग	1807
▁रोमांटिक	1807
क्चर	1806
पार	1806
▁बाथरूम	1806
▁व्यावहारिक	1806
प्ट	1805
▁ईरानी	1805
▁ताप	1805
▁प्	1804
▁प्रोडक्शन	1804
▁बेब	1804
▁ser	1803
▁अंतर्	1803
▁टीमें	1803
▁ब्रांच	1803
▁शिवपाल	1803
▁87	1802
▁आक्रोश	1802
▁जीभ	1802
▁प्रवास	1802
▁गिफ्ट	1801
▁स्वयंसेवक	1800
▁तब्दील	1799
▁नसी	1799
▁अटैक	1798
▁एकत्र	1798
▁क्वालिटी	1798
▁छः	1798
▁परिश्रम	1798
▁फर्म	1797
▁विन	1797
▁हिंसक	1797
▁चैलेंज	1796
▁टीका	1796
▁सला	1796
▁बाइ	1795
▁बैंड	1795
▁मार्केटिंग	1795
▁१२	1795
ts	1794
जीबी	1794
▁मोक्ष	1794
▁रखेंगे	1794
▁सदस्यीय	1794
▁हँस	1794
▁नक्सल	1793
▁रेटिंग	1793
man	1791
▁भयंकर	1791
▁लालच	1791
▁लोहे	1791
▁उत्पत्ति	1790
▁चैंपियनशिप	1790
▁ठेकेदार	1790
▁मिमी	1790
षक	1789
स्टन	1789
▁डायरेक्ट	1789
▁सैनी	1789
▁तरक्की	1788
▁फ्लोर	1788
चंद्र	1787
पै	1787
▁मौन	1787
वला	1786
▁ek	1786
▁उतने	1786
▁ग्रन्थ	1786
▁छल	1786
▁निरीक्षक	1786
▁पोट	1786
▁रोबोट	1786
एगी	1785
▁125	1785
▁कड़	1785
ars	1784
फोन	1784
▁इस्लामिक	1784
चरण	1783
▁आयाम	1783
▁उपयोगकर्ताओं	1783
▁औषधि	1783
▁व्यापारिक	1783
▁प्रमोद	1782
▁फैन	1782
ढे	1781
लानी	1781
▁उंगली	1781
▁नवी	1781
▁पूनम	1781
▁मंजूर	1781
▁संयंत्र	1781
urn	1780
ंटे	1780
्यूर	1780
▁अड	1780
▁चीज़ों	1780
▁फैक्ट्री	1780
▁बिठा	1780
▁इंडेक्स	1779
▁कार्बन	1779
▁ट्रॉफी	1779
▁डाइट	1779
▁मीन	1779
ian	1777
▁कार्यकारिणी	1777
▁खासी	1777
▁दार	1777
▁राउंड	1777
▁लॉग	1777
फुल	1776
सिस	1776
▁टेली	1776
▁घातक	1775
▁मुनाफा	1775
ale	1774
मोहन	1774
स्तर	1774
▁अप्र	1774
ृत्ति	1773
▁अभियंता	1773
▁चिकित्सकों	1773
▁चिट्ठी	1773
▁हैंड	1773
ंजा	1772
ताने	1772
▁सोसायटी	1772
शंस	1771
▁program	1771
▁उपासना	1771
▁कद	1771
▁पांचवें	1771
तियाँ	1770
▁master	1770
▁micro	1770
▁राज्यमंत्री	1770
▁व्याप्त	1770
ty	1769
यात्रा	1769
▁जुलूस	1769
▁प्रदर्शनी	1769
▁prot	1768
▁कुलपति	1768
▁झगड़ा	1768
▁पर्यटक	1768
li	1767
▁इंट	1767
▁एक्सपर्ट	1767
▁निजात	1767
▁प्रमाणित	1767
▁बोलना	1767
▁मोर्चे	1767
▁रचनाओं	1767
▁रियो	1767
है	1766
▁अंबेडकर	1766
▁ग्राउंड	1766
▁चाकू	1766
▁योनि	1766
▁लेनदेन	1766
▁शमी	1766
▁सेब	1766
▁bi	1765
▁वाशिंगटन	1765
▁सातवें	1765
पाने	1764
▁असंभव	1764
कृ	1763
▁गर्लफ्रेंड	1763
▁गेज	1763
▁परिवेश	1763
day	1762
कुमार	1762
च्च	1762
▁file	1762
▁कृति	1762
▁टैग	1762
▁प्राइमरी	1762
▁विवश	1762
▁सुंदरता	1762
▁acc	1761
▁आॅ	1761
▁शास्त्रों	1761
्रम	1760
▁ओबीसी	1760
▁av	1759
▁पुलिसकर्मियों	1759
▁market	1758
▁करू	1758
▁कोचिंग	1758
▁सब्जियों	1758
्यूल	1757
▁उपेक्षा	1757
▁ख़राब	1756
ेंडर	1755
▁col	1755
▁घोड़े	1755
▁जंगलों	1755
▁फिस	1754
▁फ्रेम	1754
ड़कर	1753
▁86	1753
▁क्रा	1753
▁वसुंधरा	1753
्यूम	1752
▁सनातन	1752
▁समर्पण	1751
oss	1750
ताना	1750
▁घाव	1750
▁जायें	1750
▁सहकारी	1750
▁बलिदान	1749
६	1748
▁बचें	1748
फ्र	1747
▁पासवान	1747
▁स्वतः	1747
मिता	1746
▁मामा	1746
▁शर	1746
......	1745
लेक्ट	1745
▁फैमिली	1745
ढी	1744
▁dr	1744
▁चुनें	1744
▁ट्रेंड	1744
▁दाऊद	1744
▁दुर्लभ	1744
▁सोलर	1744
▁आदर	1743
▁डायबिटीज	1742
▁संशोधित	1742
era	1741
ज़्	1741
▁हड़	1741
▁oneindia	1740
▁दीवाली	1740
▁पिछड़ा	1740
▁रोमांचक	1740
▁विगत	1740
▁सीबी	1740
▁घो	1739
▁बचाया	1739
▁बाध्य	1739
▁मजिस्ट्रेट	1739
▁fil	1738
▁कॉफी	1738
26	1737
द्रा	1737
प्रा	1737
लाइ	1737
▁आईसीसी	1737
कां	1736
▁ऑर्डर	1736
▁ग्ल	1736
▁संग्रहालय	1736
एमसी	1735
▁800	1735
▁अरूण	1735
▁दमन	1734
▁बाब	1734
▁घुसपैठ	1733
▁चुप्पी	1733
▁पीते	1733
▁पैंट	1733
▁रण	1733
▁fe	1732
▁कर्ण	1732
▁गोलीबारी	1732
▁केबल	1731
▁गार्डन	1731
▁बाबत	1731
▁शिवलिंग	1731
▁स्टार्ट	1731
▁2001	1730
▁अटक	1730
हिया	1729
▁key	1729
▁चक	1729
▁पते	1729
▁कांग	1728
▁ग्लास	1728
ोग्रा	1727
▁स्टूडेंट	1727
▁एडी	1726
▁दांतों	1726
▁पटरी	1726
▁रतन	1726
▁सवारी	1726
▁अंकल	1725
▁बादाम	1725
▁भरकर	1725
▁जता	1724
▁नाबाद	1724
▁स्क्र	1724
▁हेल्प	1724
ंवर	1723
▁मुहर	1723
ोजन	1722
▁अपितु	1722
▁कश्यप	1722
▁दुश्	1722
देह	1721
्टे	1721
▁open	1721
▁socal	1721
▁कारखाने	1721
▁बापू	1721
▁हाईवे	1721
▁internet	1720
▁करवाना	1720
इंड	1719
▁आमदनी	1719
▁मेजबान	1719
▁83	1718
▁तस्करी	1718
▁प्रीति	1718
▁मनाई	1718
▁एक्सरसाइज	1716
▁क्रूर	1716
▁बनेगी	1716
सूर	1715
▁medindia	1715
▁एलान	1715
▁गयीं	1715
▁जवाहर	1715
▁अवसरों	1714
ject	1713
▁गृहमंत्री	1713
▁सफ़ेद	1713
kar	1712
tc	1712
▁class	1712
▁कॉमेडी	1712
पोरेशन	1711
▁कथ	1711
▁केशव	1711
▁चंद्रशेखर	1711
▁दिव्यांग	1711
▁पत्तों	1711
▁प्रतिबद्धता	1711
▁बीएस	1711
▁लड	1711
▁पीड़ितों	1710
▁मलेशिया	1710
▁संभालने	1710
▁आराधना	1709
▁जगा	1709
▁जैविक	1709
▁पाट	1709
▁मिलन	1709
▁चुद	1708
▁टैंक	1708
▁धड़क	1708
▁वध	1708
सव	1707
भावना	1706
स्थल	1706
बिया	1705
▁कुर्	1705
▁नौकरियों	1705
चने	1704
▁कार्यो	1704
▁प्रोफाइल	1704
▁साकार	1704
षि	1703
▁वापिस	1703
▁हरीश	1703
लाना	1702
▁झां	1702
▁पादुकोण	1702
▁पूर्वोत्तर	1701
▁प्रासंगिक	1701
विधा	1700
▁tips	1700
▁नकार	1700
▁लटका	1700
सित	1699
▁खाकर	1699
▁पिला	1699
▁प्रयत्न	1699
▁बीती	1699
nd	1698
एससी	1698
ावे	1698
▁गुनगु	1698
▁द्विआधारी	1698
▁लंबाई	1698
▁विल	1698
▁वेरिएंट	1698
▁कम्युनिस्ट	1697
▁ज़रा	1697
▁बैल	1697
▁रंगीन	1697
▁संगीतकार	1697
▁सत्या	1697
▁हटाया	1697
ght	1696
▁परस्पर	1696
डु	1695
न्ग	1695
▁बल्लेबाजों	1695
▁साज	1695
जाम	1694
मंद	1694
▁क्रे	1694
▁नारेबाजी	1694
▁विश्वविद्यालयों	1694
▁सचिवालय	1694
▁ver	1693
▁पेरिस	1693
▁तीर	1692
▁दिलाई	1692
▁भव	1692
▁मजबूरी	1692
▁शर्तों	1692
▁स्वप्न	1692
ंधी	1691
गेट	1691
शॉट	1691
स्तानी	1691
▁टूटने	1691
▁नगरी	1691
▁बढ़ेगी	1691
▁महंगे	1691
बाला	1690
▁ऐप्स	1689
▁केदारनाथ	1689
दत्त	1688
▁air	1688
▁पड़ोस	1688
▁यूएस	1688
धर्म	1687
▁सैलरी	1687
▁फ्लिपकार्ट	1686
▁सिद्धांतों	1686
▁७	1686
out	1684
▁upd	1684
▁इम्	1684
▁खण्ड	1684
▁ख़ु	1684
▁तैर	1684
▁राहु	1684
्रेन	1683
▁log	1683
▁शिरकत	1683
.18	1682
cc	1682
▁तेंदुलकर	1682
▁स्थगित	1682
वश	1681
सिंग	1681
sc	1680
पंथी	1680
ोह	1680
▁नर्स	1680
psc	1679
आईए	1679
िक्	1679
▁जलाने	1679
▁दर्शाता	1679
▁पढ़िए	1679
▁बची	1679
शय	1678
▁सम्बन्धी	1678
▁१५	1678
▁ख़िलाफ़	1677
द्दी	1676
▁work	1676
▁धुन	1676
▁पांव	1676
▁लाहौर	1676
▁संभ	1676
▁लगेगी	1675
परा	1674
▁ग्रस्त	1674
▁ठे	1674
▁ब्लॉगर	1674
▁photos	1673
▁sub	1673
▁आयुर्वेदिक	1673
वती	1672
▁ढांचे	1672
▁निबंध	1672
▁उग	1671
▁डिस	1671
▁राख	1671
la	1670
▁बूंद	1670
दाता	1669
▁चौराहे	1669
ायर	1668
िमा	1668
▁केक	1668
▁गणतंत्र	1668
▁पश्चात्	1668
▁प्यारी	1668
▁महासभा	1668
▁खाएं	1667
▁दरवा	1667
▁दाय	1667
▁शुभकामना	1667
देवी	1666
▁छोर	1666
,201	1665
ंपल	1665
▁function	1665
▁पूर्वक	1665
▁बोस	1665
▁विधवा	1665
▁सूखा	1665
▁हिर	1665
▁97	1664
▁अतुल	1664
▁कमिश्नर	1664
▁संतुलित	1664
▁स्पे	1664
▁बेत	1663
त्रियों	1662
▁जनस	1662
▁हार्ड	1662
▁परिणामस्वरूप	1661
▁बढ़ाना	1661
▁मर्यादा	1661
▁जोड़ों	1660
▁तादाद	1660
▁नॉन	1660
▁बनायी	1660
▁कांस्टेबल	1659
▁गुहार	1659
▁परिणामों	1659
▁फर्स्ट	1659
▁बर्दाश्त	1659
▁मार्क्स	1659
▁विभाजित	1659
▁सीमाओं	1659
डीसी	1658
म्मी	1658
▁छुड़ा	1658
▁मेजर	1658
▁मोहल्ले	1658
हाँ	1657
▁इलेक्ट्र	1657
▁घोर	1657
▁वोटों	1657
ov	1656
ंबल	1656
र्फ	1656
ूनी	1656
▁कमरा	1656
▁गैंगरेप	1656
▁निरस्त	1656
ka	1655
▁82	1655
▁इन्टरनेट	1655
▁उल्	1655
▁कलेक्शन	1655
▁लक्ष	1655
▁विकलांग	1655
▁सर्वर	1655
टेन	1654
▁दुकानदार	1654
▁धनराशि	1654
▁महक	1654
▁विद्वानों	1654
▁att	1653
▁बाते	1653
▁मुगल	1653
▁वीजा	1653
▁अउर	1652
▁बदनाम	1652
▁असमर्थ	1651
▁आंक	1651
▁बस्तर	1651
▁बायो	1650
▁रूक	1650
श्च	1649
स्ड	1649
▁inextlive	1649
▁झारखण्ड	1649
▁बारीक	1649
▁स्टेज	1649
▁उपलब्धता	1648
▁सीबीएसई	1648
ोजी	1647
▁भौ	1647
ार्थी	1646
ौड़	1646
▁190	1646
▁आएं	1646
▁कलाम	1645
▁डेरा	1645
▁पढाई	1645
▁image	1644
▁अभय	1644
▁एंटरटेनमेंट	1644
▁रिश्तेदारों	1644
एशन	1643
▁life	1643
▁उप्र	1643
स्थान	1642
▁प्यास	1640
▁वालो	1640
उंड	1639
▁rel	1639
▁हार्	1639
▁८	1639
▁खासा	1638
▁मैरी	1638
▁विर	1638
▁समाप्ति	1638
्ला	1637
ंबा	1636
▁out	1636
▁उपरांत	1636
▁कैटरीना	1636
ution	1635
ंद्र	1635
िंग्स	1635
▁आभूषण	1635
▁कनेक्ट	1635
▁कहलाता	1635
▁द्विपक्षीय	1635
▁रिंग	1635
so	1633
▁आवंटित	1633
▁झाड़	1633
खाने	1632
▁यौ	1632
▁लाग	1632
ज़ल	1631
▁अलीगढ़	1631
▁डाइ	1631
▁make	1630
पटा	1629
▁नित्य	1629
▁मान्य	1629
ईन	1628
जना	1628
▁नीले	1628
ose	1626
ंचा	1626
ण्डी	1626
▁ma	1626
▁int	1625
▁ईस्ट	1625
▁मौलाना	1624
▁वैसी	1624
▁वोटिंग	1624
rol	1623
ित्	1623
▁एप्पल	1623
▁कंध	1623
▁चाहत	1623
▁चाहा	1623
▁छक्के	1623
▁तलाशी	1623
▁शिक्ष	1623
▁साहेब	1623
कोर	1622
▁bu	1622
▁पेंट	1622
▁हीं	1622
ents	1621
करे	1621
मरी	1621
ांव	1621
▁cre	1621
▁system	1621
▁शुक्रिया	1621
▁स्मारक	1621
स्था	1620
▁टुडे	1620
▁ब्राजील	1620
▁शिफ्ट	1620
▁सियासत	1620
▁vi	1619
▁इनाम	1619
▁खरीदना	1619
▁विश्राम	1619
▁जुड़ने	1618
▁पाली	1618
▁वादे	1618
con	1617
डि़	1617
▁अनार	1617
▁ढी	1617
पीएल	1616
▁सर्वोत्तम	1616
▁हावी	1616
und	1615
तू	1615
ांश	1615
▁कन्	1615
▁कब्र	1615
▁झूठे	1615
▁बदलना	1615
▁ब्यूटी	1615
▁सौरभ	1615
▁पावन	1614
ations	1613
▁दिखाना	1613
ोब	1612
▁बाधित	1612
▁विद्रोह	1612
ैप	1611
▁61	1611
▁ईयर	1611
▁करेंः	1611
▁पहुँचने	1611
▁सुधीर	1611
ati	1610
ंह	1610
▁stud	1610
▁उर्जा	1610
▁पों	1610
▁हज़रत	1610
▁mat	1609
▁rating	1609
▁आब	1609
▁उन्हों	1609
▁जनहित	1609
▁महानिदेशक	1609
▁स्पेन	1609
▁net	1608
▁फ्रेंड	1608
35	1607
ओएस	1607
▁नौजवान	1607
▁फ़ै	1607
▁फ्ला	1607
▁अविश्वास	1606
▁डिमांड	1606
▁भुगत	1606
▁घटनाक्रम	1605
▁तालमेल	1605
▁नग	1605
▁ra	1604
▁चौके	1604
▁सिया	1604
ular	1603
▁कैल्शियम	1603
▁हड्डी	1603
▁मेक	1602
▁शिल्पा	1602
▁सामुदायिक	1602
▁उलझ	1601
▁पॉपुलर	1601
▁समीर	1601
▁सल्ल	1601
कर्ताओं	1600
▁कीर्ति	1600
▁मेगापिक्सल	1600
▁रजि	1600
▁हमको	1600
न्नत	1599
▁आउ	1599
▁आदान	1599
▁निर्दोष	1599
▁मेयर	1599
▁विपणन	1599
45	1598
70	1598
ल्हे	1598
fi	1597
▁know	1597
▁rec	1597
▁शिक	1597
elf	1596
च्छा	1596
लाय	1596
▁अलगाव	1596
▁उतारने	1596
▁एशियन	1596
▁प्लेयर	1596
▁ब्	1596
▁महर्षि	1596
▁93	1595
▁दांव	1595
▁बनाम	1595
▁ससुर	1595
▁इज्जत	1594
▁एग्	1594
▁कैफ	1593
▁गर्भावस्था	1593
▁पेशाब	1593
▁सीए	1593
,500	1592
जीर	1592
्टा	1592
▁jio	1592
▁उल्टा	1592
▁निभाया	1591
▁रिपोर्टर	1591
▁रेसिपी	1591
▁गम्भीर	1590
▁नक्	1590
▁बांट	1590
▁संगम	1590
▁सरसों	1590
सद	1589
▁पुलिसकर्मी	1589
▁मिन	1589
▁लघुकथा	1589
▁कप्तानी	1588
▁जंगली	1588
▁पेड़ों	1588
▁संज्ञान	1588
मंड	1587
▁ic	1587
▁दिखी	1587
▁पलायन	1587
▁बदली	1587
▁सर्दियों	1587
po	1586
वेन	1586
▁sim	1586
▁ओह	1586
▁पाय	1586
न्व	1585
▁आइडिया	1585
▁जीती	1585
▁जीवनसाथी	1585
▁पकड़कर	1585
फिकेशन	1584
▁follow	1584
▁list	1584
▁right	1584
▁घेरे	1584
▁मीणा	1584
▁सिंग	1584
▁अंधेरा	1583
▁संग्राम	1583
क्ताओं	1582
टिया	1582
दरा	1582
▁mah	1582
▁raj	1581
▁एमएस	1581
▁gr	1580
▁कमांड	1580
▁सोसाइटी	1580
▁प्रगतिशील	1579
▁स्थानांतरित	1579
राब	1578
सत्ता	1578
▁pic	1578
▁उतरी	1578
▁आरक्षित	1577
▁आवेदक	1577
▁बवाल	1577
ave	1576
नाव	1576
▁81	1576
▁haryana	1576
▁उमा	1576
akh	1575
वाए	1575
ौनी	1575
▁ram	1575
▁कलश	1575
▁चतुर्वेदी	1575
,	1574
हब	1574
८	1573
▁कंगना	1573
▁november	1572
▁पुजारी	1572
▁सिंगल	1572
ण्	1571
▁साप्ताहिक	1571
रस	1570
▁उत्तराखण्ड	1570
▁पंचायतों	1570
▁मुक	1570
▁हाय	1570
▁अकेली	1569
▁उद्योगपति	1569
▁मन्त्र	1569
ins	1568
ुण	1568
▁अशुभ	1568
▁इसमे	1568
▁स्थिरता	1568
ेंशन	1567
▁चाहेंगे	1567
▁चिदंबरम	1567
▁महत्त्व	1567
▁सम्पत्ति	1567
▁primary	1566
▁काटकर	1566
▁बचाओ	1566
▁अनुसरण	1565
▁उनपर	1565
▁उपग्रह	1565
▁चौड़ा	1565
▁तपस्या	1565
▁अनुभूति	1564
▁भुवनेश्वर	1564
▁met	1563
▁प्रोडक्ट्स	1563
▁हत्याकांड	1563
ॉर्	1562
्टन	1562
▁आयरन	1562
▁पत्	1562
▁सफलतापूर्वक	1562
ईट	1561
निश	1561
▁निकासी	1561
▁वगैरह	1561
▁विश्वसनीय	1561
▁समेट	1561
ोध	1560
्रास	1560
▁एपिसोड	1560
▁फ़िल	1560
▁सूर	1560
sp	1559
पीठ	1559
राग	1559
▁चुरा	1559
▁pay	1558
▁दखल	1558
▁अत्यन्त	1557
▁गरिमा	1557
▁बदलकर	1557
▁महाराजा	1557
▁सिंगर	1557
्यां	1556
▁आदम	1556
▁डालना	1556
▁प्रतिस्पर्धा	1556
▁हैक	1556
....	1555
▁elect	1555
▁red	1555
▁cm	1554
▁आईआईटी	1554
▁कचरा	1554
▁88	1553
▁step	1553
▁दिखाता	1553
▁राजी	1553
▁सुनना	1553
▁स्तंभ	1553
लियाँ	1552
▁copy	1552
▁अंगों	1552
▁अपराधों	1552
▁एमए	1552
▁कांस्य	1552
▁कार्टून	1552
▁जजों	1552
▁मानती	1552
नुसार	1551
▁बंदी	1551
.50	1550
र्मा	1550
▁चाची	1550
▁पुस्तकालय	1550
▁बंगला	1550
▁सृ	1550
▁आन	1549
▁क्रांतिकारी	1549
▁जौनपुर	1549
▁दमदार	1549
▁घन	1548
▁छोड	1548
▁मीठा	1548
▁उद्यान	1547
▁गोविंद	1547
▁मिटा	1547
▁श्रद्धालु	1547
ंची	1546
पिता	1546
प्रकाश	1546
ूज	1546
▁तारी	1546
म्ह	1545
▁108	1545
▁portal	1545
▁कदर	1545
▁कुत्ता	1545
▁गोरा	1545
▁प्रोसेसर	1545
▁बीबी	1545
▁लगेंगे	1545
▁लेगी	1545
स्टार	1544
ावी	1544
▁cr	1544
▁एलि	1544
▁पढने	1544
▁मोहित	1544
▁सिंधिया	1544
▁दामों	1543
▁बनेंगे	1543
▁महागठबंधन	1543
▁मुस्कुरा	1543
▁मेहर	1543
▁योगा	1543
▁inf	1542
▁इनेलो	1542
▁एयरटेल	1542
▁कूल	1542
▁पीडि़	1542
ँगी	1541
चार्ज	1541
षित	1541
▁full	1541
▁चुक	1541
▁दिखाकर	1541
▁नकद	1541
▁लाते	1541
▁समर्थ	1541
▁२०	1541
निय	1540
▁आजम	1540
▁कठिनाई	1540
▁चलें	1540
पद	1539
ल्प	1539
▁1998	1539
▁अनुभवों	1539
इया	1538
एसआई	1538
ियस	1538
▁tags	1537
▁अभिने	1537
▁कराये	1537
▁चतुर्थी	1537
▁चिकन	1537
▁पूर्वा	1537
▁सीसी	1537
▁हास्य	1537
anch	1536
एसएस	1536
ज़ार	1536
▁sl	1536
▁कतार	1536
▁चिट्	1536
▁वहा	1536
▁संगत	1536
गरी	1535
बर्ग	1535
▁निपटा	1535
▁पक्का	1535
▁पुस्तकें	1535
▁प्राचार्य	1535
▁सितारे	1535
/2018	1534
चु	1534
▁sol	1534
▁गेंदबाजों	1534
▁घुटने	1534
▁भारद्वाज	1534
कर्म	1533
▁मिक्स	1533
बंध	1532
▁चादर	1532
▁बाँध	1532
▁संयम	1532
फो	1531
▁एकीकृत	1531
▁पक्षियों	1531
▁पारा	1531
▁लग्न	1531
ina	1530
ुनिया	1530
▁एबी	1530
▁छोड़ना	1530
लेंस	1529
▁mon	1529
▁नन	1529
▁माथे	1529
▁संपादन	1529
गढ	1528
गोर	1528
ार्क	1528
▁ओपी	1528
▁नेपाली	1528
▁पहलवान	1528
▁पीपल	1528
▁पीसकर	1528
▁प्रव	1528
▁टांग	1527
▁शिल्प	1526
du	1525
▁टैक्सी	1525
▁सलाम	1525
▁back	1524
▁आएंगी	1524
▁धनु	1524
▁लंबित	1524
▁सख्ती	1524
झे	1523
▁फैली	1523
▁मुल्क	1523
जिक	1522
▁अपार	1522
▁ऊंचे	1522
▁कश्मीरी	1522
▁डिप्लोमा	1522
▁सीखना	1522
ढ़ियों	1521
टीन	1520
▁आईफोन	1520
▁एे	1520
▁प्रभात	1520
▁जनप्रतिनि	1519
▁मशीनों	1519
▁समुदायों	1519
▁उबाल	1518
▁तैनाती	1518
▁रियर	1518
लेटर	1517
▁rt	1517
▁दण्ड	1517
▁ब्राउ	1517
▁संगठित	1517
▁गधा	1516
▁निकलकर	1516
▁प्रदाता	1516
र्चा	1515
▁नवरात्रि	1515
▁application	1514
▁like	1514
▁आंच	1514
▁जिया	1514
▁मिथुन	1514
▁सीडी	1514
ढ़े	1513
मति	1513
▁पीटा	1513
ंघ	1512
आईपी	1512
▁मुहूर्त	1512
▁nov	1511
▁चलाना	1511
▁डाउन	1511
▁मुस्कान	1511
▁चौंकाने	1510
▁फिल	1510
▁मंशा	1510
र्जी	1509
ॉल्ट	1509
▁जुडी	1509
▁द्	1509
▁लेफ्ट	1509
▁सन्दर्भ	1509
ोलॉजी	1508
▁sab	1508
▁कार्यान्वयन	1508
▁कैलोरी	1508
▁बढ़ाते	1508
▁सुध	1508
गीर	1507
▁इरादा	1507
ark	1506
चर्स	1506
▁इसपर	1506
▁भै	1506
▁हमलावर	1506
डीज	1505
ुट	1505
▁94	1505
▁चिक	1505
▁दिलों	1505
▁मिर्जा	1505
▁वैवाहिक	1505
eet	1504
▁सिंधु	1504
धाम	1503
▁pass	1503
▁टोट	1503
▁मनाते	1503
▁अनिश्चित	1502
▁रहेंगी	1502
▁सेटिंग	1502
गना	1501
▁pa	1501
▁आंगन	1501
▁आंधी	1501
▁आख	1501
▁कृत्रिम	1501
▁खुशबू	1501
▁जंक्शन	1501
▁टोल	1501
▁भली	1501
▁मुकदमे	1501
क्क	1500
पुरम	1500
वंश	1500
▁1990	1500
▁कब्ज	1500
▁थीम	1500
▁दोस्तो	1500
▁परिभाषित	1500
▁स्पा	1500
▁test	1499
▁प्रभार	1499
▁मुन	1499
▁लण्ड	1499
▁खांसी	1498
▁ठाकरे	1498
▁प्रशिक्षित	1498
▁बदलती	1498
▁बाव	1498
▁मानकों	1498
▁मिस्र	1498
▁व्यवस्थित	1498
▁ii	1497
▁pra	1497
▁sur	1496
▁उसपर	1496
▁चोरों	1496
▁बहि	1496
▁kaise	1495
▁op	1495
▁छान	1495
▁डिपार्टमेंट	1495
▁परिचालन	1495
▁लाठी	1495
ैसे	1494
▁वर्जन	1494
▁हस्तमैथुन	1494
ki	1493
▁आति	1493
▁गर्ल	1493
▁प्रतिभागियों	1493
▁विवेकानंद	1493
▁समावेश	1493
ताब	1492
िं	1492
▁एनएस	1492
▁केले	1492
▁दोषियों	1492
▁पहाड़ों	1492
▁माई	1492
उड	1491
चन्द्र	1491
▁गंध	1491
▁पनीर	1491
▁बीबीसी	1491
▁रम	1491
▁smart	1490
▁दुबारा	1490
▁बढा	1490
संद	1489
▁ist	1489
▁अजी	1489
▁जिम्मे	1489
▁पीला	1489
▁ce	1488
▁अभियुक्त	1488
▁दंप	1488
▁परंपरागत	1488
▁प्रतिबद्ध	1488
▁बृज	1488
▁एसएमएस	1487
▁धनी	1487
▁निष्ठा	1487
▁बल्	1487
▁dec	1486
▁लोहा	1486
▁अंतराल	1485
▁गू	1485
▁चट्ट	1485
▁जानकारियां	1485
▁नौसेना	1485
▁पार्किंग	1485
▁रुके	1485
▁अम्बेडकर	1484
▁गोर	1484
▁ट्रम्प	1484
▁सर्टिफिकेट	1484
▁स्पीकर	1484
▁दुष्ट	1483
▁दूरसंचार	1483
▁पप्पू	1483
कान	1482
▁aug	1482
▁ट्राई	1482
▁नेताजी	1482
▁लगाव	1482
ंभ	1481
▁पेशे	1481
▁सडक	1481
ंदन	1480
खला	1480
▁जेम्स	1480
▁बहिष्कार	1480
▁महोदय	1480
▁वान	1480
गाम	1479
▁कोय	1479
▁छानबीन	1479
▁महि	1479
धारा	1478
▁एडमिशन	1478
▁नतीजों	1478
uj	1477
ॉग	1477
▁et	1477
▁inst	1477
▁भावनात्मक	1477
▁html	1476
▁गर्ग	1476
▁झंडा	1476
▁युवराज	1476
▁लॉस	1476
▁वैचारिक	1476
▁सईद	1476
▁गुजार	1475
▁बच्चियों	1475
ौरा	1474
▁मुकाम	1474
▁अकसर	1473
▁तोड़कर	1473
▁दुरुपयोग	1473
▁वॉल	1473
▁संयोजन	1473
ices	1472
र्पण	1472
▁hel	1472
▁चढ़ाव	1472
▁बताएंगे	1472
▁सुखी	1472
39	1471
चो	1471
द्व	1471
▁have	1471
▁गहलोत	1471
▁जेट	1471
▁पठान	1471
▁पार्टियां	1471
▁फैन्स	1471
▁सिक्योरिटी	1471
प्रसाद	1470
▁निकलती	1470
▁सुरक्षाबलों	1470
▁bro	1469
▁ret	1469
▁सतत	1469
▁ऑक्सीजन	1468
▁दीवारों	1468
▁फोरम	1468
▁बाहुबली	1468
▁मानस	1468
29	1467
हिर	1467
▁गायत्री	1467
▁घुम	1467
ारायण	1466
ुलर	1466
▁दहशत	1466
▁निर्दलीय	1466
▁फ़र	1466
▁भुला	1466
▁वज	1466
▁सक्सेना	1466
बुक	1465
▁bo	1465
▁install	1465
▁inter	1465
▁झड़	1465
रेखा	1464
ुक्त	1464
▁1947	1464
▁सन्देश	1464
क्षेत्र	1463
त्ते	1463
▁अख्तर	1463
▁बखूबी	1463
▁होल	1463
res	1462
▁अवर	1462
▁मंथन	1462
▁सिलेंडर	1462
जाने	1461
राष्ट्रीय	1461
लोन	1461
▁96	1461
▁आशुतोष	1461
▁भाष	1461
▁सत्यापन	1461
▁er	1460
▁here	1460
▁क्षतिग्रस्त	1460
▁मजे	1460
बेट	1459
▁कच	1459
▁तेज़ी	1459
▁नैनीताल	1459
▁विज्ञप्ति	1459
▁शेखर	1459
▁update	1458
्ह्ह	1457
▁89	1457
▁कम्	1457
▁प्रतियोगी	1457
▁मोहब्बत	1457
▁विला	1457
▁शम	1457
ments	1456
uck	1456
▁आक्रामक	1456
▁कफ	1456
▁चौरा	1456
▁जौ	1456
किया	1455
▁दस्तक	1455
▁नीलामी	1455
▁रूपी	1455
क्कड़	1454
▁चौटाला	1454
▁छिड़क	1454
▁छे	1454
▁बैठते	1454
▁वैध	1454
आं	1453
▁बेबी	1453
▁मालिकों	1453
▁मोटापा	1453
▁सर्वप्रथम	1453
क्या	1452
▁खुलने	1452
▁पराजित	1452
▁ब्रे	1452
▁वर्णित	1452
▁सहारनपुर	1452
oot	1451
▁fin	1451
▁कानूनों	1450
▁घटाने	1450
▁झर	1450
▁चीज़ें	1449
▁पत्रिकाओं	1449
▁पहुँचे	1449
▁रूपों	1449
▁असा	1448
▁पिन	1448
▁मण्डल	1448
▁मुर्गा	1448
ire	1447
▁ev	1447
▁छठे	1447
▁जन्	1447
▁नाइ	1447
▁प्रहार	1447
▁सभागार	1447
▁उच्चारण	1446
▁दुकानें	1446
▁विद्य	1446
▁कतई	1445
75	1444
बिन	1444
माता	1444
▁आसाराम	1444
रीब	1443
ैग	1443
▁उठते	1443
▁जेएनयू	1443
▁पुरोहित	1443
▁यूज	1443
▁स्टेप	1443
da	1442
▁आकांक्षा	1442
▁गूंज	1442
▁तुला	1442
▁नशी	1442
▁भोले	1442
▁रोमांच	1442
▁स्टेशनों	1442
▁स्थ	1442
▁डिलीवरी	1441
▁रामलीला	1441
शाली	1440
▁आश्वस्त	1440
▁ग्री	1440
▁चाँद	1440
डीपी	1439
▁channel	1439
▁धरने	1439
▁नरम	1439
ंत्र	1438
▁अनुपम	1438
▁किला	1438
▁दिखते	1438
▁फ्रेंच	1438
▁यादगार	1438
ूर्ति	1437
▁180	1437
▁रामपुर	1437
कीन	1436
मूल	1436
▁आवासीय	1436
▁मैक्स	1436
▁सिल्वर	1436
▁बहाल	1435
▁महतो	1435
▁मैग्	1435
▁लटक	1435
▁समकक्ष	1435
▁सलामी	1435
ons	1434
▁2020	1434
▁मणिपुर	1434
▁कोविंद	1433
▁यूरो	1433
▁यों	1433
श्य	1432
▁टुकड़ा	1432
▁ठेके	1432
▁विलय	1432
▁घटक	1431
▁जैव	1431
▁वश	1431
ेंज	1430
▁91	1430
▁आईपीएस	1430
▁फेस्टिवल	1430
▁फौज	1430
▁सम्भावना	1430
▁सेक्शन	1430
ुत	1429
▁her	1429
▁इस्राएल	1429
▁ऑपरेटिंग	1429
तल	1428
पोर्ट	1428
िकर	1428
▁पिच	1428
▁बहार	1428
▁वर्चस्व	1428
९	1427
▁dev	1427
▁ob	1427
▁परदे	1427
▁मुस्त	1427
▁श्रवण	1427
▁संभा	1427
ार्ज	1426
▁काउ	1426
▁गोस्वामी	1426
▁नल	1426
र्मी	1425
▁ग़लत	1425
▁जावेद	1425
▁बख्	1425
▁प्रया	1424
▁हार्मोन	1424
▁हालिया	1424
word	1423
धियों	1423
▁love	1423
▁उत्तीर्ण	1423
▁ढ़	1423
ंबर	1422
ल्व	1422
▁number	1422
▁अख़बार	1422
▁अहंकार	1422
▁उठाई	1422
▁धूमधाम	1421
▁बीमारियां	1421
▁स्टेटस	1421
▁स्ट्रीट	1421
दरी	1420
विल	1420
ेर	1420
▁तिरु	1420
▁समझकर	1420
▁wordpress	1419
▁नमाज़	1419
▁मूत्र	1419
खान	1418
तया	1418
▁गैलरी	1418
ंसी	1417
डन	1417
प्ल	1417
▁आज़ाद	1417
▁उत्थान	1417
▁फौ	1417
डम	1416
माई	1416
▁करूं	1416
▁sy	1415
▁निर्वाचित	1415
▁पंजी	1415
▁मरे	1415
▁सिस	1415
form	1414
▁आपातकाल	1414
▁जताते	1414
बारी	1413
मिशन	1413
म्मा	1413
▁उपलब्धियों	1413
▁गुर्जर	1413
▁चां	1413
▁छिल	1413
▁तृणमूल	1413
▁पतली	1413
▁फ्रा	1413
▁शिवाजी	1413
▁सैर	1413
▁हेक्टेयर	1413
aut	1412
▁blowjob	1412
▁उदास	1412
▁घोल	1412
▁म्यांमार	1412
शो	1411
ैम	1411
▁what	1411
▁ऑपरेटर	1411
▁पढ़ेंः	1411
▁भविष्यवाणी	1411
▁रचा	1411
▁वीरेंद्र	1411
ood	1410
▁कवियों	1410
आम	1409
▁आहत	1409
▁पसीना	1409
▁बकरी	1409
▁रब	1409
,2017	1408
ण्ट	1408
▁अनजान	1408
▁आंत	1408
▁उत्पादक	1408
▁द्वि	1408
▁बांस	1408
▁संक्षिप्त	1408
ण्डा	1407
स्ति	1407
ॉप	1407
▁अपन	1407
▁असुर	1407
▁कुंजी	1407
▁चैम्पियन	1407
▁तरी	1407
▁सुनीता	1407
▁सेमी	1407
▁सेले	1407
▁अंग्रेज	1406
▁उजाला	1406
▁उपयोगिता	1406
▁कोण	1406
▁शिकायतों	1406
▁shiksha	1405
▁करोगे	1404
▁निरा	1404
▁बहाना	1404
▁शरी	1404
▁चाहने	1403
▁तत्	1403
▁पितृ	1403
▁खनिज	1402
▁चित्रा	1402
▁अद्वितीय	1401
▁ईवीएम	1401
▁काबिल	1401
▁गणपति	1401
▁डेन	1401
▁पतन	1401
▁विवि	1401
जब	1400
प्ले	1400
ोने	1400
▁tool	1400
▁अवसाद	1400
▁आमने	1400
▁उछ	1400
▁बयानों	1400
टके	1399
▁1999	1399
▁उधार	1399
▁गुरुग्राम	1399
▁मॉल	1399
गीत	1398
र्ष	1398
▁झांसी	1398
▁पडे	1398
▁बोनस	1398
▁मज़े	1398
▁महासागर	1398
▁मिथ	1398
▁मेँ	1398
▁ह्यू	1398
ces	1397
मिक्स	1397
शियन	1397
▁call	1397
▁आयोज	1397
▁कैम्प	1397
▁नहाने	1397
▁परिपक्व	1397
नानी	1396
▁जनसभा	1396
▁नें	1396
▁मसाले	1396
▁विनम्र	1396
▁mus	1395
▁मांसपेशियों	1395
इजेशन	1394
ल्ट	1394
▁power	1394
▁क़ानून	1394
▁घटित	1394
▁बैडमिंटन	1394
▁मसलन	1394
▁सुग	1394
ऊं	1393
▁इलाका	1393
▁त्यागी	1393
▁धाराओं	1393
▁प्रेमचंद	1393
ames	1392
▁code	1392
▁आज़	1392
▁परख	1392
▁संबोधन	1392
rit	1391
चय	1391
▁शेट्टी	1391
48	1390
ईल	1390
रेटर	1390
ैश	1390
्रि	1390
▁अर्जी	1390
▁आपात	1390
▁शंख	1390
▁सितारों	1390
▁स्त	1390
बाब	1389
▁उब	1389
▁पौधा	1389
▁प्यारा	1389
▁रिक्शा	1389
क्व	1388
रक	1388
▁अमरनाथ	1388
▁खामो	1388
▁बुल	1388
▁घाटा	1387
▁यूर	1387
▁संजू	1387
▁सिखाया	1387
ree	1386
पों	1386
लीस	1386
▁अत	1386
▁केर	1386
▁गन्ना	1386
▁नवजात	1386
▁रवैया	1386
▁लोकार्पण	1386
ऐप	1385
डीह	1385
▁अम्	1385
▁आड़	1385
▁क्री	1385
▁नित	1385
▁मज़	1385
▁स्क्रिप्ट	1385
जय	1384
▁११	1384
▁li	1383
▁एडल्ट	1383
▁झूठी	1383
▁दाने	1383
▁नैतिकता	1383
▁व्यतीत	1383
▁अब्दुल्ला	1382
▁भिगो	1382
▁सुकून	1382
टू	1381
▁1/	1381
▁198	1381
▁name	1381
▁किसके	1381
▁जातीय	1381
▁नद	1381
▁पत्तियों	1381
▁सहयोगियों	1381
▁79	1380
▁एके	1380
▁करोड	1380
▁थानाध्यक्ष	1380
▁रस्सी	1380
▁रामनाथ	1380
▁संकलन	1380
▁उपा	1379
▁उपायुक्त	1379
▁भागलपुर	1379
36	1378
डीएस	1378
देही	1378
▁jan	1378
▁ओमप्रकाश	1378
▁परिदृश्य	1378
▁पहनकर	1378
▁व्ही	1378
ठों	1377
▁अनदेखी	1377
▁कपल	1377
▁केन्द्रों	1377
▁ठंडे	1377
▁पंद्रह	1377
▁girl	1376
▁नमाज	1376
▁शौच	1376
रेशन	1375
▁तस	1375
▁निकालना	1375
▁बाएं	1375
▁रोमांस	1375
▁गलिया	1374
▁नमी	1374
▁नाले	1374
▁पढ़ाने	1374
▁प्रमाणपत्र	1374
we	1373
लाज	1373
▁अछ	1373
▁कपडे	1373
▁चूम	1373
▁दुर	1373
▁रसूल	1373
ौरी	1372
▁colle	1372
▁अग्र	1372
▁ईसी	1372
▁धोने	1372
▁बताकर	1372
▁विजयी	1372
.201	1371
वेस्ट	1371
▁khabar	1371
▁अनि	1371
▁इंग	1371
▁भड़क	1371
ईओ	1370
▁आंबेडकर	1370
▁कराकर	1370
▁पॉल	1370
▁हस्त	1370
▁nav	1369
▁show	1369
▁फ़ि	1369
फिट	1368
▁अंदाज़	1368
▁अड़	1368
▁दह	1368
▁परिक्रमा	1368
▁परिस	1368
▁बान	1368
▁शिलान्यास	1368
▁श्रमिक	1368
ount	1367
किट	1367
राव	1367
▁social	1367
▁ter	1367
▁फट	1367
▁लपेट	1367
पुट	1366
ित्व	1366
▁इस्लामाबाद	1366
▁समकालीन	1366
▁स्टडी	1366
झी	1365
प्रद	1365
यस	1365
वित	1365
▁car	1365
▁फेक	1365
▁रोकथाम	1365
▁व्हाट्स	1365
▁स्मिथ	1365
▁उपल	1364
▁जानलेवा	1364
▁जायजा	1364
▁स्वरुप	1364
▁pe	1363
▁चेन	1363
▁निकलना	1363
▁निर्णायक	1363
▁पसीने	1363
▁अंब	1362
▁उत्तरप्रदेश	1362
▁खत	1362
▁पीजी	1362
▁प्रसव	1362
▁प्रिंसिपल	1362
▁प्रॉपर्टी	1362
पूर्ति	1361
▁ख़ुदा	1361
▁फोर	1361
▁भंसाली	1361
▁सज़ा	1361
rest	1360
कृति	1360
▁कांफ्रेंस	1360
▁घटी	1360
▁डायरी	1360
▁विमानों	1360
▁crime	1359
▁फैट	1359
▁मिश्रित	1359
▁सगाई	1359
▁सतर्क	1359
क्सीडेंट	1358
▁चोटी	1358
▁टैटू	1358
▁नाय	1358
▁फैले	1358
▁साधक	1358
▁स्कैन	1358
▁युगल	1357
▁वामपंथी	1357
▁संबद्ध	1357
कुर	1356
▁ईंट	1356
▁क्रिसमस	1356
▁जिद	1356
▁तहसीलदार	1356
▁पद्म	1356
▁बुलाकर	1356
▁रहमान	1356
ital	1355
▁तत्पर	1355
▁नवरात्र	1355
▁निदान	1355
▁सरे	1355
▁खासियत	1354
▁ग्रंथों	1354
▁धनिया	1354
गिंग	1353
▁3000	1353
▁ye	1353
▁कानों	1353
▁कृत्य	1353
▁जोगी	1353
णे	1352
▁खुदा	1352
▁गेस्ट	1352
डीएम	1351
▁अश्विन	1351
▁जमीनी	1351
▁पन्ना	1351
▁सुलझाने	1351
एसी	1350
काम	1350
िने	1350
▁कच्चा	1350
lish	1349
ंचे	1349
▁देवेंद्र	1349
▁बंट	1349
▁रैंक	1349
क्षी	1348
त्ती	1348
▁कीं	1348
▁नबी	1348
▁मेने	1348
▁लक	1348
▁स्ट्रीम	1348
ड़ियां	1347
▁चलाए	1347
▁पीपी	1347
▁शायर	1347
▁आयुष्मान	1346
▁मंज	1346
▁def	1345
▁अपनों	1345
▁जख्मी	1345
▁जॉर्ज	1345
▁तालिबान	1345
▁नमूना	1345
▁नागर	1345
▁सेटिंग्स	1345
क़ा	1344
▁information	1344
▁other	1344
▁pc	1344
▁क्रियान्वयन	1344
▁धरोहर	1344
▁धा	1344
▁भलाई	1344
hat	1343
इक	1343
▁धर्	1343
▁पड़ाव	1343
▁भिड़	1343
▁व्हाट्सएप	1343
▁काउंटर	1342
▁डकै	1342
▁पैड	1342
▁विदा	1342
iss	1341
ईई	1341
क़त	1341
नेश	1341
▁एसबीआई	1341
▁द्र	1341
▁सिद्धि	1341
ल्लास	1340
ांज	1340
▁किचन	1340
▁बेग	1340
▁सस्प	1340
orn	1339
▁el	1339
▁किराये	1339
▁बंदरगाह	1339
▁हिन्द	1339
वेद	1338
▁bihar	1338
▁पूछते	1338
▁उक	1337
▁चिकित्सालय	1337
ंशी	1336
कने	1336
नै	1336
साने	1336
▁बजरंग	1336
ission	1335
▁धर्मों	1335
▁प्लानिंग	1335
▁मेनू	1335
▁सुप्रीमो	1335
कायदा	1334
वियों	1334
▁आरटीआई	1334
▁चश्मा	1334
ada	1333
io	1333
ष्य	1333
▁अध्यापकों	1333
▁ओपनिंग	1333
▁गुरूवार	1333
बादी	1332
संघ	1332
▁sm	1332
▁उबर	1332
▁प्रतिवर्ष	1332
▁गुज़र	1331
▁दुरुस्त	1331
▁देशवासियों	1331
▁पॉवर	1331
▁लत	1331
▁वोल	1331
▁संवाददाताओं	1331
▁करूँगा	1330
▁गिरि	1330
▁चन्द्रमा	1330
▁नूर	1330
▁इरा	1329
▁उछाल	1329
▁कवायद	1329
▁दिनभर	1329
▁बेचा	1329
▁भगा	1329
▁भां	1329
▁रेफर	1329
▁हें	1329
लं	1328
▁अभिभावकों	1328
▁कन्हैया	1328
▁कपास	1328
▁चित्रों	1328
▁ताकतवर	1328
▁भागी	1328
▁लोकेशन	1328
▁सफ़र	1328
ga	1327
vel	1327
किर	1327
ज्ञान	1327
भद्र	1327
▁ins	1327
▁एना	1327
▁ख़ान	1327
▁महेन्द्र	1327
▁मुस्लिमों	1327
▁वाज	1327
▁संब	1327
जेक्ट	1326
▁110	1326
▁आटा	1326
▁छपी	1326
▁संभावनाएं	1326
aya	1325
ग्न	1325
वेदन	1325
▁एंड्रा	1325
▁कारी	1325
▁समुचित	1325
लीवुड	1324
▁बैक्टीरिया	1324
▁संतों	1324
नक	1323
ेशी	1323
▁खरीदे	1323
▁घृणा	1323
▁डॉन	1323
▁दीनदयाल	1323
▁यशवंत	1323
▁शिवि	1323
com	1322
ज्जा	1322
▁1500	1322
▁ip	1322
▁अनेकों	1322
▁असाधारण	1322
▁क्रिस	1322
▁प्रदर्शनकारियों	1322
▁रिलेशनशिप	1322
▁विदाई	1322
▁सिक्के	1322
▁ह्रदय	1322
pa	1321
▁गंवा	1321
▁परी	1321
▁स्ट्राइक	1321
तार	1320
लाब	1320
▁अप्लाई	1320
▁ढांचा	1320
▁धूम्रपान	1320
▁नाज	1320
▁मैग	1320
▁वैन	1320
▁सिद्धान्त	1320
ोधन	1319
▁खुजली	1319
▁डिलीट	1319
▁हक़	1319
▁जीवों	1318
▁स्पॉट	1318
ute	1317
ठित	1317
▁खिलौने	1317
▁प्राथमिकी	1317
ator	1316
एट	1316
दाताओं	1316
लती	1316
वली	1316
्रीय	1316
▁आइटम	1316
▁बेगम	1316
▁रविशंकर	1316
▁वकालत	1316
▁वैभव	1316
▁सँ	1316
मिंग	1315
ॉम	1315
▁अमे	1315
▁गोबर	1315
▁चालीस	1315
▁छोड़ी	1315
▁तरल	1315
▁धर्मनिरपेक्ष	1315
▁रेश	1315
▁शर्मनाक	1315
▁स्थाई	1315
▁स्विच	1315
▁अधिकृत	1314
▁अबू	1313
▁अरविन्द	1313
▁अलैहि	1313
▁आईजी	1313
▁मधेश	1313
.75	1312
▁30000	1312
▁लगन	1312
▁शिकायतें	1312
abad	1311
मुझे	1311
▁पतला	1311
▁लिफ्ट	1311
कीर	1310
▁जगन्नाथ	1310
▁बडा	1310
ैस	1309
▁केश	1309
▁घाटे	1309
▁दूतावास	1309
▁प्रवासी	1309
▁ब्लाग	1309
िले	1308
िशन	1308
▁modi	1308
▁अर्थशास्त्र	1308
▁आजतक	1308
▁बंधक	1308
▁मट	1308
▁शास्त्रीय	1308
▁कर्क	1307
▁फलस्वरूप	1307
▁मुश्किलें	1307
भार	1306
▁अनमोल	1306
▁सैयद	1306
वट	1305
ौती	1305
▁उद्धार	1305
▁चूका	1305
▁टाल	1305
▁ताजमहल	1305
▁दशहरा	1305
▁फें	1305
▁बहने	1305
▁निवासियों	1304
▁बिंद	1304
▁बैलेंस	1304
▁स्कूटर	1304
ंछ	1303
▁शिक्षामित्र	1303
▁चलेगी	1302
▁पर्दा	1302
▁भयावह	1302
▁संधि	1302
वले	1301
साथ	1301
▁ग्रैंड	1301
▁जीरो	1301
▁रोकना	1301
▁संरक्षक	1301
मार्ग	1300
लाद	1300
वायर	1300
ूर्	1300
▁कैदियों	1300
▁छिपे	1300
▁बाजी	1300
▁लगाम	1300
▁शुमार	1300
▁सिले	1300
▁अब्बास	1299
▁कसर	1299
▁किस्से	1299
▁चिन्ता	1299
▁फीफा	1299
▁बुद्धिमान	1299
▁भैंस	1299
▁शासित	1299
▁केयर	1298
▁नजदीकी	1298
▁लिपि	1298
▁शिवपुरी	1298
▁संलग्न	1298
▁सब्जियां	1298
▁समर	1298
▁92	1297
▁pur	1297
▁तंज	1297
▁तोड़ा	1297
▁प्रिंस	1297
▁प्ल	1297
▁फास्ट	1297
▁लीडर	1297
▁घोष	1296
▁जितेंद्र	1296
▁निखार	1296
▁पृ	1296
▁प्रभा	1296
▁महाप्र	1296
▁मूसा	1296
▁हड़कंप	1296
38	1295
▁अबतक	1295
▁क्यूँ	1295
▁प्वाइंट	1295
▁बरी	1295
▁बांटने	1295
▁भूप	1295
▁राजाओं	1295
▁श्लोक	1295
▁हैसियत	1295
ush	1294
मिनी	1294
▁जबरदस्ती	1294
▁मुबारक	1294
▁सशस्त्र	1294
ज्म	1293
▁इंफ	1293
▁कुत्तों	1293
▁खोलकर	1293
▁पूज्य	1293
▁संभाग	1293
रियर	1292
▁अर्ध	1292
▁झंडे	1292
▁लाये	1292
▁वां	1292
पादन	1291
फ़्ट	1291
▁एनएच	1291
▁कमला	1291
▁जिन्ना	1291
▁प्रयुक्त	1291
▁रेग	1291
ink	1290
▁अनुपस्थित	1290
▁पटाखे	1290
▁मज़बूत	1290
▁लैब	1290
कांत	1289
मक	1289
स्तीन	1289
▁कहर	1289
▁प्रत्य	1289
▁मृतकों	1289
.04	1288
let	1288
जिकल	1288
शिष्ट	1288
▁आशय	1288
▁कालोनी	1288
▁खिस	1288
▁बढ़ना	1288
▁मठ	1288
▁लुटे	1288
▁विश्	1288
▁साम्प्रदायिक	1288
तंत्र	1287
▁पीली	1287
▁पॉइंट	1287
▁संभावनाओं	1287
ॉर	1286
▁ख़री	1286
जीन	1285
▁5000	1285
▁लॉक	1285
▁इरफान	1284
▁वायुसेना	1284
▁सिग्नल	1284
गाने	1283
▁आपूर्तिकर्ताओं	1283
▁कमज़ोर	1283
▁काॅ	1283
▁बूट	1283
▁विकार	1283
ky	1282
हस	1282
िज्म	1282
ुड	1282
▁उन्ह	1282
▁उन्ही	1282
▁एग्री	1282
▁बलराम	1282
▁बोलता	1282
बीसी	1281
▁group	1281
▁गानों	1281
▁बीएसई	1281
▁बैच	1281
▁national	1280
▁इंश्योरेंस	1280
▁एमसी	1280
▁ड्राइविंग	1280
▁बारा	1280
▁ja	1279
▁इन्सान	1279
▁चेतन	1279
▁सती	1279
▁सेवानिवृत्त	1279
▁कुंड	1278
▁धंधा	1278
▁प्रीमियर	1278
▁सर्किट	1278
aka	1277
▁अस्थ	1277
▁ज़ाहिर	1277
▁दर्दनाक	1277
▁बढ़ाता	1277
▁रक्तचाप	1277
▁लडक	1277
▁लेखिका	1277
anj	1276
द्वीप	1276
ेशा	1276
▁अवलोकन	1276
▁सेल्स	1276
her	1275
ites	1275
धीन	1275
▁अवशेष	1275
▁हिदायत	1275
ral	1274
क़े	1274
▁अनवर	1274
▁अरबी	1274
▁बेल्ट	1274
▁मशी	1274
▁मीर	1274
▁लम्बा	1274
▁सोचे	1274
.15	1273
गाड़ी	1273
▁views	1273
▁अहिंसा	1273
▁डालर	1273
▁नाका	1273
▁आजीवन	1272
▁विद्यमान	1272
ara	1271
▁ho	1271
▁मुमकिन	1271
▁हुनर	1271
.45	1270
56	1270
▁kare	1270
▁डोर	1270
▁वेल	1270
ोरा	1269
▁rajasthan	1269
▁क्रमांक	1269
▁गायन	1269
▁फ्लैश	1269
स्व	1268
▁ed	1268
▁जेपी	1268
▁धनतेरस	1268
▁नाश्ता	1268
▁साईट	1268
ब्ब	1267
▁create	1267
▁एनजीओ	1267
▁प्रतिकूल	1267
▁वाणिज्यिक	1267
65	1266
दुर	1266
ब्बा	1266
्यान	1266
▁इराक	1266
▁एप्प	1266
▁तुरन्त	1266
▁बांग्ला	1266
▁बार्	1266
▁शांतिपूर्ण	1266
सिटी	1265
▁कर्नल	1265
▁घूमते	1265
▁दंगों	1265
▁पात्रता	1265
▁बटोर	1265
▁ईडी	1264
▁ख़ूब	1264
▁नौकरियां	1264
▁मूलभूत	1264
▁वसंत	1264
म्बे	1263
िक्षा	1263
▁real	1263
▁डीएसपी	1263
▁विश्वकर्मा	1263
▁शादीशुदा	1263
▁स्टै	1263
▁stories	1262
▁इमरजेंसी	1262
▁जीवंत	1262
▁जेडीएस	1262
▁प्रणाम	1262
▁माओवादी	1262
▁माली	1262
▁लड़े	1262
▁शर्मि	1262
▁सिक्	1262
▁अफ्रीकी	1261
▁उपराष्ट्रपति	1261
▁चॉकलेट	1261
▁ठंडी	1261
▁पायदान	1261
▁लाइक	1261
▁विरोधियों	1261
ji	1260
▁किंग्स	1260
▁नीच	1260
▁यूनाइटेड	1260
▁राइ	1260
▁लंग	1260
▁स्पिनर	1260
ुरु	1259
▁कीमती	1259
▁जाव	1259
▁जिस्म	1259
▁बृहस्पति	1259
▁मुल	1259
▁राउ	1259
▁सत्तारूढ़	1259
▁उन्नाव	1258
▁गडकरी	1258
▁नुस्खे	1258
▁पुत्रा	1258
▁फेमस	1258
▁september	1257
▁टु	1257
▁ट्रोल	1257
▁दाखिला	1257
▁स्पिन	1257
नाक	1256
▁औऱ	1256
▁गोदाम	1256
▁तीव्रता	1256
▁निवेशक	1256
▁फुटेज	1256
▁बुलाई	1256
▁भावी	1256
▁श्वेता	1256
▁सीआई	1256
स्वी	1255
▁इजरायल	1255
▁तबीयत	1255
▁दिनचर्या	1255
▁लक्षणों	1255
▁store	1254
▁डेवलपमेंट	1254
▁दाख	1254
▁पांड	1254
▁बंगाली	1254
टाने	1253
नात	1253
▁उपाधि	1253
▁एमबी	1253
▁कोरियाई	1253
▁खुदाई	1253
▁प्रशंसकों	1253
▁शार	1253
फ़्तार	1252
भाषा	1252
स्पे	1252
▁कोशिशों	1252
▁धर्मशाला	1252
▁सुपरहिट	1252
vert	1251
खाना	1251
▁date	1251
▁अभिनव	1251
▁एमएल	1251
▁ग्रोथ	1251
▁ब्या	1251
▁ज्	1250
▁मुस	1250
सरत	1249
“	1249
▁ऐड	1249
▁केन्द्रित	1249
▁सोचकर	1249
▁हिना	1249
be	1248
शाद	1248
▁july	1248
▁अनुचित	1248
▁कैलेंडर	1248
▁पिया	1248
▁shar	1247
▁नाजुक	1247
▁सीर	1247
▁९	1247
/201	1246
नास	1246
लकर	1246
सूरत	1246
▁gmail	1246
▁has	1246
▁police	1246
▁पूरक	1246
▁बारात	1246
▁लोकपाल	1246
▁वकीलों	1246
.11	1245
▁ms	1245
▁कटे	1245
▁तेवर	1245
▁पाबंदी	1245
▁प्रदेशों	1245
▁प्रि	1245
▁हड्डियों	1245
▁अद्यतन	1244
▁अरोड़ा	1244
▁तुझ	1244
▁note	1243
▁औसतन	1243
▁धरा	1243
▁धुंध	1243
▁ध्वस्त	1243
▁विश	1243
▁श्रमिकों	1243
▁अरुणाचल	1242
▁अष्ट	1242
▁निभ	1242
▁recipe	1241
▁कैमर	1241
▁नजारा	1241
▁पेड	1241
▁बनवाने	1241
▁बेश	1241
▁रुझान	1241
त्या	1240
मण	1240
▁son	1240
▁पण	1240
▁पौष्टिक	1240
▁इन्वेस्ट	1239
▁कुश्ती	1239
▁गुजरने	1239
▁मंद	1239
▁लय	1239
▁वाल	1239
▁साक्ष्य	1239
▁हाव	1239
ियान	1238
▁watch	1238
▁उखा	1238
▁कमांडर	1238
▁कार्यालयों	1238
▁मही	1238
▁रिवा	1238
▁समीकरण	1238
लोग	1237
वृ	1237
▁आटे	1237
▁बढ़ोत्तरी	1237
▁भर्	1237
ca	1236
▁भरना	1236
▁मुल्	1236
76	1235
गिरी	1235
▁feature	1235
▁kam	1235
▁लगना	1235
▁श्रेणियों	1235
▁उल्टी	1234
▁तुमको	1234
▁फिल्	1234
▁jul	1233
▁start	1233
▁view	1233
▁आकृति	1233
▁कृत	1233
▁खर्चा	1233
▁प्रजापति	1233
▁बूढ़े	1233
▁मोहल्ला	1233
▁रोमन	1233
55	1232
ख्या	1232
शासन	1232
सत	1232
▁छुट्टियों	1232
▁पतंजलि	1232
▁लिय	1232
ope	1231
ror	1231
▁continue	1231
▁अखा	1231
▁अा	1231
▁घने	1231
▁माधुरी	1231
▁रोष	1231
▁मध	1230
▁माइक	1230
ऊँ	1229
▁porn	1229
▁उच्चा	1229
▁एथ	1229
▁त्रुटि	1229
▁विचित्र	1229
ताप	1228
▁तबाही	1228
▁पॉप	1228
▁मर्जी	1228
▁वर्दी	1228
त्रा	1227
्राम	1227
▁नॉर्थ	1227
▁बजकर	1227
▁मक्का	1227
▁सनसनी	1227
▁हटाकर	1227
वाती	1226
ॉड	1226
▁कहावत	1226
▁गिराया	1226
▁चंदा	1226
▁डीजीपी	1226
▁पारदर्शी	1226
▁सज्जन	1226
चाल	1225
रियल	1225
▁आरा	1225
▁कीट	1225
▁खरा	1225
▁ग्रेटर	1225
▁चट	1225
▁जीडीपी	1225
▁फ़िल्मों	1225
▁मेह	1225
▁राजदूत	1225
गोपाल	1224
▁अनजाने	1224
▁जायसवाल	1224
▁ट्वि	1224
▁तलब	1224
▁अंकुश	1223
▁कमलनाथ	1223
▁कारोबारियों	1223
▁क्रि	1223
▁नमः	1223
▁फ्रां	1223
▁बेटों	1223
▁ब्राउज़र	1223
▁माइकल	1223
▁वेदों	1223
उंडर	1222
▁एंकर	1222
▁काजल	1222
▁कुरान	1222
▁टूटे	1222
▁टोपी	1222
▁पहनी	1222
▁पेय	1222
▁सता	1222
hip	1221
नीज	1221
▁content	1221
▁our	1221
▁केसर	1221
▁दूँ	1221
▁योद्धा	1221
जातीय	1220
▁अस्थायी	1220
▁खाड़ी	1220
▁छिप	1220
▁ज़माने	1220
▁मतों	1220
▁महाम	1220
▁संभाला	1220
दाद	1219
▁कैदी	1219
▁दवाएं	1219
▁यादों	1219
▁रोहिंग्या	1219
▁शहीदों	1219
▁हार्डवेयर	1219
क्सर	1218
फेयर	1218
बीन	1218
▁अंधकार	1218
▁इकाइयों	1218
▁जेन	1218
▁ड्रा	1218
▁दंगे	1218
▁मसाज	1218
▁युक्ति	1218
lease	1217
फै	1217
▁plus	1217
▁टकराव	1217
▁डिस्काउंट	1217
▁बाइबल	1217
▁मसल	1217
भग	1216
साल	1216
▁ताऊ	1216
▁न्यायपालिका	1216
▁पंख	1216
▁बेहोश	1216
वाणी	1215
▁इनमे	1215
▁ऊँची	1215
▁कुण्ड	1215
▁जन्मे	1215
▁निभाते	1215
▁पक्की	1215
▁पारदर्शिता	1215
▁पीयूष	1215
▁महार	1215
▁सुथ	1215
▁एलर्जी	1214
▁गजब	1214
▁जुटाने	1214
▁झगड़े	1214
▁झुका	1214
▁तारों	1214
▁मनरेगा	1214
▁स्थानांतरण	1214
वंत	1213
▁महाजन	1213
▁लड़ते	1213
काया	1212
▁उत्तेजित	1212
49	1211
हाइड	1211
▁si	1211
▁जडेजा	1211
▁हिमा	1211
33	1210
ited	1210
▁अंध	1210
▁पुर्त	1210
ann	1209
▁एक्टिव	1209
▁गिरकर	1209
▁तिरंगा	1209
▁पच	1209
▁मूव	1209
गाई	1208
▁अन्तिम	1208
▁अलवर	1208
▁टेक्	1208
▁पूछना	1208
▁इरादे	1207
▁लग्	1207
▁सहाय	1207
▁१४	1207
गुण	1206
शियम	1206
▁कछ	1206
▁काटे	1206
▁दबो	1206
▁फाई	1206
ines	1205
ize	1205
▁कुक	1205
▁जालंधर	1205
▁झूठा	1205
▁तला	1205
▁पाव	1205
▁रोते	1205
▁सक्रियता	1205
कुलर	1204
फ़्त	1204
▁dig	1204
▁status	1204
▁इंसाफ	1204
▁बर्खास्त	1204
▁बालू	1204
▁भंडारण	1204
▁रेस्टोरेंट	1204
▁शोधकर्ताओं	1204
▁सम्बंध	1204
▁सलीम	1204
▁स्टार्स	1204
पूर्व	1203
▁bet	1203
▁oct	1203
▁कलेक्ट	1203
▁पटियाला	1203
▁पोर्	1203
▁फार्मा	1203
▁ब्लोग	1203
िको	1202
▁दक्षता	1202
▁दौलत	1202
▁सियान	1202
गुप्त	1201
मौ	1201
ल्मी	1201
हेज	1201
िसी	1201
▁अमावस्या	1201
▁कारावास	1201
▁बंटवारे	1201
▁सप	1201
फु	1200
्यूज	1200
▁user	1200
▁आद	1200
▁गड़बड़	1200
▁गिरे	1200
▁चित्रण	1200
▁जवानी	1200
▁पालतू	1200
▁बेल्जियम	1200
▁रखरखाव	1200
▁सुधर	1200
म्मे	1199
▁wom	1199
▁चिड़िया	1199
▁भगवा	1199
▁हिंदु	1199
मीर	1198
▁निर्व	1198
▁बनें	1198
▁बिखर	1198
▁सचेत	1198
ux	1197
ट्टे	1197
य्या	1197
▁basic	1197
▁एसो	1197
▁रचनाकार	1197
▁2.0	1196
▁350	1196
▁झुल	1196
▁मिठा	1196
▁राजस्थानी	1196
▁रुकने	1196
राना	1195
▁val	1195
▁उत्प	1195
▁दस्तावे	1195
▁दूषित	1195
▁फर्श	1195
▁शं	1195
▁हजारे	1195
▁केदार	1194
▁ड्राई	1194
▁बिलियन	1194
▁nic	1193
▁एक्सट	1193
▁पेर	1193
▁इनपुट	1192
▁उपमुख्यमंत्री	1192
▁ऋ	1192
▁एकाउंट	1192
▁कुश	1192
ंजन	1191
र्टी	1191
▁700	1191
▁tri	1191
▁अभिभावक	1191
▁कंट	1191
▁थाली	1191
▁पुख्ता	1191
▁भेजकर	1191
▁विजे	1191
ंता	1190
▁wwe	1190
▁इस्पात	1190
▁रवींद्र	1190
ds	1189
ton	1189
राइड	1189
▁state	1189
▁चने	1189
▁दाद	1189
▁मल्होत्रा	1189
▁मुरादाबाद	1189
▁विनिर्माण	1189
.12	1188
▁छिपी	1188
▁जवाहरलाल	1188
▁ज्या	1188
▁निम्	1188
▁लोहिया	1188
▁विराजमान	1188
ड़की	1187
पेट	1187
स्की	1187
▁चूँकि	1187
▁झि	1187
▁मेघालय	1187
▁रिए	1187
▁स्वामित्व	1187
47	1186
▁केन	1186
▁गुजराती	1186
▁पाएं	1186
▁बुलेट	1186
विच	1185
▁1996	1185
▁inc	1185
▁एडमिट	1185
▁देशभक्ति	1185
▁रियासत	1185
▁हिंदुत्व	1185
पुत्र	1184
लेम	1184
िकेट	1184
ूंगी	1184
▁develop	1184
▁उठाये	1184
▁एक्सेस	1184
▁नह	1184
▁निमंत्रण	1184
▁पायेंगे	1184
▁फ्रै	1184
▁रिहाई	1184
▁हवन	1184
▁थाईलैंड	1183
▁दलील	1183
▁महिंद्रा	1183
ईसी	1182
▁कोशिका	1182
▁घटकर	1182
ल्क	1181
▁चढ़कर	1181
▁मणि	1181
▁लाज	1181
मार्	1180
▁एनडीटीवी	1180
▁कात	1180
▁जीप	1180
▁नरक	1180
▁बाउ	1180
▁शू	1180
फॉर्म	1179
रोन	1179
▁आईपी	1179
▁जाधव	1179
▁पालक	1179
▁सुर्ख	1179
▁स्क्	1179
500	1178
olog	1178
दोष	1178
▁गायिका	1178
▁जीरा	1178
▁नजरअंदाज	1178
▁मर्	1178
नीति	1177
▁गवाही	1177
▁दावों	1177
▁bhi	1176
▁ssc	1176
▁आसार	1176
▁एडिटर	1176
▁दहन	1176
▁व्यवसायी	1176
▁श्यामला	1176
▁सामान्यतः	1176
लेक्स	1175
▁ir	1175
▁अखंड	1175
▁घों	1175
▁चित्रकूट	1175
▁छप	1175
▁तस्कर	1175
▁सीआरपीएफ	1175
▁सुखा	1175
थन	1174
रिय	1174
▁कतर	1174
▁किट	1174
▁गैलेक्सी	1174
▁टैबलेट	1174
▁नहा	1174
▁पारि	1174
▁मनोवैज्ञानिक	1174
▁विराम	1174
बोर्ड	1173
▁गायों	1173
▁पैकेट	1173
▁मंदी	1173
▁वृश्चिक	1173
ञ्	1172
यम	1172
▁bharat	1172
▁कठ	1172
▁गिना	1172
▁प्रणब	1172
▁बागी	1172
▁सरी	1172
oun	1171
़ों	1171
▁आश्चर्यजनक	1171
▁तिब्बत	1171
▁मोम	1171
▁लंच	1171
ँव	1170
ानगर	1170
▁खौफ	1170
▁प्रॉब्लम	1170
▁हौसला	1170
reat	1169
कॉम	1169
साइट	1169
▁अमेरिकन	1169
▁नंगा	1169
▁नाखून	1169
▁फाड़	1169
▁ब्राह्मणों	1169
▁लेटर	1169
▁व्यंजन	1169
छी	1168
्वि	1168
▁related	1168
▁कल्प	1168
▁कार्मिक	1168
▁बिस्	1168
ओसी	1167
ध्या	1167
▁बिज़नेस	1167
▁शॉ	1167
▁खुशियों	1166
▁ज़रिए	1166
▁समाधि	1166
▁सोलह	1166
▁होड़	1166
34	1165
रेगा	1165
▁आश	1165
▁बिज	1165
▁हं	1165
ays	1164
▁आपूर्तिकर्ता	1164
▁प्रक्रियाओं	1164
▁टाइट	1163
▁श्वेत	1163
aps	1162
्राइ	1162
▁डिनर	1162
▁दूं	1162
▁धक्के	1162
▁परिस्थित	1162
▁फतेहपुर	1162
▁माइक्रोसॉफ्ट	1162
▁मानदंड	1162
▁राब	1162
▁सीएस	1162
ger	1161
oor	1161
ताई	1161
ुली	1161
▁गोपनीयता	1161
▁धंधे	1161
▁हेलीकॉप्टर	1161
वंशी	1160
वेश	1160
▁mil	1160
▁एंट	1160
▁गाजर	1160
▁पद्मावती	1160
▁बंसल	1160
▁मच्छर	1160
मिट	1159
▁1992	1159
▁चुकाने	1159
▁जया	1159
▁साधनों	1159
नेंसी	1158
▁तोहफा	1158
▁नारद	1158
▁बुजुर्गों	1158
▁शीतल	1158
▁सरोज	1158
ुरू	1157
▁आंशिक	1157
▁आख़िर	1157
▁ठो	1157
▁मुहं	1157
िवर्स	1156
▁परिषद्	1156
▁फटकार	1156
▁बॉर्डर	1156
▁मौसी	1156
▁सबने	1156
ba	1155
स्सी	1155
▁ast	1155
▁most	1155
▁इर	1155
▁निर्मला	1155
▁मिटाने	1155
▁रजनीकांत	1155
▁विज्ञापनों	1155
37	1154
जिंग	1154
▁पछ	1154
▁प्लीज	1154
▁विख्यात	1154
▁विश्वनाथ	1154
▁सिक्का	1154
ण्य	1153
शहर	1153
▁130	1153
▁current	1153
▁आईएएनएस	1153
▁आपत्तिजनक	1153
▁ध्रुव	1153
▁प्रजाति	1153
▁लाता	1153
▁संपादित	1153
मास	1152
ेटा	1152
▁नाराज़	1152
▁नैन	1152
ोम	1151
्ज	1151
▁कब्	1151
▁काश	1151
▁वैक	1151
▁स्या	1151
▁हाफ	1151
▁ड्रामा	1150
▁ताइ	1150
▁नज	1150
▁सम्बोधित	1150
▁सहानुभूति	1150
▁सुरेन्द्र	1150
wa	1149
▁भत्ता	1149
▁यूज़	1149
▁वशी	1149
▁rah	1148
▁गाज	1148
▁गोवर्धन	1148
▁छोड़े	1148
▁जाह्नवी	1148
▁जिज्ञासा	1148
▁जीवनशैली	1148
▁तोमर	1148
▁नगरपालिका	1148
▁प्रोफेशनल	1148
▁राष्ट्रवाद	1148
ंटू	1147
हाई	1147
▁1980	1147
▁hum	1147
▁october	1147
▁एआई	1147
▁खरीदते	1147
▁टाउन	1147
▁ट्रांसपोर्ट	1147
▁प्रेमियों	1147
▁यहा	1147
▁लड्डू	1147
▁10000	1146
▁अपेक्षाकृत	1146
▁काँ	1146
▁गियर	1146
▁चोदने	1146
▁जन्माष्टमी	1146
▁दुखद	1146
▁रत	1146
▁सफ	1146
▁सर्विसेज	1146
▁सुविधाजनक	1146
जोड़	1145
▁gst	1145
▁इंजेक्शन	1145
▁घा	1145
▁दावेदार	1145
▁महबूबा	1145
▁मुख्यतः	1145
▁सुसाइड	1145
थर	1144
वं	1144
▁friends	1144
▁ट्रायल	1144
▁पापों	1144
▁पुरा	1144
▁बोलती	1144
▁मुताबिक़	1144
▁मोबाईल	1144
▁लीवर	1144
oll	1143
कास्ट	1143
बुल	1143
▁अम्मा	1143
▁गाजीपुर	1143
▁फोटोज	1143
▁बनवाया	1143
▁मौज	1143
▁रूबरू	1143
▁वात	1143
▁सिवा	1143
▁हमलोग	1143
▁उर	1142
▁कुचल	1142
▁भीख	1142
▁रिटायर	1142
▁हिम	1142
ँगे	1141
रात	1141
लप	1141
▁1993	1141
▁cro	1141
▁कलकत्ता	1141
▁प्रचारक	1141
▁फिज	1141
▁बदलता	1141
▁भेड़	1141
▁मीठी	1141
रीना	1140
ार्म	1140
▁करन	1140
▁दार्शनिक	1140
▁प्लेन	1140
▁सजाया	1140
44	1139
भाष	1139
▁उत्तेजना	1139
▁कर्मों	1139
▁होस्ट	1139
▁ve	1138
▁अलविदा	1138
▁गलतियों	1138
▁नीलम	1138
▁सों	1138
▁१६	1138
▁अकाल	1137
▁इशारे	1137
▁पसन्द	1137
▁प्रावधानों	1137
▁बढ़ाई	1137
▁बदबू	1137
▁बेवकू	1137
▁सतर्कता	1137
▁साइज	1137
▁सूचीबद्ध	1137
न्धन	1136
्रोजन	1136
▁टॉयलेट	1136
▁डिजाइनर	1136
▁ताब	1136
▁धनबाद	1136
▁पहेली	1136
▁लक्ष्यों	1136
▁लहरा	1136
▁हॉस्टल	1136
58	1135
▁अध्यादेश	1135
▁देखरेख	1135
▁नमन	1135
▁माधव	1135
▁रुद्र	1135
▁सूचक	1135
pro	1134
▁अनावश्यक	1134
▁काटा	1134
▁डेयरी	1134
▁पॉली	1134
▁रित	1134
▁सौन्दर्य	1134
डेड	1133
राष्ट्र	1133
▁qual	1133
▁उम्मीदें	1133
▁दौड़ा	1133
▁नामी	1133
▁समझें	1133
प्रो	1132
▁एनी	1132
▁कामुक	1132
▁खुलासे	1132
▁निज	1132
▁समझदार	1132
▁साबुन	1132
▁dire	1131
▁product	1131
▁अल्पसंख्यकों	1131
▁निस्तारण	1131
▁वक्तव्य	1131
▁साँस	1131
क्षक	1130
टका	1130
मह	1130
लास	1130
सेप्ट	1130
▁2022	1130
जाति	1129
तुम	1129
वक	1129
विंदर	1129
▁rem	1129
▁tem	1129
▁कमबख्त	1129
▁मण	1129
▁मनमानी	1129
▁सिंघ	1129
▁हैंडल	1129
atur	1128
स्थापन	1128
▁har	1128
▁over	1128
▁कदमों	1128
▁मलेरिया	1128
▁साठ	1128
ौज	1127
▁amaz	1127
▁network	1127
▁उज्ज	1127
▁नं	1127
▁प्रतिपक्ष	1127
▁मप्र	1127
▁सुरंग	1127
▁images	1126
▁reading	1126
▁जनगणना	1126
▁देवगन	1126
▁पूर्वानुमान	1126
▁सकल	1126
ting	1125
खन	1125
▁tar	1125
▁आयेगा	1125
▁कमलेश	1125
▁जक	1125
▁पूल	1125
▁राष्ट्रवादी	1125
▁वैद्य	1125
▁सरा	1125
af	1124
ages	1124
खोर	1124
▁कोलेस्ट्रॉल	1124
▁खरीदें	1124
▁टूटी	1124
▁टॉस	1124
▁बैरल	1124
दीय	1123
▁आश्रय	1123
▁मारुति	1123
▁अनुकूलित	1122
▁आॅफ	1122
▁उनमे	1122
▁सुगंध	1122
sl	1121
▁rep	1121
▁उपक्रम	1121
▁बैंग	1121
लिप	1120
▁नुस्	1120
▁बिटकॉइन	1120
ource	1119
चुअल	1119
पदा	1119
पोरेट	1119
रेन्द्र	1119
▁कंटेंट	1119
▁कविताएं	1119
▁क्लासिक	1119
▁खीर	1119
▁नेक	1119
▁बर्थडे	1119
▁मची	1119
पाट	1118
वाकर	1118
▁10,000	1118
▁punjab	1118
▁अपेक्षित	1118
▁एमेच्योर	1118
▁क्लिप	1118
▁धन्य	1118
▁प्रशंसक	1118
▁फिरोज	1118
▁भ्रूण	1118
▁मायके	1118
▁लड़ाकू	1118
▁विसर्जन	1118
सिन	1117
▁march	1117
▁mess	1117
▁कचरे	1117
▁कास्ट	1117
▁कूड़ा	1117
▁मसी	1117
▁मोल	1117
67	1116
ith	1116
पना	1116
ावट	1116
ावस्था	1116
▁अंकुर	1116
▁एनटी	1116
▁डार्क	1116
▁परहेज	1116
▁बरसों	1116
▁बुआ	1116
▁लगाता	1116
▁लौटते	1116
ating	1115
डप	1115
▁पथरी	1115
▁बिताने	1115
▁रास	1115
▁cor	1114
▁कहो	1114
▁बीएच	1114
▁रसी	1114
▁रिव्यू	1114
▁वस्तुतः	1114
uru	1113
▁घटिया	1113
▁डिफेंस	1113
▁डेली	1113
▁मैडम	1113
▁सटे	1113
ative	1112
▁techn	1112
▁care	1111
▁खुदरा	1111
▁पवार	1111
▁रखनी	1111
▁लिप	1111
xt	1110
धिकारियों	1110
मोन	1110
▁असफलता	1110
▁उपभोग	1110
▁गांधीजी	1110
▁नवाब	1110
▁बाह्य	1110
▁बिजन	1110
▁भो	1110
▁माप	1110
ोनिक	1109
▁कराता	1109
▁कवरेज	1109
▁धमक	1109
▁वु	1109
▁हव	1109
▁1991	1108
▁चित	1108
▁निशुल्क	1108
▁संरक्षित	1108
▁सूखी	1108
ुग	1107
▁अनुपालन	1107
▁ऑस्ट्रेलियाई	1107
▁फाइनेंस	1107
▁मुरली	1107
ctor	1106
ओगे	1106
धारण	1106
▁reviewed	1106
▁अनोखा	1106
▁उद्देश्यों	1106
▁करूँ	1106
▁तिहाई	1106
▁प्रती	1106
▁बालो	1106
▁मिनटों	1106
▁सहे	1106
32	1105
किस्तान	1105
ान्ति	1105
िति	1105
▁एमडी	1105
▁माध	1105
▁विकेटकीपर	1105
ification	1104
कात	1104
ड्डा	1104
न्दे	1104
र्ता	1104
ारण	1104
▁board	1104
▁ऐक्ट	1104
▁दर्शा	1104
▁विषा	1104
▁सामर्थ्य	1104
▁sal	1103
▁गाते	1103
▁डरते	1103
▁निष्क्रिय	1103
▁लाला	1103
▁विमल	1103
▁अकाली	1102
▁आैर	1102
▁इकल	1102
कड	1101
ब्ध	1101
स्टिंग	1101
ि़	1101
▁इस्तीफे	1101
▁बाबरी	1101
▁रोज़ा	1101
▁स्का	1101
,999	1100
चड़	1100
नाने	1100
लिश	1100
ानुसार	1100
▁men	1100
▁अवा	1100
▁अहमियत	1100
▁आयुष	1100
▁कीड़े	1100
▁जिसपर	1100
▁ध्वज	1100
▁रोडवेज	1100
▁सुचार	1100
ॉर्ट	1099
▁kahani	1099
▁कोस	1099
▁ग्राफ़	1099
▁नागा	1099
▁निशा	1099
▁बांदा	1099
▁रातों	1099
ांगी	1098
▁अग्	1098
▁चमकदार	1098
▁मध्या	1098
▁राजनेताओं	1098
▁लिखें	1098
▁हाजिर	1098
यंत्र	1097
िना	1097
▁daily	1097
▁इन्ही	1097
▁कैप	1097
▁मंजू	1097
▁स्टाइलिश	1097
▁स्वतन्त्र	1097
agar	1096
ल्डिंग	1096
वेन्द्र	1096
ेन्द्र	1096
▁अंगू	1096
▁आजमा	1096
▁कैंपस	1096
▁गों	1096
▁घरवालों	1096
▁ढक	1096
▁पैसेंजर	1096
दर्	1095
ुअल	1095
▁बयां	1095
▁सैक	1095
ful	1094
प्रति	1094
लेश्वर	1094
ीय	1094
▁गांगुली	1094
▁गुवाहाटी	1094
▁पाटीदार	1094
▁बसें	1094
▁बिस	1094
▁भावार्थ	1094
▁मित्तल	1094
▁वनस्पति	1094
▁स्वदेशी	1094
दर्शी	1093
सभा	1093
ूफ	1093
▁sep	1093
▁ठगी	1093
uch	1092
िएट	1092
▁ban	1092
▁election	1092
▁चौंक	1092
▁डिज	1092
▁नग्न	1092
▁बें	1092
▁बेंगलुरू	1092
▁मुंबईः	1092
▁विंग	1092
▁विशेषताओं	1092
▁३०	1092
उट	1091
लेंट	1091
▁आनन	1091
▁करवाए	1091
▁धमाके	1091
▁प्राइस	1091
▁फरमान	1091
▁बीर	1091
▁यूके	1091
▁रहि	1091
▁शिया	1091
▁सराहनीय	1091
▁हज़ारों	1091
न्नू	1090
▁office	1090
▁एंव	1090
▁एजेंडा	1090
▁जवा	1090
▁पुनर्वास	1090
▁यादें	1090
्वर	1089
▁political	1089
▁उंग	1089
▁उगा	1089
▁कंज	1089
▁टाई	1089
▁पीकर	1089
▁बेटियां	1089
वाहक	1088
▁featured	1088
▁इज़	1088
▁करनेवाले	1088
▁तत्वावधान	1088
▁ब्रिगेड	1088
▁महापुरुष	1088
▁लंका	1088
▁लिखता	1088
ड़न	1087
मध	1087
▁140	1087
▁option	1087
▁एर	1087
▁खींचने	1087
▁दरार	1087
▁पीटीआई	1087
▁सुनाने	1087
▁हरेक	1087
पादक	1086
बला	1086
रीज	1086
ित्र	1086
▁khan	1086
▁उज	1086
▁उर्वर	1086
▁एण्ड	1086
▁चुनी	1086
▁टेक्सास	1086
▁तोह	1086
▁फिंगर	1086
▁राक्षस	1086
प्रे	1085
मेंट्स	1085
▁detail	1085
▁एनकाउंटर	1085
▁जलाकर	1085
▁दरोगा	1085
▁लेप	1085
▁संन्यास	1085
आज	1084
डेंट	1084
▁दसवीं	1084
▁नोकिया	1084
▁पदोन्नति	1084
▁रक्तदान	1084
▁समाजसेवी	1084
▁साध्वी	1084
ऱ	1083
ाजा	1083
▁select	1083
▁छोट	1083
▁पाएगी	1083
▁भगवती	1083
▁भावों	1083
51	1082
म्र	1082
वाही	1082
श्रम	1082
▁आक	1082
▁औरतें	1082
▁जाओगे	1082
▁सहवाग	1082
▁स्टेन	1082
्रिक	1081
▁gl	1081
▁madh	1081
▁अन्नाद्रमुक	1081
▁अफसोस	1081
▁अश्	1081
▁असं	1081
▁तड़के	1081
▁दै	1081
▁पत्ता	1081
▁पुतिन	1081
▁महंत	1081
▁विद्	1081
▁स्त्र	1081
▁स्रोतों	1081
▁स्लै	1081
▁जानकारों	1080
▁नानी	1080
▁मिलाएं	1080
ह्न	1079
ूतों	1079
▁bitcoin	1079
▁proble	1079
▁ओवरों	1079
▁टेंडर	1079
▁बहती	1079
▁व्याख्यान	1079
द्घ	1078
रीय	1078
सागर	1078
हीम	1078
▁अँधे	1078
▁चन्द	1078
▁चालकों	1078
▁टिका	1078
▁नियत	1078
▁निरो	1078
▁पूर्णतः	1078
▁बुन	1078
▁वॉटर	1078
▁सड़कें	1078
achar	1077
आरएस	1077
पेड	1077
▁tech	1077
▁जेवर	1077
▁बुझा	1077
▁वांछित	1077
▁शस्त्र	1077
▁kendriya	1076
▁कहि	1076
▁क्यो	1076
▁टर्मिनल	1076
ions	1075
ताज	1075
हिता	1075
▁188	1075
▁असी	1075
▁इन्हे	1075
▁देंगी	1075
▁धर्मेंद्र	1075
▁पिट	1075
▁भौगोलिक	1075
▁रहाणे	1075
▁शिला	1075
amil	1074
ek	1074
ister	1074
अब	1074
पान	1074
▁इन्होने	1074
▁कार्बो	1074
▁गाव	1074
▁छुआ	1074
▁झूम	1074
▁दूत	1074
▁संप्र	1074
▁सुलभ	1074
arm	1073
ट्री	1073
त्स	1073
ोपै	1073
▁vidyalaya	1073
▁खुलेआम	1073
▁जिनमे	1073
▁झांक	1073
▁समूचे	1073
▁अमेठी	1072
▁ज्व	1072
▁नागरिकता	1072
▁नासा	1072
▁पथराव	1072
▁पिस्टल	1072
▁मूर्	1072
▁वंदना	1072
▁चोदा	1071
▁डिब्बे	1071
▁डेबिट	1071
नाग	1070
▁जाइए	1070
▁बहाली	1070
▁मनोर	1070
▁मारना	1070
▁सड़	1070
▁सिक्किम	1070
▁सुमित	1070
न्ह	1069
िस्तान	1069
▁engine	1069
▁money	1069
▁गन्ने	1069
▁सिल	1069
क्के	1068
क्साइड	1068
फरी	1068
मन्त्री	1068
▁june	1068
▁उम्मीदों	1068
▁चारो	1068
खल	1067
▁प्रतिनिधिमंडल	1067
▁मिनि	1067
▁रिट	1067
▁शक्ल	1067
▁श्रृंगार	1067
ोषित	1066
▁128	1066
▁road	1066
▁अध्यात्म	1066
▁आमजन	1066
▁पत्थरों	1066
▁वायदा	1066
▁शीला	1066
कार्ड	1065
खेड़ा	1065
वर्ग	1065
▁court	1065
▁एसएस	1065
▁प्रसंस्करण	1065
▁बरतने	1065
▁यहूदी	1065
▁सराय	1065
डेट	1064
▁vo	1064
▁अंड	1064
▁छात्रावास	1064
▁मान्यताओं	1064
▁यूएसबी	1064
▁रमा	1064
बॉक्स	1063
ॉक्स	1063
ोरिया	1063
▁dep	1063
▁अंग्रे	1063
▁इंस्टॉल	1063
▁पंडा	1063
▁प्रोटे	1063
▁बुलाने	1063
▁श्रीकांत	1063
▁स्वर्गीय	1063
बाबू	1062
हक	1062
ात्	1062
▁इतर	1062
▁इश्क	1062
▁ईमान	1062
▁एस्टेट	1062
▁गोला	1062
▁चुटकी	1062
▁बरत	1062
▁शीट	1062
▁समु	1062
▁सुनि	1062
रम	1061
▁kumar	1061
▁अब्	1061
▁छोड़ते	1061
▁डायल	1061
▁बिच	1061
▁समायोजित	1061
ports	1060
yle	1060
टु	1060
राइज	1060
▁डिजा	1060
▁दत्ता	1060
▁दिखायी	1060
▁पीवी	1060
▁प्रकोप	1060
▁मीट	1060
फत	1059
फिल	1059
िणी	1059
▁shiksh	1059
▁केमिकल	1059
▁खुदकुशी	1059
▁जहरी	1059
▁टायर	1059
▁नोबेल	1059
▁ब्राउन	1059
▁भिज	1059
▁स्पी	1059
.20	1058
एमयू	1058
▁1984	1058
▁करुणा	1058
▁कारा	1058
▁घुसा	1058
▁जल्दबाजी	1058
▁ताक	1058
▁मैर	1058
बम	1057
▁sar	1057
▁करंट	1057
▁कांच	1057
▁तबाह	1057
▁तान	1057
▁निरन्तर	1057
▁बेदी	1057
▁राजभाषा	1057
▁सुधा	1057
▁sat	1056
▁आईएसआई	1056
▁जातकों	1056
▁ठुक	1056
▁पाइए	1056
▁बीजिंग	1056
ology	1055
दूत	1055
न्यास	1055
भूति	1055
र्मन	1055
ोड़ा	1055
▁उपन	1055
▁चतुर्थ	1055
▁जले	1055
▁जानकारियों	1055
▁रणनीतिक	1055
▁वॉट्स	1055
▁स्वास्थ	1055
▁हुक्म	1055
▁आजीविका	1054
▁फ्	1054
▁मुश्किलों	1054
▁हेमंत	1054
59	1053
uss	1053
चारा	1053
बेरी	1053
वर्क	1053
विज्ञान	1053
▁1.2	1053
▁नामित	1053
▁पपी	1053
▁यंग	1053
▁स्कू	1053
▁1997	1052
▁अंधविश्वास	1052
▁ज़्यादातर	1052
स्वामी	1051
▁breaking	1051
▁quotes	1051
▁क़रीब	1051
▁घुमा	1051
▁दिवंगत	1051
▁दिव्या	1051
▁दीवाना	1051
▁बंदर	1051
▁भेजना	1051
▁सोचती	1051
pf	1050
phone	1050
म्पर	1050
वर्स	1050
शास्त्री	1050
▁अंडा	1050
▁अमेजन	1050
▁गलियों	1050
▁मंस	1050
▁लाइब्रेरी	1050
cu	1049
ोही	1049
▁कबूल	1049
▁क्षु	1049
▁प्रस्तु	1049
▁बलिया	1049
▁भूले	1049
▁हाजी	1049
एप	1048
जक	1048
▁kya	1048
▁इकट	1048
▁ग्लो	1048
▁दरगाह	1048
▁दामाद	1048
▁पन्ने	1048
▁भूखे	1048
land	1047
▁person	1047
▁आकाशवाणी	1047
▁टेप	1047
▁मंह	1047
▁मेट	1047
▁शारदा	1047
▁स्नातकोत्तर	1047
▁झुर	1046
▁टर्न	1046
▁मधेपुरा	1046
▁शरा	1046
जीवन	1045
▁don	1045
▁गुनाह	1045
▁रिटेल	1045
▁ऋतिक	1044
▁चेयर	1044
▁वक्ता	1044
▁सुक	1044
▁स्नैपड	1044
lete	1043
किशोर	1043
वाड	1043
वियर	1043
सूत्र	1043
▁पालीवाल	1043
▁पीएस	1043
▁बंगले	1043
▁मतगणना	1043
▁१८	1043
धीश	1042
▁अधूरा	1042
▁अरबों	1042
▁कत्ल	1042
▁कथाओं	1042
▁क्रॉस	1042
▁चालान	1042
▁जज्	1042
▁डिप्रेशन	1042
▁फूंक	1042
▁रखो	1042
सराय	1041
िक्र	1041
▁क्रय	1041
▁टारगेट	1041
▁दुल	1041
▁फेंकने	1041
▁मैथ	1041
▁विजिट	1041
पीएफ	1040
▁अस्त	1040
▁चप	1040
▁थो	1040
▁बक	1040
▁हस्तियों	1040
जरलैंड	1039
मिला	1039
ियर्स	1039
▁hi	1039
▁उड़ीसा	1039
▁सम्प्र	1039
व्यापी	1038
▁sbi	1038
▁अड्डा	1038
▁आगाज	1038
▁केतु	1038
▁जेडीयू	1038
▁ज्वाइन	1038
▁टीबी	1038
▁पटा	1038
▁बाकि	1038
▁वरन	1038
▁समर्थित	1038
▁सर्जिकल	1038
▁आवागमन	1037
▁नर्सिंग	1037
.35	1036
news	1036
राइ	1036
ल्लो	1036
▁टेलीफोन	1036
▁ढूंढने	1036
▁प्राइम	1036
▁रिज़	1036
▁संकोच	1036
ld	1035
बड़ा	1035
ूजा	1035
▁was	1035
▁दंगा	1035
▁नक	1035
▁पहचाना	1035
▁रिचार्ज	1035
▁साख	1035
गिर	1034
ग्रहण	1034
डियो	1034
रक्षा	1034
▁आयरलैंड	1034
▁कोश	1034
▁गणराज्य	1034
▁दूरदर्शन	1034
▁मनोकामना	1034
▁राशियों	1034
▁लॉन्	1034
एँगे	1033
▁अर्धशतक	1033
▁कसा	1033
▁गोप	1033
▁ठप	1033
▁पोशाक	1033
▁बँ	1033
▁भाँ	1033
▁साधते	1033
नामे	1032
▁dom	1032
▁eff	1032
▁आलोचक	1032
▁इर्द	1032
▁कविताएँ	1032
▁कसम	1032
▁छंद	1032
▁प्रोड	1032
ress	1031
लीज	1031
▁उत्तरा	1031
▁करोड़पति	1031
▁घू	1031
▁चलाकर	1031
▁जोड	1031
▁निकायों	1031
▁बेट	1031
▁ब्रोकर	1031
▁लाभार्थियों	1031
▁साझी	1031
ery	1030
▁help	1030
▁आदेशों	1030
▁परेड	1030
▁बीजों	1030
▁बेचैनी	1030
eng	1029
पैड	1029
▁sign	1029
▁केला	1029
▁झोप	1029
▁ढोल	1029
▁निहार	1029
▁पंचायती	1029
▁परिपूर्ण	1029
▁मूलतः	1029
▁राजकुमारी	1029
▁रेखांकित	1029
▁सभ्य	1029
▁समितियों	1029
गों	1028
दियों	1028
▁आभास	1028
▁गंदे	1028
▁गोरी	1028
▁ज़ु	1028
▁राठौर	1028
▁स्पष्टीकरण	1028
वाड़े	1027
ुलन	1027
▁box	1027
▁इन्फ	1027
▁इमारतों	1027
▁कन्न	1027
▁गां	1027
▁टिकी	1027
▁प्रचलन	1027
▁रजा	1027
lic	1026
प्पी	1026
ांकन	1026
▁3.5	1026
▁अधिवेशन	1026
▁कॉन्ट	1026
▁वेश्या	1026
मेक	1025
स्पी	1025
▁pet	1025
▁खिंच	1025
▁गान्ड	1025
▁डरा	1025
▁शाकाहारी	1025
▁सल्	1025
▁साईं	1025
▁स्वायत्त	1025
54	1024
ट्ठी	1024
▁अंधा	1024
▁क़ा	1024
▁गोचर	1024
▁जाएँगे	1024
▁पुरस्कृत	1024
▁फीड	1024
▁फौरन	1024
▁हिसार	1024
लील	1023
▁1995	1023
▁आकस्मिक	1023
▁ऑडिट	1023
▁खाए	1023
▁छुप	1023
▁डिफ	1023
▁तबादला	1023
▁प्रोड्यूसर	1023
▁फहरा	1023
▁संगीता	1023
▁सजावट	1023
तेन्द्र	1022
स्स	1022
arti	1021
gr	1021
ह्	1021
▁उबा	1021
▁कैन	1021
▁चुनिंदा	1021
▁चूर	1021
▁जुनून	1021
▁थिएटर	1021
▁मुफ्ती	1021
▁रेक	1021
▁शिवा	1021
▁साय	1021
▁हाइवे	1021
68	1020
गार्ड	1020
जेट	1020
▁दाना	1020
▁शासकों	1020
ok	1019
td	1019
जिन	1019
बॉल	1019
ल्या	1019
▁नाप	1019
▁हाईस्कूल	1019
्मा	1018
▁कयास	1018
▁खुराक	1018
▁दर्शाया	1018
▁बांधकर	1018
▁बिट	1018
▁यूथ	1018
▁राशिद	1018
▁शंका	1018
mer	1017
ny	1017
प्रिय	1017
▁अभूतपूर्व	1017
▁आंगनबाड़ी	1017
▁गुंजा	1017
▁छठी	1017
▁त्योहारों	1017
▁भयभीत	1017
▁मियां	1017
ंडल	1016
▁education	1016
▁उठती	1016
▁किस्सा	1016
▁छेड़	1016
▁जुबान	1016
▁मुंडा	1016
▁लश्कर	1016
▁सिने	1016
▁सूप	1016
ones	1015
ंदगी	1015
ॉस	1015
▁अठ	1015
▁गोरे	1015
▁चिपक	1015
▁तीनो	1015
▁बजाज	1015
▁government	1014
▁जनाब	1014
▁ज़िम्मेदारी	1014
▁ठा	1014
▁बढाने	1014
▁भाटिया	1014
▁राजग	1014
▁शहादत	1014
▁सीमेंट	1014
▁हरियाली	1014
▁डीआई	1013
▁देहात	1013
▁नाट	1013
▁पीड	1013
▁बघ	1013
▁मोटापे	1013
▁मौखिक	1013
ावार	1012
ीन	1012
▁आविष्कार	1012
▁इफेक्ट	1012
▁कल्	1012
▁गोल्डन	1012
▁डीपी	1012
▁डोमेन	1012
▁परशुराम	1012
▁पिय	1012
▁बंगल	1012
▁लेंस	1012
▁bs	1011
▁fr	1011
▁ji	1011
▁उड	1011
▁क्रोम	1011
▁जोड़ना	1011
▁टेक्स्ट	1011
▁डालता	1011
▁पत्न	1011
▁बसंत	1011
टरिंग	1010
परि	1010
▁gen	1010
▁hy	1010
▁इलेक्ट्रॉनिक्स	1010
▁करिश्मा	1010
▁गोलियों	1010
▁दाढ़ी	1010
▁लौंग	1010
▁व्हील	1010
▁सिनेमाघरों	1010
एचओ	1009
एसई	1009
स्फ	1009
▁उत	1009
▁एंज	1009
▁कराएं	1009
▁कराती	1009
▁पीडीपी	1009
▁पुत्रों	1009
▁प्रजनन	1009
▁सीएन	1009
▁सोर्स	1009
▁हजारी	1009
▁हथेली	1009
यता	1008
▁किशोरों	1008
▁क्षमताओं	1008
▁दोगुना	1008
▁द्रव्य	1008
▁लुधियाना	1008
वानों	1007
ातिर	1007
▁categ	1007
▁अज्ञान	1007
▁इंसानों	1007
▁एट	1007
▁जिम्मा	1007
▁नंगे	1007
▁फानन	1007
▁फैजाबाद	1007
▁सफ़	1007
▁साब	1007
▁हंसते	1007
unch	1006
गुन	1006
्यूस	1006
▁mag	1006
▁कौशिक	1006
▁झंडी	1006
▁प्रवचन	1006
▁मसला	1006
▁वच	1006
▁हारने	1006
▁es	1005
▁उद्यमी	1005
▁कम्पन	1005
▁टावर	1005
▁डॉक	1005
▁परेशानियां	1005
▁बिल्ल	1005
plo	1004
शिला	1004
्रामक	1004
▁चाणक्य	1004
▁परवर	1004
▁प्रशिक्ष	1004
▁बला	1004
▁बिछा	1004
▁रिवाज	1004
आरआई	1003
त्न	1003
माइ	1003
▁काे	1003
▁तालिका	1003
▁त्रासदी	1003
▁प्रश	1003
▁श्राद्ध	1003
ob	1002
बेन	1002
ारू	1002
▁posted	1002
▁इण्डिया	1002
▁जुआ	1002
▁पिछला	1002
▁फत	1002
राल	1001
ुला	1001
▁char	1001
▁service	1001
▁year	1001
▁गाल	1001
▁पटाखों	1001
cer	1000
ंटो	1000
वत्	1000
▁xiaomi	1000
▁आफिस	1000
▁परफ	1000
धारकों	999
मने	999
▁अधूरी	999
▁नाट्य	999
▁नौजवानों	999
▁बॉय	999
▁माज	999
▁रायबरेली	999
▁हैप्पी	999
ese	998
que	998
ैत	998
▁अमृता	998
▁उत्सुकता	998
▁एएन	998
▁एडिट	998
▁देओल	998
▁पीटर	998
▁माउंट	998
▁सिखाने	998
▁हल्	998
मेश	997
साना	997
▁fact	997
▁अल्ट्रा	997
▁इंडस्ट्रीज	997
▁उत्सुक	997
▁जिंद	997
▁तबके	997
▁दंगल	997
▁परो	997
▁लड़क	997
▁समझदारी	997
भूषण	996
वीय	996
▁कुम्भ	996
▁टास्क	996
▁प्रह	996
▁बनीं	996
▁बीएसएफ	996
▁रक्षक	996
▁संस्कृ	996
▁अतिथियों	995
▁अस्मिता	995
▁मिलाने	995
▁राष्ट्रमंडल	995
▁हीन	995
यास	994
▁खबरे	994
▁गतिविधियां	994
▁जानबूझकर	994
▁मरो	994
▁मिस्टर	994
▁रोहतक	994
▁सुनाते	994
ानंद	993
▁गंदा	993
▁दरभंगा	993
▁नाली	993
▁पंचम	993
▁पार्थिव	993
▁वेट	993
▁सुलझा	993
▁होंठों	993
पादित	992
येंगे	992
राक	992
▁थरूर	992
▁बीए	992
ग्री	991
▁000	991
▁str	991
▁कल्चर	991
▁कुमारस्वामी	991
▁टुकड़ों	991
▁पित	991
▁प्रधानाचार्य	991
▁मंदसौर	991
▁मिर	991
▁वयस्क	991
▁160	990
▁चतु	990
▁छत्र	990
▁बहरा	990
▁hal	989
▁गोमती	989
▁टूटा	989
▁दर्जे	989
▁फ़रवरी	989
▁मेहंदी	989
▁योगेश	989
▁रामेश्वर	989
▁शिकस्त	989
▁शुरूआती	989
▁सेशन	989
एमए	988
चिंग	988
लिट	988
ोत्	988
▁आजमगढ़	988
▁इंटी	988
▁गह	988
▁ज़िक्र	988
▁पहुंचता	988
▁पेंटिंग	988
▁फिक्स	988
▁शवों	988
▁हैरत	988
▁mal	987
▁अथॉरिटी	987
▁अश्विनी	987
▁ज्यों	987
▁दर्पण	987
▁नायिका	987
▁बजरंगी	987
▁भरपाई	987
▁रेस्तरां	987
▁स्टीव	987
दिन	986
स्सा	986
▁ext	986
▁अणु	986
▁क्रोएशिया	986
▁गुमराह	986
▁जिन्हे	986
▁तरुण	986
▁तात्पर्य	986
▁दयाल	986
▁पांड्या	986
▁पाटिल	986
▁पीएच	986
▁भूटान	986
▁संविदा	986
ock	985
टेगरी	985
ेटिक	985
▁bra	985
▁inte	985
▁कटा	985
▁घुसकर	985
▁तारे	985
▁ध्व	985
▁नस्ल	985
▁फैसलों	985
▁लगाती	985
▁१३	985
,200	984
थिन	984
▁काया	984
▁कॉलिंग	984
▁घुटनों	984
▁चहल	984
▁थर्म	984
▁द्रविड़	984
▁ध्रु	984
▁पहुंचना	984
▁मालदीव	984
बुद्ध	983
▁1994	983
▁करायी	983
▁कले	983
▁गिर्द	983
▁नंगी	983
▁पर्याय	983
▁भई	983
▁मांगते	983
▁संकेतों	983
▁सहर	983
bh	982
खार	982
▁अप्रत्यक्ष	982
▁इकोन	982
▁खजाने	982
▁बृहस्पतिवार	982
▁सम्ब	982
als	981
ंसिल	981
टरी	981
ेय	981
▁अपमानित	981
▁कनेक्टिविटी	981
▁कबड्डी	981
▁श्रा	981
▁सशक्तिकरण	981
▁सहेली	981
प्रधान	980
भागी	980
वीन	980
▁काल्पनिक	980
▁प्रकोष्ठ	980
▁मिलान	980
▁समझी	980
▁सहजता	980
▁189	979
▁चुत	979
▁फाय	979
श्म	978
▁pop	978
▁चढ	978
▁बर्ताव	978
▁सत्याग्रह	978
रीज़	977
▁अनोखी	977
▁अपरा	977
▁उम्	977
▁दुकानदारों	977
▁फैलने	977
▁शेड	977
ग्नि	976
बियन	976
स्वरूप	976
ोग्राफी	976
▁blogger	976
▁खाम	976
▁धारावाहिक	976
▁मैट	976
▁सैंड	976
▁स्टार्टअप	976
▁होशिया	976
ild	975
कृष्ण	975
युग	975
रेपी	975
्हें	975
▁paytm	975
▁असीम	975
▁आईबी	975
▁गीतकार	975
▁जीन	975
▁नाश्ते	975
▁मराठा	975
fe	974
ration	974
▁इंद	974
▁कॉम्प	974
▁गांठ	974
▁छलांग	974
▁ढेरों	974
▁बर्बर	974
▁शरार	974
.08	973
/11	973
च्चि	973
ौटी	973
▁company	973
▁क्वि	973
▁पिंड	973
▁पुराणों	973
▁भेजें	973
▁सान	973
▁सूर्योदय	973
78	972
ऍ	972
त्सव	972
▁adsense	972
▁prov	972
▁इकबाल	972
▁एकाग्रता	972
▁घंटी	972
▁डब	972
▁महासंघ	972
▁शंकराचार्य	972
▁sms	971
▁छुट्टियां	971
▁डिटेल	971
▁नाई	971
▁पीएचडी	971
ंतु	970
धु	970
▁ant	970
▁gn	970
▁mem	970
▁जनसंपर्क	970
▁मोमबत्ती	970
▁सकने	970
▁सिफारिशों	970
्रु	969
▁आयेंगे	969
▁तव	969
▁दाहि	969
▁निराकरण	969
▁न्यो	969
▁ब्रह्मांड	969
▁महमूद	969
▁विभ	969
्रेड	968
▁process	968
▁असंतोष	968
▁जमात	968
▁टेलीकॉम	968
▁तम्बाकू	968
▁ब्रश	968
ोला	967
▁आंदोल	967
▁उपनि	967
▁कोशिशें	967
▁खली	967
▁तां	967
▁परिकल्पना	967
▁लुभा	967
▁वय	967
▁सेक	967
▁हता	967
कीर्ण	966
गंगा	966
रूम	966
स्थिति	966
ुद्दीन	966
्टेज	966
▁इसरो	966
▁एड्स	966
▁खट्टर	966
▁दीक्षा	966
▁नती	966
▁प्राणियों	966
▁बायोपिक	966
▁मस्	966
▁हेमा	966
eral	965
गांठ	965
चीन	965
ध्	965
प्पल	965
मेन्द्र	965
ष्टा	965
▁कंक	965
▁झड़ने	965
▁द्व	965
▁प्रणा	965
▁मनीषा	965
▁विधिवत	965
.06	964
77	964
▁अनियमित	964
▁एंबुलेंस	964
▁क्वा	964
▁परिप्रेक्ष्य	964
▁रुपयों	964
▁रैना	964
▁सभ	964
कं	963
सेवा	963
ेव	963
▁bar	963
▁जड़ी	963
▁सुई	963
▁हुड्डा	963
.02	962
डिटी	962
न्हीं	962
पीए	962
र्जा	962
▁cle	962
▁oper	962
▁एन्	962
▁कार्यक्षेत्र	962
▁गाडी	962
▁झग	962
▁बचाना	962
▁सुब	962
▁स्टॉप	962
▁after	961
▁डीएनए	961
▁तंबाकू	961
▁धमाका	961
200	960
▁चैक	960
▁पस	960
▁पूँजी	960
▁मेंबर	960
▁यम	960
▁रवैये	960
▁रौशनी	960
त्कारी	959
शिष्ठ	959
ैरा	959
▁patrika	959
▁एवम	959
▁कीटना	959
▁कोला	959
▁ठेका	959
▁परोस	959
▁बांटा	959
▁भरते	959
▁रहल	959
▁श्वास	959
ding	958
my	958
ँच	958
दिया	958
समैन	958
▁wind	958
▁अग्रसर	958
▁कुपोषण	958
▁रोट	958
▁कोषाध्यक्ष	957
▁गुलामी	957
▁घिर	957
▁टुक	957
▁पुतला	957
▁ब्रह्माण्ड	957
▁राठौड़	957
▁२५	957
एसटी	956
पंथ	956
ेंडे	956
ोनें	956
▁cal	956
▁word	956
▁अस्वीकार	956
▁प्रदूषित	956
▁बेव	956
▁भण्ड	956
▁माफ़	956
▁मिलाव	956
▁रमजान	956
▁शक्कर	956
gal	955
ैद	955
▁uptet	955
▁अत्याधुनिक	955
▁खोया	955
▁चौबे	955
▁ज़र	955
▁ट्रां	955
▁डाक्टरों	955
▁पीएनबी	955
▁भागे	955
▁रामपाल	955
▁लाभान्वित	955
▁सत्ताधारी	955
ness	954
ouse	954
सिया	954
▁अनीता	954
▁भस्म	954
▁मक्खन	954
▁रगड़	954
▁शोरूम	954
.40	953
ica	953
▁1971	953
▁आरजेडी	953
▁औषधीय	953
▁छुट	953
▁सॉफ्ट	953
▁हजरत	953
amp	952
िक्ष	952
्योर	952
▁कागजात	952
▁चिं	952
▁तोड़फोड़	952
▁थै	952
▁फर्नीचर	952
▁बाली	952
▁माध्यमों	952
▁सेटअप	952
वता	951
▁105	951
▁gal	951
▁gk	951
▁बीएसए	951
▁विमोचन	951
▁समू	951
31	950
टों	950
थि	950
र्ज़	950
विध	950
▁चौदह	950
▁छापे	950
▁नेटवर्किंग	950
▁वसु	950
टिल	949
फोर्ड	949
हीर	949
▁dri	949
▁क़ी	949
▁कुख्यात	949
▁खानपान	949
▁घण्टे	949
▁पिक	949
▁प्रय	949
▁प्रैक्टिस	949
▁सुश्री	949
▁स्तरों	949
▁स्वीडन	949
कारो	948
ैगन	948
▁instagram	948
▁ipl	948
▁text	948
▁करवाते	948
▁ड्रॉ	948
▁बंधु	948
▁बड	948
▁मिथिला	948
▁रूह	948
गू	947
हिष्णुता	947
ारिया	947
िरा	947
िराज	947
्यूब	947
▁अंचल	947
▁क्विंटल	947
▁जाऊंगा	947
▁नेहरु	947
▁मीठे	947
▁मुड़	947
▁रक्षाबंधन	947
▁विक्रेता	947
▁संतुष्टि	947
▁सांग	947
▁चाला	946
▁धोखे	946
▁लिपस्टिक	946
▁लिप्त	946
▁सभापति	946
▁सिंद	946
डिय़ों	945
युद्ध	945
▁vid	945
▁अँग	945
▁कमिटी	945
▁चढ़ने	945
▁नवाजा	945
▁परिवर्त	945
▁फ्रिज	945
▁वियत	945
लिब	944
▁अम्ब	944
▁तलाशने	944
▁रोना	944
.05	943
बरी	943
▁ru	943
▁अनुष्ठान	943
▁गोरख	943
▁जोंग	943
▁टें	943
▁तत्त्व	943
▁पकड	943
▁महे	943
▁विवरणः	943
▁शिष	943
▁संघीय	943
soft	942
हाना	942
▁इस्	942
▁काठमांडू	942
▁गिरते	942
▁तृ	942
▁नौका	942
▁मता	942
▁रावल	942
▁सोनाली	942
ism	941
जिम	941
मुन	941
ोसिस	941
▁कोर्	941
▁क्लो	941
▁चप्पल	941
▁तरस	941
▁तीज	941
▁मशक्कत	941
▁रग	941
▁श्रोताओं	941
ility	940
घन	940
▁chudai	940
▁who	940
▁खोद	940
▁चटनी	940
▁चना	940
▁पद्मावत	940
▁बिन्दु	940
▁मेमोरी	940
ूण	939
▁अनगिनत	939
▁खुशखबरी	939
▁गद्य	939
▁नवजोत	939
▁प्रतिद्वंद्वी	939
▁प्रान्त	939
▁बेसब्री	939
▁रामा	939
yan	938
फेक्शन	938
शक	938
▁1989	938
▁save	938
▁ग्रसित	938
▁दुब	938
▁बचाता	938
▁सेमिनार	938
▁cricket	937
▁अनुग्रह	937
▁अने	937
▁खदान	937
▁प्रेत	937
▁बैठकों	937
▁मानचित्र	937
▁मारते	937
▁र्	937
▁सेनाओं	937
pr	936
हाय	936
▁अछि	936
▁कठिना	936
▁गुणा	936
▁मापदंड	936
▁स्वाधीन	936
ities	935
कर्	935
▁101	935
▁serv	935
▁अदालतों	935
▁आधारभूत	935
▁खरे	935
▁पंथ	935
▁बढे	935
▁बिगाड़	935
▁षड्यंत्र	935
▁खोने	934
▁चेंज	934
▁ज़िम्मे	934
▁रेव	934
▁सहभाग	934
▁सिसोदिया	934
ंगर	933
उंट	933
हिश	933
ैनी	933
▁एंटीऑ	933
▁घिरे	933
▁पहुँ	933
▁फेंका	933
▁रिटायर्ड	933
▁वीक	933
▁सरलता	933
अगर	932
जाद	932
जीरिया	932
र्भ	932
▁1950	932
▁shiv	932
▁उद्यमियों	932
▁किसकी	932
▁खयाल	932
▁पृथक	932
▁प्रधाना	932
खरे	931
पाद	931
▁aajtak	931
▁chr	931
▁teach	931
▁जलने	931
▁जासूस	931
▁डूबे	931
▁बुमराह	931
▁युवतियों	931
▁वन्य	931
▁सजग	931
▁स्तम्भ	931
क्य	930
खरी	930
दिरा	930
पती	930
▁bal	930
▁एटी	930
▁कैशबैक	930
▁छात्रवृत्ति	930
▁जागृत	930
▁पीओ	930
▁मेटा	930
▁रणनी	930
▁सिरदर्द	930
▁सीताराम	930
▁february	929
▁गाँवों	929
▁थानों	929
▁नसीब	929
▁नाता	929
▁निविदा	929
▁पन्नों	929
▁फ़ोटो	929
▁बदायूं	929
▁बिकने	929
▁बुलेटिन	929
एमएस	928
चुरल	928
टेलाइट	928
▁1200	928
▁करु	928
▁कुरैशी	928
▁चुनौ	928
▁फोड़	928
▁बल्ब	928
▁बॉम्बे	928
▁महत्वाकांक्षी	928
▁वस्तुएं	928
▁सप्	928
▁साले	928
▁सिद्दीकी	928
▁स्विट्	928
टेज	927
ण्डल	927
मित्र	927
▁ben	927
▁bollywood	927
▁अपवाद	927
▁केके	927
▁ताल्लुक	927
▁दबाकर	927
▁समझती	927
▁हटकर	927
लीट	926
▁adv	926
▁अनियंत्रित	926
▁कगार	926
▁त्रा	926
▁फिक्	926
back	925
दाबाद	925
पोल	925
ूमन	925
▁technology	925
▁अवरोध	925
▁अविनाश	925
▁आठवीं	925
▁गाड़ियां	925
▁फ्लो	925
▁बाड़मेर	925
▁भून	925
▁मोना	925
▁रिपोर्टिंग	925
▁हिच	925
way	924
केन	924
चीनी	924
▁cry	924
▁खिलवाड़	924
▁दलालों	924
▁निषेध	924
▁फं	924
mp	923
न्ज	923
मयी	923
हारा	923
▁उजा	923
▁धीरज	923
▁पेटीएम	923
▁बेसन	923
▁मशीनरी	923
ication	922
एफसी	922
क्ष्य	922
फायर	922
मेरे	922
▁ib	922
▁offic	922
▁आरके	922
▁रामचंद्र	922
▁हफ्तों	922
आईटी	921
▁last	921
▁आक्रोशित	921
▁एमबीए	921
▁खाल	921
▁ख्याति	921
▁गुड़गांव	921
▁चिन्	921
▁चिन्हित	921
▁दृश्यों	921
▁निराला	921
▁मुआव	921
▁रोकता	921
▁वरीयता	921
▁विलियम	921
▁सिवाय	921
▁हराम	921
.16	920
erg	920
ग्राउंड	920
▁बन्ध	920
▁मनोबल	920
▁सीटी	920
गेशन	919
▁check	919
▁mb	919
▁sci	919
▁short	919
▁song	919
▁आरामदायक	919
▁ऋषभ	919
▁गुर्	919
▁तित	919
▁पुत	919
▁फैक्टरी	919
▁बस्तियों	919
▁राजनयिक	919
▁लेडी	919
▁विक्की	919
▁सत्संग	919
▁सीम	919
▁सूचनाएं	919
gn	918
very	918
▁144	918
▁अस्थमा	918
▁आईपीसी	918
▁बैत	918
▁माम	918
▁येदियुरप्पा	918
उद्दीन	917
▁खेर	917
▁भैरव	917
▁वर्चुअल	917
▁शुक्रा	917
▁सरोवर	917
▁हसीन	917
69	916
itra	916
फील्ड	916
वीकरण	916
व्यवहार	916
▁कांटे	916
▁चांदनी	916
▁पायेगा	916
▁पूछता	916
▁लम्बाई	916
▁संगोष्ठी	916
▁सूचनाओं	916
▁हीरे	916
ंजर	915
मरा	915
ल्लाहु	915
▁अफेयर	915
▁असु	915
▁इंचार्ज	915
▁कस्बा	915
▁ठिकाना	915
▁फिल्मकार	915
▁सोया	915
वेग	914
▁dur	914
▁important	914
▁एमएम	914
▁त्रिवेदी	914
▁बछ	914
▁भूम	914
▁मुंगे	914
▁सूझ	914
गड	913
बिलिटी	913
▁गगन	913
▁चेकिंग	913
▁निकाह	913
▁परफेक्ट	913
▁मय	913
▁सबरी	913
▁सरोकार	913
नीस	912
प्ता	912
▁gb	912
▁indi	912
▁pak	912
▁इट	912
▁गाथा	912
▁ग्रेजुएट	912
▁तीखी	912
▁बॉबी	912
▁ब्लॉगिंग	912
▁संभाले	912
▁हमीरपुर	912
स्मरण	911
ुस	911
▁bab	911
▁review	911
▁अगवा	911
▁करिए	911
▁कोन	911
▁गिन	911
▁निचली	911
▁मैनु	911
▁रिमोट	911
▁साभार	911
▁सिं	911
▁हमलावरों	911
▁blo	910
▁अप्रत्याशित	910
▁इस्रा	910
▁उदा	910
▁काज	910
▁चाहूंगा	910
▁फ़ैसला	910
▁फ्लू	910
▁बतला	910
▁मर्डर	910
ैक्शन	909
▁फ़्र	909
▁बेचे	909
▁महापौर	909
▁रोजमर्रा	909
▁लेखों	909
▁सुनता	909
india	908
इप	908
नियों	908
▁paper	908
▁किफायती	908
▁कॉमन	908
▁ब्यौ	908
▁ब्लास्ट	908
▁रुकावट	908
जीब	907
संदेह	907
▁cb	907
▁धमाकेदार	907
▁पहनना	907
▁बेस्ड	907
▁रिमांड	907
▁वज़न	907
mm	906
कांड	906
▁कच्ची	906
▁काउंस	906
▁कोहरा	906
▁चंप	906
▁पम्प	906
काशी	905
फोर्स	905
मीडिया	905
स्कर	905
स्थापित	905
▁आगा	905
▁एनडी	905
▁कंडोम	905
▁खड़	905
▁गोविन्द	905
▁ठहरे	905
▁दामन	905
▁फिगर	905
▁राधिका	905
▁सघन	905
ईं	904
००	904
▁april	904
▁कार्यभार	904
▁किग्रा	904
▁चाइना	904
▁निकालते	904
▁पकड़ी	904
करणीय	903
न्ती	903
लावा	903
हासे	903
▁dh	903
▁pres	903
▁खोली	903
▁ब्रेड	903
▁महाप	903
▁मांझी	903
▁सिमट	903
▁हाफिज	903
नन	902
▁job	902
▁कुएं	902
▁गुजरना	902
▁गें	902
▁जमशेदपुर	902
▁नीयत	902
▁पंहु	902
▁पढ़ता	902
▁फ़े	902
▁बीएसपी	902
▁रियलिटी	902
▁लिवर	902
raj	901
ुए	901
▁il	901
▁january	901
▁कोटि	901
▁गड्ढे	901
▁नगा	901
▁पचा	901
▁पहचा	901
▁पुष्कर	901
▁फील	901
▁महाराणा	901
▁रस्म	901
▁लचीला	901
▁वॉक	901
▁व्याकरण	901
ज़ों	900
िंदर	900
▁benef	900
▁एडवांस	900
▁जुर्म	900
▁पेंटी	900
▁बकर	900
▁भाग्यशाली	900
▁मूर्तियों	900
▁मेथी	900
▁राघव	900
▁विवाहित	900
▁शाओमी	900
▁subscribe	899
▁अपार्टमेंट	899
▁इलायची	899
▁महारानी	899
▁लेखनी	899
▁विश्वसनीयता	899
garh	898
ng	898
ब्बे	898
सारी	898
▁month	898
▁चार्जशीट	898
▁पड़ोसियों	898
करों	897
फ़र	897
▁film	897
▁अंगूठी	897
▁आत्मघाती	897
▁आदतों	897
▁गॉ	897
▁चिकनी	897
▁तेरह	897
▁रोह	897
▁संगी	897
98	896
कुट	896
माद	896
र्ती	896
▁special	896
▁ईशान	896
▁खूं	896
▁जांघ	896
▁डूबने	896
▁मत्स्य	896
मैया	895
याल	895
्यूमेंट	895
▁black	895
▁अच्छाई	895
▁आश्रित	895
▁इन्त	895
▁उद्धरण	895
▁ऋषिकेश	895
▁क्ली	895
▁तबियत	895
▁धरातल	895
▁नीदर	895
▁परीक्षाएं	895
▁बढती	895
▁बेडरूम	895
▁बैठना	895
▁रीढ़	895
▁विशेषज्ञता	895
जनी	894
नाह	894
स्वर	894
▁एसडी	894
▁पीरियड	894
▁पूर्वांचल	894
▁भती	894
▁मण्ड	894
ational	893
ष्ठी	893
▁seo	893
▁इंटेलिज	893
▁एंडरसन	893
▁कइ	893
▁खतरों	893
▁खींचा	893
▁परीक्ष	893
▁बनाएंगे	893
▁मजी	893
▁मुलाक़ात	893
▁सुधारों	893
▁सैम	893
ging	892
▁ads	892
▁उपेंद्र	892
▁कारन	892
▁कैथ	892
▁घिरा	892
▁प्रख्यात	892
▁प्रचुर	892
42	891
wn	891
कांक्षा	891
प्रेम	891
मस	891
▁4.5	891
▁rr	891
▁अभिम	891
▁उतरा	891
▁कबू	891
▁खुशियां	891
▁चेहरों	891
▁डीलर	891
▁प्रतिस्पर्धी	891
▁बच्च	891
52	890
निस	890
मैंने	890
▁happy	890
▁इलेवन	890
▁चढ़ाई	890
▁वाइस	890
air	889
ix	889
ort	889
माम	889
▁वैधता	889
▁शाखाओं	889
▁संवेदनशीलता	889
▁सैन	889
कथा	888
च्छिक	888
दिक	888
ैड	888
▁host	888
▁एल्यू	888
▁ओझा	888
▁घराने	888
▁पहिले	888
▁प्रत्या	888
▁लौह	888
▁सेवानिव	888
त्म	887
मिल	887
वाते	887
▁design	887
▁eng	887
▁क्षेत्रफल	887
▁छात्राएं	887
▁जैकेट	887
▁ज्ञानी	887
▁टेंशन	887
▁पिंक	887
▁बुढ़ा	887
▁मिनिट	887
▁रोके	887
▁लड़ना	887
▁सीना	887
▁हांगकांग	887
▁गड्	886
▁जुकाम	886
▁दिलाता	886
▁मुख्यधारा	886
▁सराहा	886
नियां	885
ोत्सव	885
▁pan	885
▁खादी	885
▁खिलौ	885
▁प्रोटोकॉल	885
▁मिलाया	885
▁साइट्स	885
▁साली	885
जाज	884
्ता	884
▁gujarat	884
▁जेठ	884
▁प्रेरक	884
▁मकानों	884
जिस्ट	883
सुरी	883
▁एडवोकेट	883
▁कमरों	883
▁पोज	883
▁फाटक	883
▁संकेतक	883
▁स्वाभिमान	883
याह	882
▁क़दम	882
▁तकनीकों	882
▁पाँव	882
▁फ़िल्में	882
▁मेहमानों	882
▁सर्वो	882
▁सुशांत	882
▁हैंडसेट	882
feren	881
झाने	881
डेन	881
फिया	881
फिर	881
स्वा	881
ुद्ध	881
▁कंटेनर	881
▁ग्लैमर	881
▁डेल	881
▁ढूँढ	881
▁थ्र	881
▁प्रतिष्ठान	881
▁बाण	881
▁भिखारी	881
▁मास्क	881
▁माहिर	881
▁मिलि	881
▁व्र	881
▁सुनहरे	881
ावन	880
▁अनुया	880
▁तिथ	880
▁दिव	880
▁द्रो	880
▁पिक्चर	880
▁भावनाएं	880
▁लाय	880
जोर	879
पंथियों	879
िद	879
▁good	879
▁under	879
▁क्षत्रिय	879
▁जरूरतमंद	879
▁दरि	879
▁बराक	879
▁भील	879
▁सन्ना	879
वेलियन	878
▁आधुनिकता	878
▁उमड़	878
▁दुष्	878
▁पूर्वजों	878
▁बुझ	878
▁रखेगा	878
▁सावित्री	878
▁सेक्रेटरी	878
▁कुशलता	877
▁जयंत	877
▁जार	877
▁पुरूषों	877
▁मिजोरम	877
▁शासनकाल	877
▁संपादकीय	877
ंशियल	876
वीजन	876
▁visit	876
▁उड़ाने	876
▁ऊँचा	876
▁जड़ों	876
▁धड़	876
▁बॉयफ्रेंड	876
▁भूगोल	876
▁सुदृढ़	876
▁सुनो	876
▁स्तुति	876
tr	875
wal	875
मोट	875
याब	875
ात्मा	875
▁det	875
▁अपग्रेड	875
▁अब्राहम	875
▁कलंक	875
▁क़ुर	875
▁तांत्रिक	875
▁बेचारे	875
ओवर	874
▁apr	874
▁ord	874
▁ऐंड	874
▁घुसने	874
▁चर्बी	874
▁चिन	874
▁जर्न	874
▁जोग	874
ंगें	873
दड़	873
वरेज	873
▁अगु	873
▁खर्चे	873
▁चौड़ी	873
▁झड़प	873
▁टर्म	873
▁नय	873
▁प्रांतीय	873
▁मार्गों	873
▁वायर	873
▁शर्	873
▁संपदा	873
ced	872
गाड़	872
जीवी	872
शेखर	872
▁bit	872
▁gand	872
▁type	872
▁औषध	872
▁गोपनीय	872
▁यान	872
▁समता	872
मों	871
▁cust	871
▁एयरलाइंस	871
▁औरंगाबाद	871
▁करणी	871
▁झूल	871
▁ड्राफ्ट	871
▁तटीय	871
▁फ़ायदा	871
▁फेडरेशन	871
go	870
चित्र	870
ट्टी	870
▁अर्जेंटीना	870
▁कहूँ	870
▁क्रिप्ट	870
▁क्लर्क	870
▁दिखेगा	870
▁नजरें	870
▁रास्तों	870
▁सेतु	870
sw	869
ुरी	869
▁bat	869
▁fun	869
▁अफग	869
▁अर्द्ध	869
▁एबीवीपी	869
▁ग़ज़	869
▁जकार्ता	869
▁ज़रुर	869
▁डीजी	869
▁ढाल	869
▁दंग	869
▁मोट	869
▁वीकेंड	869
▁शिवजी	869
▁सर्प	869
▁सीरीज़	869
▁परंपराओं	868
▁साव	868
▁सेनानी	868
▁स्वात	868
इटिस	867
कुंड	867
भ्र	867
▁काबिज	867
▁जाली	867
▁टाइटल	867
▁निश	867
▁पख	867
▁लेबल	867
▁fir	866
▁इंसानियत	866
▁एसओ	866
▁गलतियां	866
▁डेड	866
▁नगरीय	866
▁प्रताड़ित	866
▁फिलि	866
▁भड़ास	866
▁वारंट	866
▁वेंक	866
▁वैल्यू	866
ron	865
ईस	865
बॉ	865
▁चौथ	865
▁पूज	865
▁फिली	865
▁बल्ले	865
▁माकपा	865
▁राइफल	865
▁रुका	865
▁विस्फोटक	865
▁शीशे	865
fer	864
्याम	864
▁cap	864
▁अस्थाना	864
▁जयललिता	864
▁टेम्प	864
▁ठिकाने	864
▁मामी	864
▁विद	864
▁सितारा	864
खोरी	863
पालन	863
ैंट	863
▁team	863
▁आदी	863
▁ब्यो	863
▁मिलनी	863
ंठ	862
चम	862
नीतिक	862
व्या	862
सून	862
हास	862
▁sun	862
▁ty	862
▁इक्विटी	862
▁घूस	862
▁ड्रिंक	862
▁मेरिट	862
▁१७	862
atta	861
tern	861
जीवियों	861
टेल	861
धित	861
पूर	861
सलर	861
िकार	861
ुड़	861
▁address	861
▁super	861
▁थ्री	861
▁पवित्रता	861
▁प्रस्थान	861
▁यातना	861
▁सख	861
टाइम	860
ाजिक	860
्रिया	860
▁अनदे	860
▁कास	860
▁ज्ञाप	860
▁दुष्प्रभाव	860
▁दोहरी	860
▁नमूने	860
▁प्रोसेस	860
▁लाईन	860
▁सोनाक्षी	860
कारियों	859
ांध	859
▁आईये	859
▁उस्ताद	859
▁दिशानिर्देश	859
▁नियोजन	859
▁बदतर	859
▁युव	859
▁रिव	859
▁स्ने	859
64	858
कानूनी	858
▁conf	858
▁people	858
▁अंतरिम	858
▁कंडीशन	858
▁कॉर	858
▁कॉरपोरेट	858
▁कोल्ड	858
▁घरेलु	858
▁ठग	858
▁थमा	858
▁नाला	858
▁प्रक	858
▁बागपत	858
▁मोटर्स	858
▁संप्रदाय	858
पक्ष	857
सूसी	857
▁अभिन्न	857
▁कलात्मक	857
▁डेटिंग	857
▁दबदबा	857
▁मुं	857
▁मेज	857
▁विवादास्पद	857
▁वैशाली	857
▁समाना	857
ni	856
ढ़ाई	856
न्दु	856
▁घोड़ा	856
▁ट्रीटमेंट	856
▁थप्पड़	856
▁मालवीय	856
▁मित्रता	856
▁शाहजहांपुर	856
ण्डे	855
ैली	855
▁4000	855
▁uj	855
▁अय्यर	855
▁इटावा	855
▁उर्वशी	855
▁कल्याणकारी	855
▁पैलेस	855
▁ब्लूटूथ	855
▁विकासशील	855
▁सोमनाथ	855
ude	854
न्सी	854
यड	854
ोजे	854
▁1,000	854
▁quot	854
▁tag	854
▁आदरणीय	854
▁छावनी	854
▁देसाई	854
▁निर्वाह	854
▁पिर	854
▁प्रांगण	854
▁भवानी	854
▁वाकि	854
नेशन	853
सरी	853
▁अनुश	853
▁घे	853
▁दिक्कतों	853
▁मटर	853
▁हुकूमत	853
▁हेलमेट	853
ँस	852
निर्माण	852
▁hand	852
▁इसील	852
▁उत्सर्जन	852
▁एलोवेरा	852
▁महोबा	852
▁लिंच	852
▁हिरण	852
भेद	851
मिनि	851
ियार	851
▁छेड़खानी	851
▁तग	851
▁भतीजे	851
▁हाथा	851
▁हायर	851
load	850
वाँ	850
▁hind	850
▁अनुप	850
▁आवेदकों	850
▁एकतर	850
▁केसरी	850
▁क्रिस्ट	850
▁गवर्नमेंट	850
▁जद	850
▁पच्ची	850
▁बहोत	850
▁वेडिंग	850
▁स्लाइड	850
▁हाद	850
दीक	849
ब्बू	849
वर्धक	849
ूर्त	849
▁एथलीट	849
▁कूड़े	849
▁जुल	849
▁दिग्	849
▁फ्यू	849
▁बिखेर	849
▁सिरसा	849
कपा	848
यती	848
▁अन्तर्राष्ट्रीय	848
▁कोटे	848
▁घेरा	848
▁बेई	848
▁विवा	848
▁सुनहरा	848
▁हल्ला	848
bc	847
क्सन	847
्रास्ट्रक्चर	847
▁मचाने	847
▁मुक्के	847
▁यूसु	847
▁स्ट्रोक	847
कश	846
न्हा	846
▁360	846
▁आठवें	846
▁जमाना	846
▁बुद्धिजीवी	846
▁राष्ट्रगान	846
▁संक्र	846
▁हेरा	846
हीनता	845
ांट	845
▁inde	845
▁water	845
▁तुलसीदास	845
▁थर्ड	845
▁फिन	845
▁मरते	845
▁मौकों	845
post	844
▁bre	844
▁अनन्त	844
▁जावा	844
▁डीआर	844
▁डेमोक्रेट	844
▁बुंदेलखंड	844
▁ब्रिक्स	844
▁माथुर	844
▁सत्तर	844
▁साक्षरता	844
▁सादगी	844
▁हेल्दी	844
▁ि	844
ict	843
गाल	843
मेंस	843
▁url	843
▁घुल	843
▁नामजद	843
▁फार्	843
▁फेफड़ों	843
▁ब्रेस्ट	843
▁व्यू	843
▁सौं	843
ंसर	842
शाल	842
हाबाद	842
▁इंक	842
▁एप्	842
▁कॉमनवेल्थ	842
▁क्वीन	842
▁ज्योतिषी	842
▁दृष्ट	842
▁परिधान	842
▁पहुच	842
▁बेवजह	842
▁मज़दूर	842
▁हटने	842
घात	841
धू	841
पेन	841
▁cons	841
▁कैपिटल	841
▁कोइ	841
▁गहने	841
▁डराव	841
▁बताइए	841
▁बिल्डर	841
▁मद्रास	841
▁महाद्वीप	841
▁मानहानि	841
▁शेड्यूल	841
66	840
करार	840
▁अनुमोदन	840
▁नवाचार	840
▁प्रमुखता	840
▁बंधे	840
▁शत्रुघ्न	840
▁सलाद	840
ईक	839
द्वार	839
फार्मर	839
▁देय	839
▁दोगुनी	839
▁निष्का	839
▁बद्री	839
▁मयंक	839
▁लख	839
▁वासना	839
▁सानिया	839
▁स्क्रीनिंग	839
मणि	838
ार्जुन	838
▁bad	838
▁just	838
▁अजित	838
▁उभार	838
▁नियंत्रक	838
▁पढ़ाया	838
▁पैद	838
▁माओवादियों	838
▁माले	838
▁सुसज्ज	838
▁सेबी	838
केश	837
▁उपराज्यपाल	837
▁ऋष	837
▁गणमान्य	837
▁प्रवाहित	837
▁हकदार	837
dia	836
किनार	836
ज़ान	836
ड़तोड़	836
तराज	836
स्कार	836
▁एकेडमी	836
▁किड	836
▁तैमूर	836
▁दुम	836
▁यमन	836
53	835
जाल	835
शियल	835
सें	835
▁अलब	835
▁करारा	835
▁कॉर्	835
▁नरसिंह	835
▁मनोविज्ञान	835
▁हंगामे	835
ष्म	834
▁धनुष	834
▁धमाल	834
▁मुक़ा	834
▁मेजबानी	834
▁सोवियत	834
▁deep	833
▁कुदर	833
▁थियेटर	833
▁निर्दिष्ट	833
▁नेगी	833
▁बहाव	833
▁लुत्	833
▁वोडाफोन	833
ici	832
दाना	832
सकर	832
▁sn	832
▁अंगूर	832
▁कन्नौज	832
▁फिल्टर	832
▁रविंद्र	832
▁होटलों	832
ould	831
देशी	831
योगी	831
▁1975	831
▁धब्बे	831
▁नुक्स	831
▁पटकथा	831
▁पित्त	831
▁रिफ	831
▁व्यवसायिक	831
▁२०१८	831
एलए	830
नाद	830
हें	830
▁गंदी	830
▁चाही	830
▁चुच	830
▁भूलें	830
▁मैत्री	830
▁रजनी	830
▁सहकार	830
▁सिकंदर	830
.2018	829
ोजीशन	829
▁एलपीजी	829
▁ऑर्	829
▁कंटेस्टेंट	829
▁खाती	829
▁चावला	829
▁डीए	829
▁बहनें	829
▁बेचैन	829
▁मल्ल	829
▁व्यंज	829
ward	828
िटीज	828
ोषण	828
्रीम	828
▁अंदरूनी	828
▁खुशहाल	828
▁तेजप्रताप	828
▁लोकेश	828
▁व्याप	828
▁शख	828
▁स्नै	828
प्रिंट	827
वह	827
श्मि	827
सानी	827
िलिंग	827
▁school	827
▁अमी	827
▁गोगोई	827
▁ग्रेट	827
▁जयप्रकाश	827
▁पां	827
▁प्रतिज्ञा	827
▁फोटोशूट	827
▁फ्रे	827
▁हाश	827
.39	826
ident	826
मानंद	826
वेरे	826
▁head	826
▁जूता	826
▁ठिकानों	826
▁थम	826
▁पडा	826
▁भोला	826
▁मानदेय	826
▁मुद्र	826
▁movie	825
▁कठुआ	825
▁कीर्तन	825
▁जबर्दस्त	825
▁धारक	825
▁बैंगलोर	825
▁रंजीत	825
ँक	824
गद	824
ष्ठा	824
▁ज़िले	824
▁रॉबर्ट	824
▁विचलित	824
▁विश्वकप	824
▁संक्षेप	824
टिन	823
िक्ट	823
ुमा	823
▁जरी	823
▁यी	823
▁वाल्मीकि	823
▁सुदूर	823
▁स्विस	823
्यौ	822
▁apply	822
▁आड़े	822
▁एसयूवी	822
▁टीजर	822
▁पतंग	822
▁मिलें	822
▁मूंगफली	822
▁सैल	822
बाजों	821
ब्बी	821
र्थी	821
▁दर्	821
▁दुष्यंत	821
▁सोची	821
▁सौहार्द	821
र्शियल	820
▁success	820
▁title	820
▁ऑप्ट	820
▁चटर्जी	820
▁बनावट	820
▁मुरा	820
▁सामरिक	820
▁हाज	820
▁हेली	820
गृह	819
▁इंज	819
▁ओएस	819
▁ओलि	819
▁निर्म	819
▁प्रतिरोधक	819
▁मैथिली	819
▁वायरलेस	819
▁विनिय	819
▁सरिता	819
राद	818
▁port	818
▁गुरमीत	818
▁डॉक्टर्स	818
▁तेंदु	818
▁पौध	818
▁लल	818
▁सिंध	818
.17	817
46	817
ंबई	817
मांशु	817
रार	817
वस्था	817
समी	817
्रल	817
▁खुर	817
▁घेराव	817
▁परफॉर्मेंस	817
▁यहूद	817
▁change	816
▁उषा	816
▁डिस्	816
▁प्रकाशक	816
▁संप	816
आय	815
डियन	815
मंत्र	815
विरोध	815
▁railway	815
▁करारी	815
▁खात	815
▁महत्ता	815
▁सामंजस्य	815
88	814
अत	814
द्या	814
रेक्टर	814
सेना	814
▁da	814
▁shi	814
▁नानक	814
▁फिल्मो	814
.07	813
ex	813
▁अनुयायी	813
▁ईशा	813
▁चंचल	813
▁पेटी	813
▁वेतनमान	813
▁सर्जन	813
▁सिपा	813
घे	812
ठिया	812
▁ay	812
▁आत्मकथा	812
▁नार्	812
▁पटक	812
▁मार्शल	812
▁रंज	812
▁सनसनीखेज	812
.65	811
बाबा	811
मेरी	811
वृत्ति	811
ोसा	811
▁invest	811
▁असामान्य	811
▁ओल	811
▁गणेशजी	811
▁सापेक्ष	811
app	810
वालिया	810
ानु	810
ोरे	810
ौत	810
▁ste	810
▁जलवा	810
▁मसा	810
41	809
▁अवतर	809
▁नोडल	809
▁बहुल	809
▁राइड	809
▁हेल्	809
vers	808
नात्मक	808
फाइड	808
वासीर	808
ांचल	808
ुसार	808
▁इको	808
▁काजोल	808
▁क्यु	808
▁गोष्ठी	808
▁ड्रग्स	808
▁ढूंढ़	808
▁निर्मा	808
▁प्रवि	808
▁फाइन	808
▁फाइने	808
▁भट	808
▁साला	808
▁हनन	808
.99	807
indi	807
of	807
आरटी	807
भाल	807
लिफोर्निया	807
व्	807
िविटी	807
▁अराजकता	807
▁एलजी	807
▁क्रू	807
▁टिप	807
▁फ्रेश	807
▁सं०	807
09	806
गात	806
फेस	806
भक्त	806
वारे	806
▁ias	806
▁आनु	806
▁एंटर	806
▁पाले	806
▁शाला	806
ef	805
भित	805
स्क्रीन	805
ैना	805
▁आर्डर	805
▁कामगार	805
▁किन्नर	805
▁ड्राइ	805
▁पाठशाला	805
▁बीएसएनएल	805
▁स्त्रोत	805
द्धा	804
▁अवस्थी	804
▁भागते	804
▁मलया	804
▁संक	804
▁संभोग	804
▁समया	804
▁हदीस	804
एमई	803
डकी	803
णाधीन	803
बुआ	803
▁adm	803
▁एसआईटी	803
▁जख	803
▁मॉन	803
▁वैष्णव	803
थुन	802
फिंग	802
▁city	802
▁झट	802
▁त्रिश	802
▁रहस्यमय	802
use	801
दें	801
▁सुम	801
ures	800
नायक	800
रेज	800
लेरी	800
▁आरपी	800
▁एजे	800
▁पक्के	800
▁रॉक	800
▁वृषभ	800
▁सना	800
cial	799
जापुर	799
▁district	799
▁कैंडि	799
▁गन	799
▁तर्	799
▁बाहु	799
▁ब्रेन	799
▁कॉम्	798
▁कोठ	798
▁बत्ती	798
▁विनीत	798
▁संक्रमित	798
आरएफ	797
ब्बर	797
▁university	797
▁उन्न	797
▁घिस	797
▁नारंगी	797
▁पाइ	797
▁पॉर्न	797
▁प्रयोजन	797
▁बगीचे	797
▁रंगमंच	797
▁व्यव	797
अन	796
खीम	796
शुद्ध	796
▁est	796
▁sou	796
▁एजेंस	796
▁चैंप	796
▁नान	796
▁विधाय	796
▁शत्र	796
▁होंडा	796
पेयी	795
बाक	795
बुद्दीन	795
िद्र	795
िलर	795
▁असें	795
▁थर	795
▁मॉनि	795
▁श्	795
▁सायं	795
61	794
हुआ	794
ोजना	794
▁ऑफिशियल	794
▁घटने	794
▁पात	794
▁पुरातत्व	794
▁प्लग	794
▁मॉड्यूल	794
▁लोकायुक्त	794
tt	793
ुति	793
▁ca	793
▁ओल्ड	793
▁ओवैसी	793
▁गर्भपात	793
▁टंडन	793
▁नोक	793
▁रंगे	793
▁संस	793
▁सेमेस्टर	793
now	792
ग्गी	792
▁कराची	792
▁खजाना	792
▁पट्टा	792
▁भारतवर्ष	792
▁सर्वस	792
ping	791
प्टर	791
फलता	791
यानी	791
रन	791
विजन	791
▁अवश	791
▁गान	791
▁जयराम	791
▁प्रोमो	791
▁शिर	791
▁स्टारर	791
.14	790
ense	790
ड्डी	790
यण	790
लिनी	790
▁1962	790
▁ड्रोन	790
▁मानसरोवर	790
▁रॉकेट	790
▁विस्थापित	790
▁सेफ्टी	790
कल्प	789
▁rbi	789
▁west	789
▁अयोग्य	789
▁कैट	789
▁कॉर्पोरेट	789
▁ग्रेजु	789
▁सुप	789
pes	788
war	788
इम	788
क्सा	788
तानी	788
वर्त	788
्ठे	788
▁1.3	788
▁const	788
▁अव्वल	788
▁खेद	788
▁चक्रवर्ती	788
▁तकनी	788
▁बोट	788
▁मक्	788
▁मून	788
▁हेलो	788
79	787
केला	787
खरा	787
ब्बत	787
▁affair	787
▁अष्टमी	787
▁आत्मी	787
▁इन्कार	787
▁कटाई	787
▁बक्	787
▁यूनिवर्स	787
दिल	786
▁कॉपीराइट	786
▁चाबी	786
▁देवेन्द्र	786
▁बालाजी	786
▁रामविलास	786
मां	785
ॉयड	785
ोना	785
▁admin	785
▁अनैतिक	785
▁गार	785
▁डल	785
▁लियो	785
▁हिज	785
एनजी	784
कूला	784
मेन्ट	784
वर्धन	784
श्ती	784
▁exper	784
▁असंत	784
▁कस्	784
▁टोन	784
▁फंक्शन	784
▁बॉन्ड	784
▁रौन	784
▁लोभ	784
▁1977	783
▁mer	783
▁आभारी	783
▁इंस्टिट्यूट	783
▁काहे	783
▁राजभवन	783
▁रामनगर	783
▁गार्	782
▁रोहिणी	782
▁लाजवाब	782
▁स्प्रे	782
खत	781
छित	781
ल्य	781
ृष्टि	781
▁बीयर	781
▁रचने	781
▁शाश्वत	781
राइट	780
▁अधू	780
▁कने	780
▁जनमानस	780
▁जीवा	780
▁तोड	780
▁होत	780
ough	779
porn	779
झन	779
बिर	779
विया	779
▁fuck	779
▁his	779
▁अफे	779
▁अमान	779
▁कॅ	779
▁घंट	779
▁झू	779
▁बिरादरी	779
▁वरीय	779
▁वसीम	779
ita	778
▁feb	778
▁अटलजी	778
▁अनुसू	778
▁एफसी	778
▁कलह	778
▁चाइल्ड	778
▁लेटे	778
▁शुष्क	778
▁ा	778
ost	777
rat	777
छे	777
सक्रीम	777
सिस्ट	777
▁उत्तराधिकारी	777
▁खंडन	777
▁गिरीश	777
▁जमाल	777
▁पर्रिकर	777
▁प्रायोजित	777
▁मेसेज	777
ret	776
बंधक	776
लीटर	776
▁lim	776
▁असुरक्षित	776
▁उज्ज्वल	776
▁ग्रोवर	776
▁डिस्ट्र	776
▁प्रेषित	776
▁मातृभाषा	776
▁मालवा	776
aur	775
▁kr	775
▁अचल	775
▁अशुद्ध	775
▁किनारा	775
▁खराबी	775
▁बाबूलाल	775
▁लात	775
wali	774
मान्य	774
▁aff	774
▁आवाजा	774
▁कुरुक्षेत्र	774
▁खाद्या	774
▁ग्राफ	774
▁घनश्याम	774
▁पैट	774
▁सहा	774
ऑफ	773
▁एनपीए	773
▁मिश्री	773
▁मोनिका	773
ika	772
कते	772
सीबी	772
▁कैराना	772
▁शिवम	772
आला	771
▁इतिहासकार	771
▁साजिद	771
संत	770
▁आत्मनिर्भर	770
▁एटीएस	770
▁एसएससी	770
▁कालीन	770
▁कास्टिंग	770
▁ग्ला	770
▁जीवाणु	770
▁जैसल	770
▁भूस्खलन	770
▁स्कर्ट	770
संहार	769
▁case	769
▁चिट	769
▁बहुसंख्य	769
▁बाबर	769
▁बिजी	769
▁लाड	769
own	768
दाई	768
दृ	768
बां	768
▁1970	768
▁चोक	768
▁स्ट्रे	768
ature	767
pos	767
कार्य	767
टम	767
शोध	767
▁कुंवर	767
▁चाँ	767
▁तथापि	767
▁पत्ती	767
▁पील	767
▁प्रयाग	767
▁भीष्म	767
read	766
क्ले	766
गमन	766
▁पटल	766
▁यूएन	766
itive	765
जन्य	765
डियम	765
शिंगटन	765
▁ब्लॉ	765
▁सोयाबीन	765
▁हरभजन	765
फ्ल	764
▁102	764
▁आभासी	764
▁चतुर	764
▁जर्जर	764
▁समिट	764
ini	763
प्पे	763
बरे	763
बात	763
हले	763
▁ide	763
▁एकीकरण	763
▁दीपा	763
▁नीर	763
▁बंग	763
▁शौकीन	763
,99	762
नव	762
ब्ल	762
मात	762
ष्कृत	762
ोदय	762
्तार	762
▁इब्	762
▁गोक	762
▁डिल	762
▁डेमो	762
▁शुद्धता	762
▁सांसारिक	762
बिंद	761
हेल	761
▁आवारा	761
▁क्वाली	761
▁खुराना	761
▁चौथाई	761
▁निखिल	761
▁साउंड	761
.33	760
निर्देश	760
पता	760
पाक	760
िनो	760
▁किक	760
▁प्रक्षेपण	760
▁प्राइ	760
▁भीमराव	760
▁साधने	760
आरबी	759
जूद	759
स्तरीय	759
▁zwj	759
▁अहि	759
▁झंझ	759
▁बर्थ	759
▁शेल	759
▁हवेली	759
तूस	758
भिषेक	758
मुद्दीन	758
संगत	758
▁लाइफस्टाइल	758
▁वसू	758
▁शिक्षिका	758
▁संजी	758
▁स्लो	758
प्लस	757
विस	757
▁1988	757
▁history	757
▁विक्र	757
▁विषम	757
अरे	756
चू	756
डकर	756
▁कुम	756
▁पशुपालन	756
▁पॉलिट	756
▁श्रॉफ	756
▁स्टो	756
इं	755
रित	755
िक्सल	755
▁अनावरण	755
▁आम्रपाली	755
▁कर्ता	755
▁खिच	755
▁झों	755
▁फेवर	755
▁ब्लाउज	755
▁हैदर	755
alk	754
ंत्री	754
केशन	754
क्टरी	754
मैथुन	754
वरे	754
वर्गीय	754
शांत	754
हिन	754
ोलॉ	754
▁इश्	754
▁प्रतिभाशाली	754
▁बाबूजी	754
▁यूजीसी	754
केर	753
थान	753
▁mark	753
▁pos	753
▁अंद	753
▁रिस्प	753
▁शाहरूख	753
▁सित	753
लीक	752
▁dem	752
▁language	752
▁let	752
▁अंपायर	752
▁नॉट	752
▁रिप्	752
▁हँ	752
ashi	751
ंट्स	751
जीव	751
फू	751
▁उतारे	751
▁बोलो	751
▁मोटो	751
▁शिंदे	751
मोह	750
▁900	750
▁असहाय	750
▁उद्ध	750
▁सुगम	750
कस	749
घरे	749
नोई	749
लात	749
▁देवा	749
▁पेनल्टी	749
ांतर	748
▁vol	748
▁बिल्ड	748
▁भान	748
▁माथा	748
▁लोट	748
गया	747
दर्शन	747
नीकरण	747
फाक	747
ब्रिज	747
सिं	747
ेला	747
▁104	747
▁240	747
▁del	747
▁med	747
▁train	747
▁दंते	747
▁प्रस	747
▁वित्तमंत्री	747
▁सफा	747
▁हलके	747
001	746
तृ	746
नेल	746
▁मऊ	746
▁शॉप	746
▁संय	746
▁स्वदेश	746
▁२४	746
एनएस	745
दुरी	745
यात	745
व्यू	745
▁ge	745
▁कटी	745
▁चिंत	745
▁दक्षिणा	745
▁नोट्स	745
▁रूपांतरण	745
43	744
▁450	744
▁kap	744
▁श्रीनिवास	744
▁1986	743
▁आसिफ	743
▁खू	743
▁गंतव्य	743
▁फ्रेंड्स	743
ene	742
कुछ	742
दश	742
फेर	742
लीप	742
▁अज्ञ	742
▁गेमिंग	742
▁दशरथ	742
▁मनाली	742
▁यमराज	742
▁रामजी	742
क्ड	741
चेरी	741
णित	741
मेज	741
हानी	741
▁hell	741
▁prof	741
▁अमानवीय	741
▁कस्ट	741
▁ठोक	741
▁ड्रॉप	741
▁दक्ष	741
▁भागीदार	741
▁भूपेंद्र	741
▁लुप्त	741
▁हस्तांतरण	741
दिशा	740
निटी	740
निर	740
पते	740
▁ड्रग	740
▁धात	740
▁पाऊ	740
दारा	739
ष्टिक	739
▁डिश	739
▁दुर्बल	739
▁प्रण	739
▁मलाई	739
▁मैसूर	739
▁सूद	739
▁जबाब	738
▁पोर्टफोल	738
▁प्रसा	738
▁मूंग	738
▁स्फ	738
औ	737
द्रिक	737
रेस	737
▁kah	737
▁अस्त्र	737
▁आनी	737
▁इंटरनल	737
▁गोविंदा	737
adh	736
ष्ण	736
▁pad	736
▁चतुर्दशी	736
▁निर्वा	736
गावत	735
ग्ध	735
मेरा	735
स्थी	735
ौला	735
▁af	735
▁face	735
▁अनोखे	735
▁काजू	735
▁चंद्रा	735
▁चाइ	735
▁जीआरपी	735
▁नेम	735
▁रचित	735
▁हिस्ट्री	735
▁५०	735
पीओ	734
ुत्	734
▁iso	734
▁कटु	734
▁कन्फ	734
▁कॉलम	734
▁टीईटी	734
▁पर्दाफाश	734
▁रिफा	734
▁शाप	734
▁सिमर	734
▁सूर्यास्त	734
च्	733
ुज	733
▁दैत्य	733
▁बुनिया	733
▁सज्	733
▁हाउसिंग	733
▁घमासान	732
▁टीसी	732
▁डेस्कः	732
▁तार्किक	732
▁मनोरंजक	732
▁स्किल	732
cle	731
view	731
ठ्ठा	731
िलो	731
▁एफडी	731
▁गुंड	731
▁ब्री	731
aking	730
ल्चर	730
वेदी	730
स्टीन	730
▁chi	730
▁stre	730
▁अनियमितता	730
▁आवरण	730
89	729
चक्र	729
प्या	729
▁vis	729
▁अच	729
▁डिटे	729
▁धागा	729
▁पंचमी	729
▁पुरुषोत्तम	729
थम	728
ोई	728
▁ओला	728
▁औरंगजेब	728
▁दुरा	728
▁विंड	728
.01	727
थ्या	727
न्ने	727
शैली	727
सै	727
▁कारगिल	727
▁पीके	727
.41	726
जियम	726
बले	726
मेड	726
लेखा	726
साय	726
▁अनलिमिटेड	726
▁अभ्या	726
▁गोपी	726
▁वहन	726
itt	725
सीर	725
सेक्स	725
ोनिया	725
▁कोह	725
▁गद्	725
▁द्वारका	725
▁निषाद	725
▁यरू	725
2017	724
ध्याय	724
▁एनजी	724
▁कोलंबिया	724
▁जमाव	724
▁ट्रिपल	724
▁भिक्ष	724
▁लक्	724
ंकू	723
जेंडर	723
रर	723
विरोधी	723
▁अभिया	723
▁अरु	723
▁इब्राहिम	723
▁उतरते	723
▁छिद्र	723
▁प्रेसिडेंट	723
▁मरण	723
▁मर्म	723
▁रोहन	723
▁संता	723
▁सेगमेंट	723
pc	722
बास	722
लाप	722
वाज	722
हाने	722
ीकरण	722
▁2500	722
▁चकित	722
▁त्रिवेंद्र	722
▁पोत	722
▁प्राणायाम	722
▁ब्रो	722
▁राधे	722
▁समी	722
▁सर्वि	722
/5	721
परी	721
ब्लू	721
▁कस्टमर	721
▁कार्या	721
▁पवित्रा	721
▁प्लेस	721
▁फात	721
▁रितेश	721
▁विसंग	721
▁समायोजन	721
▁सौरव	721
/2017	720
ाप	720
▁कुबेर	720
▁कौल	720
▁गुंडा	720
▁जर्नल	720
▁जूल	720
▁ज्वालामुखी	720
▁परीक्षार्थी	720
▁फोटोग्राफर	720
▁भूमिगत	720
▁शृंखला	720
▁श्रोता	720
▁सुदर्शन	720
दात	719
▁1965	719
▁अनुज	719
▁अप्रा	719
▁कोरे	719
▁टिकाऊ	719
▁ट्रिप	719
▁यथ	719
▁सीतार	719
▁स्टोक्स	719
▁स्पेश	719
साद	718
स्टर्ड	718
ॉं	718
▁कार्यप्रणाली	718
▁पायल	718
▁फोर्ट	718
▁बेघर	718
▁विवेचना	718
गुणा	717
पर्स	717
यामी	717
ावती	717
ुतीकरण	717
▁चित्रित	717
▁ज्वाला	717
▁टीआरपी	717
▁पुष्ट	717
▁लीन	717
▁सबब	717
▁साझे	717
▁सेक्युलर	717
▁हिटलर	717
टेक्	716
▁iii	716
▁ओज	716
▁पुनर्विचार	716
▁प्रेग्ने	716
▁मुख्यमंत्र	716
सदी	715
▁अभिव्यक्त	715
▁तिक	715
▁दहा	715
निन	714
ल्सन	714
हिल	714
▁इष्ट	714
▁धुर	714
▁याक	714
▁सर्वा	714
वद	713
हाउस	713
▁आमंत्रण	713
▁आवा	713
▁मूक	713
▁मेक्सिको	713
▁लकी	713
तून	712
दानी	712
लीज़	712
सीडी	712
▁international	712
▁पराजय	712
▁मेहरा	712
▁सिह	712
ंसक	711
कारक	711
ांडा	711
िटल	711
▁एकदिवसीय	711
▁कंफ	711
▁वाद्य	711
▁विशाखा	711
▁ऑर	710
▁काका	710
▁चैत्र	710
▁नाद	710
▁न्या	710
▁संवर्धन	710
पीय	709
पेज	709
लिखित	709
ॅन	709
्ये	709
▁food	709
▁चार्	709
▁रान	709
▁शासना	709
▁श्रे	709
रेड	708
िनल	708
▁कीबोर्ड	708
▁तुर	708
▁मार्टिन	708
▁रुद्राक्ष	708
▁सिंहासन	708
hm	707
फान	707
शब्द	707
्न	707
▁ईश्व	707
▁उत्पादकता	707
▁कवच	707
▁कसरत	707
▁गर्ल्स	707
▁चंग	707
▁टेक्निकल	707
▁तफ	707
▁तुल	707
▁रणदीप	707
नरी	706
स्पर	706
▁इंप	706
▁इक्	706
▁उत्पी	706
▁फुले	706
▁विलंब	706
▁समन्वयक	706
ike	705
row	705
बीएस	705
▁fre	705
▁ऐन	705
▁नामकरण	705
▁परिष	705
▁पुस्तिका	705
▁फारसी	705
▁फ्लॉप	705
▁मेहुल	705
▁रिसेप्शन	705
सर्	704
▁आड	704
▁मेटल	704
▁वाहिनी	704
▁स्टिंग	704
▁२१	704
.55	703
चें	703
डेट्स	703
म्बी	703
वार्	703
साफ	703
▁चार्जिंग	703
▁जगाने	703
▁जानकी	703
▁बोहरा	703
▁शुभार	703
▁सेलि	703
ंर	702
धरी	702
▁देशभक्त	702
▁मिनिस्टर	702
र्ची	701
▁आलोच	701
▁कुप	701
▁जुर्मा	701
▁ट्रिब	701
▁परमार	701
▁प्रज्ञा	701
▁स्थाना	701
ंव	700
बर्ट	700
भोग	700
▁body	700
▁ur	700
▁अकाद	700
▁असंख्य	700
▁ऑफलाइन	700
▁पुष्	700
▁बीएड	700
▁रिटायरमेंट	700
ware	699
▁अंतः	699
▁नियमानुसार	699
▁सांख्यिकी	699
गिक	698
ब्रा	698
श्वरी	698
▁क्रिएट	698
▁जसवंत	698
▁जाई	698
▁ट्यूमर	698
▁नालंदा	698
▁फटा	698
▁शूद्र	698
.	697
पश्चात	697
▁fund	697
▁अंधे	697
▁जनमत	697
रोज	696
▁उध	696
▁क्रूड	696
▁पलटवार	696
▁बेला	696
▁संग्र	696
▁सजी	696
▁हरित	696
,00	695
gress	695
▁उपेक्षित	695
▁पाला	695
▁पोर	695
▁प्रणव	695
▁प्रदेशाध्यक्ष	695
▁फरी	695
▁रबर	695
▁सट्टे	695
▁सार्	695
ner	694
डों	694
माय	694
▁107	694
▁अलं	694
▁केसी	694
▁धमा	694
▁लॉर्ड	694
arch	693
ईटी	693
▁इलेक्ट	693
▁ईर्ष	693
▁गुरुदेव	693
2018	692
ube	692
ॉन्ट	692
▁bas	692
▁गड़	692
▁डायलॉग	692
▁लेबर	692
▁साम्य	692
▁सेल्फ	692
▁नट	691
▁बर्न	691
▁मोहर	691
▁सैद्धांतिक	691
▁1,2	690
▁rashi	690
▁आली	690
▁जिहाद	690
▁जीपीएस	690
▁बहुमूल्य	690
▁रेख	690
▁वेज	690
▁श्राव	690
▁हर्बल	690
डाल	689
निर्	689
न्यु	689
बहार	689
लेंटाइन	689
श्व	689
हिम	689
▁अध्यापन	689
▁अमरिंदर	689
▁इजरा	689
▁जुड	689
▁प्रामाणिक	689
▁भाटी	689
▁म्यु	689
▁रोजी	689
▁शोएब	689
दिता	688
याग	688
ॉर्म	688
▁नियमावली	688
▁लखन	688
▁वेग	688
orm	687
कर्षण	687
वैत	687
▁अमूल्य	687
▁कोठी	687
▁तस्	687
▁नस्	687
▁फिल्म्स	687
▁२२	687
घोष	686
चरित	686
▁1960	686
▁एकांत	686
▁गिरफ्त	686
▁ठाक	686
▁नामु	686
▁मच्छ	686
▁स्प्र	686
▁कृष	685
▁द्रव	685
▁फेफ	685
▁रजिस्ट्रार	685
▁शैले	685
पाली	684
मानता	684
लट	684
▁काबुल	684
▁सेरे	684
दाम	683
ब्ल्यू	683
र्चे	683
वानंद	683
▁एडि	683
▁परिव	683
▁बेद	683
▁मस्जि	683
▁रिलेशन	683
▁विकृत	683
▁विक्ष	683
खारी	682
▁ओली	682
▁किं	682
▁घोटा	682
▁ज़ा	682
▁प्लॉट	682
▁मीनाक्षी	682
▁श्रावण	682
▁श्व	682
▁सजीव	682
cal	681
ely	681
line	681
ट्टू	681
बहा	681
ल्लम	681
▁कार्ब	681
▁कुर्बानी	681
▁पृथ	681
▁मेनका	681
▁लिक	681
▁वड	681
▁वित	681
▁हब	681
चर्य	680
दंड	680
फन	680
शू	680
▁birth	680
▁अभिला	680
▁उद्य	680
▁मिल्क	680
▁सोडियम	680
▁div	679
▁अनाथ	679
▁उत्पादित	679
▁डोकलाम	679
▁नंदा	679
▁नमस्ते	679
▁पंचांग	679
▁पट्ट	679
book	678
रियन	678
▁अस्वी	678
▁जुन	678
▁भत्ते	678
▁राजकोट	678
▁लॉटरी	678
ंग्	677
स्त्री	677
▁377	677
▁ऑक्सी	677
▁डायमंड	677
▁द्वेष	677
▁पीर	677
▁मरा	677
▁महास	677
▁श्रीमान	677
▁संचाल	677
▁सुस	677
.09	676
तोड़	676
रचना	676
▁घात	676
▁चौकीदार	676
▁निराशाजनक	676
▁मुला	676
▁शिखा	676
▁स्पेक्ट्रम	676
ात्र	675
▁कोतवाल	675
▁पैग	675
▁प्रभाकर	675
95	674
ंझ	674
न्ही	674
ोजक	674
▁पीरिय	674
ंचल	673
वराज	673
ोर्ट	673
्रीट	673
▁hor	673
▁एडिशन	673
▁क्रो	673
▁वसी	673
कोर्ट	672
सीए	672
स्र	672
▁......	672
▁जावे	672
▁तन्	672
▁पूर्वज	672
▁प्रोट	672
▁फाल्	672
▁वस	672
ally	671
बाना	671
भान	671
मून	671
▁एनआरसी	671
▁गुरुद्वारा	671
▁झो	671
▁नास्तिक	671
▁विडंब	671
▁शौर्य	671
▁सावरकर	671
▁सूत	671
▁स्टोन	671
चं	670
तेश	670
दर्स	670
दशा	670
▁je	670
▁कॉस्ट	670
▁निर्ण	670
▁पडता	670
▁बेंगल	670
▁मरियम	670
▁मादक	670
▁सिंड	670
ants	669
क्रिया	669
नम	669
ब्द	669
▁पुजारा	669
▁पेशी	669
▁बेह	669
spot	668
टीई	668
थिक	668
▁artic	668
▁बबलू	668
▁रक	668
▁स्केल	668
ंचन	667
ग्रे	667
नेर	667
बाड़ी	667
▁डायरे	667
▁प्राची	667
▁वास्त	667
▁वैष्ण	667
▁1948	666
▁औचित्य	666
▁ताई	666
▁लेक	666
क्राफ्ट	665
द्म	665
प्पन	665
ोजा	665
▁एंजेल	665
▁जनसंघ	665
▁मार्जिन	665
▁मुंड	665
▁विध्व	665
▁वॉलेट	665
▁सग	665
ange	664
ंन	664
चिक	664
त्तरी	664
▁plan	664
▁प्रशस्त	664
▁प्रोसेसिंग	664
▁विलास	664
ंतुक	663
क्रेट	663
दिनी	663
बायोट	663
संग	663
ूष	663
▁1985	663
▁धर्मा	663
▁पिक्	663
▁पीडीएफ	663
▁प्रभाग	663
▁भगव	663
▁मुजाहि	663
▁दुर्दशा	662
▁पराक्रम	662
▁पाउंड	662
▁पापी	662
▁मालिनी	662
▁१९	662
gle	661
गराज	661
सरा	661
सोस	661
ोता	661
▁अदृश्य	661
▁आत्मिक	661
▁तांबे	661
▁फेरबदल	661
▁बीपी	661
▁मारता	661
कीम	660
▁जोस	660
▁प्रौ	660
▁वर्गीकरण	660
▁हासन	660
▁होन	660
ont	659
न्हे	659
▁कथाकार	659
▁गरमा	659
▁थॉमस	659
▁वल	659
▁सर्वशक्ति	659
▁सेंटी	659
▁tax	658
▁गर्भाशय	658
▁जफर	658
▁पिंज	658
▁मेमोरियल	658
▁राक्ष	658
▁सरो	658
▁सुस्त	658
df	657
र्गत	657
लीकरण	657
शिंग	657
▁अनौपचारिक	657
▁अविश्वसनीय	657
▁चेता	657
▁तमाशा	657
▁बीटा	657
▁मुग	657
▁स्र	657
तरंज	656
नाश	656
राबाद	656
शप	656
▁पनामा	656
▁पुदी	656
▁वॉर	656
▁हसीना	656
चारे	655
ूकी	655
▁अनाम	655
▁मृदा	655
्यवस्था	654
▁कुणाल	654
▁दिना	654
▁पुरु	654
▁यूएई	654
▁रजनीश	654
▁आर्टिस्ट	653
▁टोला	653
uv	652
work	652
आईआर	652
ुरे	652
▁anal	652
▁ऑस्कर	652
▁बर्फी	652
▁रिचर्ड	652
▁लिमिट	652
▁विलक्षण	652
/10	651
काना	651
जेवाला	651
बेल	651
वाण	651
▁एली	651
▁ऑडि	651
▁निदेश	651
▁नुक	651
▁फेज	651
▁विक्रे	651
द्रता	650
हाद	650
▁220	650
▁तबाद	650
▁परिण	650
▁प्रचंड	650
▁रिस्क	650
▁लोह	650
71	649
न्थ	649
ांची	649
ॉट्स	649
▁प्रविष्ट	649
▁फोर्	649
▁भार्गव	649
▁मेडिसिन	649
▁विजया	649
दाश्त	648
प्लेक्स	648
बलेट	648
▁चौरस	648
▁डीडी	648
▁तेलुगु	648
▁तोग	648
▁प्रखर	648
▁लप	648
▁106	647
▁1987	647
▁नवल	647
भारतीय	646
सरों	646
▁इस्त	646
▁गजल	646
▁थिर	646
▁पोप	646
▁भरता	646
▁मरी	646
▁लाखो	646
▁लाभार्थी	646
ign	645
तला	645
पाठ	645
्रोम	645
▁दस्ता	645
▁प्रीतम	645
▁ब्ले	645
▁भोर	645
▁वक्फ	645
,50	644
ब्रे	644
हरि	644
▁अमीन	644
▁खालिद	644
▁गुरुक	644
▁जिओ	644
▁तनुश्री	644
▁दुग्ध	644
▁वर्ड	644
▁सिब्बल	644
mber	643
घाई	643
▁atm	643
▁आघात	643
▁खजूर	643
▁टेक्स	643
▁डीएस	643
▁नपु	643
▁न्यास	643
▁न्यूटन	643
▁फ्रूट	643
▁भंडारी	643
▁भागा	643
▁महत्वा	643
▁माहेश्वरी	643
▁लाठीचार्ज	643
काव्य	642
परिवार	642
ांचा	642
▁child	642
▁कंग	642
▁जसप्रीत	642
▁नंदी	642
▁फरहान	642
▁मुद	642
▁युधिष्ठ	642
▁विद्रोही	642
▁संशय	642
ैरे	641
▁इंत	641
▁बेक	641
▁मध्यस्थ	641
कॉ	640
निष्ठ	640
पालक	640
बेस	640
्मी	640
▁आयोजक	640
▁इत	640
▁फुर	640
▁विद्र	640
▁शोषित	640
▁सोडा	640
निर्मित	639
▁1982	639
▁incre	639
▁model	639
▁आपा	639
▁ऑफर्स	639
▁कालि	639
▁नृ	639
▁पॉलि	639
▁हबी	639
▁हर्	639
▁१००	639
क्कन	638
नपुर	638
पोस्ट	638
लोड	638
स्टेट	638
▁प्रतिबि	638
▁हरिया	638
eld	637
खट	637
नला	637
्ग	637
▁खिलजी	637
▁प्रतिक	637
▁वैश्य	637
▁शिकारी	637
▁३२	637
ksh	636
स्टॉल	636
▁आसियान	636
▁औपचारिकता	636
▁बोनी	636
▁समाजवाद	636
▁होय	636
च्यू	635
▁cour	635
▁ऑक्स	635
▁चैतन्य	635
▁पृथ्वीराज	635
▁फोटोग्रा	635
▁रेस्क	635
▁लैंगिक	635
▁शैल	635
▁श्यामा	635
करबर्ग	634
भागीय	634
म्हा	634
ांच	634
▁115	634
▁che	634
▁केबिन	634
▁खुर्	634
▁जीएम	634
▁ज्योतिर्	634
▁तेजा	634
▁नास	634
▁निग	634
▁पेल	634
▁लाद	634
▁संगठ	634
▁स्टंट	634
इत	633
खें	633
ज्ञा	633
शीर्ष	633
▁काठ	633
▁टाय	633
▁पलंग	633
▁महानायक	633
▁रसाय	633
▁राध	633
व्रत	632
ुले	632
▁अंशु	632
▁किश	632
▁कोठारी	632
▁डेटाबेस	632
▁प्रगट	632
▁लामा	632
▁शिरोम	632
▁स्तनपान	632
press	631
क्यू	631
सैनिक	631
▁आरोग्य	631
▁एस्	631
▁कुसु	631
▁चित्रकार	631
▁रेन	631
▁हिं	631
ble	630
किम	630
स्का	630
▁अप्रिय	630
▁एलो	630
▁किल्	630
▁गड़ब	630
▁गाड	630
▁पुष्पा	630
▁सविता	630
गामी	629
च्चा	629
हिद	629
ाजन	629
▁170	629
▁अभिलेख	629
▁उत्तरदायित्व	629
▁फैक्ट	629
▁राघ	629
▁लीज	629
▁लेग	629
मेव	628
यं	628
शुदा	628
▁धाक	628
▁पिस्त	628
▁शिकागो	628
▁शिवर	628
▁षड	628
▁सुपारी	628
▁सुब्र	628
माग	627
रानी	627
रिस	627
सीय	627
़े	627
▁असत्य	627
▁रालो	627
▁रेशम	627
umb	626
ड्र	626
न्यू	626
म्पू	626
▁दुर्य	626
▁पार्श्व	626
▁लुट	626
ats	625
udi	625
श्चित	625
▁shop	625
▁चिल	625
▁जं	625
▁दयान	625
▁नवमी	625
▁पंड	625
▁प्रभुत्व	625
▁भानु	625
▁मुशर्रफ	625
▁रामान	625
▁विशेषाधिकार	625
▁विश्लेष	625
▁सूफी	625
▁स्वामीजी	625
मानिया	624
योजना	624
शेष	624
हीत	624
िकन	624
▁124	624
▁aaj	624
▁अका	624
▁इंटे	624
▁क्रिस्टल	624
▁चाव	624
थ्य	623
▁अभिमान	623
▁कॉलर	623
▁ड्रीम	623
▁बटालियन	623
▁हर्षवर्धन	623
ंकल	622
ब्रेट	622
▁चौका	622
▁बाले	622
आरडी	621
धना	621
िएंट	621
▁वेस्टर्न	621
▁शील	621
प्रभ	620
ष्टाचार	620
▁आत्मसम	620
▁एक्स्ट्रा	620
▁जादुई	620
▁बहुचर्चित	620
सेंस	619
ॉर्ड	619
▁अन्वेषण	619
▁आभा	619
▁काँग्रेस	619
▁जोसेफ	619
▁वृद्धा	619
▁सुखदेव	619
ged	618
ोष	618
▁कारखाना	618
▁दिमा	618
▁पेशा	618
▁वतन	618
▁संपाद	618
मंदिर	617
म्पिक	617
ळ	617
ोसी	617
▁अलौकिक	617
▁चार्जर	617
▁डिस्प	617
▁मों	617
▁वेबसाईट	617
▁स्ली	617
▁प्रशासक	616
▁बाट	616
गरा	615
प्ला	615
मनगर	615
शासित	615
सां	615
्युअल	615
▁आरटी	615
▁इल	615
▁टेलर	615
▁डब्लू	615
▁भीमा	615
▁सर्वत्र	615
ड्डे	614
समूह	614
▁रेणु	614
▁गॉड	613
▁तहरी	613
▁परफॉर्म	613
▁फेम	613
▁मंतर	613
▁२६	613
201	612
गुरू	612
चिस्तान	612
▁उछा	612
link	611
ues	611
yal	611
क्षे	611
त्था	611
महल	611
हिनी	611
▁उख	611
▁धीर	611
▁सुपु	611
▁स्वंय	611
ंजस	610
स्या	610
▁धू	610
▁निलंबन	610
▁परिणी	610
▁प्रवर्	610
▁फतेह	610
छाड़	609
र्तन	609
शलेम	609
ोहित	609
▁अजब	609
▁अथ	609
▁आरपीएफ	609
▁धागे	609
▁पंखे	609
▁पाश्चात्य	609
▁फ़ाय	609
▁शाय	609
नलाइन	608
बत्ती	608
बीआई	608
शत	608
ॉमिक	608
्वी	608
▁mumbai	608
▁options	608
▁चिंताजनक	608
▁ट्रॉ	608
▁मनप	608
▁वाहक	608
▁४०	608
▁अप्	607
▁आश्चर्यचकित	607
▁क्षेत्रा	607
▁जागरुकता	607
▁हाे	607
▁२३	607
ँड	606
बेथ	606
▁आप्	606
▁गवर्	606
▁डोन	606
ंकार	605
▁आख़	605
▁आर्थ	605
▁गुद	605
▁मुकुल	605
▁वीणा	605
राज्य	604
ल्याण	604
साइड	604
साब	604
▁1972	604
▁friend	604
▁खाँ	604
▁पाउ	604
▁मुकाब	604
▁लिफा	604
नाया	603
▁टिम	603
▁तृती	603
▁राई	603
▁वल्लभ	603
▁सुन्नी	603
ham	602
फोन्स	602
हाट	602
▁अत्या	602
▁आरसी	602
▁कोस्ट	602
▁खै	602
▁मंत्रि	602
ंगत	601
कती	601
मकिन	601
मात्र	601
लेट्स	601
शीद	601
ोलिया	601
▁पठ	601
gh	600
भंग	600
म्बाब्वे	600
▁अवमान	600
▁अविवाहित	600
▁आटो	600
▁जीर्ण	600
पल्ली	599
बूज	599
▁इंडि	599
▁बेहत	599
▁सत्यनारायण	599
फ्रेंड	598
िकीकरण	598
▁टूथ	598
▁निर्भया	598
▁नेत	598
▁परिच	598
▁पैठ	598
▁माघ	598
▁स्ना	598
देख	597
न्त्री	597
ष्टी	597
▁कूच	597
▁ज्वा	597
▁त्रुट	597
▁रेजि	597
▁वासुदेव	597
ography	596
पिन	596
▁देवघर	596
▁पूर्	596
▁१९७	596
टर्स	595
पुराण	595
शाप	595
सुम	595
ेंचा	595
▁इमोशनल	595
▁द्रौपदी	595
▁प्रपोज	595
▁मुकुट	595
▁विकी	595
▁स्वे	595
दत	594
▁इले	594
▁दाता	594
त्त्व	593
भुत	593
र्की	593
ोन्	593
▁उद्धव	593
▁कुच	593
▁गंगाज	593
▁चिराग	593
▁दयनीय	593
▁दारू	593
▁मख	593
▁साहसी	593
aper	592
कोष	592
घी	592
▁इंजी	592
▁फ्ले	592
▁रत्	592
▁वाइट	592
▁सावंत	592
▁हत्यारे	592
चुर	591
धारक	591
▁आहु	591
▁कर्तव	591
दयाल	590
ुश	590
्ण	590
▁express	590
▁अद्	590
▁चंदे	590
▁दुःखी	590
▁परेश	590
▁सत्त	590
ोलो	589
्रस	589
▁कार्त	589
▁टॉवर	589
▁निया	589
▁पंड्या	589
74	588
नाथन	588
पुरुष	588
▁dist	588
▁आराध्य	588
▁आरो	588
▁जमे	588
▁परस	588
▁रशीद	588
▁सम्मेल	588
▁सामंत	588
▁स्पोर्ट	588
▁ह्	588
शेर	587
▁गुलजार	587
▁ठि	587
▁दमा	587
▁विपुल	587
roid	586
गर्दी	586
हंस	586
ात्म्य	586
▁आईए	586
▁कुशी	586
▁कॉर्पोरेशन	586
▁टर्	586
▁पिंकी	586
▁लालकृष्ण	586
▁हथिया	586
▁अपरि	585
▁आपन	585
▁एचडीएफसी	585
▁कच्छ	585
▁कमांडो	585
▁खाक	585
▁जिंक	585
▁यूपीएससी	585
▁रोनाल्डो	585
▁शेप	585
ंटल	584
जेस	584
परेशन	584
पल्स	584
ल्थ	584
वाडा	584
विटी	584
शीट	584
ष्कार	584
▁अधी	584
▁किस्	584
▁ताजे	584
▁बटलर	584
▁विनायक	584
▁विश्वा	584
▁संहार	584
▁सुप्रसिद्ध	584
मिनेशन	583
▁टेल	583
▁ढि	583
▁द्वाद	583
▁नर्सरी	583
ँह	582
ंबे	582
कडे	582
ुका	582
ॉफ	582
▁long	582
▁ओसा	582
▁कस्त	582
▁गेह	582
▁मिशेल	582
▁रंगा	582
▁रईस	582
aipur	581
▁पोते	581
▁प्रसि	581
▁रिले	581
▁सर्कल	581
उर	580
चान	580
टीवी	580
प्सी	580
▁कॉन्ट्र	580
▁खल	580
▁देशद्र	580
▁प्रौद्योग	580
▁बरा	580
▁शशांक	580
ंकि	579
लोनी	579
सन्	579
▁डीन	579
▁ललिता	579
▁विक्रमाद	579
▁शोभ	579
▁सुमित्रा	579
▁स्कॉलर	579
चेत	578
फास्ट	578
बहु	578
भाषी	578
▁अंकिता	578
▁खंडपीठ	578
▁जंतु	578
▁जस्ट	578
▁दाव	578
▁सवाई	578
दर्द	577
नारायण	577
माशंकर	577
्वल	577
▁अनिता	577
▁इयर	577
▁निरपेक्ष	577
▁पट्टे	577
▁gm	576
▁अहं	576
▁कमे	576
▁करि	576
▁ग्राफिक्स	576
▁स्त्रियां	576
▁स्वेच्छा	576
कृतिक	575
घम	575
पालिका	575
भ्यास	575
सेवक	575
ोत्तर	575
▁inv	575
▁अरबाज	575
▁जागी	575
▁राजनी	575
▁लिनक्स	575
▁विथ	575
▁शेन	575
ंपिक	574
कॉन	574
फिन	574
▁103	574
▁अप्स	574
▁ध्येय	574
▁वग	574
▁सुबोध	574
kan	573
न्दगी	573
▁ऍ	573
▁फोट	573
▁मंगेशकर	573
▁राठी	573
▁सभासद	573
ोवा	572
▁अभिनंदन	572
▁इका	572
▁कली	572
▁क्षय	572
▁डिटेल्स	572
▁थोडी	572
▁पंचा	572
▁पीएफ	572
▁मंडप	572
▁लेह	572
▁वृत्त	572
पत्नी	571
ोत	571
▁god	571
▁उदासीन	571
▁करुणानि	571
▁गावस्कर	571
▁दंत	571
▁परमिट	571
▁प्रताड़	571
▁बर्लिन	571
▁मार्मिक	571
▁विचारा	571
▁समरस	571
▁२७	571
ॅट	570
▁non	570
▁जीमेल	570
▁विड	570
▁सोह	570
फट	569
मार्ट	569
लेख	569
ॉन्स	569
्की	569
▁गंज	569
,21	568
नेड	568
▁धारदार	568
▁प्रोग्रामिंग	568
▁सिग्	568
▁सेल्	568
बर्स	567
श्वर्य	567
साइज	567
▁आर्ट्स	567
▁करम	567
▁कलिय	567
▁थोप	567
▁प्लेसमेंट	567
▁लास्ट	567
▁स्ट्रा	567
जेक्शन	566
▁कंडक्टर	566
▁शहा	566
शने	565
ेंच	565
▁गांधीनगर	565
▁झुंड	565
▁निमित्त	565
▁भरती	565
▁विवेकान	565
▁खडे	564
▁तेलुगू	564
▁फते	564
▁बहुता	564
▁रणजीत	564
▁रफी	564
▁रॉयल्स	564
ध्यापक	563
▁sing	563
▁soft	563
▁अस्थिरता	563
▁गृहस्थ	563
▁चिकित्स	563
▁झे	563
▁दादाजी	563
▁बुश	563
▁लाचार	563
▁लापर	563
▁सरक	563
▁सुर्	563
चालन	562
स्ट्रक्शन	562
ोनी	562
ोर्स	562
▁201	562
▁चेष्टा	562
▁झटक	562
▁भट्टाचार्य	562
कार्	561
▁118	561
▁श्रीमद्	561
ऋ	560
▁ऋचा	560
▁नाईक	560
▁फुटपाथ	560
▁बब	560
▁मृ	560
▁लेक्चर	560
▁विश्लेषक	560
साम	559
▁आख्या	559
▁खडा	559
▁नायर	559
▁प्रोफेशन	559
▁फिक्सिंग	559
▁बदनामी	559
▁मैदानी	559
▁हड्ड	559
▁हेलिकॉप्टर	559
ंपर	558
कराने	558
▁metoo	558
▁अचूक	558
▁इन्स	558
▁ओस	558
▁चुंबन	558
▁थाय	558
▁दयानंद	558
▁मनन	558
▁स्की	558
गौ	557
यात्री	557
समाज	557
▁कंठ	557
▁तात्कालिक	557
▁देशमुख	557
▁नमो	557
▁पब्लिश	557
▁महाशिवर	557
▁मुद्रित	557
▁सेफ	557
महा	556
▁अंधेरी	556
▁धना	556
▁प्रलोभ	556
▁फादर	556
▁भैर	556
गां	555
ायु	555
ेशर	555
▁प्रता	555
▁बलवान	555
▁वृंदावन	555
▁सादर	555
कैद	554
गीन	554
मिनियम	554
मेकर	554
स्तिक	554
▁चाप	554
▁दुध	554
▁प्राध्यापक	554
▁फालतू	554
▁शैलेश	554
▁श्रीलं	554
▁सत्	554
सिम	553
▁अध्यय	553
▁गुणगान	553
▁टेक्न	553
▁रूपया	553
vie	552
बाजार	552
▁ऋग्वेद	552
▁घनिष्ठ	552
▁ढो	552
▁प्रतिरो	552
▁बास्केट	552
▁सीमावर्ती	552
चुरी	551
जीक	551
यिक	551
रीला	551
्यास	551
▁परिक्ष	551
▁मस्तक	551
▁वाड	551
काश	550
बेर	550
र्वे	550
▁अस्थिर	550
▁गेट्स	550
▁चका	550
▁बीएम	550
ंखला	549
त्रिक	549
पाय	549
ोदा	549
▁अभिप्राय	549
▁चाली	549
▁त्रस्त	549
शीला	548
ेश्वरी	548
ॉमी	548
▁आश्	548
▁इनो	548
▁ओंकार	548
▁ठु	548
▁सेरेना	548
▁स्कि	548
▁हुर	548
ife	547
गंग	547
र्जित	547
ष्मा	547
स्वार्थ	547
▁अर्पण	547
▁चाक	547
▁शालिनी	547
परिषद	546
रथ	546
वैधानिक	546
स्कोप	546
स्ट्रेशन	546
▁कम्युनि	546
▁जमान	546
▁लिह	546
▁संकलित	546
▁साग	546
▁सेलिब्रिटी	546
▁स्वार्थी	546
र्करा	545
▁ऑर्ग	545
▁चह	545
▁जिनपिंग	545
▁तटस्थ	545
▁निश्चि	545
▁मिल्	545
▁मिस्त्री	545
▁लेनिन	545
ower	544
जला	544
दर्श	544
िप्ट	544
▁अनिवार	544
▁कालिदास	544
▁ठाणे	544
▁बंधा	544
▁महिषा	544
▁मैल	544
▁यूट	544
xx	543
रिका	543
र्श	543
ांडे	543
▁कलर्स	543
▁जेएन	543
▁देवास	543
▁विषयक	543
▁स्ट्रॉ	543
लिफ्ट	542
▁अथक	542
▁कॉर्नर	542
▁चार्ल्स	542
▁प्रोप	542
भीत	541
▁अनन्य	541
▁आदिल	541
▁बेकिंग	541
▁भांग	541
भिय	540
ेंदर	540
▁ओके	540
▁कटाक्ष	540
▁कमेंट्स	540
▁बंटी	540
▁वॉच	540
▁व्ला	540
ंचाई	539
पाणी	539
ेतन	539
▁उदासीनता	539
▁कायदे	539
▁टेलिकॉम	539
▁हरमनप्रीत	539
डीएफ	538
बिट	538
लिसिस	538
लेटिक्स	538
वर्ष	538
▁इन्फेक्शन	538
▁उत्त	538
▁ऑब्जेक्ट	538
▁जनजीवन	538
▁तुलनात्मक	538
▁पाद	538
▁महालक्ष्मी	538
▁मौलवी	538
▁लिपिक	538
▁श्रृ	538
▁२८	538
क्रो	537
ख्य	537
्यव	537
▁कूपन	537
▁भाद्रपद	537
▁व्यभि	537
▁शिका	537
▁शिथिल	537
ंबी	536
द्वारा	536
ियोजित	536
▁अराज	536
▁एमटी	536
▁ज्यो	536
▁पर्यवे	536
▁यांत्रिक	536
चलन	535
डेल	535
धनु	535
विद्या	535
▁प्रतीकात्मक	535
▁बाथ	535
▁यहूदा	535
▁विस्तारित	535
▁स्वाइन	535
च्चे	534
मोर	534
लिग	534
ुष	534
▁nc	534
▁वेश	534
▁व्यथा	534
▁हताश	534
ंटन	533
रोल	533
लीला	533
स्ताना	533
िशियल	533
▁750	533
▁अनुमो	533
▁अभिवादन	533
▁आधुन	533
▁तिन	533
▁नंदन	533
▁बसने	533
▁सुचना	533
केत	532
णीकरण	532
्यूटर	532
▁आर्यन	532
▁इव	532
▁काप	532
▁गुजरा	532
▁पात्रा	532
▁फ़ार	532
▁वेदना	532
ption	531
मं	531
▁ele	531
▁अवहेलना	531
▁कामा	531
▁गढ	531
▁ब्रेकअप	531
▁मांड	531
▁समझौ	531
किशन	530
घ्र	530
म्य	530
लंब	530
▁ऑटोमोबा	530
▁दला	530
▁निर्देशानुसार	530
▁नीता	530
▁प्रतिष्ठ	530
▁संकल्पना	530
▁स्वै	530
क्षर	529
त्कार	529
हुल	529
▁आवेद	529
▁इंटर्न	529
▁ग्रीस	529
▁मोस्ट	529
▁राधाकृष्णन	529
▁स्वयंसेव	529
gar	528
घट	528
राला	528
ोहण	528
▁काद	528
▁दां	528
▁नूतन	528
▁पद्ध	528
▁मार्गदर्शक	528
▁रघुनाथ	528
▁हलवा	528
▁०	528
कुम	527
तीश	527
पटी	527
▁उज्ज्वला	527
▁कत्	527
▁ट्वीटर	527
▁तुषार	527
▁रेडी	527
▁विघ्न	527
▁संजीवनी	527
▁अरा	526
▁उपे	526
▁ऑपरेट	526
▁चाहि	526
▁दामोदर	526
▁दीक्ष	526
▁नर्म	526
▁महानिरीक्षक	526
▁वृक्षारोपण	526
▁व्यंग	526
▁व्यवसा	526
▁सिंधी	526
ंजय	525
कोल	525
ब्रिक	525
वासा	525
वेसी	525
▁कंड	525
▁कदापि	525
▁कम्युनिकेशन	525
▁कॉपर	525
▁डीजे	525
▁सरप्रा	525
▁सिल्क	525
che	524
ंजे	524
तरे	524
पन्न	524
माण	524
मास्टर	524
लया	524
ियाना	524
▁चूल	524
▁भुज	524
▁रंगत	524
▁वंशज	524
▁विलीन	524
▁साक्षात	524
urren	523
क्स्ट	523
तमी	523
निम	523
िएशन	523
▁कूप	523
▁निपुण	523
▁परोप	523
▁प्रमा	523
▁फस	523
▁रामबाण	523
▁२९	523
ंधा	522
शियों	522
ानिस्तान	522
ार्स	522
▁अमा	522
▁इलेक्ट्रिकल	522
▁पद्	522
▁फला	522
▁याने	522
▁सिलिकॉन	522
▁सुरु	522
क्सिको	521
पूजा	521
प्पो	521
▁पर्यावरणीय	521
▁पारे	521
▁शिवकुमार	521
तास	520
लकु	520
िसर	520
▁जागरुक	520
▁देवनागरी	520
▁निपटारा	520
▁पश्	520
▁सामी	520
स्टल	519
▁webs	519
▁अघ	519
▁अध्य	519
▁क्लेम	519
▁गुरुजी	519
▁दृ	519
▁निव	519
▁रामदास	519
▁विहि	519
▁समागम	519
▁सेम	519
mat	518
केश्वर	518
म्न	518
▁112	518
▁कनिष्ठ	518
▁नियोजित	518
▁प्रिं	518
▁वाच	518
▁सुब्रमण्यम	518
ंकित	517
कीपर	517
पायर	517
फ्त	517
मेशन	517
म्मत	517
लांट	517
▁अलका	517
▁ग्रीक	517
▁जुग	517
▁पद्मश्री	517
cri	516
तेला	516
द्योग	516
▁नगदी	516
▁शिवानी	516
▁इमान	515
▁टीस्पून	515
▁तुच्छ	515
une	514
गाव	514
र्निंग	514
▁अंतरंग	514
▁अकर	514
▁अरो	514
▁असद	514
▁इब्रा	514
▁ऊन	514
▁बंज	514
▁मनमु	514
▁विकिपीडिया	514
ories	513
तिहासिक	513
दशमी	513
नेशनल	513
विद्यालय	513
शन्स	513
ेंद	513
ोटा	513
▁कटक	513
▁गाँ	513
▁फेड	513
▁मुठ	513
▁शल्य	513
▁शुभम	513
गिल	512
ड्ड	512
त्सा	512
प्रचार	512
बीटी	512
बूत	512
▁tit	512
▁उपनगरीय	512
▁दिवाकर	512
▁द्वंद	512
▁पब्	512
▁बिज़	512
▁रक्ष	512
च्य	511
पीएससी	511
फार्म	511
म्बई	511
सचिव	511
िंक	511
▁अरि	511
▁असभ्य	511
▁थें	511
▁वैधानिक	511
गारी	510
▁उर्म	510
▁जानबूझ	510
▁डिपॉ	510
▁रणजी	510
▁रामकृष्ण	510
कोड	509
दहा	509
दाब	509
रिश	509
▁अनी	509
▁गिटार	509
▁झी	509
▁प्रज्वल	509
▁प्रतिद्व	509
▁मेकर	509
▁विभागा	509
▁सार्वभौ	509
ईडी	508
पट्टी	508
रह	508
विचार	508
स्ट्रो	508
ॉनिक	508
▁flipkart	508
▁कार्यक्षमता	508
▁डिप	508
▁निरूप	508
▁फरा	508
▁मेनन	508
▁रिपब्लिकन	508
▁शिष्ट	508
▁साधू	508
▁सुंद	508
ster	507
श्या	507
स्वत	507
▁किरा	507
▁कुंब	507
▁खार	507
▁ड्रे	507
▁भाज	507
▁रूपा	507
▁विराज	507
जाई	506
बोल	506
िस्त	506
ॉर्डन	506
▁mic	506
▁इंटरेस्ट	506
▁उष्ण	506
▁जन्मी	506
▁टेलि	506
▁तत्वा	506
▁पार्लर	506
▁पीडित	506
▁पुरातन	506
▁शकु	506
▁शैलेंद्र	506
give	505
ंक्स	505
चिंत	505
र्डर	505
्यात	505
▁कराय	505
▁दांपत्य	505
▁धरम	505
▁नवर	505
▁बागड	505
▁वर्गी	505
कारण	504
िवुड	504
▁चित्रकला	504
▁दुः	504
▁पर्यवेक्षक	504
▁प्रश्नो	504
बर्न	503
स्मा	503
▁नका	503
▁पीटी	503
षद	502
ष्टीकरण	502
हता	502
▁खलनायक	502
▁ज्येष्ठ	502
▁ढूं	502
▁परिप	502
▁पैगंबर	502
▁साधे	502
क्री	501
त्तम	501
वाचक	501
स्टो	501
▁अर्ज	501
▁इंडी	501
▁सफारी	501
हरण	500
ेत्र	500
▁अघोषित	500
▁बटर	500
▁मार्क्सवादी	500
ंगाबाद	499
दस्त	499
देशक	499
महि	499
▁कंपन	499
▁कावेरी	499
▁जीएस	499
▁झाला	499
▁पदार्पण	499
▁वॉट	499
▁शकील	499
▁श्रद्ध	499
ंगाल	498
आत	498
एमएल	498
टकी	498
शीर	498
▁आवेश	498
▁गरज	498
▁जलाशय	498
▁दाम्पत्य	498
▁दारा	498
▁ब्रॉ	498
ंगार	497
संक	497
▁आर्या	497
▁पीए	497
▁वन्यजीव	497
▁संचित	497
ताव	496
हिंद	496
▁गोंड	496
▁पदयात्रा	496
▁लर्निंग	496
▁शाहज	496
नानुसार	495
रेस्ट	495
▁गुन	495
▁छत्तीस	495
▁प्रफुल्ल	495
▁सक्	495
▁समीक्ष	495
कण	494
क्रि	494
सेंजर	494
▁अबु	494
▁आत्मसात	494
▁ऊब	494
कली	493
ांचे	493
▁एमजी	493
▁रक्	493
▁आले	492
▁घृ	492
▁रुच	492
▁विश्वासघात	492
▁सिंघल	492
ंदाजी	491
केंद्र	491
िकारी	491
ुख	491
▁अजिंक्य	491
▁उलटी	491
▁कोप	491
▁डार्	491
▁निरंजन	491
▁न्याया	491
▁बृह	491
▁शिल्	491
▁हेर	491
क्कर	490
सेफ	490
▁अख्	490
▁अलंकार	490
▁नेचर	490
▁पुनर्जन्म	490
▁फेडरर	490
▁सिडनी	490
नेस्को	489
मुला	489
▁अभिर	489
▁ईश	489
▁गोंद	489
▁बांद्रा	489
▁बास	489
▁हाला	489
खो	488
धारे	488
▁एन्जॉय	488
▁देत	488
▁मुश्	488
भूम	487
वॉ	487
स्टाइल	487
▁पाटेकर	487
▁सानि	487
ांजलि	486
ोजित	486
ोद	486
▁क्लिनिक	486
▁दुर्गम	486
▁हजारो	486
चेन	485
हत्या	485
▁down	485
▁goo	485
▁इंद्रा	485
▁एमबीबीएस	485
▁कुकर	485
▁जनार्दन	485
▁टीएमसी	485
▁दिनकर	485
▁निजा	485
▁अपशब्द	484
▁क्लिंटन	484
▁सरस	484
▁सॉफ्टवे	484
▁हस	484
द्री	483
पद्म	483
▁जां	483
▁जिगर	483
▁जीन्स	483
▁तांड	483
▁रेस्ट	483
▁सटा	483
▁स्वरा	483
▁१९६	483
गरण	482
मिड	482
लक्ष्मी	482
लीम	482
▁कॉमे	482
▁चरित	482
▁मिडिया	482
▁मोशन	482
▁रें	482
▁स्लॉट	482
चालक	481
र्गी	481
▁धुरी	481
▁पेपर्स	481
▁मारिया	481
▁वैर	481
माते	480
म्या	480
वेदनशील	480
ेतर	480
▁आशु	480
▁खगोल	480
▁नेहवाल	480
▁साद	480
▁स्थूल	480
घरों	479
तिन	479
दला	479
िनेशन	479
▁फेस्ट	479
▁लोअर	479
▁वनवास	479
ull	478
ारो	478
▁reci	478
▁छिंद	478
▁फेरी	478
▁मिक्	478
▁स्कॉ	478
▁इम्तिया	477
▁प्रशंस	477
च्ची	476
रेल	476
▁अभिजीत	476
▁टाईम	476
▁धनंजय	476
▁फडणवीस	476
▁मोर्च	476
▁वुड	476
▁सात्विक	476
नाइ	475
वेष	475
▁अधिकाधिक	475
▁आका	475
▁इम्प	475
▁१९८	475
एव	474
बारा	474
वर्ल्ड	474
स्के	474
▁कोक	474
▁सौम्य	474
जमेंट	473
तेश्वर	473
▁क्षितिज	473
▁परिपत्र	473
ंके	472
▁खंडित	472
▁रोप	472
गीय	471
तिकार	471
▁चेत	471
▁डेरे	471
▁प्रशिक्षक	471
▁फित	471
▁बेहो	471
▁साहिल	471
▁सिस्ट	471
गंधा	470
ुरा	470
▁mas	470
▁उपद्रव	470
▁एकर	470
▁ओत	470
▁कारखान	470
वाक	469
िख	469
▁अवनी	469
▁चटका	469
▁माणिक	469
▁विस्म	469
▁सखी	469
जेड	468
मीत	468
▁इंडस्ट्र	468
▁दोप	468
▁३४	468
ध्व	467
▁तुर्क	467
▁मैदा	467
▁हनु	467
,11	466
▁null	466
▁आंध्रप्रदेश	466
▁केमिस्ट्री	466
▁जॉनी	466
▁बोरी	466
▁वांग	466
▁सिंधू	466
▁हाहा	466
प्रताप	465
मूत्र	465
▁माउ	465
alt	464
ंकन	464
केज	464
बंधन	464
▁आध्या	464
▁गुरूजी	464
▁ट्व	464
▁पला	464
▁पुनराव	464
▁प्रतिस्पर्	464
▁युन	464
▁हिंग	464
कंठ	463
दनी	463
नेटिक	463
▁आषा	463
▁दुरू	463
▁पून	463
▁सपाट	463
▁साहि	463
▁स्तब्ध	463
आरए	462
प्लिकेशन	462
▁त्रे	462
▁भूक	462
▁शूर	462
▁हज़	462
▁अध्याप	461
▁प्रच	461
▁मृग	461
▁लिट	461
▁स्टीफन	461
ञ	460
फ्तार	460
मद	460
विष	460
शिम	460
स्पद	460
▁एक्सप	460
▁शब्	460
▁सार्थ	460
िटेशन	459
▁मर्स	459
▁कार्यान्वित	458
▁प्रतिद्वंद	458
▁राशी	458
▁वनस्प	458
▁विज्ञ	458
▁व्ह	458
ंत्रिक	457
▁अस्पष्ट	457
▁कदा	457
▁दुष्परिणाम	457
▁पिस	457
▁मुनी	457
लिसी	456
▁क्रांत	456
▁मॉस्को	456
▁विट	456
▁विद्यापीठ	456
▁हस्ता	456
तली	455
फोड़	455
मानस	455
माले	455
मिली	455
रता	455
ोको	455
▁कुलकर्णी	455
▁ड्रेसिंग	455
▁वज्र	455
▁सांके	455
चाही	454
ोबार	454
▁बीट	454
▁मनमो	454
▁मोहिनी	454
▁विनो	454
▁सीआर	454
अर्स	453
य्य	453
ात्म	453
ॅप	453
▁अधिसू	453
▁कोना	453
▁क्रियान्व	453
▁क्ले	453
▁मानसी	453
▁व्हे	453
▁सहभागी	453
▁स्ल	453
जारी	452
प्रेशन	452
ोचित	452
▁अंगी	452
▁अनुराधा	452
▁अल्ला	452
▁उलटा	452
▁कव	452
▁जेने	452
▁नीट	452
▁बराम	452
ंद्रा	451
ल्लर	451
ोटो	451
▁इस्मा	451
▁कोलंब	451
▁ट्री	451
▁यक्ष	451
▁राहू	451
▁वर्षी	451
▁शार्	451
ध्द	450
िओ	450
ृह	450
▁अले	450
▁आतुर	450
▁ओप	450
▁मल्लिक	450
▁स्टु	450
▁हास्यास्पद	450
cation	449
च्छे	449
वाडी	449
▁अवयव	449
▁नॉर्मल	449
▁मेर	449
▁सद्गुरु	449
ग्रंथ	448
ॅल	448
ोय	448
▁अनिरुद्ध	448
▁तनु	448
▁दुल्ह	448
▁नायब	448
▁प्रणय	448
▁सीरिज	448
काली	447
घल	447
शनी	447
▁गायकी	447
▁ज्वेलरी	447
▁ड्रम	447
▁ढूँ	447
▁भूखंड	447
▁मने	447
▁राही	447
▁वेदी	447
▁फिरते	446
▁मुल्ला	446
▁लची	446
▁सुशो	446
▁सेंचुरी	446
कुमारी	445
▁कमिशन	445
▁नववर्ष	445
▁पर्य	445
▁प्रतिभाग	445
▁रेसिंग	445
▁विवेचन	445
स्से	444
ॉइड	444
ौफ	444
▁इण्ड	444
▁लंकेश	444
▁सिल्	444
जली	443
दह	443
िकरण	443
्होने	443
▁आवि	443
▁कुलभूषण	443
▁साबु	443
▁स्टेटमेंट	443
तीन	442
▁मुज	442
▁रिपब्लिक	442
▁लिबर	442
▁वट	442
ंधे	441
व्र	441
स्ट्रा	441
हेर	441
िप्त	441
▁आनंदी	441
▁कपाट	441
▁भात	441
▁हुक	441
वित्र	440
▁क़ान	440
▁क्रेन	440
▁ब्लेड	440
▁वर्कशॉप	440
▁सत्यता	440
▁हिरो	440
बिक	439
लीफ	439
ित्स	439
ॅक	439
▁mod	439
▁कोरी	439
▁त्रिकोण	439
▁नाल	439
▁भद्र	439
▁सूर्	439
नियुक्त	438
फ्रेंस	438
ूने	438
▁नामांकित	438
▁पाठ्य	438
▁मॉडर्न	438
▁मोटरसाइ	438
▁रमण	438
alth	437
ग्वे	437
थित	437
लाश	437
▁विघटन	437
तं	436
▁गुला	436
▁पुर्न	436
▁याजक	436
▁लाईट	436
▁वाइन	436
▁सत्कार	436
▁सरब	436
▁सुप्र	436
▁स्टाइ	436
▁१९४	436
एएस	435
▁इंडो	435
▁उदघाटन	435
▁शटर	435
▁शाब्दिक	435
▁हला	435
ोंड	434
▁अभिन	434
▁आशिया	434
▁कॉरि	434
▁पल्लवी	434
▁पोती	434
▁बहुराष्ट्रीय	434
त्विक	433
बूझ	433
षिक	433
▁अनुवादित	433
▁आण	433
▁आत	433
▁बहल	433
▁महाक	433
▁माग	433
▁माही	433
▁स्मार	433
अंदाज	432
ग्रो	432
वेषण	432
सेक	432
िष्ठ	432
०००	432
▁इंजिनियर	432
▁कोले	432
▁दिग	432
▁निंद	432
▁नैसर्गिक	432
▁मालिका	432
▁रॉड	432
▁लम्	432
ँट	431
इनल	431
त्मा	431
वरण	431
▁आर्किटे	431
▁धर्मांतर	431
▁पत्रा	431
▁पाण्डे	431
▁रेकॉर्ड	431
▁स्ला	431
गान	430
दूर	430
वई	430
शिल्प	430
▁ट्रान्स	430
▁तोर	430
▁भूजल	430
▁स्वावल	430
धो	429
ृत्य	429
▁पल्ल	429
▁पल्ला	429
▁मेंढ	429
झो	428
मिर	428
्रेसी	428
▁उत्कर्ष	428
▁उस्मान	428
▁प्रादेशिक	428
▁बंड	428
▁बोरा	428
▁मोनो	428
▁संयोज	428
▁हफ्	428
पेस्ट	427
भो	427
▁इन्सु	427
▁कें	427
▁पिकनिक	427
▁प्रत्यारोप	427
▁प्रॉडक्ट	427
▁बुक्स	427
▁लडा	427
▁सहसा	427
▁हाऊस	427
enn	426
ंदाज	426
केच	425
ेटर	425
▁अस्वस्थ	425
▁तंद	425
▁नम्रता	425
▁पीक	425
▁बांधा	425
▁बॉक्सिंग	425
...”	424
कांग	424
न्तु	424
विजय	424
विता	424
स्क्र	424
ैव	424
▁low	424
▁क्रॉ	424
▁डोल	424
▁दाह	424
▁निगेट	424
▁वेबसाइट्स	424
▁सड	424
पाती	423
सिद्ध	423
ाजत	423
ार्ध	423
▁अमुक	423
▁जन्मदिवस	423
▁पेंड	423
▁मिताली	423
▁व्हि	423
चूर	422
▁उता	422
▁उत्साही	422
▁चॉ	422
▁तिजोरी	422
▁प्रशा	422
▁मथ	422
▁रंगी	422
वृक्ष	421
ोलन	421
▁polit	421
▁आध	421
▁उपमहा	421
▁काव	421
▁निश्	421
▁पोखर	421
▁रेह	421
▁हलका	421
ब्ज	420
मुल	420
ोडी	420
▁हसी	420
ंचित	419
▁जोको	419
▁महिने	419
वानगी	418
▁अमरी	418
▁कौश	418
▁खोप	418
अनु	417
गीता	417
▁पव	417
▁प्रमो	417
▁प्रायोगिक	417
▁विस	417
▁संन्या	417
▁सव	417
▁हान	417
बाने	416
विड	416
ास	416
▁अधिव	416
▁उदर	416
▁कंपा	416
▁नियमन	416
▁पदभार	416
▁बॅ	416
▁रोटरी	416
▁सश	416
▁स्टेट्स	416
स्तक	415
ांता	415
▁199	415
▁तालीम	415
▁पद्मा	415
▁फॉरवर्ड	415
▁मयूर	415
▁विदर्भ	415
▁सांड	415
मेश्वर	414
सिफिक	414
्युलर	414
▁उड़ी	414
▁धाव	414
धारित	413
रोड	413
ह्म	413
ेद	413
▁उच्चस्तरीय	413
▁मास्टर्स	413
▁संच	413
देशीय	412
नाशक	412
ित्या	412
्ञ	412
▁जर्	412
▁रत्ना	412
▁maharashtra	411
▁अनुकरण	411
▁डिस्ट	411
▁तृप्त	411
▁निर्भ	411
▁मूत	411
▁लक्ष्मीबाई	411
▁सार्व	411
पश्च	410
र्षण	410
ातून	410
▁जित	410
▁त्या	410
▁प्रतिलि	410
▁माहि	410
कक्ष	409
नार	409
फिश	409
▁आंस	409
▁इच्छ	409
▁कार्ल	409
▁जादा	409
▁पिंप	409
▁सॉस	409
सुख	408
▁अतिशय	408
▁अनभिज्ञ	408
▁निरर्थक	408
▁वृत्ता	408
बाय	407
संचार	407
्युन	407
▁कसे	407
▁जर्सी	407
▁बहुते	407
▁रिका	407
▁सूच	407
▁होई	407
asht	406
कप	406
गोल	406
न्य	406
▁अक्	406
▁क्षीण	406
▁सायना	406
कीला	405
ग्नेश	405
स्टर्स	405
▁grou	405
▁उपकार	405
▁उपखंड	405
▁गतिविध	405
▁ज्वलंत	405
▁धर्मी	405
▁बर्ड	405
▁यकृत	405
raph	404
नाय	404
▁que	404
▁कुष्ठ	404
▁दीना	404
▁नाईट	404
▁मेहनती	404
ips	403
प्ती	403
मग	403
ॉर्क	403
्ति	403
▁कत	403
▁त्	403
▁नों	403
▁मार्ट	403
▁विवे	403
तीस	402
नाला	402
शिर	402
▁ओटी	402
▁क्लोज	402
▁चुंबकीय	402
▁परवान	402
▁बहर	402
▁मेस	402
▁वैराग	402
▁सारंग	402
िजन	401
▁wor	401
▁इस्ती	401
▁कॉटन	401
▁खटा	401
▁चिकित्	401
▁मसूर	401
▁मिक्सर	401
▁वर्त	401
आरपी	400
दया	400
ल्पा	400
शाख	400
▁bus	400
▁आयुर्	400
▁कार्र	400
▁चं	400
▁जिज्ञा	400
▁प्रभ	400
▁प्रोजे	400
▁रिल	400
▁वॉर्नर	400
▁सारांश	400
▁१९५	400
ँकि	399
इनरी	399
▁खस	399
▁जेसीबी	399
▁डिक्	399
▁नयन	399
▁लादेन	399
tak	398
जाना	398
ेशन्स	398
▁produ	398
▁छपाई	398
▁दिस	398
एनए	397
पट्टा	397
लपुर	397
विवाह	397
ारस	397
▁lat	397
▁आतं	397
▁खुर्द	397
▁पालघर	397
▁फर्ना	397
▁मारक	397
▁संप्रे	397
abar	396
तोष	396
▁अाप	396
▁बांग	396
▁मृदु	396
▁स्कार्	396
कूट	395
क्टी	395
पक्षीय	395
▁कर्जा	395
▁किल	395
▁चर्चे	395
▁नवनिर्वाचित	395
▁पार्थ	395
▁रंजना	395
▁वाचा	395
▁वैयक्तिक	395
तरण	394
शेज	394
्रॉ	394
▁phot	394
▁अड्ड	394
▁पाइपलाइन	394
▁रेणुका	394
▁२०१७	394
ुमार	393
▁गुरे	393
▁गृ	393
▁पत्थ	393
▁पिल	393
▁सीएनजी	393
▁स्टिक	393
oli	392
नियर	392
▁एअर	392
▁निर्वास	392
▁पराग	392
▁प्रसू	392
▁श्रेण	392
ऊल	391
वेरी	391
▁अवधी	391
▁कश	391
▁धावा	391
▁पावडर	391
▁बिया	391
▁म्ह	391
▁समीक्षक	391
▁ः	390
▁अरुणा	390
▁विभा	390
▁सॉरी	390
▁३१	390
सुल	389
ीलैंड	389
▁कथानक	389
▁निजाम	389
▁प्रक्षे	389
▁स्थाय	389
▁हरण	389
उप	388
जन्म	388
वीस	388
▁असे	388
▁कवयित्री	388
▁नामो	388
▁पंखा	388
▁रिच	388
कद	387
द्धिक	387
नेश्वर	387
र्र	387
सिड	387
स्टेंट	387
▁इमो	387
▁कॉर्न	387
▁देशद्रोही	387
▁श्या	387
▁सेक्य	387
पीट	386
▁अभयारण्य	386
▁डच	386
irl	385
quo	385
निष्ठा	385
वण	385
▁अपरिहार्य	385
▁कंब	385
▁तथ	385
▁बाड़	385
▁शन	385
▁साक्षात्	385
▁सारण	385
▁निम	384
▁फेलो	384
▁रेशमी	384
अस	383
ियाबाद	383
्विक	383
▁अभ्य	383
▁उपास	383
▁ध्या	383
▁निराधार	383
▁निवार	383
▁मुख्या	383
▁मुद्	383
▁कॉन्स्टेबल	382
▁भंड	382
▁मेधा	382
▁मोन	382
▁सहस्त्र	382
▁३५	382
icket	381
प्पर	381
▁करुण	381
▁फोल	381
▁रोहि	381
▁वेटर	381
▁शेव	381
▁स्वीट	381
द्वारे	380
ियन्स	380
▁उरु	380
▁ताजी	380
▁दफन	380
▁देशव्यापी	380
▁निर्भी	380
▁वामन	380
▁६०	380
riend	379
वड	379
ोद्ध	379
▁ऑस्ट	379
▁ऑस्ट्रिया	379
▁चंडी	379
▁दिवा	379
▁प्रतियोग	379
▁बाजू	379
▁सजावटी	379
एमटी	378
तांत्रिक	378
निवास	378
▁अर्बन	378
▁अहिर	378
▁तवा	378
▁निल	378
▁बृ	378
▁स्टॉ	378
▁हाउ	378
न्म	377
▁अवै	377
▁इन्टर	377
▁क्लि	377
▁विटा	377
▁समित	377
...’	376
गता	376
घरा	376
टीक	376
पूर्णा	376
▁गड	376
▁दरबारी	376
पं	375
रंग	375
व्यव	375
▁इंग्ल	375
▁प्रार्थ	375
▁फां	375
▁रस्त	375
सत्य	374
सेव	374
ोग्लो	374
▁xhamster	374
▁ख्या	374
▁ज्योतिषा	374
▁डिजीटल	374
▁शुक	374
▁समन्व	374
लीव	373
▁stat	373
▁अलै	373
▁कॉम्प्लेक्स	373
▁गुहा	373
▁तालि	373
▁पब	373
गं	372
धीर	372
माण्ड	372
वर्षी	372
ोटी	372
्होंने	372
▁कार्यकर्	372
▁छटा	372
▁जिद्दी	372
▁ट्वी	372
▁पठार	372
▁प्रत्यारोपण	372
▁मनि	372
▁मूर्त	372
▁शाका	372
▁सुनंदा	372
फार	371
▁pune	371
▁उच	371
▁उत्स	371
▁घण	371
▁मंदा	371
▁सुज	371
र्ति	370
शक्ती	370
▁अपर्णा	370
▁ज्यू	370
▁डों	370
▁नितांत	370
▁बया	370
कित	369
क्ते	369
पाला	369
मुना	369
लोट	369
ाज्य	369
▁बंदोबस्त	369
▁मम	369
▁विस्	369
एडा	368
ब्रह्म	368
वरा	368
सौ	368
हण	368
▁अपूर्ण	368
▁आमरण	368
▁विका	368
एनबी	367
न्धी	367
पिक	367
▁गुरुत्वा	367
कीज	366
दक	366
धीक्षक	366
लाला	366
श्यक	366
▁jaipur	366
▁उलटे	366
▁ज्ञा	366
▁प्रतिकार	366
▁फलक	366
▁रिम	366
▁१९३	366
ंसे	365
शोर	365
स्पति	365
▁एप्र	365
▁डॉक्ट	365
▁बही	365
▁मराठ	365
▁शशिकला	365
▁शैलजा	365
खू	364
टोन	364
विश्व	364
▁उपमा	364
▁ग्राह	364
▁रिप	364
▁साक्ष	364
▁स्तोत्र	364
खले	363
च्छेद	363
वापर	363
▁edu	363
▁अशांत	363
▁इंस्टीट	363
▁कन्याकुमारी	363
▁ब्रि	363
▁राठ	363
▁लाव	363
▁संकुचित	363
▁सुरा	363
क्कल	362
देन	362
धानी	362
पाटी	362
श्न	362
िनेटर	362
ोभ	362
▁अपूर्व	362
▁टर	362
▁दात	362
▁पीसीबी	362
▁प्रीत	362
▁मंगला	362
▁मंत्रमुग्ध	362
▁वेशभूषा	362
पदी	361
पात्र	361
▁आंद	361
▁जाउ	361
▁दुप	361
▁भय्यू	361
र्जे	360
सरकार	360
▁गजर	360
▁बध	360
▁बधा	360
▁विंडीज	360
▁सहस्र	360
फ्रे	359
स्कृत	359
▁आंग	359
▁कमतर	359
▁कुटु	359
▁वातानुकूल	359
त्वा	358
वाची	358
▁उत्खनन	358
▁कारवाई	358
▁सिक्योर	358
▁हृ	358
काप	357
किरी	357
कृष्ट	357
रोग	357
विशेष	357
▁tim	357
▁दूरगामी	357
▁बैक्टी	357
टेनमेंट	356
डॉ	356
व्यवस्था	356
▁अती	356
▁केत	356
▁चिम	356
▁जगद	356
▁वक्	356
▁वना	356
▁श्रीम	356
▁संदे	356
▁सेविका	356
मृत	355
मोरी	355
▁अँ	355
▁आक्र	355
▁गणि	355
▁निच	355
▁बेरोज	355
▁स्वयंसेवी	355
ज्य	354
शॉप	354
▁खालि	354
▁तिरस्कार	354
▁देशवासी	354
▁शिलालेख	354
▁२०१४	354
लिंगा	353
वेरा	353
ोपा	353
ौड	353
▁कोषा	353
▁प्रका	353
▁मधे	353
ool	352
दै	352
लिड	352
ार्द	352
ुकी	352
ेंगा	352
▁राजाराम	352
▁३३	352
▁एकाग्र	351
▁गांजा	351
▁गोडसे	351
▁भूग	351
▁लिंगायत	351
▁लौकिक	351
▁विरोधाभास	351
▁सिन	351
▁हुकुम	351
य़	350
▁happ	350
▁अधिका	350
▁अन्यत्र	350
▁घुट	350
▁दृढ	350
▁निख	350
▁पराव	350
▁विरा	350
▁समाय	350
ateg	349
ग्रेस	349
विराम	349
▁खडी	349
▁गोदावरी	349
▁पांडव	349
▁प्रत	349
▁मॉर्निंग	349
▁रडार	349
▁श्रीधर	349
▁स्वयंभू	349
दं	348
▁एसीबी	348
▁ज्ञाने	348
▁सोप	348
▁४५	348
घाटी	347
त्तों	347
बीज	347
यला	347
▁इंटेल	347
▁उत्ते	347
▁गोलाकार	347
▁प्रस्तावना	347
▁फिश	347
▁श्रेयस	347
नाशी	346
विश्वास	346
▁अंजली	346
▁आवक	346
▁जबर	346
▁टप	346
▁पसार	346
▁बिला	346
▁हलकी	346
पीन	345
प्रदेश	345
▁आधि	345
▁दुस	345
▁लावा	345
▁सुजाता	345
▁स्थापत्य	345
ंबित	344
ंब्रिज	344
डका	344
▁अविस्मरणीय	344
▁चित्	344
▁दाब	344
▁परीक्षक	344
▁शृ	344
▁संवर्ग	344
▁इथ	343
▁स्मिता	343
कांक्षी	342
योदशी	342
▁अग्निशमन	342
▁कसाब	342
▁पंचनामा	342
▁रीत	342
▁रुई	342
▁लास	342
▁वस्त	342
▁३६	342
ograph	341
गला	341
ष्प	341
▁इजा	341
▁एकरूप	341
▁कंटे	341
▁गोम	341
▁रसो	341
▁व्यवस्थापक	341
▁संर	341
लेखन	340
ल्फी	340
▁अफजल	340
▁जट	340
▁डायब	340
▁नंदिनी	340
▁हिंड	340
कूल	339
▁जतन	339
▁पली	339
▁सूड	339
▁हत	339
निटरी	338
ुकूल	338
▁आईने	338
▁रां	338
▁सांता	338
▁स्नात	338
जर्स	337
प्रती	337
भावी	337
्रफ	337
▁ओक	337
▁कदाचित	337
▁थि	337
▁मित्रा	337
ठ्ठ	336
▁बुद्धिमत्ता	336
▁योज	336
▁लिन	336
▁शाहजहां	336
▁सबंध	336
कोप	335
टीय	335
रोप	335
लीच	335
जूर	334
ष्टमी	334
्यूरो	334
▁नोटा	334
▁पेच	334
▁रिंगटोन	334
▁विकि	334
याम	333
शिता	333
शिव	333
ेने	333
▁क्लस्टर	333
▁दुकाने	333
▁नितीश	333
▁पाच	333
ावरे	332
▁गोध	332
▁विशा	332
लित	331
वर्ण	331
्ट्री	331
▁अशो	331
▁खलि	331
▁टीके	331
▁वधू	331
▁विम	331
भारती	330
सर्ग	330
ौरन	330
▁इस्त्रा	330
▁कामे	330
▁चातु	330
▁ट्रेक	330
▁भट्टी	330
▁मांसाहारी	330
▁मिलिंद	330
▁योनी	330
▁रूपांतर	330
▁संबधित	330
▁सुविध	330
ंकिंग	329
▁आन्द	329
▁ट्विट	329
▁प्रार	329
▁मनुष	329
▁मांसपेश	329
▁मोबा	329
▁हृद	329
▁०००	329
अली	328
षे	328
स्थापना	328
▁अमली	328
▁कुरु	328
▁तहस	328
▁मेघा	328
तलब	327
पेक्ष	327
र्नर	327
▁ट्राय	326
▁त्रिको	326
▁माओ	326
▁संसा	326
खास	325
ज्जत	325
नौ	325
पंचा	325
िन्ह	325
▁गब्बर	325
job	324
तौर	324
दानंद	324
▁कड	324
▁खाज	324
▁वरा	324
▁विसर्ज	324
▁सोई	324
▁स्कुल	324
थिल	323
फाइनल	323
बट	323
्र्	323
▁bang	323
▁अहिल्या	323
▁सिलिंडर	323
▁सुरक्ष	323
दवार	322
दाल	322
हिष्णु	322
▁मत्	322
▁२०१०	322
adesh	321
tm	321
▁कना	321
▁प्रैक्ट	321
▁बगी	321
▁राईट	321
र्वाद	320
ारु	320
्रीकरण	320
▁कित	320
▁घरो	320
▁प्रज	320
मते	319
▁दंडा	319
▁मांसाहार	319
▁विषमता	319
▁संवि	319
च्चार	318
दस	318
▁अध्यात्मिक	318
▁गिट	318
▁नीरा	318
▁यहो	318
▁वं	318
▁२०११	318
झार	317
तात	317
▁अनुर	317
▁अशा	317
▁अशिक्षित	317
▁मोहि	317
▁साक्षर	317
▁हेल	317
▁५००	317
चार्या	316
चिन	316
पला	316
▁ऑब्	316
▁ढे	316
▁निश्च	316
▁परिमाण	316
▁पल्	316
चेस	315
लियन	315
स्ट्रेलिया	315
▁कृतज्ञता	315
▁घोट	315
▁नगण्य	315
▁नवे	315
▁स्टॉल	315
रिंग	314
िच	314
▁अमरावती	314
▁कमज़	314
▁गौण	314
▁बंधने	314
▁लों	314
भरा	313
▁कमि	313
▁क्वी	313
▁चुनि	313
▁राज्या	313
▁सर्टि	313
▁सर्वांगीण	313
ंय	312
▁चुर	312
▁नवोदित	312
▁पीठा	312
▁ब्रम्ह	312
▁वल्लभभाई	312
▁सर्वस्व	312
▁स्नेहा	312
मिस	311
रास	311
▁अमेरिक	311
▁इडली	311
▁कुतु	311
▁तुक	311
▁त्यो	311
▁निरी	311
▁८०	311
कौ	310
दाने	310
धर्मी	310
माही	310
मोल	310
राशि	310
ांती	310
्यावर	310
▁जब्	310
▁प्रोफे	310
▁बाईक	310
▁लाह	310
▁विक्रांत	310
▁स्वय	310
▁हड	310
मुख्य	309
▁भाले	309
▁सामा	309
झल	308
ॉफ्ट	308
्ठा	308
▁lok	308
▁प्रसं	308
▁मुखपृष्ठ	308
▁मुरलीधर	308
omi	307
कर्ष	307
ख्यात	307
मग्न	307
मिश्र	307
▁अब्दु	307
▁कार्ट	307
▁मोरे	307
पर्	306
स्पून	306
▁इमर	306
▁खड	306
▁भूभाग	306
▁यार्ड	306
▁३७	306
ember	305
दर्शिता	305
रक्षक	305
ोटे	305
▁उद्भव	305
▁द्रमुक	305
▁फर्	305
▁फिरा	305
▁बाजीराव	305
▁वासु	305
▁विभक्त	305
▁श्रीगण	305
▁होर्डिंग	305
बाकी	304
सवाल	304
ाजनक	304
ुल्य	304
ॉजी	304
ोलकर	304
▁अजा	304
▁बेंद्रे	304
▁सिक्युरिटी	304
mar	303
नाइटेड	303
नीर	303
▁छुट्ट	303
▁जेडी	303
▁शर्मिला	303
▁शिवाय	303
▁सुन्न	303
▁२०१६	303
उथ	302
गिन	302
प्रस	302
▁अण्	302
▁अव्य	302
▁अश्र	302
▁असिस्ट	302
▁गदा	302
▁पूँ	302
▁बेज	302
▁सब्ज	302
▁७०	302
फोट	301
ूर्ण	301
▁चक्का	301
▁पोटा	301
▁भेट	301
▁राष्ट	301
ोग्राम	300
▁इति	300
▁धान्य	300
▁फ्रीज	300
▁मनः	300
▁मृद	300
▁सेलिब्रेशन	300
कर्स	299
ण्या	299
▁उस्	299
▁टोप	299
▁महावि	299
▁विरोधाभा	299
▁सेटल	299
▁हस्तांतरित	299
▁२००	299
live	298
फूल	298
रलैंड	298
स्ट्रे	298
ुनी	298
ोर्	298
[...]
